#version: 0.2 - Trained by `huggingface/tokenizers`
t h
i n
a n
th e</w>
r e
t i
e r
c o
e n
a r
t o</w>
o u
in g</w>
i s</w>
t e
o n
o n</w>
a l
o r
o f</w>
an d</w>
e s</w>
a t</w>
o r</w>
v i
i n</w>
r o
i t
e r</w>
s t
e d</w>
c a
l y</w>
a c
n o
a s
d i
l e</w>
a t
e c
v e</w>
ti on</w>
l i
w h
th at</w>
h a
s i
th e
s e</w>
a l</w>
ar e</w>
i l
r u
f or</w>
l o
d e
s u
i t</w>
u n
no t</w>
s e
y o
yo u</w>
r i
m p
m a
l e
s t</w>
a s</w>
b e
t s</w>
te d</w>
c e</w>
s p
co n
l d</w>
m e</w>
e n</w>
b e</w>
h o
p ro
vi ru
a n</w>
u r
a b
n e
en t</w>
p o
er e</w>
c h
l a
m e
w it
ti on
s o
t r
wit h</w>
ha ve</w>
m i
b u
c h</w>
th is</w>
viru s</w>
e x
v er
ou r</w>
o p
in f
i f</w>
f i
t a
s o</w>
a d
p e
s a
ca n</w>
q u
tion s</w>
th er</w>
g h
w e
il l</w>
y our</w>
f ro
fro m</w>
ou ld</w>
v e
co r
c i
at e</w>
f e
s h
d o
m o
s es</w>
er s</w>
t h</w>
a g
bu t</w>
or e</w>
te r</w>
the y</w>
p re
a p
ou t</w>
1 9</w>
w ill</w>
h e
s s</w>
it y</w>
p er
t o
on e</w>
a y</w>
al ly</w>
c e
b y</w>
inf ec
pe op
peop le</w>
k e</w>
g e
m ent</w>
th ere</w>
w or
g o
d s</w>
co vi
covi d</w>
l u
cor on
wh i
k e
m m
d u
coron a
d o</w>
t er
an y</w>
i r
al l</w>
a tion</w>
re n
ca l</w>
v er</w>
2 0
u se</w>
wh o</w>
in e</w>
en ts</w>
l l</w>
b o
g h</w>
s si
o ther</w>
w ould</w>
m ore</w>
s ti
re a
f ac
i r</w>
c u
gh t</w>
p a
ti ve</w>
m s</w>
d ing</w>
su r
p u
g i
m u
p ar
corona virus</w>
w e</w>
ha s</w>
t ing</w>
ou n
i d</w>
r a
m b
d e</w>
y s</w>
ab le</w>
a r</w>
co u
he al
h i
en ce</w>
so me</w>
s ed</w>
whi ch</w>
g en
co mp
the ir</w>
a f
s c
s y
d er</w>
con t
e v
as e</w>
m on
w as</w>
in g
al so</w>
g u
o d</w>
co un
re d</w>
d a
w i
k s</w>
w n</w>
g e</w>
heal th</w>
n o</w>
in c
co mm
ma y</w>
e s
en ti
p l
k ing</w>
ab out</w>
an s
an t</w>
te s</w>
p or
sp ec
tr a
th an</w>
an ce</w>
sh ould</w>
h t
ar s</w>
ti me</w>
ac t</w>
b le</w>
ou gh</w>
o l
an i
m in
be en</w>
al s</w>
o f
th o
t y</w>
ou t
ge t</w>
t ly</w>
f or
i mp
y e
u s</w>
ar y</w>
no w</w>
ri s
t u
st s</w>
ti c
ur e</w>
wh at</w>
d ed</w>
ca use</w>
re sp
wh en</w>
ver y</w>
2 0</w>
l l
ho w</w>
c an
me di
w a
di se
j u
s er
ou r
as t</w>
n u
di f
c es</w>
re s</w>
c k</w>
0 0</w>
ou s</w>
f a
f u
viru ses</w>
m ar
e f
u p</w>
li ke</w>
f ec
or y</w>
mo st</w>
d er
mp to
per s
ve l</w>
cou ld</w>
fe ren
on ly</w>
oun d</w>
g r
t ri
la tion</w>
a v
l in
m es</w>
s te
do es</w>
d ay</w>
c ur
m any</w>
re c
it s</w>
spec i
st u
mb er</w>
infec ted</w>
ne w</w>
lo w
s ing</w>
t e</w>
ca ses</w>
t p</w>
ht tp</w>
the n</w>
the se</w>
p p
t en
an s</w>
f in
st a
h u
b li
e l
pro b
ch in
d ence</w>
the m</w>
al i
p i
mi c</w>
s en
co v</w>
tho se</w>
rea d</w>
dise ase</w>
su ch</w>
tr ans
fi r
so me
ar i
ti es</w>
le ss</w>
tion al</w>
p ri
af ter</w>
be t
te st</w>
on g</w>
tr y</w>
sy mpto
n a
ne ed</w>
li ke
l es</w>
s it
g a
un i
pro te
y ing</w>
lo w</w>
be cause</w>
ag e</w>
pu bli
in ter
po ssi
w ere</w>
re as
ev en</w>
e vi
w ay</w>
da ys</w>
ris k</w>
s ars</w>
th ing</w>
qu i
se l
m er
st ri
inc lu
ex p
wh ere</w>
mp le</w>
sa id</w>
or t
st an
p h
d y</w>
evi dence</w>
c lo
ing s</w>
sympto ms</w>
w w
sp read</w>
b rea
chin a</w>
f ore</w>
ww w</w>
m il
h an
s in
re ad
ju st</w>
l ar
st ing</w>
c are</w>
infec tion</w>
20 20</w>
b as
m as
ho me</w>
ag a
pers on</w>
c er
d at
du c
like ly</w>
g n
or s</w>
dif feren
pa ti
ver n
nu mber</w>
ar d</w>
f un
ma ke</w>
mi ght</w>
a u
p s</w>
di s
t re
ti c</w>
go vern
wi th
tra vel</w>
b i
ex a
c y</w>
i s
m ents</w>
il ity</w>
ci al</w>
wor k</w>
ca se</w>
v ing</w>
or i
ssi on</w>
sti ll</w>
a d</w>
t w
d ec
p r
w s</w>
l ine</w>
whi le</w>
gen er
ap pro
a ir
ca tion</w>
m en
be ing</w>
b ac
d ro
inf or
in to</w>
de mic</w>
ma tion</w>
ho we
howe ver</w>
c le
ap p
f o
ef fec
se e</w>
ac h</w>
m y</w>
ha d</w>
ch an
pro vi
sur fac
mu ch</w>
cur ren
cont act</w>
l t</w>
u sed</w>
co m</w>
ma n</w>
at ory</w>
on s</w>
dat a</w>
possi ble</w>
v es</w>
v ed</w>
be fore</w>
c d
st o
p e</w>
st r
sur e</w>
es s
ne e
t ur
vi r
tw o</w>
il l
pre v
v ac
at ing</w>
e mp
p en
prob ab
te ly</w>
co me</w>
re por
sel f</w>
ac ti
k no
cd c</w>
po si
resp ir
f li
st ay</w>
an ti
resp on
g o</w>
i d
w as
we e
pati ents</w>
o ver</w>
ti mes</w>
po in
pl ac
publi c</w>
p an
sp it
per i
fir st</w>
f l
h e</w>
infor mation</w>
co ur
qu es
we ll</w>
ce p
g er</w>
in di
prote c
o th
si ck</w>
se e
he l
differen t</w>
l ong</w>
th r
vac c
o b
ke t</w>
s ted</w>
ch il
s ho
re la
ta ke</w>
me as
sa me</w>
respir atory</w>
a il
d ur
d ent</w>
mi ssion</w>
we en</w>
s ec
tri es</w>
bet ween</w>
govern ment</w>
i mm
t ru
e t</w>
n ing</w>
al l
do wn</w>
h ere</w>
k now</w>
enti al</w>
1 0</w>
c k
d re
t or</w>
th in
m ed</w>
u res</w>
st ate</w>
mo de
coun tries</w>
en d</w>
lo o
go od</w>
a re
un der
le ast</w>
ho spit
ne ss</w>
exa mple</w>
g re
con si
a ted</w>
r ate</w>
re gu
te sts</w>
con tr
medi cal</w>
stri c
ve lo
i l</w>
th ough</w>
p as
in s</w>
si on</w>
su b
bas ed</w>
dur ing</w>
m an
u ation</w>
en g
te sting</w>
or t</w>
coun try</w>
comm on</w>
out brea
m p</w>
re su
wh e
c en
ad vi
w er</w>
th s</w>
po pu
ta in</w>
go ing</w>
imp ort
han ds</w>
i a</w>
av ail
thr ough</w>
p le
la r</w>
u sing</w>
ec t</w>
aga in
e mer
bo dy</w>
again st</w>
e co
de velo
po li
emp lo
t y
t ure</w>
thin k</w>
0 00</w>
te n</w>
20 19</w>
0 3</w>
ar ound</w>
de pen
f ol
speci fi
di rec
r an
t ou
re stric
sa y</w>
e t
h ou
n i
t ting</w>
z e</w>
se ar
of fi
imm un
avail able</w>
c ar
eco no
d ents</w>
f re
m at
an t
c ally</w>
e y</w>
l s</w>
fa mi
te mp
di d</w>
un der</w>
trans mission</w>
k ed</w>
m al</w>
v al
hi gh</w>
sy ste
inclu ding</w>
au th
posi tive</w>
whe ther</w>
an other</w>
si de</w>
si gn
wor ld</w>
hi gh
av o
hu man</w>
sin ce</w>
pan demic</w>
can ce
probab ly</w>
oth ers</w>
g y</w>
i de
s h</w>
s a</w>
y es</w>
or der</w>
qu ar
g er
ac cor
pre s
ke e
mon ey</w>
mar ch</w>
some one</w>
sit uation</w>
meas ures</w>
s our
an y
st ar
app li
surfac es</w>
import ant</w>
v en</w>
re co
al ity</w>
x t</w>
pro ce
ta in
sa ys</w>
bo o
u e</w>
so cial</w>
bac k</w>
hel p</w>
d ate</w>
e pi
lo t</w>
fl u</w>
g ge
o ver
it e</w>
ac tu
wor k
t al</w>
en s</w>
pro duc
ch ing</w>
kno wn</w>
e ver
ch e
outbrea k</w>
con di
ad di
gh ts</w>
indi vi
ever y
a m</w>
par ti
indivi du
f ound</w>
v o
sta tes</w>
na tional</w>
popu lation</w>
u p
wh y</w>
su gge
ne ws</w>
fe w</w>
gr ou
read y</w>
b an
s m
re qui
st ru
with out</w>
accor ding</w>
l ts</w>
se ver
du e</w>
poin t</w>
ques tion</w>
i so
re comm
lo cal</w>
wa ter</w>
dro ple
g ro
mu st</w>
a tions</w>
e ar
f e</w>
n ec
re tur
ou th</w>
our s</w>
k es</w>
ti z
ar tic
me ans</w>
infec tions</w>
fac e</w>
ser vi
vir al</w>
fami ly</w>
avo id</w>
0 0
i c</w>
n a</w>
th ings</w>
al low
st ra
su p
corona viruses</w>
is su
c ed</w>
f ur
n or
wa ys</w>
c ing</w>
i m
re sear
curren t</w>
quar ant
kee p</w>
ri ght</w>
plac e</w>
h and</w>
en tly</w>
te sted</w>
al ready</w>
at ure</w>
lar ge</w>
emer gen
d ers</w>
e u
l on
m ing</w>
at h</w>
pa y
chil dre
childre n</w>
c s</w>
l ate</w>
o wn</w>
vi e
ch ec
sc ho
cont in
ye ar</w>
m l</w>
p er</w>
s s
t ers</w>
bo th</w>
stru c
c re
c la
on al</w>
ans wer</w>
e sti
h y
v ari
th re
ou s
ca u
gi ven</w>
comp le
gener al</w>
syste m</w>
g lo
m it
en z
inf lu
el ec
mode l</w>
c ro
c lin
e very</w>
h ours</w>
ti cal</w>
at s</w>
se v
ma in
ht ml</w>
respon se</w>
e ss</w>
n on</w>
t ors</w>
fi cu
sc ri
mas k</w>
sev ere</w>
s ity</w>
du ce</w>
mar ket</w>
prob le
mas ks</w>
cour se</w>
s ci
ha pp
lo gi
sh i
dif ficu
d es</w>
o c
o l</w>
v al</w>
as su
vacc ine</w>
restric tions</w>
sever al</w>
drople ts</w>
e l</w>
l and</w>
p ac
in i
ne u
cont ro
fu l</w>
dec i
chan ge</w>
1 4</w>
g es</w>
l ing</w>
s ing
si mil
cou gh</w>
tre at
develo p
1 00</w>
a p</w>
f ar</w>
x i
th er
en ough</w>
sp read
bu sin
to o</w>
20 0
ye t</w>
stu dents</w>
fli ght</w>
n y
r it
re ce
ac h
di c
di es</w>
min i
ll ed</w>
uni ver
ph y
with in</w>
emergen cy</w>
n ed</w>
in te
aga in</w>
was h</w>
wee ks</w>
sm all</w>
recomm en
artic le</w>
e as
re ally</w>
se con
ma in</w>
ex ten
sh e</w>
mb ers</w>
influ enz
n cov</w>
th ro
la w</w>
ve ly</w>
af fec
pl an
of f</w>
stu dy</w>
ess ential</w>
specifi c</w>
a ir</w>
o m</w>
p ur
w ar
as es</w>
protec t</w>
contr ac
b lo
l ast</w>
co mes</w>
or g
se qu
me an</w>
fun d</w>
bi o
work ers</w>
parti cu
clin i
influenz a</w>
g s</w>
r y</w>
ta tion</w>
pu t</w>
a m
d en
h ar
m so</w>
w ant</w>
in ve
ma tic</w>
ge tting</w>
par t</w>
of ten</w>
clo se</w>
ill ness</w>
peri od</w>
advi ce</w>
high er</w>
actu ally</w>
1 9
j o
t le</w>
st at
la ter</w>
lin es</w>
low er</w>
curren tly</w>
are a</w>
simil ar</w>
c lu
e ach</w>
m ort
n s</w>
de fin
ne ga
c ity</w>
in es</w>
sa mp
repor ted</w>
f t</w>
i ly</w>
st er
un ti
le ar
ye ars</w>
ser i
fin d</w>
was h
c l
d one</w>
l an
s is</w>
v en
si ve</w>
lo gy</w>
ap er</w>
ra ther</w>
heal th
emplo y
condi tions</w>
unti l</w>
f er</w>
st ance</w>
no se</w>
cou gh
quarant ine</w>
f ri
l ed</w>
o re
r na</w>
con fir
po t
so ci
so ap</w>
ll s</w>
ll ing</w>
acti vi
3 0</w>
ec ted</w>
inc reas
hu m
uni ted</w>
fli ghts</w>
eu ro
a tely</w>
c ho
e i
h er</w>
z ed</w>
le t</w>
ci tiz
fu ll</w>
bet ter</w>
fol low
et c</w>
nec ess
fur ther</w>
a way</w>
b r
b ility</w>
t a</w>
di stan
de ath</w>
su pp
be st</w>
con cer
sh ort</w>
coun t</w>
ani m
air line</w>
prev en
sup por
rece i
f il
s nee
v ol
co l
on t</w>
vi sa</w>
di stri
con ta
ab ility</w>
so lu
ex po
pa tho
fo od</w>
effec tive</w>
servi ces</w>
clini cal</w>
distri bu
1 5</w>
d ru
re ase</w>
ab o
sit e</w>
see ms</w>
auth ori
chec k</w>
treat ment</w>
1 2</w>
b a
c ha
g ed</w>
re si
un less</w>
le a
do ing</w>
ap pe
tra ve
surfac e</w>
appli cation</w>
phy si
org ani
stat us</w>
anim als</w>
r e</w>
u su
an ts</w>
re p
on ce</w>
se t</w>
la tions</w>
ex peri
ter m</w>
fac t</w>
provi de</w>
prev ent</w>
rela ted</w>
ty pe</w>
grou p</w>
resear ch</w>
ny times</w>
a mon
g in
m it</w>
p neu
as k</w>
li ve</w>
ve red</w>
ci r
pre dic
mon ths</w>
can not</w>
loo k</w>
hospit al</w>
resu lts</w>
immun e</w>
retur n</w>
glo b
contro l</w>
sing le</w>
inte re
distan cing</w>
d a</w>
i al</w>
in d</w>
al y</w>
ca tions</w>
ac tive</w>
enti fi
some thing</w>
mer i
lon ger</w>
vie w</w>
thre e</w>
hum ans</w>
b en
c all
e speci
j ect</w>
ti vely</w>
al y
ac tion</w>
de mi
de ter
ch ar
sti tu
for m</w>
pr acti
individu als</w>
ous ly</w>
especi ally</w>
a meri
h is</w>
h al
l it
p le</w>
u k</w>
it aly</w>
no te</w>
op er
fe ver</w>
sh ed</w>
gi ve</w>
mu l
nega tive</w>
b ro
c ri
f r
g n</w>
p ay</w>
te xt</w>
al e</w>
al though</w>
di ag
par t
han d
cer tain</w>
resu lt</w>
tou ching</w>
temp er
addi tional</w>
mort ality</w>
ei ther</w>
b ly</w>
c all</w>
f er
t ro
w ing</w>
in ten
re gi
ac tions</w>
su f
ho ld</w>
out side</w>
reas on</w>
sour ce</w>
abo ve</w>
glob al</w>
e se</w>
co ld</w>
ca t
sp o
dise ases</w>
fu l
clo sed</w>
cle ar</w>
app ly</w>
hou se</w>
every one</w>
ini ti
lea ve</w>
pneu mon
cir cu
m ate</w>
al k</w>
li on</w>
un ity</w>
ma de</w>
ex per
ce ss</w>
ir e</w>
gu id
rec ent</w>
lar ly</w>
effec t</w>
immun ity</w>
univer sity</w>
1 8</w>
de a
ex cep
ad u
ci es</w>
infec t</w>
infec ti
enti ally</w>
tru mp</w>
pas sen
1 1</w>
b or
e d
m ers</w>
m outh</w>
u te</w>
re duce</w>
de scri
ta il
gener ally</w>
wee k</w>
ide a</w>
star t</w>
am oun
diag no
f y</w>
g ing</w>
h ard</w>
j ec
p la
p aper</w>
s ha
in ste
re qu
re fund</w>
ha ving</w>
le g
tr an
ta king</w>
fe der
do c
medi c
feren ce</w>
ger many</w>
guid ance</w>
b in
k i
me mber</w>
consi der</w>
econo mic</w>
busin ess</w>
confir med</w>
amon g</w>
inste ad</w>
6 0</w>
d r</w>
g en</w>
y our
re le
st re
at ten
ma kes</w>
qu ite</w>
epi demic</w>
contin ue</w>
cla i
difficu lt</w>
blo od</w>
necess ary</w>
feder al</w>
c tion</w>
f ont</w>
k en</w>
n er</w>
in ation</w>
an aly
en ing</w>
al ways</w>
wh o
ha n</w>
ma j
sen se</w>
inclu de</w>
emplo ye
fre qu
pneumon ia</w>
g ra
s how</w>
u l
an ing</w>
on line</w>
no vel</w>
as se
de red</w>
be come</w>
ne xt</w>
ex i
hi v</w>
ol der</w>
allow ed</w>
scho ol</w>
samp les</w>
citiz ens</w>
authori ties</w>
i fi
co m
as y
di ed</w>
si t</w>
wor king</w>
sc re
inc rease</w>
mil d</w>
proble m</w>
pur po
follow ing</w>
ful ly</w>
infecti ous</w>
your self</w>
5 0</w>
b it</w>
g ers</w>
s on</w>
an n
ou ght</w>
te ch
as soci
pro fe
op en</w>
ta x</w>
pre si
sti c</w>
ani mal</w>
prote in</w>
cer tain
bac ter
sto p</w>
ben ef
lit tle</w>
1 3</w>
d ri
l ab
o s</w>
y le</w>
ar ing</w>
st yle</w>
li es</w>
li mi
si mp
sp e
sa fe
tic s</w>
stan d
fo re
sto ck</w>
are as</w>
contr act</w>
ear ly</w>
defin i
limi ted</w>
9 5</w>
g ar
u m</w>
z ing</w>
re ly</w>
ti s
al low</w>
lo ck
ma king</w>
ch i
go v</w>
comp ani
sy n
comm unity</w>
probab ility</w>
ob ser
chil d</w>
offi ci
pres ent</w>
sour ces</w>
dea ths</w>
amoun t</w>
1 0
b ed</w>
s ch
y oun
z ation</w>
re duc
un likely</w>
con su
ta tions</w>
to day</w>
imp o
nu mbers</w>
inter national</w>
men tal</w>
nee ds</w>
fol low</w>
hou se
cance lled</w>
any one</w>
sugge st</w>
spread ing</w>
affec ted</w>
usu ally</w>
asy mpto
ann oun
a mp</w>
o ld</w>
p t</w>
re al</w>
en try</w>
li st</w>
de n</w>
ta il</w>
do cu
ag en
ce lls</w>
tic ket</w>
pr in
nee ded</w>
man u
iso lation</w>
particu lar</w>
1 6</w>
g in</w>
k ore
t able</w>
in sur
re mo
er ci
co ho
al coho
or g</w>
ac k</w>
fi ci
ol s</w>
fu ture</w>
chin ese</w>
proce ss</w>
esti ma
cau ses</w>
suppor t</w>
b ats</w>
e qui
i li
p i</w>
r ap
s k
w u
in ed</w>
ar ri
or ity</w>
li e
li gi
li fe</w>
the re
we ar</w>
ag es</w>
comp li
stu dent</w>
pri ce</w>
stan ces</w>
appro pri
ques tions</w>
econo my</w>
sign ifi
requi red</w>
wash ing</w>
temper ature</w>
leg al</w>
insur ance</w>
1 4
8 0</w>
l ec
ou gh
li ght</w>
le ad
cor rec
reas ons</w>
qui ck
exp ect</w>
pati ent</w>
cle an</w>
depen dent</w>
mit ted</w>
logi cal</w>
cough ing</w>
mul ti
c a</w>
l ying</w>
m en</w>
s outh</w>
u es</w>
in come</w>
co ll
vi de
ru les</w>
ta ken</w>
sa fe</w>
do m</w>
pre vi
to tal</w>
sur vi
mat er
passen gers</w>
offici als</w>
asympto matic</w>
there fore</w>
quick ly</w>
2 5</w>
a w
b er
k ind</w>
l un
m al
on es</w>
st ory</w>
si mple</w>
ru n
de tail
se en</w>
po st</w>
mi d
ex erci
we b
pl an</w>
medi a</w>
ban k</w>
distribu tion</w>
manu fac
alcoho l</w>
wu han</w>
l eng
s sing</w>
t on</w>
in vol
te ll</w>
st and</w>
ac e
ac cess</w>
de te
ta x
sc en
exp ected</w>
hospit als</w>
shi p</w>
rep li
exper ts</w>
1 7</w>
2 4</w>
a red</w>
b an</w>
b order</w>
co ver</w>
ca ted</w>
ca used</w>
di t</w>
de li
su spec
con tain
ho od</w>
la ted</w>
sa mple</w>
bo dies</w>
pa ren
comp any</w>
ev ent</w>
comm uni
pers onal</w>
appro val</w>
tru e</w>
develo p</w>
offi cial</w>
nor mal</w>
im medi
patho gen
practi ce</w>
presi dent</w>
tis su
b it
b ill</w>
i es</w>
n on
n al</w>
u s
in de
co ver
vi a</w>
as i
at ur
si ze</w>
su sp
ad a</w>
par tic
eng en</w>
cen tr
ran ge</w>
fre e</w>
epi demi
issu e</w>
secon d</w>
physi cal</w>
medic ine</w>
compani es</w>
sch engen</w>
a k</w>
b ad</w>
c ris
s m</w>
ar gu
di stance</w>
de si
le vel</w>
fe et</w>
go t</w>
ssi ble</w>
can s</w>
gr ad
el se</w>
plac es</w>
val ue</w>
boo king</w>
individu al</w>
grou ps</w>
comple tely</w>
seri ous</w>
cl as
preven tion</w>
kore a</w>
appropri ate</w>
c ent</w>
e p
i se</w>
l y
s an
t ty</w>
co ming</w>
en ter</w>
li ving</w>
si ble</w>
ag re
pre tty</w>
gen e
for ce</w>
can ada</w>
stu dies</w>
ori gin
air lines</w>
see m</w>
sec ur
dru g</w>
simp ly</w>
house hold</w>
ili ties</w>
cris is</w>
c r
c al
i ma
m ine</w>
in stitu
en sure</w>
en vir
ar t</w>
it self</w>
ac ro
ne w
pre sen
ge ts</w>
sc ale</w>
govern ments</w>
protec tion</w>
under lying</w>
consi dered</w>
direc t</w>
call ed</w>
adu lts</w>
dete c
envir on
b ri
c ru
m stances</w>
s sed</w>
ar ly</w>
ca pac
ac count</w>
si ons</w>
de part
ho st</w>
ab ly</w>
la b</w>
tion ed</w>
sa tion</w>
to ld</w>
wi se</w>
repor ts</w>
id entifi
car ri
up da
activi ty</w>
hal f</w>
associ ated</w>
safe ty</w>
secur ity</w>
c at</w>
l at
p ing</w>
p es</w>
s che
t ar
u se
w th</w>
in ing</w>
re ser
en e</w>
or d
st af
su c
se as
se par
ex ac
fe el</w>
sh are</w>
ag ed</w>
imp le
reas on
air por
provi der</w>
sho ws</w>
gro wth</w>
esti mate</w>
pot ential</w>
jec ts</w>
a me
i ce</w>
j ap
m a</w>
o ds</w>
p d
p ment</w>
t alk</w>
w r
th ought</w>
re ach</w>
li mit</w>
bu y</w>
ad v
lu s</w>
wi de</w>
for m
imp act</w>
lin e
brea thing</w>
ori es</w>
chan ges</w>
under stand</w>
hospit ali
pay ment</w>
proble ms</w>
recei ve</w>
circu mstances</w>
frequ ently</w>
tech ni
aw are</w>
a i
e st</w>
e qu
f al
f at
f da</w>
m or
w o
re main</w>
ti ci
al most</w>
po ly</w>
tr ac
tr ying</w>
do g</w>
mo ve</w>
ke y</w>
fac tor</w>
pa id</w>
ing ly</w>
rec ently</w>
pp er</w>
ga ther
effec ts</w>
repor t</w>
loo king</w>
regu lar</w>
tou ch</w>
produc ts</w>
hy gi
health care</w>
lock down</w>
equi pment</w>
web site</w>
scen ari
d ra
k ill</w>
p ast</w>
th us</w>
an u
re gar
vi ty</w>
ca ts</w>
as tic</w>
de la
un employ
le ft</w>
be low</w>
pro per
ne ver</w>
mi gr
bu il
wor th</w>
imp ro
tic ally</w>
speci al</w>
possi bly</w>
sel ves</w>
fun ction</w>
appro ach</w>
appro ved</w>
oth er
mode ls</w>
ty pi
actu al</w>
scho ols</w>
difficu l
oc cu
health y</w>
activi ties</w>
supp ly</w>
intere st</w>
analy sis</w>
benef its</w>
multi ple</w>
vide o</w>
hygi ene</w>
b s</w>
h in
k ill
o w
p age</w>
s ani
w rit
re cep
de m
le ad</w>
con clu
ho l
me th
so l
ve ment</w>
ir s</w>
bo ard</w>
mu tations</w>
da ily</w>
bet a</w>
publi shed</w>
inclu des</w>
str ation</w>
vacc ines</w>
any thing</w>
requi re
im migr
lear ning</w>
euro pe</w>
agen cy</w>
exerci se</w>
manufac tu
ace 2</w>
tissu e</w>
epidemi o
b on
d ation</w>
e ligi
i te
n atur
r out
t ary</w>
u sa</w>
w al
en cour
be comes</w>
ho te
ne i
to ge
fac tors</w>
gen o
fa u
tri p</w>
bas i
fun ds</w>
tre e</w>
sec tion</w>
gre at</w>
poli cy</w>
depen ding</w>
boo k</w>
che mi
up date</w>
thro at</w>
sequ en
solu tion</w>
descri bed</w>
requ ire</w>
announ ced</w>
pathogen s</w>
capac ity</w>
staf f</w>
fal se</w>
toge ther</w>
1 5
8 8</w>
b at</w>
d ou
e ld</w>
f our</w>
j anu
l or
s ses</w>
w at
re r</w>
sp or
pro gra
me ly</w>
me mbers</w>
so on</w>
ex t
cor por
ag o</w>
pre ss</w>
pre gn
comp ared</w>
min is
tri als</w>
lin k</w>
trans mitted</w>
like li
exp la
stan ding</w>
ph a</w>
prev al
anti bodies</w>
poin ts</w>
sec re
sugge sts</w>
resear ch
sci enti
assu me</w>
develop ment</w>
eas y</w>
pot entially</w>
increas ed</w>
col le
who le</w>
fore i
estima tes</w>
meth od</w>
janu ary</w>
2 9
b al
b ru
c o</w>
c ant</w>
d r
d ge</w>
e u</w>
e ment</w>
f it</w>
f ine</w>
l en
w ard</w>
al pha</w>
vi sit
ru p
ru n</w>
de b
ri ghts</w>
ch ance</w>
tion ally</w>
mo lec
wor se</w>
coron a</w>
gr ap
mil lion</w>
addi tion</w>
main tain</w>
happ en</w>
pac k
deci sion</w>
develop ed</w>
spread s</w>
particu larly</w>
ster n</w>
lear n</w>
snee zing</w>
certain ly</w>
youn g</w>
fici ent</w>
partic les</w>
ord in
suc ce
exac tly</w>
other wise</w>
difficul ty</w>
dem and</w>
ite ms</w>
basi cally</w>
minis ter</w>
molec u
b ir
d ly</w>
e st
f lu
h un
s ort</w>
y or
in cu
re sources</w>
ti ves</w>
er o
co vered</w>
ro om</w>
ca p
ca te</w>
ac cep
ha ps</w>
sp i
sp ac
sp ort</w>
tr ad
ex tre
sh or
do or</w>
per haps</w>
ke ts</w>
rea ted</w>
mon th</w>
cur ve</w>
pri or</w>
possi bility</w>
tre at</w>
see k</w>
regu lations</w>
poli tical</w>
temp or
reco vered</w>
issu es</w>
sequ ence</w>
inve sti
jo b</w>
expo sure</w>
excep t</w>
immedi ately</w>
acro ss</w>
pd f</w>
yor k</w>
b le
d an
d on
e yes</w>
n er
o k</w>
r ing</w>
w an
w ed</w>
in struc
re ference</w>
vi sit</w>
no thing</w>
the m
il lion</w>
de mo
ri l</w>
ma il</w>
con nec
ad dre
ad mini
infec ting</w>
sti mu
cu l
ev ents</w>
gu ide
wa it</w>
fin an
ali a</w>
sen si
ari ly</w>
au str
cle aning</w>
provi ded</w>
anti body</w>
regu larly</w>
sub ject</w>
outbrea ks</w>
val ues</w>
produc tion</w>
servi ce</w>
cre ate</w>
cro w
busin es
exten sion</w>
conta min
expo sed</w>
experi ence</w>
employe es</w>
stand ard</w>
impo ssible</w>
likeli hood</w>
preval ence</w>
scienti sts</w>
5 0
9 9</w>
c y
c ra
d ry</w>
h er
j our
l as
p hi
u tes</w>
z es</w>
en ed</w>
st ly</w>
ac ts</w>
ac cur
ac ute</w>
as king</w>
di st
di spo
ec h
ru le</w>
ch r
qu ali
ap ril</w>
ce ment</w>
mu m</w>
par ty</w>
min utes</w>
tu res</w>
fa ir
pp ing</w>
exp en
men tioned</w>
str on
rela tive</w>
regu lation</w>
depen ds</w>
pay ments</w>
oc cur
recommen ds</w>
fil ed</w>
appe ar</w>
organi zation</w>
deter min
cri tical</w>
doc tor</w>
profe ssi
syn dro
signifi cant</w>
leng th</w>
depart ment</w>
gather ings</w>
recep tor</w>
them selves</w>
guide lines</w>
7 0</w>
9 0</w>
b ation</w>
f ra
n ature</w>
s ent</w>
s ore</w>
t un
v a
v ali
re st</w>
ti vity</w>
co mb
st op
at or</w>
pro duce</w>
ter ing</w>
par ts</w>
par ame
min d</w>
ef for
sta te
exp on
ph one</w>
men ted</w>
consi der
val id</w>
auth ority</w>
reco ver</w>
requi res</w>
iso late</w>
bro ad
initi al</w>
pla y</w>
clai m</w>
scre ening</w>
mater ial</w>
mal ari
detail s</w>
suspec ted</w>
sche du
wo men</w>
unemploy ment</w>
fair ly</w>
2 7</w>
a ver
a ero
e ts</w>
e ty</w>
f le
l a</w>
m ech
s ter</w>
v ant</w>
w ers</w>
th ir
er r
en ded</w>
vi s
no ti
at o
ec tion</w>
li mit
ma y
ch ed</w>
pe ts</w>
we aring</w>
fe bru
sh u
mo der
mm a</w>
ter ms</w>
ra tes</w>
hi m</w>
da ma
speci es</w>
pri me</w>
ga mma</w>
fo cu
anti bio
id enti
ran dom</w>
high ly</w>
cance l</w>
star ted</w>
ban ks</w>
stra te
inve st
ba thro
cat ching</w>
diagno sed</w>
exi sting</w>
purpo se</w>
obser ved</w>
lun g</w>
gene tic</w>
incu bation</w>
syndro me</w>
mech ani
febru ary</w>
2 8
2 2</w>
2 6</w>
4 0</w>
5 00</w>
f it
g t</w>
l ack</w>
n y</w>
t t
z o
in e
in tro
re spec
re publi
vi r</w>
ac ting</w>
as ed</w>
di ver
ec e</w>
lo ts</w>
de st
su mm
se ly</w>
con tain</w>
con ference</w>
la w
op tion</w>
fi g
ta ge</w>
we a
wor ds</w>
fac ilities</w>
cont ent</w>
ev al
ani a</w>
fa il
pers ons</w>
some times</w>
na tion
lar ger</w>
differen ce</w>
dis cu
bi g</w>
pr e</w>
pr ac
pas s</w>
direc tly</w>
direc tor</w>
allow s</w>
ss or</w>
vari ous</w>
elec tion</w>
sci entifi
ameri cans</w>
regi on</w>
maj or</w>
employe e</w>
bacter ial</w>
lie ve</w>
correc t</w>
run ning</w>
jap an</w>
sani tiz
manufactu rer</w>
busines ses</w>
e f</w>
f f
h our</w>
l d
l ating</w>
n one</w>
o se</w>
s w
s co
t an
v ation</w>
re view</w>
ti ble</w>
co de</w>
en ds</w>
it ing</w>
at ures</w>
con duc
ne t</w>
po se</w>
po ol
me et</w>
mi cro
ver s</w>
fi le</w>
qu o
mo ment</w>
ag ing</w>
pre pa
pre cau
go es</w>
20 0</w>
sti cs</w>
gi ving</w>
por tion</w>
gn i
protec tive</w>
sho wing</w>
cen ter</w>
mat ter</w>
syste ms</w>
every thing</w>
stra ins</w>
struc ture</w>
cre dit</w>
eas ily</w>
affec t</w>
euro pe
concer ns</w>
dru gs</w>
deter mine</w>
suf ficient</w>
cat ch</w>
bor ders</w>
rele vant</w>
purpo ses</w>
previ ous</w>
seas onal</w>
separ ate</w>
reason able</w>
typi cally</w>
nei gh
sequen ces</w>
secre tary</w>
stimu lus</w>
chr on
1 3
2 1</w>
b re
c ks</w>
p ed</w>
w alk</w>
in hi
re cor
re member</w>
co sts</w>
ar ds</w>
al ter
ca sh</w>
di e</w>
di sp
the ta</w>
lo an</w>
de sign
ab li
ch lor
bu s</w>
op tions</w>
op ini
fi ed</w>
fi ve</w>
fi eld</w>
mo vement</w>
he ad</w>
ter nal</w>
oun ds</w>
comp u
tu ally</w>
ju sti
sta ti
men tion</w>
chan ged</w>
kno w
rela tively</w>
meas ure</w>
star ting</w>
over all</w>
contin u
happ ens</w>
develop ing</w>
recommen ded</w>
war ds</w>
contrac ep
cough s</w>
patho gen</w>
defini tion</w>
inde x</w>
upda ted</w>
hospitali zed</w>
natur al</w>
est abli
austr alia</w>
malari a</w>
aver age</w>
aero so
2 6
a te
a ca
c t
e bo
e ating</w>
f ed</w>
f all</w>
g ation</w>
g ine</w>
n as
o bli
r at
s mo
t op
v enti
in t</w>
at temp
le ve
le av
ho pe</w>
ch es</w>
me an
ex clu
ta kes</w>
ad ded</w>
sa ying</w>
to p</w>
wor ks</w>
comp en
mon it
wi de
pl astic</w>
tra di
tu al</w>
ste p</w>
ste ps</w>
inter pre
dis rup
id ly</w>
ob vi
under standing</w>
econo mi
reco gni
vo te</w>
gro cer
issu ed</w>
assu mp
increas es</w>
recei ved</w>
ameri can</w>
profe ssor</w>
rap idly</w>
ough ly</w>
repli cation</w>
ima gine</w>
occu r</w>
ext ent</w>
research ers</w>
ble ach</w>
admini stration</w>
bathro om</w>
fig ure</w>
scientifi c</w>
leve ls</w>
3 1</w>
b ur
c li
d y
i ds</w>
th ous
vi ro
as ked</w>
li er</w>
the ory</w>
un able</w>
con text</w>
pro v
po st
po ly
tr act</w>
pe di
qu e</w>
we i
ve t</w>
mo ving</w>
mo stly</w>
he art</w>
per si
ter rit
gu ar
pl ans</w>
of fer</w>
out come</w>
gr ound</w>
sen d</w>
dis infect</w>
respon sible</w>
loo ks</w>
cen ters</w>
ple ase</w>
pres ence</w>
condi tion</w>
nor m
hy dro
assu ming</w>
ach es</w>
contrac ting</w>
lan gu
fer ing</w>
atten tion</w>
reduc ed</w>
survi ve</w>
us ato
environ ment</w>
fat ality</w>
require ments</w>
sensi tivity</w>
europe an</w>
usato day</w>
0 2</w>
2 8</w>
9 4</w>
b b
c er</w>
c ard</w>
d ar
d ings</w>
h it</w>
p at
p ris
s li
s cep
t ally</w>
u no
v ate</w>
z er
in dependent</w>
re ali
te g
te e</w>
st ant</w>
wh el
wh ite</w>
si mu
ri bu
ma tely</w>
le gi
pro gre
me tho
ex plan
ex ternal</w>
ci p
ce ll</w>
sur ve
cont ribu
por t
pi c
inter val</w>
inclu ded</w>
sign s</w>
pres sure</w>
over whel
recomm end</w>
stra in</w>
glo ves</w>
deci ded</w>
ach ing</w>
cho ice</w>
appe ars</w>
fr ance</w>
initi ally</w>
doc tors</w>
spe a
docu ment</w>
origin al</w>
imple mented</w>
airpor ts</w>
eligi ble</w>
dou b
forei gn</w>
addre ss</w>
finan cial</w>
may be</w>
alter na
opini on</w>
norm ally</w>
b illion</w>
c r</w>
d i</w>
e ver</w>
e mail</w>
f are</w>
h ong</w>
m ach
o d
s al
u ations</w>
w il
an cy</w>
re fu
ti s</w>
ti re
al one</w>
as si
at ors</w>
si ties</w>
de f
su s</w>
ri ed</w>
mp les</w>
be gin</w>
con ver
pro ject</w>
po sed</w>
ch all
me aning</w>
ad ap
we stern</w>
fe el
do w
per form
wor ld
du res</w>
comp ari
coun ts</w>
min ute</w>
for tun
fa il</w>
feren ces</w>
ste el</w>
ga tions</w>
bas is</w>
exa mples</w>
popu lations</w>
poli cies</w>
proce dures</w>
comple te</w>
recommen da
exten ded</w>
concer n</w>
resi dence</w>
hand ling</w>
tran sit</w>
lab or
cal cu
detec ted</w>
use ful</w>
adv an
dela y</w>
proper ly</w>
writ ten</w>
rout ine</w>
geno me</w>
pregn ant</w>
thir d</w>
strate gy</w>
intro duc
prac tic
precau tions</w>
ebo la</w>
perform ance</w>
1 000</w>
c tions</w>
e du
f lo
g rea
i con
k er</w>
k it</w>
k ong</w>
m er</w>
n d</w>
n ers</w>
o il</w>
p cr</w>
r hin
v ary</w>
x y
re public</w>
er gy</w>
co st</w>
te x
te le
li c
wh ate
de l
de ad
de mon
su scep
un known</w>
mp s</w>
le t
con stitu
ab solu
la ws</w>
so f
op ti
fi cation</w>
sh all</w>
pre su
per fec
wor ry</w>
ev en
der ly</w>
pers on
gr an
speci ali
sta in
hu mid
el derly</w>
sit uations</w>
bas ic</w>
pr o</w>
chan ces</w>
ill ing</w>
spit e</w>
ty pes</w>
specifi cally</w>
allow ing</w>
comple x</w>
elec tions</w>
sci ence</w>
univer sities</w>
wash ing
supp lies</w>
concer ned</w>
conta ins</w>
inten ded</w>
certain ty</w>
chi ef</w>
previ ously</w>
deli very</w>
centr al</w>
grad e</w>
identifi ed</w>
carri er</w>
wr ong</w>
scenari os</w>
colle ge</w>
deb t</w>
spac e</w>
contamin ated</w>
expon ential</w>
dama ge</w>
sanitiz er</w>
pool ed</w>
bre ath</w>
compen sation</w>
langu age</w>
recommenda tions</w>
whate ver</w>
humid ity</w>
2 3</w>
6 5</w>
7 2</w>
7 5</w>
a vir</w>
c u</w>
c i</w>
d on</w>
d ance</w>
d ary</w>
d ying</w>
f as
g g
g las
h s</w>
i or</w>
j a
l lation</w>
m ac
m rna</w>
o lu
s able</w>
s day</w>
s low
s low</w>
u ses</w>
w ent</w>
y n
y on
th an
in stance</w>
an ds</w>
re vie
er ing</w>
co pper</w>
en o
en tering</w>
ar r
on going</w>
vi able</w>
ca teg
at t
lo ss</w>
lo ans</w>
de al</w>
de spite</w>
un fortun
se n</w>
se tting</w>
be ha
be lieve</w>
be yon
ab s</w>
po wer</w>
mi x
mi ssi
bu l
ad ju
ci ties</w>
ag ent</w>
bo t
gi ves</w>
coun ter</w>
mas s</w>
tw are</w>
appro xi
dro p</w>
str ong</w>
ess entially</w>
thr ough
vacc in
imm uno
emer ging</w>
specifi city</w>
sear ch</w>
offi ce</w>
up on</w>
artic les</w>
scri p
200 9</w>
mini mum</w>
secon ds</w>
jo h
defin ed</w>
samp ling</w>
seri ously</w>
snee ze</w>
conta gi
resi dents</w>
experi en
oper ating</w>
stre ss</w>
defini tely</w>
sol ve</w>
corpor ate</w>
ordin ary</w>
extre mely</w>
dan ger
noti ce</w>
know le
world wide</w>
suscep tible</w>
sof tware</w>
washing ton</w>
beyon d</w>
0 pt</w>
1 8
a tes</w>
c b
e mb
f la
g ence</w>
k i</w>
m y
p ho
s or
s qu
s ms</w>
t al
t ren
v ul
w in
ti al</w>
en ding</w>
en for
ro o
ro w</w>
ro le</w>
ec h</w>
li min
si x</w>
si tes</w>
lo st</w>
de par
be gin
con fi
con ven
pro portion</w>
ab les</w>
la tes</w>
ex tr
ex tra
fi gu
gh tly</w>
sh ort
pre ssion</w>
20 03</w>
fac ility</w>
cu t</w>
mu t
ev olu
nu cle
mar kets</w>
sen ate</w>
inter net</w>
clo th</w>
au to
dis infection</w>
exa m</w>
cle arly</w>
provi des</w>
str y</w>
tur n</w>
kno ws</w>
posi tion</w>
hel p
vacc ination</w>
ob jects</w>
pas sed</w>
advi s
et a</w>
ni ce</w>
car ry</w>
fre e
cance llation</w>
ger man</w>
appli es</w>
ear lier</w>
xi v</w>
snee zes</w>
usu al</w>
hand le</w>
bacter ia</w>
docu ments</w>
prin ci
cover ing</w>
desi gn</w>
identifi cation</w>
techni cal</w>
regar ding</w>
buil d</w>
hote l</w>
wat ch</w>
spi ke</w>
ner able</w>
vali dation</w>
effor ts</w>
antibio tics</w>
dest ination</w>
pedi a</w>
explan ation</w>
spea king</w>
del ta</w>
beha vi
through out</w>
vul nerable</w>
begin ning</w>
confi dence</w>
0 4</w>
1 6
1 7
2 7
a men
d board</w>
h on
m o</w>
n or</w>
p in
p ap
s al</w>
y er</w>
th or
in si
in side</w>
re plac
on to</w>
or ders</w>
ca r</w>
ca re
ca me</w>
di a
li f
li ves</w>
ru b</w>
lo se</w>
de fau
ma ins</w>
be ta
pro f
so ld</w>
bu ying</w>
ex pi
ad d</w>
sa ve</w>
we st</w>
ap ore</w>
per cent</w>
to m</w>
to ok</w>
go al</w>
ir ing</w>
cou ple</w>
comp e
af fi
da tes</w>
comm er
enti re</w>
tra ining</w>
out comes</w>
imp or
can di
can tly</w>
pp ed</w>
hu ge</w>
trans fer</w>
prote ase</w>
prote ins</w>
clo sing</w>
is h</w>
ill s</w>
sho wn</w>
sho pping</w>
all er</w>
pas sport</w>
tou ched</w>
car dboard</w>
avo i
ide as</w>
appli ed</w>
boo ked</w>
sm aller</w>
sever ity</w>
iso lated</w>
fur ther
elec tr
main tain
happ ened</w>
deci de</w>
sing apore</w>
inve st</w>
fri ends</w>
cho ose</w>
predic t</w>
practi cal</w>
bin ding</w>
youn ger</w>
signifi cantly</w>
tax pay
communi cation</w>
inde ed</w>
bri ef
tar ge
reser vo
spor ts</w>
tempor ary</w>
wan ted</w>
dispo sable</w>
professi onal</w>
state ment</w>
prepa red</w>
neigh b
stati stics</w>
leav ing</w>
metho ds</w>
tex t
stain less</w>
unfortun ately</w>
danger ous</w>
further more</w>
2 9</w>
3 cl
d ness</w>
f r</w>
f ast</w>
g ger</w>
k o
l ac
m ary</w>
o qu
p m</w>
p lo
w on
th ma</w>
in ce</w>
in sec
re f
re over</w>
re mains</w>
ro ll</w>
st ent</w>
ca mp
ac id</w>
as thma</w>
li sts</w>
il s</w>
ru ssi
se ll</w>
se tt
le ss
be g
be tes</w>
con struc
ho me
ne ar</w>
la mb
la test</w>
me mb
mi s
mi o</w>
mi se</w>
ci vi
mo reover</w>
ap paren
per man
to il
ge st</w>
ter i
ir an</w>
bo w</w>
cu sto
ra i
ra di
hi story</w>
ev ed</w>
wi ki
enti rely</w>
ll ers</w>
sta ying</w>
el bow</w>
pri mar
differen ces</w>
fun ding</w>
dec la
dec rease</w>
bac k
effec tively</w>
pan demi
sub stan
sub sequ
man ag
fami lies</w>
drople t</w>
00 0
00 2</w>
cro ss</w>
main ly</w>
bio logy</w>
bio logical</w>
har der</w>
necess arily</w>
br ing</w>
solu tions</w>
cri tici
temper atures</w>
fer red</w>
who se</w>
maj ority</w>
benef it</w>
lab s</w>
estima ted</w>
compli cations</w>
invol ved</w>
contain ment</w>
susp ended</w>
new sp
cru ise</w>
airpor t</w>
adv ance</w>
scenari o</w>
wal king</w>
crow ded</w>
cra ft</w>
parame ters</w>
fle xi
eval u
conduc ted</w>
inhi bit
chlor oqu
contracep tion</w>
aeroso ls</w>
venti lat
alterna tive</w>
compari son</w>
even tually</w>
figu res</w>
dia betes</w>
3cl pro</w>
lamb da</w>
wiki pedia</w>
pandemi cs</w>
chloroqu ine</w>
3 0
3 2</w>
4 0
4 8</w>
5 9</w>
8 5
9 0
a in</w>
a di
b er</w>
b its</w>
c z
c reated</w>
d le</w>
d ity</w>
d ure</w>
e p</w>
g y
g or
g ent</w>
i i</w>
p y
s y</w>
s on
s wit
s we
t in
t ment</w>
t reated</w>
u pper</w>
w illing</w>
in er
re i
re li
re pe
re sta
re tire
al le
or al</w>
vi si
ca st</w>
ca using</w>
ac y</w>
no body</w>
as p
di r
di lu
ec u
the ore
se lling</w>
sp end</w>
con gre
con sequences</w>
tr affi
mi al</w>
ex emp
fe e</w>
fe ed
do i</w>
do gs</w>
ap poin
he ad
per for
wor st</w>
ren g
20 18</w>
ssi ve</w>
pa ying</w>
par ks</w>
par ties</w>
cont acts</w>
ev ac
ev ol
da y
for d</w>
fa v
pi ck</w>
pri ces</w>
ph ar
brea k</w>
tre ating</w>
gener ated</w>
air craft</w>
sto res</w>
str an
vir tual</w>
repor ting</w>
peri ods</w>
ob tain</w>
ni ght</w>
proce dure</w>
produc ed</w>
retur ning</w>
retur ns</w>
hy po
thre at</w>
logi st</w>
neu tr
treat ments</w>
rece ssion</w>
eas i
secon dary</w>
exten d</w>
mort g
fri vol
cha in</w>
fr action</w>
part ner</w>
diagno sis</w>
rele ase</w>
clai med</w>
com for
tech no
spe ak</w>
agen cies</w>
run ny</w>
paren ts</w>
kill ed</w>
immigr ation</w>
progra m</w>
pack age</w>
succe ss
bir th</w>
accur ate</w>
determin ed</w>
wea ther</w>
nas al</w>
monit or</w>
tradi tional</w>
grocer y</w>
assump tions</w>
thous ands</w>
guar an
zer o</w>
od ds</w>
grea ter</w>
icon external</w>
let ter</w>
knowle dge</w>
tal king</w>
defau lt</w>
commer cial</w>
resta ur
traffi c</w>
feed back</w>
frivol ous</w>
3 6</w>
8 5</w>
b la
c le</w>
c ali
d less</w>
e dit</w>
f ar
f ill</w>
f ying</w>
f all
g d
g le</w>
h 2
k y</w>
k a</w>
l ers</w>
o mial</w>
p v</w>
p are</w>
r ying</w>
s wa
w ar</w>
y ed</w>
z ations</w>
re main
re presen
co o
co n</w>
en cy</w>
te red</w>
al ong</w>
it ary</w>
it ali
st reng
ca tes</w>
ac qui
no ted</w>
di ly</w>
di sc
li sted</w>
li sh</w>
ha bit
be li
sp r
con stant</w>
ho pe
ur y</w>
ne y</w>
ne l</w>
ne arly</w>
po or</w>
inf lation</w>
fi sh</w>
pe t</w>
we d
fe red</w>
sh e
pre mi
pre ce
per form</w>
go ods</w>
covi d
ke ting</w>
ren t</w>
par k</w>
mon day</w>
gu ess</w>
comm only</w>
out line</w>
some what</w>
pri mary</w>
sympto matic</w>
inter actions</w>
sel ection</w>
exp an
fun d
dec lar
provi ding</w>
sto cks</w>
tur al</w>
anti viral</w>
thin king</w>
gre ece</w>
whe re
ant i</w>
reco very</w>
proce ssing</w>
addi tionally</w>
gro wing</w>
cau tion</w>
pur ch
employ er</w>
trave lling</w>
trave llers</w>
call ing</w>
char ac
char ge</w>
bro ad</w>
fr ont</w>
excep tions</w>
passen ger</w>
bin omial</w>
rele ased</w>
ul ty</w>
asse ss
com ment</w>
stand ards</w>
lead ing</w>
detail ed</w>
mid dle</w>
tax es</w>
suspec t</w>
communi ties</w>
susp end</w>
clas si
cr ats</w>
institu tions</w>
institu te</w>
upda tes</w>
hol ders</w>
bon ds</w>
grap hi
trad e</w>
jour n
quali fy</w>
stron g
consider ing</w>
schedu le</w>
identi fy</w>
mechani sm</w>
republi cans</w>
law ful</w>
recor d</w>
design ed</w>
legi s
labor atory</w>
rhin o
absolu tely</w>
bot tom</w>
contagi ous</w>
short ness</w>
beta coronaviruses</w>
text outline</w>
primar ily</w>
decla red</w>
cz ech</w>
dir ty</w>
perfor med</w>
2 3
4 8
7 7
9 6</w>
b a</w>
b ab
b ans</w>
e le
f ly</w>
f ru
h 1
h at</w>
l er
m its</w>
m ania</w>
n e</w>
p ani
p lot</w>
r n
s wi
t wee
t ables</w>
u n</w>
u ri
re fl
co h
en d
on o
or ing</w>
it ly</w>
st ore</w>
st able</w>
st age</w>
as h</w>
di arr
si m</w>
the ma
lo g</w>
lo ad</w>
de vi
su n
su per
un certainty</w>
ma thema
be ds</w>
sp ou
pro hi
tr ou
mi sta
bu d
ex ce
ex pression</w>
ex ecu
inf la
sa ge</w>
qu anti
fe wer</w>
sh el
pre ci
pre pare</w>
he a</w>
he ld</w>
per cen
20 10</w>
20 16</w>
fac ts</w>
mu sc
ra ti
comp ro
gu e</w>
comm it
min ation</w>
for ms</w>
ris ks</w>
wa iting</w>
gr adu
pp e</w>
fin dings</w>
trans lation</w>
trans mit</w>
some where</w>
sympto m</w>
ga mes</w>
inter ven
qui ck</w>
clo sely</w>
mil li
read ing</w>
ori gin</w>
dec line</w>
chan ging</w>
emp ty</w>
cour t</w>
ck ed</w>
eng lish</w>
depen d</w>
any way</w>
reco ver
produc t</w>
gro ss</w>
nor th</w>
quarant ined</w>
emergen cies</w>
vari able</w>
phy lo
plan ning</w>
19 9
ven ess</w>
employ ers</w>
increas ing</w>
preven ting</w>
distribu ted</w>
ameri ca</w>
inten sive</w>
diagno stic</w>
sha res</w>
medic ines</w>
rap id</w>
sk in</w>
lead er</w>
lun gs</w>
san ders</w>
environ mental</w>
wr ite</w>
equ ation</w>
dra w</w>
ow ner</w>
molecu lar</w>
her d</w>
phi li
expen sive</w>
occur s</w>
err or</w>
shu t</w>
focu s</w>
invest ment</w>
aca demic</w>
obvi ously</w>
territ ory</w>
sli ghtly</w>
approxi mately</w>
vaccin ated</w>
extra ordinary</w>
apparen tly</w>
subsequ ent</w>
acqui red</w>
charac teri
assess ment</w>
3 9</w>
a de
b ing</w>
b lu
b ound</w>
f f</w>
f ren
g c</w>
g ate</w>
i cs</w>
j an</w>
k in
k its</w>
l in</w>
m m</w>
o t
o t</w>
o 2</w>
o p</w>
p ha
r s</w>
r 0</w>
r ou
s tion</w>
s le
t wi
u sc
v s</w>
v ou
v ec
x ed</w>
in habit
an ce
re ver
re ferences</w>
en ergy</w>
st ro
st ability</w>
ca b
ac ce
ac hi
no tes</w>
su res</w>
sp ending</w>
con centr
ho mo
pro cla
viru l
ne sday</w>
po ll</w>
ch er</w>
me at</w>
so li
mi cha
op t</w>
ta tive</w>
pe er</w>
pe ak</w>
qu e
we l
ci vet</w>
fe es</w>
pre par
to ols</w>
ge or
wor ried</w>
ter in
gi cal</w>
mu tation</w>
comp on
tra ins</w>
out line
for ced</w>
tic kets</w>
wa i
mar gin</w>
lin ked</w>
fin ally</w>
some body</w>
pri vate</w>
na tions</w>
ph ase</w>
mil itary</w>
dis covered</w>
dis infecting</w>
dec e
dec reas
anti gen
respon d</w>
respon ses</w>
hel ps</w>
advi se</w>
ni h</w>
auth or</w>
cance led</w>
chec ks</w>
happ ening</w>
deci sions</w>
plan e</w>
plan es</w>
den i
har m
trave ling</w>
oper ate</w>
regi ons</w>
requ est</w>
clai ms</w>
asse ts</w>
exi sts</w>
prin t</w>
coll ected</w>
mater i
immedi ate</w>
argu e</w>
tar get</w>
seas on</w>
impro ve</w>
epidemio logy</w>
fau ci</w>
chemi cal</w>
expla in</w>
bal ance</w>
visit ing</w>
flu id</w>
investi gation</w>
instruc tions</w>
demo crats</w>
dist inc
stron ger</w>
fra c</w>
sw abs</w>
chron ic</w>
dy na
prov ince</w>
lic itly</w>
gran ted</w>
glas s</w>
enfor cement</w>
extr a</w>
evolu tion</w>
help ful</w>
princi ple</w>
russi a</w>
memb ran
civi l</w>
perman ent</w>
newsp aper</w>
swe den</w>
easi er</w>
hope fully</w>
wed nesday</w>
covid 19</w>
strong ly</w>
h1 n
percen tage</w>
rati o</w>
fren ch</w>
twi ce</w>
usc is</w>
micha el</w>
outline style</w>
2 1
3 8</w>
4 5</w>
4 00</w>
6 0
8 8
9 5
9 7
a a</w>
b ar
b es</w>
b ra
c t</w>
c king</w>
c fr</w>
e a
e y
e th
e ure</w>
h ind</w>
m ani
n ar
n ur
n ation</w>
n 95</w>
p a</w>
p on
r t</w>
r are</w>
r oughly</w>
s ca
t ory</w>
t reas
th y</w>
an tly</w>
re tro
re production</w>
ti mely</w>
er al</w>
al ed</w>
al ber
or dered</w>
or xiv</w>
ro ad</w>
st an</w>
ca ting</w>
li o</w>
li qu
li br
wh om</w>
si des</w>
lo ad
lo pin
de p
de gc</w>
un necessary</w>
ma bly</w>
ma tically</w>
le ts</w>
be i</w>
be hind</w>
ab or
ab ri
po wers</w>
tion ary</w>
mi ze</w>
ex act</w>
ver sion</w>
sa u
qu es</w>
qu ality</w>
ve terin
cor ti
ci ans</w>
sh ing</w>
do me
he ard</w>
infec t
wor d</w>
go ch</w>
bo goch</w>
fac ulty</w>
sur pri
sur gical</w>
mon ton</w>
da ted</w>
wi pe</w>
wi fe</w>
wi ki</w>
comm ents</w>
of f
der ing</w>
tri al</w>
tri ps</w>
sta ted</w>
exp ec
mas sive</w>
govern or</w>
bi orxiv</w>
gener ic</w>
pen ding</w>
posi t</w>
rela tion
advi sed</w>
poli ce</w>
poli tici
high est</w>
ear n</w>
00 1</w>
elec tro
shi ft</w>
contro lled</w>
ther n</w>
ther ap
200 8</w>
exten sive</w>
contrac ted</w>
ster o
trave lers</w>
exper t</w>
ed monton</w>
sha re
tran sport</w>
maj eure</w>
asse ss</w>
dri ver</w>
lie f</w>
contain ed</w>
non immigr
cover age</w>
clas s</w>
agre ed</w>
mor ning</w>
regar dless</w>
writ ing</w>
conclu sion</w>
require ment</w>
eligi bility</w>
encour age</w>
molecu les</w>
extre me</w>
tempor arily</w>
cul ture</w>
expen ses</w>
professi on
stop ped</w>
vis as</w>
moder n</w>
fit ting</w>
zo ono
respec t</w>
republi can</w>
summ ary</w>
nation als</w>
sco pe</w>
compu ter</w>
establi shed</w>
obli gations</w>
top ic</w>
wide ly</w>
progre ss</w>
feel ing</w>
introduc ed</w>
practic es</w>
presu mably</w>
perfec t</w>
speciali st</w>
thor oughly</w>
impor ted</w>
brief ing</w>
targe ted</w>
reservo ir</w>
beg an</w>
ventilat ors</w>
retire ment</w>
restaur ants</w>
gd p</w>
musc le</w>
milli ons</w>
phili pp
ade qu
vou cher</w>
inhabit ants</w>
concentr ation</w>
virul ence</w>
deni ed</w>
liqu id</w>
lopin avir</w>
0 5</w>
2 5
2 f
3 3</w>
4 6
6 1</w>
b ought</w>
c n
c ket</w>
c rit
d na</w>
e at</w>
e ding</w>
e ast</w>
f abri
g on
h ence</w>
i ght</w>
i con</w>
j ob
k o</w>
k ar
l m</w>
l er</w>
l atory</w>
m ly</w>
m ingly</w>
n h
p m
r on</w>
r oun
s er</w>
s ound</w>
u ps</w>
v ar
y u
z i
an ese</w>
re ast</w>
re lation</w>
re actions</w>
re ligi
ti tion</w>
en ge</w>
te am</w>
te aching</w>
al ing</w>
di g
di vi
di sa
at ri
the sis</w>
lo cation</w>
de gre
de posit</w>
un like</w>
sp ent</w>
sp ir
con cep
ho li
pro ve</w>
pro mp
ne t
la p</w>
la be
me t
me ter</w>
op port
fi ght</w>
ve ge
fe ature</w>
pre limin
ap pl
ap art</w>
to co
to mor
to wards</w>
ge stion</w>
go o
du ces</w>
20 13</w>
bo x</w>
rea m</w>
sur pris
ra ise</w>
gen e</w>
af ter
ing ing</w>
pl ant</w>
ani sh</w>
of fering</w>
out door</w>
ris dic
can adi
ju risdic
nu mer
fa reast</w>
sta ys</w>
hu bei</w>
el se
ali en</w>
fir e</w>
na me</w>
uni que</w>
inter act</w>
exp licitly</w>
ph eno
mil k</w>
fun c
dis mi
dis infect
men tation</w>
effec ti
provi sion</w>
tur ned</w>
ill ed</w>
cour ts</w>
ob ject</w>
sho ps</w>
dre ds</w>
regu latory</w>
sub jects</w>
man age</w>
man ner</w>
import antly</w>
avail ability</w>
direc tions</w>
ran do
restric ted</w>
offi cer</w>
car rying</w>
val ent</w>
cance lling</w>
kee ping</w>
boo ks</w>
work er</w>
produc tive</w>
sugge sted</w>
ban ned</w>
lon don</w>
cre ating</w>
cla de</w>
sci en
logi sts</w>
oc ca
ach ed</w>
pur su
war ning</w>
contrac ts</w>
seri es</w>
fri e
fri end</w>
cho sen</w>
citiz en</w>
follow ed</w>
fil ing</w>
physi cally</w>
intere sting</w>
char ged</w>
inten sity</w>
bor ne</w>
tran spor
atten d</w>
frequ ent</w>
ul ti
exi st</w>
dri ve</w>
dri vers</w>
reduc ing</w>
impo sed</w>
remo te</w>
remo ved</w>
correc tly</w>
coll ection</w>
repli cate</w>
asi an</w>
partic le</w>
argu ment</w>
clas ses</w>
detec t</w>
lat ter</w>
jap anese</w>
equ al</w>
kill s</w>
encour aged</w>
expla ined</w>
forei gn
visit ors</w>
hun dreds</w>
occur red</w>
parame ter</w>
state ments</w>
err ors</w>
invest ors</w>
mean ing
wide spread</w>
interpre tation</w>
simu lation</w>
chall eng
edu cation</w>
revie wed</w>
categ ory</w>
adju sted</w>
scrip tion</w>
tren ds</w>
behavi or</w>
candi date</w>
camp ai
sett ings</w>
toil et</w>
mortg age</w>
premi um</w>
where as</w>
graphi c</w>
pani c</w>
trou ble</w>
commit tee</w>
procla mation</w>
dece mber</w>
materi als</w>
ea stern</w>
treas ury</w>
dep th</w>
share holders</w>
profession als</w>
crit er
gon na</w>
prelimin ary</w>
tomor row</w>
0 9</w>
0 1</w>
6 4</w>
7 9
a x
a ma
a head</w>
b at
b reach</w>
d c</w>
d ential</w>
e ve</w>
e mo
e ting</w>
g a</w>
g ri
i e</w>
i bu
i gn
j un
j ected</w>
k ers</w>
l ting</w>
m oun
n son</w>
n cb
o xy
p id</w>
r ac
s n
s p</w>
t ably</w>
u t
u ti
v als</w>
w ants</w>
y ers</w>
z e
in a</w>
in su
an no
re funds</w>
ti tle</w>
co ordin
en y
en ty</w>
ar ding</w>
ar ance</w>
ro mania</w>
it iner
st e</w>
st ers</w>
ac i
no tic
si l
il ed</w>
il lu
lo ck</w>
de tail</w>
su d
un well</w>
un clear</w>
mp ed</w>
ma xi
le g</w>
sp in</w>
sp ain</w>
sp anish</w>
ho sts</w>
ho mes</w>
pro of</w>
ab ilities</w>
so ve
so phi
mi d</w>
mi sed</w>
bu ses</w>
fi p</w>
we b</w>
cor e</w>
fe ed</w>
do w</w>
do ors</w>
ag gre
ap ar
he av
sti ck</w>
rea dily</w>
pu ll</w>
gi es</w>
comp are</w>
af ri
wi sh</w>
ans wers</w>
spec u
min al</w>
of fered</w>
medi ate</w>
wa ve</w>
ser o
ser ve</w>
der i
tri c</w>
stu ck</w>
ten d</w>
some how</w>
brea ks</w>
dat as
dat ab
dec re
fo ld</w>
fo lio</w>
tur ing</w>
acti vely</w>
anti retro
wee k
loo ked</w>
are r</w>
eng ine
advi ses</w>
import ance</w>
poli o</w>
poli tics</w>
direc ted</w>
direc tive</w>
auth ors</w>
che ap</w>
every body</w>
parti ci
vo ting</w>
iso lating</w>
stra ted</w>
nor thern</w>
eu r</w>
pay roll</w>
cla use</w>
clin ic</w>
200 4</w>
200 6</w>
ven ue</w>
soci ety</w>
call s</w>
oper ation</w>
suf fer</w>
suf fering</w>
requ iring</w>
stre t
reduc tion</w>
compli ant</w>
lead ers</w>
vide os</w>
centr e</w>
ep a</w>
agre ement</w>
ima ge</w>
depart ments</w>
proper ty</w>
hol ds</w>
dr in
hun g
accep t</w>
spac es</w>
shor ter</w>
don al
connec tion</w>
cra tic</w>
comb ination</w>
effor t</w>
broad er</w>
vis its</w>
limit ing</w>
limit ations</w>
fit ness</w>
fail ed</w>
quo ted</w>
obvi ous</w>
wei ght</w>
persi st</w>
hydro xy
pat ter
port folio</w>
doub t</w>
chall enge</w>
dow ns</w>
advan ced</w>
fas ter</w>
than ks</w>
missi ons</w>
joh nson</w>
experien cing</w>
emb as
depar ture</w>
mut ate</w>
pap ers</w>
prof en</w>
maintain ing</w>
taxpay ers</w>
insec t</w>
flexi ble</w>
gor ous</w>
visi bly</w>
theore tical</w>
congre ss</w>
comfor table</w>
swa b</w>
declar ation</w>
bab y</w>
coh ort</w>
execu tive</w>
prepar ing</w>
membran e</w>
ey e</w>
veterin ary</w>
philipp ines</w>
nh 3</w>
goo gle</w>
jurisdic tions</w>
else where</w>
effecti veness</w>
rando mly</w>
frie den</w>
criter ia</w>
ibu profen</w>
ncb i</w>
sove rei
hydroxy chloroquine</w>
1 00
1 10
2 nd</w>
3 8
4 4</w>
5 6</w>
6 3
7 4</w>
a mp
a id</w>
b c
b arri
c ure</w>
e state</w>
f low</w>
g ard</w>
h or
i g
i de</w>
k ings</w>
k id
l v
l r</w>
l low</w>
l end</w>
l pv</w>
m r</w>
m acro
n an
p r</w>
p al
p ag
p lus</w>
r d</w>
r ound</w>
s ke
s ence</w>
s ounds</w>
t down</w>
t led</w>
v ast</w>
y st
th u
in ci
in acti
an g</w>
an xi
re ve
re infected</w>
re infor
re ality</w>
re source</w>
re booking</w>
re book</w>
re fund
re lief</w>
re gard</w>
ti ally</w>
ti ps</w>
ar chi
te ach</w>
al o
or ban</w>
st on</w>
st ori
ca ble</w>
as h
as ia</w>
di amon
ec ts</w>
li a
il legal</w>
lo ved</w>
de ca
de ep</w>
un related</w>
se ven</w>
ri x</w>
ri se</w>
ma ted</w>
be l
be coming</w>
con fin
con gestion</w>
ab sence</w>
ne g
po land</w>
po ster
la p
la mps</w>
tr e</w>
ex pres
op s</w>
op ted</w>
ta i
ta ges</w>
ad ding</w>
cor respon
fe ar</w>
fe eding</w>
do z
do min
to wn</w>
to ber</w>
ge ly</w>
wor ked</w>
mm ing</w>
ir ation</w>
fac e
cu o
sur ing</w>
par ag
hi stori
gu st</w>
min o</w>
ye ster
tic keting</w>
can cer</w>
wa ve
mar k</w>
fin al</w>
el ds</w>
ali ens</w>
trans actions</w>
trans ferred</w>
ari al</w>
sit ting</w>
ga u
uni code</w>
inter view</w>
inter nal</w>
exp iration</w>
ph il
brea st
dat ory</w>
differen tly</w>
fun da
au gust</w>
tre es</w>
bi ke</w>
bi gger</w>
exa min
infor med</w>
str ate</w>
vir als</w>
emp h
respir ators</w>
plac ed</w>
pan ts</w>
fl atten
indi cates</w>
ob jec
chil d
sho wed</w>
consi stent</w>
stric t</w>
man aged</w>
man datory</w>
cen t
cen sus</w>
restric t</w>
mat h</w>
mat ters</w>
mat rix</w>
pres ents</w>
any where</w>
appli cations</w>
every day</w>
parti cip
vo ted</w>
sugge sting</w>
struc tures</w>
hy per
vari es</w>
vari ation</w>
vari ance</w>
vari ety</w>
cro ssing</w>
main land</w>
logi stic</w>
oc tober</w>
mini stry</w>
inte gr
eas ed</w>
thro w</w>
plan ts</w>
plan ned</w>
war ned</w>
har m</w>
supp le
preven tive</w>
col ds</w>
resi dent</w>
organi sation</w>
predic tions</w>
predic tive</w>
intere sts</w>
part ners</w>
sha red</w>
ki ds</w>
com mo
scre en</w>
associ ation</w>
bacter i
lab or</w>
safe ly</w>
lock downs</w>
obser vation</w>
10 000</w>
remo ve</w>
arri ving</w>
arri val</w>
compli cated</w>
leng ths</w>
invol ve</w>
tissu es</w>
cover s</w>
imple ment</w>
line ar</w>
buil ding</w>
typi cal</w>
natur ally</w>
colle ag
trad ing</w>
demo cratic</w>
antibio tic</w>
diver sity</w>
summ er</w>
eval uation</w>
attemp t</w>
recogni ze</w>
cli mate</w>
viro logy</w>
bb c</w>
dar k</w>
mach ine</w>
refu sed</w>
assi stance</w>
dow n
opti mi
person ally</w>
nucle i</w>
advis or</w>
free dom</w>
amen d
expi red</w>
avoi ding</w>
manag ement</w>
inhibit ors</w>
reli able</w>
evac u
success ful</w>
guaran tee</w>
itali an</w>
streng th</w>
beli eved</w>
spr ay</w>
journ als</w>
legis lation</w>
rhino virus</w>
diarr hea</w>
homo logy</w>
harm ful</w>
corti co
stero ids</w>
adequ ate</w>
fabri c</w>
religi ous</w>
degre e</w>
opport unity</w>
vege tables</w>
appl ying</w>
surpris ing</w>
transpor tation</w>
foreign ers</w>
emo tional</w>
oxy gen</w>
itiner ary</w>
maxi mum</w>
partici pants</w>
embas sy</w>
soverei gn</w>
refund able</w>
diamon d</w>
poster ior</w>
yester day</w>
0 5
3 00</w>
4 9</w>
4 1</w>
4 3</w>
6 9</w>
7 9</w>
8 6
8 00</w>
9 7</w>
a e</w>
a mino</w>
b un
c use</w>
d hs</w>
e m
e a</w>
e c</w>
e x</w>
e di
e ur
f ran
g as</w>
g 13</w>
h ur
i ci
i cal</w>
l lu
m self</w>
n b
n sp
o th</w>
p uni
q at
r ab
s ar
s an</w>
s cu
s mar
s atur
t v</w>
t as
t wit
t ask</w>
v ard</w>
in v
in st
in ser
an d
an a</w>
an th
an nu
re di
re fer</w>
re action</w>
re present</w>
re tail</w>
re rs</w>
re ached</w>
re venue</w>
ti me
en force</w>
ar ran
ou l
te lling</w>
on ia</w>
vi o
ro te</w>
it able</w>
ac ted</w>
ac ci
ac cru
di scre
di ame
at ly</w>
at ories</w>
ec ting</w>
li ve
li qui
li ber
li pid</w>
ha ff
si r</w>
si an</w>
lo cations</w>
de struc
su m</w>
un lawful</w>
se as</w>
ri de</w>
ma mm
le s
be sides</w>
sp ring</w>
con cen
con spir
pro x
pro po
pro per</w>
ur gent</w>
po w
ch en</w>
la un
me als</w>
me eting</w>
tr ack</w>
tr illion</w>
mi ti
mi ssible</w>
bu gs</w>
op po
inf o</w>
inf ra
fi xed</w>
ad just</w>
ad eno
sa ving</w>
we red</w>
we ak</w>
ve hi
fe asi
fe yn
do or
mo ther</w>
mo ved</w>
pre scription</w>
he at</w>
per spec
to tally</w>
ge l</w>
lu ck</w>
ke l</w>
du ty</w>
20 15</w>
20 11</w>
pu tting</w>
gi um</w>
ra w</w>
hi mself</w>
comp ly</w>
comp ounds</w>
sc ent</w>
sc rat
sc haff
enti tled</w>
pl es</w>
tra in</w>
for ward</w>
tu m</w>
tu es
ll er</w>
ju mp</w>
fa q</w>
lin en</w>
stu dying</w>
fin ding</w>
ari es</w>
pri vac
ga ted</w>
inter mediate</w>
clo ser</w>
brea the</w>
lar gest</w>
fun ctions</w>
au stri
bi ted</w>
dec eased</w>
infor ma
provi sions</w>
nee ding</w>
ill ance</w>
pen n
kno wing</w>
kno bs</w>
indi a</w>
indi cated</w>
indi cate</w>
sho t</w>
tru ly</w>
all er
mode lling</w>
gre atly</w>
contr ast</w>
advi sing</w>
restric tion</w>
hou ses</w>
val u
sign ed</w>
accor dance</w>
over seas</w>
work place</w>
che st</w>
ban king</w>
retur ned</w>
quarant ines</w>
chec ked</w>
ous ness</w>
mit ting</w>
enz y
shi ps</w>
mini mize</w>
recommen dation</w>
org an</w>
den ial</w>
har vard</w>
jo int</w>
nega tives</w>
wash ed</w>
lan ds</w>
employ ed</w>
fri day</w>
confir m</w>
br inging</w>
suppor tive</w>
fil ter</w>
vol un
col or</w>
authori zed</w>
organi zations</w>
hand les</w>
descri be</w>
amoun ts</w>
pla ying</w>
leg ally</w>
bin om</w>
frequ ency</w>
presi dential</w>
announ cement</w>
fici ently</w>
rap h</w>
arri ve</w>
lec ture</w>
manufac turing</w>
deli ver</w>
paren t</w>
asi de</w>
agre e</w>
origin ated</w>
cr yst
new ly</w>
presen ted</w>
carri ed</w>
use less</w>
reason ably</w>
fat al</w>
dra wn</w>
ow ners</w>
conclu sions</w>
sol ved</w>
epidemio logical</w>
epidemio logist</w>
rout e</w>
hote z</w>
dou ble</w>
pack aging</w>
bir ds</w>
flu ids</w>
investi gations</w>
connec ting</w>
cul tural</w>
jour nal</w>
va tive</w>
stop s</w>
expon entially</w>
schedu led</w>
moder ate</w>
zo om</w>
diver gence</w>
discu ssed</w>
neigh bor
chron ous</w>
26 1</w>
rat g13</w>
disrup tion</w>
grocer ies</w>
assump tion</w>
reali ze</w>
reali stic</w>
surve illance</w>
pic ture</w>
pic tures</w>
def en
calcu late</w>
dead ly</w>
constitu tional</w>
opti mal</w>
perfec tly</w>
mix ing</w>
experien ced</w>
insi ght</w>
lif ts</w>
expi res</w>
avoi ded</w>
electr on
neighb ors</w>
ref ers</w>
repe at</w>
appoin tment</w>
evol ving</w>
phar mac
hypo the
techno logy</w>
fall s</w>
coo ked</w>
mathema tical</w>
recover ing</w>
phylo genetic</w>
blu e</w>
kin ds</w>
compon ents</w>
decreas es</w>
antigen ic</w>
h1n 1</w>
nur sing</w>
alber ta</w>
libr ary</w>
sau di</w>
dome stic</w>
relation ship</w>
disa p
ulti mately</w>
notic ed</w>
heav y</w>
barri er</w>
nan op
anxi ety</w>
bel gium</w>
cuo mo</w>
parag raph</w>
amend ment</w>
diame ter</w>
liqui dity</w>
concen tra
conspir acy</w>
schaff ner</w>
privac y</w>
1 1
2 4
3 5</w>
5 9
6 8</w>
7 3
8 0
8 7</w>
a b</w>
a tive</w>
b ail
b lack</w>
b ills</w>
c ti
d pa</w>
e limin
f th
g t
g na
h y</w>
h a</w>
h its</w>
i re
i ce
i cu</w>
k ing
k new</w>
n hs</w>
n lm</w>
o h</w>
p k
p s
p y</w>
p h</w>
p lu
p ath</w>
s ac
s ba</w>
t or
t our</w>
t ments</w>
u r</w>
v ings</w>
w an</w>
w age</w>
w ering</w>
w rote</w>
x lab</w>
y i
y out
z one</w>
in vi
in du
in door</w>
an ed</w>
re b
re sti
re place</w>
re lieve</w>
re dness</w>
ti n</w>
ti ze</w>
ti sh</w>
ti mate</w>
co ol</w>
en han
en ever</w>
en counter</w>
ar bit
te en</w>
te lls</w>
on y</w>
al ve
al ty</w>
or ation</w>
vi ol
vi tal</w>
vi ability</w>
it er
it al</w>
st ream</w>
ca su
ca bin
ac cu
ac counts</w>
as ter</w>
di scri
at al</w>
ec 261</w>
li pi
wh enever</w>
ha m</w>
si rd</w>
the ories</w>
lo mb
lo sses</w>
de duc
se t
se x
se q</w>
se ts</w>
se ve
mp ing</w>
ma p</w>
le th
le tting</w>
be t</w>
be ar</w>
pro jects</w>
pro pose</w>
pro mise</w>
pro toco
ne sses</w>
po ol</w>
po lls</w>
po cket</w>
ch e</w>
me tre</w>
so le</w>
so iled</w>
ex cuse</w>
op posed</w>
op ec</w>
fi ca
fi gh
ta u</w>
ad eny
gh ten
ve ments</w>
ci ted</w>
ci an</w>
fe ars</w>
fe atures</w>
do ms</w>
do ll
mo ves</w>
ag u
ag ri
ag ents</w>
ap p</w>
to x
to ward</w>
lu fth
20 00</w>
sti cally</w>
cu tting</w>
pa in</w>
sur roun
pu l
pu bs</w>
mu ta
par a
par lia
ra il
ra tional</w>
ra rely</w>
gen es</w>
comp re
comp aring</w>
sc ar
sc ans</w>
sy lv
gu es
gu ide</w>
coun ter
coun ting</w>
wi pes</w>
pl at
pl enty</w>
ans a</w>
ans wering</w>
por ous</w>
for get</w>
for mal</w>
ye ast</w>
wa re
ju d
ju mped</w>
dif fer</w>
fa ti
ef fica
fec es</w>
speci men</w>
pp p</w>
sta tic</w>
hu ang</w>
el li
pi ed</w>
ari an</w>
na m</w>
ga in</w>
ga me</w>
ga ther</w>
publi cations</w>
inter active</w>
inter action</w>
evi ction</w>
sel ect</w>
mer ase</w>
stri es</w>
inclu sion</w>
gn s</w>
dis cour
dis aster</w>
exa ms</w>
is land</w>
air borne</w>
men s</w>
provi ders</w>
curren cy</w>
prev ents</w>
posi tively</w>
posi tives</w>
anti gen</w>
respon si
rela tions</w>
meas u
dur ation</w>
tru dea
all ing</w>
all ergy</w>
dre w</w>
gre e
gre en</w>
eng land</w>
resu lting</w>
car bon
fre sh</w>
ide al</w>
ide ally</w>
quar ter</w>
reco mb
boo kings</w>
condi tional</w>
stru gg
gro w</w>
sup pose</w>
nor way</w>
contin ues</w>
assu med</w>
200 5</w>
secon dly</w>
contrac tors</w>
blo g</w>
den sity</w>
19 18</w>
citiz en
follow s</w>
recei ving</w>
ba tes</w>
organi sms</w>
predic table</w>
oper ations</w>
cri minal</w>
spo t</w>
spo ons</w>
excep tional</w>
descri bing</w>
ki stan</w>
dri ving</w>
simp li
chi ca
consu l
impo se</w>
house holds</w>
prin cess</w>
remo tely</w>
equi valent</w>
sk ills</w>
arri ved</w>
14 0</w>
exerci ses</w>
invol ving</w>
epidemi cs</w>
desi gna
san ctions</w>
bri tish</w>
reser vation</w>
form er</w>
unemploy ed</w>
conclu de</w>
wal d</w>
hote ls</w>
nei ther</w>
chemi stry</w>
progra ms</w>
corpor ations</w>
pregn ancy</w>
research er</w>
len ding</w>
len ders</w>
cap able</w>
accep table</w>
shor tages</w>
instruc tor</w>
contamin ation</w>
cy cle</w>
accur acy</w>
fra me</w>
comb ined</w>
consider ation</w>
broad ca
limit ation</w>
focu sed</w>
prepa redness</w>
disp la
continu ing</w>
continu ous</w>
contracep tive</w>
rat ings</w>
venti lation</w>
economi cs</w>
bur den</w>
cli ck</w>
thous and</w>
poly adeny
poly merase</w>
surve y</w>
mach ines</w>
sal es</w>
sal ary</w>
practic ing</w>
dead line</w>
slow ing</w>
missi bility</w>
pho to
roo ms</w>
replac ed</w>
maintain ed</w>
taxpay er</w>
construc tion</w>
back ground</w>
85 pt</w>
dilu ted</w>
exemp t</w>
stran ded</w>
neutr ali
bla me</w>
h2 o</w>
h2 o2</w>
remain ing</w>
purch ase</w>
rn as</w>
twee ted</w>
spou se</w>
bud get</w>
compro mised</w>
199 8</w>
vec tors</w>
ance st
rever se</w>
wel fare</w>
nonimmigr ant</w>
job s</w>
net work</w>
canadi an</w>
numer ous</w>
pheno men
dismi ss
scien ce
occa si
challeng es</w>
uti li
datab ase</w>
decre e</w>
antiretro viral</w>
hung ary</w>
donal d</w>
bc g</w>
tai wan</w>
flatten ing</w>
cent res</w>
qat ar</w>
rab ies</w>
satur day</w>
twit ter</w>
anth ony</w>
infra structure</w>
feasi ble</w>
feyn man</w>
perspec tive</w>
tues day</w>
austri a</w>
penn sylv
ire land</w>
ice land</w>
arbit r
cabin et</w>
lipi ds</w>
seve rely</w>
doll ars</w>
lufth ansa</w>
parlia ment</w>
trudea u</w>
pennsylv ania</w>
1 20</w>
1 15
1 88</w>
5 5
5 2</w>
6 6</w>
8 4</w>
a k
a mm
a ms</w>
b ag
b one</w>
b ar</w>
b ars</w>
b rit
d d
e g</w>
f ere</w>
f ing
f its</w>
g is</w>
g ma</w>
h u</w>
h en</w>
h cov</w>
i m</w>
i city</w>
j e
k u
k y
l o</w>
l i</w>
m h
m i</w>
m ous</w>
m uni
m ating</w>
m ck
n m</w>
n ate</w>
o x
o red</w>
q s</w>
s r</w>
s ou
s me
s can</w>
s ki
s light</w>
t on
t ton</w>
u de</w>
v i</w>
y al</w>
y lab</w>
th ur
th ail
in al</w>
in depen
an cies</w>
re p</w>
re feren
re ments</w>
re consider</w>
re acting</w>
re solve</w>
re scu
re bates</w>
er ship</w>
co s</w>
co lu
co des</w>
en e
en s
en velo
en jo
ar o</w>
ar ab
ar by</w>
on ally</w>
on set</w>
al lo
al together</w>
or mal</w>
vi cti
ro man</w>
st ingly</w>
ca me
no ise</w>
di v</w>
di an</w>
di cated</w>
di plo
at ten</w>
ec b</w>
ec dc</w>
li c</w>
li ste
li cen
li mits</w>
the li
il ing</w>
il it
ru pt</w>
lo d</w>
de e
de s
de st</w>
de aling</w>
su itable</w>
se y</w>
yo tic</w>
ma s</w>
ma g</w>
ma th
ma tes</w>
be aring</w>
sp ar
con sequence</w>
con sent</w>
con ferences</w>
ho t</w>
ho ping</w>
ho pk
pro mi
pro mo
pro fit</w>
ne j
ne arby</w>
po l
po s</w>
la tive</w>
me et
mi x</w>
mi cs</w>
ex pe
ex hi
ex por
ex hal
ver i
ver t</w>
op ha
fi es</w>
fi elds</w>
ta u
ad opted</w>
sa w</w>
sa tions</w>
sa vings</w>
we t</w>
ci l</w>
sh aring</w>
mo d</w>
mo di
mo de</w>
mo bi
mo bility</w>
ag e
ap s</w>
per mission</w>
ce llu
go wn</w>
lu ck
ke pt</w>
corona viral</w>
20 th</w>
20 17</w>
20 21</w>
bo arding</w>
ssi ons</w>
sti n</w>
sti cated</w>
fac epi
cu p</w>
pa a</w>
pa ir</w>
pu rely</w>
mu late</w>
par tly</w>
comp ar
comp la
comp et
af t</w>
af ford</w>
ev a</w>
ing er</w>
coun cil</w>
inc es</w>
enti als</w>
tra ined</w>
of com</w>
out put</w>
for ces</w>
imp li
ris ky</w>
medi cation</w>
wa ke</w>
our selves</w>
nu m</w>
fa ir</w>
fu sion</w>
mar ried</w>
gr ants</w>
lin ed</w>
lin ks</w>
stu ff</w>
pp v</w>
ten sion</w>
fin ed</w>
sta tions</w>
hu b</w>
prob able</w>
pi cal</w>
pi gs</w>
sen sible</w>
trans iting</w>
trans missible</w>
trans mitting</w>
ari ties</w>
pri ori
ga ve</w>
publi cation</w>
inter fere</w>
ph r
clo sures</w>
lar gely</w>
dat ing</w>
au to</w>
is m</w>
is ra
ori al</w>
gener ate</w>
appro x</w>
appro ve</w>
air ways</w>
men tions</w>
men tally</w>
bac ked</w>
tur ns</w>
vir tually</w>
respir ator</w>
poin ting</w>
fl atten</w>
cour ses</w>
protec ting</w>
see king</w>
hel ping</w>
rela x</w>
regu lated</w>
pas sing</w>
sub way</w>
sub stitu
sub section</w>
ran ging</w>
restric ting</w>
et f</w>
sign ature</w>
kee ps</w>
over view</w>
every where</w>
vo i
vo lu
vo ters</w>
ear lie
sup posed</w>
fur l
eu kar
cre w</w>
influ en
pac k</w>
pac ked</w>
deci ding</w>
xi de</w>
200 1</w>
200 7</w>
ny t</w>
war m</w>
blo ck</w>
am a</w>
den cy</w>
lear ned</w>
lan ded</w>
br n</w>
br on
fil ters</w>
col lap
ba g</w>
resi du
appe arance</w>
trave led</w>
rep atri
experi mental</w>
predic tion</w>
intere sted</w>
intere stingly</w>
demi a</w>
char ges</w>
hal t</w>
lit er
fr ag
tro pical</w>
regi onal</w>
spo on</w>
circu lation</w>
adu lt</w>
descri p
tail s</w>
gra ham</w>
asse mb
com or
defini tions</w>
lock ed</w>
chi ck
syn cy
reduc tions</w>
consu lar</w>
consu ming</w>
consu mer</w>
remo val</w>
sk y
sk ill</w>
coll ect</w>
survi ves</w>
invol ves</w>
deli ver
deli vered</w>
contain er</w>
us er</w>
susp ici
desi re</w>
grad ed</w>
institu tion</w>
presen tation</w>
cru cial</w>
reser ve</w>
techni ques</w>
equ ally</w>
trac ing</w>
trac ted</w>
gather ing</w>
kill ing</w>
encour aging</w>
wat ching</w>
ext inc
grap h</w>
grap hy</w>
molecu le</w>
cap ture</w>
accep ted</w>
shor tly</w>
demo graphic</w>
connec tions</w>
crow ds</w>
dispo se</w>
determin ing</w>
va cation</w>
stop ping</w>
shu tdown</w>
identi fying</w>
nation wide</w>
discu ss</w>
sw ine</w>
tan g</w>
inhi bit</w>
chlor ine</w>
justi fied</w>
establi sh
aeroso l</w>
aca demia</w>
ct v</w>
obli gation</w>
attemp ting</w>
leav es</w>
mean while</w>
economi st</w>
prov inces</w>
post pon
persi stent</w>
guar dian</w>
hydro gen</w>
simu lations</w>
legi timate</w>
contribu tions</w>
contribu te</w>
overwhel med</w>
doub ling</w>
def ence</w>
adap ted</w>
labor atories</w>
advan tage</w>
demon strated</w>
person nel</w>
slow ly</w>
att ack</w>
conven tional</w>
auto matically</w>
behavi our</w>
prof its</w>
candi dates</w>
electr on</w>
ko v</w>
won der</w>
custo mers</w>
rai sing</w>
substan tial</w>
substan tially</w>
flexi bility</w>
inhibit or</w>
tin y</w>
evac uation</w>
neutr al</w>
success fully</w>
guaran te
ele ment</w>
swi ss</w>
devi ces</w>
spou ses</w>
mista ke</w>
mista kes</w>
gradu ally</w>
interven tion</w>
ot t</w>
rou ting</w>
cab ins</w>
soli d</w>
geor gi
distinc t</w>
dyna mic</w>
21 st</w>
mani fe
load s</w>
surpri sed</w>
politici ans</w>
zoono tic</w>
cn n</w>
var ying</w>
holi day</w>
labe l</w>
apar tment</w>
afri ca</w>
specu lation</w>
datas ets</w>
week end</w>
patter n</w>
kid ney</w>
deca des</w>
wave lengths</w>
particip ation</w>
bacteri opha
colleag ues</w>
cortico steroids</w>
eur o</w>
annu al</w>
mamm als</w>
prox im
pow er
laun dry</w>
oppo site</w>
vehi cle</w>
neighbor hood</w>
king dom</w>
fati gue</w>
effica cy</w>
elli ott</w>
gree k</w>
carbon ate</w>
chica go</w>
designa ted</w>
polyadeny lation</w>
ancest or</w>
dismiss als</w>
arbitr ary</w>
thur sday</w>
thail and</w>
rescu e</w>
arab ia</w>
victi ms</w>
came ls</w>
liste n</w>
hopk ins</w>
meet ings</w>
exhal es</w>
facepi ece</w>
earlie st</w>
eukar yotic</w>
0 6</w>
1 20
2 2
2 m</w>
3 c
4 4
4 7</w>
5 8
6 2</w>
6 7</w>
6 3</w>
7 1</w>
7 7</w>
7 3</w>
7 6</w>
7 00</w>
7 001</w>
8 88</w>
a z
a vi
a mb
a tional</w>
a aa</w>
b id</w>
b low
b lan
b ind</w>
b matrix</w>
c rea
c cu
c les</w>
d f</w>
d al</w>
d sec
d den</w>
d ash
e ti
e ma
e ded</w>
f s</w>
f oun
f our
f illed</w>
g m</w>
g al
g un
g one</w>
g ori
g ly
h ire</w>
i st</w>
i ca</w>
j ones</w>
k it
k han</w>
l ity</w>
m n
m d</w>
m ach</w>
m son
n ings</w>
n ia</w>
n pv</w>
o ti
o od</w>
o lar</w>
p 2</w>
p it
p li
p ter</w>
p ure</w>
p ages</w>
r h</w>
r i</w>
r in
r al</w>
s i</w>
s lo
s se
s ad
s tions</w>
s man</w>
s lower</w>
t ch</w>
u be</w>
u ms</w>
u tum</w>
v o</w>
v an
v ous</w>
v ating</w>
v ated</w>
v news</w>
v ations</w>
w a</w>
w u</w>
w oul
y back</w>
z u
th ly</w>
in o</w>
in tr
in tru
in ations</w>
in hal
in sufficient</w>
in doors</w>
an o
an drew</w>
re ci
re min
re infection</w>
re gre
re vo
re late</w>
ti a</w>
ti ghten
er a</w>
co ded</w>
co ok</w>
co tton</w>
en t
en do
en ter
en able</w>
en tered</w>
en suring</w>
ar ti
ar my</w>
te ach
te ams</w>
on e
on ed</w>
on avir</w>
al ex</w>
al gori
or r
vi ce</w>
vi et</w>
vi sion</w>
vi gorous</w>
ro yal</w>
it a</w>
it ation</w>
st ently</w>
st ages</w>
ca p</w>
ca res</w>
ac qu
ac compani
no ting</w>
di ce</w>
di ble</w>
di ties</w>
ec es</w>
li t</w>
li fe
li ps</w>
si ck
si mul
the less</w>
lo sing</w>
de fe
de dicated</w>
un available</w>
un certain</w>
un intended</w>
se x</w>
se es</w>
se at
se af
se min
se ssion</w>
ri a</w>
ri es</w>
ri ses</w>
ma r</w>
be d
sp a
sp utum</w>
sp lit</w>
con v
con ser
ho t
ho ea</w>
pro por
pro ven</w>
pro jected</w>
pro pag
ab road</w>
ne go
ne ll</w>
po or
po sts</w>
po lling</w>
la ti
la id</w>
la sting</w>
la under</w>
la yer</w>
me l
me t</w>
me ss</w>
me xi
tion 1</w>
mi a</w>
bu yback</w>
ex change</w>
op ened</w>
inf ants</w>
ta p</w>
ta ke
ad mission</w>
sa fer</w>
sa tis
we ll
fe b</w>
fe ll</w>
sh a</w>
mo ti
mo tion</w>
mo mo</w>
pre ju
pre print</w>
ap oration</w>
he ar</w>
per mit</w>
per mitted</w>
to ll</w>
to ler
ce t</w>
infec ts</w>
ge o
wor dsec
go fund
go stin</w>
ke y
ir rit
bo at</w>
bo ards</w>
fac es</w>
fac tory</w>
pa ins</w>
pa ths</w>
sur ger
gi thu
ra tion
ra id</w>
cou ri
comp o
comp ound</w>
af raid</w>
sc are</w>
ev aporation</w>
mon thly</w>
ans i</w>
min a</w>
for nia</w>
imp lies</w>
imp acts</w>
ye llow</w>
tu m
medi cations</w>
medi um</w>
ju ice</w>
nu clear</w>
fu r</w>
fu ll
mar gin
mar kov</w>
ef ficient</w>
tri ed</w>
tri gger</w>
ste red</w>
speci mens</w>
fin i
fin es</w>
fin land</w>
ali ve</w>
ali ties</w>
ali sm</w>
pi le</w>
pi ece</w>
sen ding</w>
fir m</w>
fir ms</w>
inter face</w>
inter im</w>
clo ture</w>
clo vir</w>
read ers</w>
dis infected</w>
with draw</w>
dro pped</w>
infor m</w>
app ed</w>
chan nel</w>
sto ch
sto mach</w>
str and</w>
tur k
tur key</w>
ill nesses</w>
anti cip
anti virals</w>
respon ding</w>
poin ted</w>
pan ose</w>
fl at</w>
fl ying</w>
indi cation</w>
ob ste
sho p</w>
sec u
sec tions</w>
sec ure</w>
tru ck</w>
under way</w>
under stand
pas ses</w>
sub mit</w>
eng age</w>
emer ged</w>
ni covi
car ing</w>
car di
car ds</w>
mat ch</w>
fami li
quar ters</w>
ger ms</w>
any more</w>
star ts</w>
proce ed</w>
proce sses</w>
epi theli
che aper</w>
sugge stions</w>
ban k
gro ws</w>
ear ning</w>
sup pres
quarant ining</w>
eu a</w>
struc tural</w>
cre dible</w>
cla im
esti mating</w>
thre at
thre sho
elec tri
cro wn</w>
happ y</w>
shi f
shi eld</w>
shi pped</w>
simil arly</w>
200 2</w>
thro ats</w>
affec ts</w>
war mer</w>
contrac tor</w>
clini cally</w>
den ly</w>
den tally</w>
har dest</w>
19 99</w>
clu bs</w>
clu ster</w>
nega tively</w>
cl ari
lan d
lan cet</w>
employ ment</w>
euro momo</w>
supp li
suppor ting</w>
expo sing</w>
ba h
cha os</w>
trave lled</w>
physi cians</w>
physi cian</w>
rep ly</w>
pneu mo
predic ted</w>
predic tors</w>
ben e
deter gent</w>
char set</w>
bro ken</w>
hand led</w>
suf fi
circu lating</w>
excep tion</w>
bor ro
ed it
pla y
bin ds</w>
stre et</w>
atten dance</w>
analy ses</w>
analy ze</w>
analy tical</w>
asse ssing</w>
spe ed</w>
fore cast</w>
syn thesis</w>
syn chronous</w>
obser ve</w>
consu me</w>
docu mented</w>
appropri ately</w>
lead s</w>
survi v
survi ved</w>
ber t</w>
invol vement</w>
tax able</w>
non frivolous</w>
argu ed</w>
cal end
presen tations</w>
carri ers</w>
sche me</w>
tar gets</w>
suc cess</w>
exac er
pd m
hospitali zations</w>
techni que</w>
ai m</w>
ai ds</w>
trac king</w>
dela yed</w>
sani tize</w>
recep tors</w>
conclu sive</w>
hol ding</w>
epidemio logists</w>
progra mming</w>
corpor ation</w>
expla ins</w>
bal lot</w>
visit or</w>
deb ate</w>
spi kes</w>
shor tage</w>
ner vous</w>
addre ssed</w>
austr ali
jour ney</w>
accur ately</w>
dist ant</w>
quali fying</w>
comb at</w>
broad cast</w>
thir ds</w>
strate gies</w>
mechani sms</w>
28 63
fail ure</w>
prac tically</w>
tan e
conduc t</w>
quo tes</w>
quo te</w>
justi fy</w>
stati sti
ct vnews</w>
smo ke</w>
smo oth</w>
attemp ts</w>
mean time</w>
exclu si
disrup ted</w>
recogni tion</w>
territ ories</w>
zer land</w>
contribu ted</w>
overwhel ming</w>
overwhel mingly</w>
wil d</w>
tire dness</w>
adap tive</w>
feel s</w>
calcu lation</w>
edu ca
demon strate</w>
constitu tion</w>
absolu te</w>
gg les</w>
ja ma
categ ories</w>
mix ture</w>
my self</w>
tren d</w>
conven i
evolu tionary</w>
free ly</w>
hon our</w>
thor ough</w>
replac ing</w>
care er</w>
lif ted</w>
impor tation</w>
brief ly</w>
targe ting</w>
reservo irs</w>
won dering</w>
ref use</w>
construc ted</w>
rai ses</w>
radi ation</w>
manag er</w>
critici sm</w>
evalu ated</w>
swit zerland</w>
alle vi
visi ted</w>
fav or</w>
cali br
cali fornia</w>
represen tative</w>
disc la
prece ding</w>
expan ded</w>
purch ased</w>
prohi bit</w>
infla mm
compro mise</w>
characteri stics</w>
sle ep</w>
vec tor</w>
cab in</w>
acce ler
achi eve</w>
que ens
wai ver</w>
dyna mics</w>
88 88</w>
surpri se</w>
politici an</w>
pm c</w>
concep t</w>
promp tly</w>
met abo
func tional</w>
disinfect ant</w>
disinfect ants</w>
pursu e</w>
meaning less</w>
campai gns</w>
jun e</w>
moun t</w>
sud denly</w>
sophi sticated</w>
aggre ssive</w>
engine ering</w>
reve aled</w>
reinfor cement</w>
confin ement</w>
expres sed</w>
doz en</w>
emph asi
integr al</w>
nb sp</w>
smar ter</w>
arran ge
accru e</w>
discre tion</w>
live stock</w>
adeno virus</w>
door knobs</w>
scrat ch</w>
pharmac ies</w>
nanop article</w>
concentra ted</w>
yout ube</w>
casu al</w>
discri mination</w>
lomb ar
figh ting</w>
pul mon
para influenza</w>
responsi bility</w>
citizen ship</w>
science mag</w>
occasi onally</w>
amm onia</w>
bag s</w>
enjo y</w>
tau ght</w>
cellu lar</w>
impli cations</w>
isra el</w>
volu me</w>
sky pe</w>
proxim ity</w>
120 6</w>
3c l</w>
blow ing</w>
gly co
mson ormal</w>
pit ch</w>
regre ssion</w>
algori th
accompani ed</w>
seaf ood</w>
nego ti
mexi co</w>
preju dice</w>
wordsec tion1</w>
gofund me</w>
githu b</w>
margin al</w>
anticip ate</w>
calend ar</w>
queens land</w>
0 9
1 st</w>
1 pdm
2 12</w>
2 29
3 28</w>
4 2</w>
4 6</w>
5 8</w>
5 3</w>
6 8
6 9
8 2</w>
9 1</w>
a y
a h</w>
a c</w>
a pe
a mu
a mid</w>
a hu</w>
b il
b ad
b end</w>
b bs</w>
c v</w>
c ers</w>
c ke
c ars</w>
c gis</w>
d s
d w
d or
d red</w>
d ens</w>
d life</w>
e ing</w>
e ars</w>
e os</w>
g p</w>
g ments</w>
g ins</w>
h r
h en
h ill</w>
h ate</w>
h all
h sa</w>
i v
i ri
i ties</w>
i bb
j p</w>
j ing</w>
k al
k ra
k is
k tor</w>
l g</w>
l f</w>
l or</w>
l ance</w>
l man</w>
l ant
l lap</w>
m u</w>
m ou
m mation</w>
n r</w>
n p</w>
n ity</w>
n pr</w>
o is</w>
o li
o le
o ve
o xide</w>
p ti
p al</w>
p one</w>
p sy
p tical</w>
p ta</w>
q rt</w>
r s
r r</w>
r ating</w>
r lap</w>
s f</w>
s c</w>
s 7</w>
s qui
s qrt</w>
t l</w>
t i</w>
t ted</w>
t ant</w>
u v
u v</w>
u sible</w>
v a</w>
w ri
w ages</w>
x x</w>
y a</w>
y ou
z z
th es</w>
th in</w>
th ri
th ers</w>
in u</w>
in ts</w>
in tu
in evi
in ven
in effective</w>
in stances</w>
in definitely</w>
in corporate</w>
in nate</w>
an ge
an ces</w>
an ten
re d
re ti
re se
re lu
re pu
re id</w>
re fer
re tail
re solution</w>
re mind</w>
re aches</w>
re ferred</w>
re son
re duces</w>
ti se</w>
ti ming</w>
ti matic</w>
er y</w>
er sion</w>
co very</w>
co py
en act</w>
en demic</w>
ar cgis</w>
ou ter</w>
te a</w>
te ch</w>
te dly</w>
on g
on line
on ward</w>
al li
al be
or it
vi g
vi sible</w>
vi ktor</w>
ro lling</w>
ro bert</w>
st ence</w>
st ure</w>
st ories</w>
ca ve
ca ke</w>
ca pe</w>
ac t
ac e</w>
ac ks</w>
ac commo
no ses</w>
no red</w>
no tably</w>
as ser
as sign
di c</w>
di um</w>
di stress</w>
at a</w>
at lant
li e</w>
li ft</w>
li fer
si tion</w>
si ght</w>
si gn</w>
il lin
ru led</w>
lo cated</w>
de o</w>
de le
de scent</w>
de resti
su it</w>
un it</w>
un common</w>
un know
un prece
un predictable</w>
un deresti
se a</w>
se z</w>
se ment</w>
se ats</w>
ri ch</w>
ri gorous</w>
ma ca
be have</w>
be long</w>
sp er
sp ra
con jun
con doms</w>
pro p</w>
pro ves</w>
pro file</w>
pro posed</w>
pro duces</w>
pro lifer
ab sen
ab sent</w>
ab sor
ne pal</w>
po sit
po sted</w>
ch ats</w>
la g</w>
la yo
la sts</w>
la is
me d
me m
me st</w>
me ant</w>
me rely</w>
me tric</w>
tion ing</w>
so le
so dium</w>
tr o</w>
tr ine</w>
mi ssing</w>
bu t
bu g</w>
bu st</w>
bu cha
ex pl
ver sus</w>
op en
op ens</w>
op har
fi l</w>
fi cial</w>
fi cations</w>
ta ins</w>
ta ste</w>
ad ds</w>
ad ole
pe ter</w>
pe pti
sa mm
qu et
we lls</w>
we arer</w>
ve ts</w>
ci pa
fe line</w>
do t</w>
do ts</w>
do main</w>
mo vements</w>
mo thers</w>
pre scri
pre existing</w>
he res</w>
he pati
per oxide</w>
to ky
ce l</w>
ce ments</w>
go t
go ggles</w>
mm er</w>
du tch</w>
ter ri
ren ce</w>
bo l
bo x
bo tt
fac ilit
cu red</w>
sur ro
pu ts</w>
pu sh</w>
gi g</w>
gi bbs</w>
par alle
oun ding</w>
comp a
af ai
sc ents</w>
ev ening</w>
mon et
ing redi
gu t</w>
gu n</w>
gu il
gu ine
gu pta</w>
coun ted</w>
comm en
es cape</w>
pl as
ans wered</w>
spec tru
ol y
for mul
imp er
ye sian</w>
ris m</w>
tic o</w>
can e</w>
ser ver</w>
ser vers</w>
fa ire</w>
fa qs</w>
mar keting</w>
ste m</w>
ste in</w>
ste ve</w>
cur ves</w>
rec all</w>
ten ds</w>
ten ancy</w>
sta ined</w>
ali gn
ali ze</w>
pi cked</w>
pi eces</w>
sen ators</w>
trans missibility</w>
na to</w>
na med</w>
na use
na tionally</w>
ga tive</w>
inter ior</w>
exp lo
stan ds</w>
stan tly</w>
ph d</w>
ph i</w>
ph ones</w>
clo thing</w>
mil der</w>
mil dly</w>
sin d</w>
cer cel</w>
duc ed</w>
fun eral</w>
dis charge</w>
dis abilities</w>
dis covery</w>
bi ased</w>
bi dities</w>
exa mination</w>
ori gins</w>
men ting</w>
cle aned</w>
fo o
fo ods</w>
fo ot</w>
sto ck
vac ancy</w>
emp iri
pen n</w>
pen alty</w>
probab ilities</w>
anti cipa
cep tion</w>
indi cating</w>
see mingly</w>
sec tor</w>
tru st</w>
tru sts</w>
mode st</w>
loo se</w>
under going</w>
consi sts</w>
consi stently</w>
sub missions</w>
emer ge</w>
emer ges</w>
poli tico</w>
fol ding</w>
direc tion</w>
tou ri
tou rism</w>
hou sing</w>
hou ston</w>
sear ching</w>
offi ces</w>
mat ches</w>
auth orit
sour ced</w>
any ways</w>
over come</w>
condi tioned</w>
vo lati
ban ning</w>
gro wn</w>
tiz ed</w>
sup press</w>
issu ing</w>
im er</w>
chec king</w>
esti mation</w>
vari ations</w>
vari ables</w>
comple ted</w>
elec ted</w>
elec tive</w>
logi es</w>
neu ro
contro lling</w>
rit onavir</w>
univer sal</w>
inte st
recommen ding</w>
plan et</w>
war n</w>
war mest</w>
blo cks</w>
org ans</w>
am bul
den o
den ted</w>
inve sting</w>
19 8</w>
jo in</w>
stat ute</w>
cl er
cl ou
soci ally</w>
increas ingly</w>
euro zone</w>
cho o
ei ght</w>
preven ted</w>
suppor ted</w>
distribu te</w>
ba yesian</w>
cha ir</w>
cha ins</w>
appe ared</w>
organi sm</w>
experi ments</w>
experi mentation</w>
oper ational</w>
hand washing</w>
inten d</w>
inten tion</w>
regi stration</w>
suf ficiently</w>
cat aly
ful fil</w>
pneumon i
exper tise</w>
descri bes</w>
pla in</w>
tran scrip
doc trine</w>
stre ssed</w>
stre ets</w>
stre inu</w>
asse ssed</w>
ifi c</w>
lab our</w>
obser ving</w>
offici ally</w>
10 th</w>
consu late</w>
consu lates</w>
prin ting</w>
kore an</w>
fici ency</w>
ili ze</w>
sk i</w>
14 5</w>
14 th</w>
lec tures</w>
ough ed</w>
multi pli
coll abor
coll ecting</w>
mater nity</w>
mid night</w>
ace tic</w>
dete ction</w>
repli cating</w>
communi cable</w>
pathogen ic</w>
pathogen icity</w>
us ers</w>
grad ing</w>
grad uation</w>
gene tics</w>
cr ash</w>
detec ting</w>
reser ved</w>
separ ated</w>
separ ately</w>
form ally</w>
proper ties</w>
buil t</w>
impro ved</w>
occu pied</w>
ow ner
manufactu rers</w>
encour ages</w>
geno mes</w>
geno mic</w>
chemi st</w>
sequen cing</w>
spor ting</w>
pregn ancies</w>
bal lots</w>
pack ages</w>
succe eded</w>
hun dred</w>
dan ger</w>
connec ted</w>
sensi tive</w>
50 5</w>
dist or
occur ring</w>
consider ations</w>
broad ly</w>
fle et</w>
moder na</w>
focu sing</w>
mechani cal</w>
28 7001</w>
respec tively</w>
dest inations</w>
fail ing</w>
discu ssing</w>
ff p</w>
ff in</w>
sco t
pool ing</w>
micro biology</w>
micro scope</w>
design ing</w>
establi sh</w>
smo king</w>
exclu ding</w>
monit oring</w>
interpre ted</w>
disrup tions</w>
viro logist</w>
dar ity</w>
pris on</w>
metho do
cip al</w>
overwhel m</w>
mach iner
wil ey</w>
wil dlife</w>
refu sing</w>
refu sal</w>
introduc ing</w>
introduc tion</w>
flo od</w>
grea test</w>
tele phone</w>
tele vision</w>
lic it</w>
speciali sts</w>
fas hi
glas ses</w>
joh n</w>
joh ns</w>
cb p</w>
pho to</w>
sor ts</w>
sor ry</w>
enfor ced</w>
roo ting</w>
extr action</w>
extra po
nucle oti
auto matic</w>
hon or</w>
replac ement</w>
compe ti
compe tition</w>
neighb our
lac king</w>
less ons</w>
beg ins</w>
home land</w>
home made</w>
mis information</w>
toil ets</w>
critici zed</w>
evalu ate</w>
ventilat or</w>
asp ect</w>
asp ects</w>
dilu tion</w>
theore tically</w>
appoin tments</w>
day 3</w>
fav or
comfor t</w>
far ms</w>
remain ed</w>
coo king</w>
itali ans</w>
spr inger</w>
she et</w>
expan ding</w>
classi fication</w>
77 1</w>
fru it</w>
twee t</w>
sun day</w>
sun light</w>
infla mmation</w>
shel ter</w>
gradu ate</w>
interven tions</w>
pha ges</w>
achi eved</w>
soli darity</w>
compon ent</w>
wai ved</w>
distinc tion</w>
h1n 1pdm
nar ro
load ed</w>
electro ly
electro static</w>
therap y</w>
nonimmigr ants</w>
zoono ses</w>
zi ka</w>
holi days</w>
func tioning</w>
meaning ful</w>
campai gn</w>
ama te
bat tle</w>
ign oring</w>
aci clovir</w>
sil ver</w>
sophi e</w>
deri ved</w>
deri vative</w>
drin king</w>
ig nored</w>
macro phages</w>
ske ptical</w>
archi ves</w>
correspon dent</w>
histori cal</w>
breast feeding</w>
funda mental</w>
objec tions</w>
hyper tension</w>
supple ment</w>
supple mental</w>
evacu ate</w>
fran k
inv asi
destruc tive</w>
aller gies</w>
defen se</w>
electron ic</w>
hypothe si
reb ate</w>
alve olar</w>
sex u
protoco ls</w>
plat forms</w>
discour age</w>
recomb ination</w>
consul tation</w>
neutrali zing</w>
phenomen on</w>
brit ain</w>
mh v</w>
mck ibb
ox ford</w>
nej m</w>
expe lled</w>
expor t</w>
veri fy</w>
mobi le</w>
furl oughed</w>
influen ced</w>
comor bidities</w>
suspici on</w>
amb i
blan ket</w>
ccu s</w>
dash board</w>
eti quet
ema ils</w>
kit chen</w>
intru sive</w>
tighten ing</w>
teach ers</w>
seat tle</w>
poor ly</w>
well being</w>
ration ale</w>
couri ers</w>
turk ish</w>
obste tri
nicovi deo</w>
cardi o
clari fy</w>
exacer b
2863 287001</w>
statisti cal</w>
exclusi vely</w>
educa tional</w>
jama ica</w>
allevi ate</w>
discla imer</w>
inflamm atory</w>
lombar dy</w>
229 e</w>
cke st</w>
psy cho
uv c</w>
anten atal</w>
rese mb
relu ct
online library</w>
albe it</w>
accommo dation</w>
atlant a</w>
illin ois</w>
unprece dented</w>
prolifer ate</w>
lais sez</w>
bucha rest</w>
ophar yn
adole scents</w>
hepati tis</w>
toky o</w>
afai k</w>
monet ary</w>
guine a</w>
spectru m</w>
empiri cal</w>
anticipa ted</w>
ambul ance</w>
owner ship</w>
machiner y</w>
h1n1pdm 09</w>
mckibb in</w>
etiquet te</w>
0 4
0 c
0 m</w>
1 2
1 03</w>
1 19
1 50</w>
1 pt</w>
2 50</w>
3 3
3 9
3 4</w>
3 7</w>
3 02</w>
4 5
4 7
4 23
5 1</w>
5 7</w>
5 39</w>
6 7
7 0
8 9</w>
8 1</w>
9 2</w>
9 3</w>
a v</w>
a u</w>
a tives</w>
b n
b d</w>
b n</w>
b c</w>
b on</w>
b and</w>
b ent</w>
b ers</w>
b ase</w>
b age</w>
b ling</w>
b 26
c it
c ly</w>
c cal</w>
c ans
c als</w>
c ream</w>
d ant</w>
d ently</w>
d ging</w>
e e
e g
e e</w>
e ds</w>
e ar</w>
e ments</w>
e than
e theless</w>
f en
f ers</w>
f low
g ha
g ment</w>
g ir
g ating</w>
g ged</w>
g lor
g aps</w>
g b26
h ing</w>
i on</w>
i le</w>
i sa
i red</w>
i jing</w>
j i
j i</w>
j ay</w>
k a
k r</w>
k age</w>
l li
l ds</w>
l pr
l 188</w>
m c
m or</w>
m in</w>
m so
m all</w>
m ale</w>
m box</w>
m organ</w>
m l188</w>
n t</w>
n i</w>
n ect</w>
n ls</w>
n gt
o k
o so
o ms</w>
o sc
o mission</w>
o sh</w>
o logy</w>
o mitted</w>
p ru
p un
p han</w>
p lots</w>
p raise</w>
p 0m</w>
r r
r y
r he
r ay</w>
r bd</w>
s f
s g
s 1</w>
s in</w>
s ate</w>
s ali
s ong</w>
s sage</w>
s core</w>
t c</w>
t ac
t an</w>
t ance</w>
t ough</w>
t ari
u l</w>
u bi
u sage</w>
v 2</w>
v on</w>
v as
v an</w>
w s
w p</w>
w in</w>
w ad
w ns</w>
w ire</w>
x ing</w>
y en</w>
y ard</w>
y ours</w>
y ale</w>
y lor</w>
z x
z on</w>
z uri
th at
th ening</w>
in j
in y</w>
in no
in en</w>
in ad
in he
in spec
in cial</w>
in ability</w>
in duced</w>
an ers</w>
an alo
re al
re act</w>
re open</w>
re produce</w>
re aching</w>
re purchase</w>
re posit
ti e</w>
ti m</w>
er als</w>
er adi
co ding</w>
co ol
co infection</w>
co vs</w>
co ccal</w>
en sion</w>
en dly</w>
ar u</w>
ar gen
ar range</w>
ar xiv</w>
te e
al er
al ar
al and</w>
al es</w>
al ong
or f
or dering</w>
or phan</w>
vi l
vi se</w>
vi su
vi ri
vi tro</w>
ro ad
ro ck</w>
ro les</w>
ro lled</w>
ro che</w>
it h</w>
it ude</w>
st ating</w>
st rep
ca ta
ca tive</w>
ca sts</w>
ca mer
ca ps</w>
ca kes</w>
ac o</w>
ac et
ac ids</w>
ac knowle
no t
no des</w>
as s</w>
as is</w>
as ka</w>
at tr
at tri
at lan
at eral</w>
at tracted</w>
li g
li ties</w>
li sting</w>
li ved</w>
li zed</w>
li tis</w>
wh il
ha bit</w>
ha bits</w>
ha em
si a</w>
si c</w>
si do
si der</w>
si zes</w>
the red</w>
lo cally</w>
lo wered</w>
de l</w>
de an</w>
de por
de tri
de fine</w>
de graded</w>
su b</w>
su stained</w>
un d</w>
un al</w>
un hi
un its</w>
un expected</w>
un dance</w>
un usual</w>
un necessarily</w>
un realistic</w>
se p
se at</w>
se st</w>
se aled</w>
se inen</w>
yo ga</w>
ri d
ri gh
ri cane</w>
mp y</w>
ma x</w>
ma gn
le u
le ans</w>
le aning</w>
be ars</w>
be lon
be came</w>
be gun</w>
be ijing</w>
sp las
sp hate</w>
con sen
con stra
con cre
con fusion</w>
con nect</w>
ho c</w>
pro of
pro pri
pro test</w>
pro lon
pro jec
pro py
pro secu
ur u</w>
ur i</w>
ur ing</w>
ur ged</w>
ab undance</w>
ne ys</w>
ne ther
po d
po ses</w>
po sting</w>
po is
po ore
ch i</w>
ch in</w>
ch un
la mp</w>
me work</w>
me ters</w>
me dary</w>
me ssage</w>
so de</w>
mi ss</w>
mi tes</w>
mi rr
bu ted</w>
bu rea
bu yers</w>
ex p</w>
ex it</w>
ex cre
ex cess</w>
ex press</w>
ver an
ver se</w>
op tional</w>
op position</w>
op hen</w>
inf e
inf ant</w>
fi li
fi de</w>
fi able</w>
ta min
ta tional</w>
ta pe</w>
ad e</w>
ad opt</w>
pe s
pe w</w>
pe ll</w>
pe tition</w>
sa ke</w>
sa ved</w>
sa ges</w>
qu a
cor relation</w>
ci ally</w>
ci sc
ci dal</w>
ci vets</w>
fe ver
fe lt</w>
fe llow</w>
fe male</w>
sh ar
sh es</w>
sh ir
sh ale</w>
do se</w>
do ses</w>
do ws</w>
mo le</w>
mo dif
mo squi
pre fer</w>
ap ers</w>
ap ps</w>
he dge</w>
per carbonate</w>
per acetic</w>
to we
to ol</w>
ce le
peop le
ge e</w>
ge al</w>
wor th
wor sen
wor sen</w>
wor rying</w>
wor thy</w>
go v
go p</w>
lu x
ir in</w>
ren ko</w>
20 9</w>
20 14</w>
20 12</w>
bo on</w>
bo dy
bo ston</w>
bo iling</w>
ssi an</w>
sti gma</w>
rea ming</w>
fac t
cu lar</w>
pa p</w>
pa kistan</w>
pa ul</w>
pu ri
gi tis</w>
gi veness</w>
mu co
ra mb
ra is
ra ab</w>
mb ur
mb ia</w>
cou ples</w>
comp rises</w>
sc ary</w>
sy ria</w>
cont ents</w>
cont acting</w>
ev es</w>
ing u
gu y</w>
gu lar</w>
coun c
wi der</w>
wi dow</w>
inc redi
inc rements</w>
comm unal</w>
pl ate</w>
ht m</w>
ol i</w>
ani me</w>
min ne
min ating</w>
out look</w>
out lined</w>
for bi
for mation</w>
for giveness</w>
imp re
tu de</w>
tu red</w>
tic ity</w>
wa sting</w>
wa ste</w>
ser ved</w>
fa m</w>
fa ke</w>
fa res</w>
fa mous</w>
mar ke
mar ks</w>
ef ficiently</w>
ef ficiency</w>
gr ounds</w>
lin ing</w>
cur few</w>
rec tan
speci fy</w>
stu died</w>
ten ant</w>
fin ds</w>
fin ance</w>
fin del</w>
hu bs</w>
prob es</w>
sen ior</w>
trans late</w>
fir stly</w>
ari se</w>
pri ced</w>
pri cing</w>
na mes</w>
na vig
like wise</w>
ga ins</w>
uni on</w>
prote in
publi cly</w>
inter vie
mer son</w>
exp and</w>
exp ire</w>
exp ands</w>
stan ford</w>
ph y</w>
clo thes</w>
clo sest</w>
brea k
brea king</w>
han g</w>
sin sider</w>
read er</w>
cer ti
differen ti
differen tial</w>
with drawn</w>
bi di</w>
bi lities</w>
dec id
pr an
pr one</w>
gener ating</w>
appro aches</w>
bac ks</w>
dro ps</w>
dro medary</w>
cle ared</w>
cle arer</w>
cd c
sto od</w>
sto ol</w>
str act</w>
str ack</w>
ess entials</w>
nee d
repor ters</w>
acti vation</w>
acti vate</w>
acti vated</w>
posi tions</w>
respon dents</w>
id al</w>
pan cakes</w>
fl our</w>
ques tioned</w>
indi cations</w>
protec ted</w>
see med</w>
ob ama</w>
sec uri
imm uni
mode ling</w>
under go</w>
under stood</w>
gre ase</w>
pas sage</w>
sub si
sub mission</w>
sub set</w>
sub jec
sub stances</w>
sub strate</w>
man aging</w>
eng aging</w>
popu lar</w>
develo ps</w>
ty len
specifi ed</w>
ni osh</w>
car bon</w>
mat o
accor d
epi sode</w>
over reacting</w>
work out</w>
work places</w>
produc ing</w>
parti san
parti san</w>
vo tes</w>
00 000
stra tes</w>
stra ight</w>
sup po
issu ance</w>
fur in</w>
lon gest</w>
contin ents</w>
ss ors</w>
cre ation</w>
vari ed</w>
vari ability</w>
thre ats</w>
cau ght</w>
main stream</w>
logi c</w>
shi pping</w>
oc curren
pac ific</w>
contro ls</w>
sing ing</w>
ther ape
ny c</w>
dic t
mini mal</w>
exten ds</w>
war ded</w>
bio safety</w>
bio informa
den y</w>
19 1</w>
19 68</w>
clu es</w>
defin ite</w>
seri ousness</w>
lan ny</w>
ven ia</w>
cough ed</w>
fri dge</w>
fri endly</w>
confir mation</w>
confir ming</w>
hum oral</w>
distan ces</w>
concer ning</w>
fil es</w>
fil ers</w>
fil tering</w>
col our</w>
cha pter</w>
resi stant</w>
predic ting</w>
aly sis</w>
char t</w>
practi se</w>
oper ates</w>
mul ti</w>
bro ke</w>
bro wn</w>
inten tionally</w>
suf fered</w>
spo ts</w>
initi ative</w>
circu lates</w>
infecti vity</w>
ed t</w>
pla usible</w>
sha pe
sha pe</w>
ki er</w>
who les
com mission</w>
simp ler</w>
spe ech</w>
gar dens</w>
gar bage</w>
compani on</w>
obser vations</w>
consu lt</w>
announ cements</w>
prin ts</w>
prin cipal</w>
alcoho ls</w>
sk illed</w>
arri vals</w>
ligi ble</w>
compli ance</w>
compli cation</w>
14 4</w>
14 9</w>
correc tion</w>
survi val</w>
lun gen</w>
mal es</w>
web sites</w>
leng thy</w>
ace tamin
tax i</w>
contain ing</w>
contain ers</w>
communi cations</w>
non profits</w>
non etheless</w>
cover ings</w>
susp ension</w>
argu es</w>
argu ably</w>
desi red</w>
grad es</w>
clas s
san jay</w>
agre ements</w>
gene tically</w>
origin ally</w>
cal cul
institu tes</w>
capac ities</w>
carri es</w>
imple mentation</w>
reason ing</w>
line age</w>
line ages</w>
hospitali zation</w>
techni cally</w>
wo man</w>
trac e</w>
dela ys</w>
dela ying</w>
impro ves</w>
difficul ties</w>
occu p
ow ned</w>
immigr ant</w>
immigr ants</w>
manufactu red</w>
bon a</w>
rout ine
wal es</w>
chemi sts</w>
chemi cals</w>
sequen ced</w>
15 5</w>
lor d</w>
expla ining</w>
colle ges</w>
29 7</w>
bal an
bal lo
dr ying</w>
deb ts</w>
flu ore
flu shing</w>
accep ting</w>
trad es</w>
investi gated</w>
ble aching</w>
don or</w>
don ate</w>
wan g</w>
busines sinsider</w>
quali fied</w>
expen se</w>
determin es</w>
fra mework</w>
vali dated</w>
malari al</w>
noti fy</w>
may o</w>
dama ged</w>
identi ty</w>
bathro oms</w>
zo o</w>
intro duce</w>
diver si
law rence</w>
wea k
fail s</w>
discu sses</w>
sanitiz ing</w>
ff p2</w>
sw ab
micro sco
micro bes</w>
quo ting</w>
chron o
recor ds</w>
recor ded</w>
disp ersion</w>
compu tation</w>
compu tations</w>
justi fiable</w>
continu ously</w>
nas opharyn
obli ged</w>
smo kers</w>
top s</w>
exclu sive</w>
compen sate</w>
monit ored</w>
tradi tion</w>
tradi tionally</w>
interpre t</w>
economi es</w>
bur n</w>
cli ents</w>
viro logical</w>
prov incial</w>
post pone</w>
wei gh
wei gh</w>
territ orial</w>
reali stically</w>
surve ys</w>
pic king</w>
def end
conver ted</w>
conver sation</w>
feel ings</w>
flo or</w>
icon pdf</w>
rhin orr
demon str
presu me</w>
ja ze
mix ed</w>
bul let</w>
adju st
approxi mation</w>
vaccin ations</w>
immuno compromised</w>
fla g</w>
fla vi
fla wed</w>
squ are</w>
win ter</w>
win ning</w>
win dow</w>
win dows</w>
conven tions</w>
princi ples</w>
16 29</w>
neighb or</w>
insec ts</w>
russi an</w>
memb ership</w>
rai sed</w>
radi o</w>
000 1pt</w>
newsp apers</w>
evalu ating</w>
son aro</w>
swit ch</w>
swit ches</w>
rei mbur
repe ated</w>
asp x</w>
head ed</w>
phar yn
mortg ages</w>
techno logies</w>
far m</w>
fall ing</w>
represen ted</w>
represen tation</w>
disc ard</w>
beli eves</w>
expan sion</w>
rhino viruses</w>
48 7
ele ments</w>
fru its</w>
rn ases</w>
refl ects</w>
diarr hoea</w>
super market</w>
prohi bits</w>
prohi bited</w>
exce ll
exce ssive</w>
quanti le</w>
preci se</w>
preci sely</w>
recover ies</w>
characteri stic</w>
pha c</w>
stro ke</w>
stro phi
acce ssible</w>
wel come</w>
geor ge</w>
decreas ed</w>
antigen s</w>
harm less</w>
60 s</w>
97 3</w>
eth ics</w>
mani pu
nar row</w>
nur ses</w>
abor tion</w>
off ers</w>
expec tation</w>
relation ships</w>
therap ies</w>
job less</w>
pm c
var phi</w>
yu ki</w>
yu sha</w>
zi thro
dig ital</w>
toco ccus</w>
after wards</w>
canadi ans</w>
dismi ssed</w>
scien ces</w>
ax le</w>
ama zing</w>
gri ffin</w>
ut c</w>
ze aland</w>
coordin ate</w>
afri can</w>
sero logical</w>
sero types</w>
datas et</w>
stret ched</w>
110 1</w>
amp li
macro economic</w>
pal m</w>
pag ination</w>
inacti vate</w>
inacti vating</w>
reve al</w>
reinfor ce</w>
neg ligible</w>
correspon ding</w>
doz ens</w>
phil oso
funda mentally</w>
emph asis</w>
bun ch</w>
fran cisc
hur ricane</w>
tas ks</w>
tas mania</w>
acci dents</w>
acci dentally</w>
liber ties</w>
destruc tion</w>
propo sal</w>
miti gate</w>
informa tive</w>
valu able</w>
enzy me</w>
enzy mes</w>
volun te
volun tary</w>
cryst al</w>
hypothe tical</w>
11 th</w>
59 pm</w>
elimin ate</w>
gt ngt
tor onto</w>
indu stries</w>
enhan ced</w>
deduc tion</w>
agri culture</w>
agri cultural</w>
surroun ding</w>
muta ted</w>
rail road</w>
compre hen
counter tops</w>
strugg ling</w>
broadca ster</w>
fing ers</w>
muni ch</w>
sme ll</w>
indepen dently</w>
colu m
licen se</w>
dee med</w>
math sf</w>
spar se</w>
promo te</w>
exhi bited</w>
luck y</w>
compar able</w>
compet ence</w>
voi ded</w>
collap se</w>
repatri ation</w>
liter ature</w>
syncy tial</w>
extinc tion</w>
establish ment</w>
postpon ing</w>
guarante ed</w>
georgi eva</w>
bacteriopha ge</w>
power ful</w>
az ar</w>
four th</w>
gun s</w>
slo venia</w>
inhal ed</w>
acqu ire</w>
simul tane
conv ince</w>
hot spots</w>
surger ies</w>
stoch astic</w>
famili ar</w>
epitheli um</w>
bank rupt</w>
thresho ld</w>
electri cal</w>
shif ts</w>
suppli ers</w>
bah n</w>
pneumo coccal</w>
conveni ence</w>
calibr ation</w>
arrange ments</w>
pulmon ary</w>
bad ly</w>
hr v</w>
inevi tably</w>
repu table</w>
retail ers</w>
copy right</w>
assign ments</w>
unknow ns</w>
maca ques</w>
spra ying</w>
conjun ction</w>
expl ore</w>
samm lungen</w>
got ten</w>
bol sonaro</w>
surro gate</w>
compa tible</w>
ingredi ents</w>
guil ty</w>
oly mp
formul a</w>
nause a</w>
stock pile</w>
touri sts</w>
intest inal</w>
deno min
cataly tic</w>
pneumoni ae</w>
multipli cative</w>
methodo logy</w>
invasi on</w>
sexu ally</w>
obstetri cians</w>
cardio vas
exacerb ated</w>
0c m</w>
cans ino</w>
ethan ol</w>
gir ls</w>
glor findel</w>
gb26 26</w>
isa ac</w>
lpr s</w>
ubi qu
zuri ch</w>
reposit ory</w>
along side</w>
strep tococcus</w>
cata strophi
acet ate</w>
attri buted</w>
atlan tic</w>
whil st</w>
haem op
sido renko</w>
unhi de</w>
magn itude</w>
belon gs</w>
splas hing</w>
consen sus</w>
concre te</w>
prolon ged</w>
nether lands</w>
burea u</w>
shir t</w>
mosqui to</w>
body weight</w>
rais ers</w>
rectan gular</w>
navig ator</w>
securi ties</w>
subjec tive</w>
tylen ol</w>
partisan ship</w>
00000 000</w>
therape u
bioinforma tics</w>
wholes ale</w>
acetamin ophen</w>
calcul ating</w>
routine ly</w>
jaze era</w>
philoso phy</w>
francisc o</w>
gtngt kr</w>
comprehen sive</w>
cardiovas cular</w>
0 20</w>
0 25</w>
0 36</w>
1 11</w>
1 80</w>
1 25</w>
1 200</w>
1 23</w>
1 002</w>
2 co
2 70</w>
2 22</w>
2 2nd</w>
3 7
3 d</w>
3 19</w>
3 00
4 2
4 th</w>
4 15</w>
4 40</w>
4 90
5 4</w>
5 5</w>
5 th</w>
5 ps</w>
5 000</w>
6 6
6 00</w>
7 b
7 8</w>
7 11</w>
7 002</w>
7 32</w>
7 05
7 86
9 75</w>
a 3
a j
a i</w>
a mo
a ys</w>
a tively</w>
a ise</w>
a que
a yers</w>
a warded</w>
a zithro
a 036</w>
b or</w>
b al</w>
b oun
b als</w>
b med</w>
b last</w>
b son</w>
c s
c in</w>
c ys</w>
c ge</w>
c ine
d t</w>
d its</w>
d end</w>
d ged</w>
d trump</w>
d beta</w>
d ash</w>
d sight</w>
e m</w>
e q</w>
e la
e ase</w>
e mission</w>
e mulate</w>
e mia</w>
f b
f ate</w>
f illing</w>
f fee</w>
g ou
g as
g la
g lu
g ren
g ents</w>
g ory</w>
g ging</w>
g lance</w>
h r</w>
h o</w>
h il
h exa
h vil
i f
i u
i on
i ted</w>
i an</w>
i tive</w>
i ces</w>
i ous</w>
i stan
i ze</w>
i ber
i sture</w>
j af
j mp</w>
j ord
k p
k n</w>
k er
k en
k un
k id</w>
k ia</w>
k irin</w>
l ted</w>
l ent</w>
l lar</w>
l ours</w>
l ature</w>
l ene</w>
m v</w>
m on</w>
m un
m bo
m nu
n p
n c</w>
n ine</w>
n wa
n ancy</w>
n chronous</w>
n atal</w>
n sr</w>
o m
o be
o virus</w>
o sa
o to
o gh</w>
o ten
o vern
o tic</w>
o ster
o ta</w>
o ils</w>
p se</w>
p il
p our</w>
r o</w>
r is</w>
r as
r an</w>
r ally</w>
r ine</w>
r binom</w>
s d</w>
s 3</w>
s as
s lu
s inc
s sel
s ni
s ale</w>
s dashboard</w>
t s
t z</w>
t w</w>
t as</w>
t ter</w>
t ge
t place</w>
t ml</w>
t oral</w>
t night</w>
u a</w>
u so</w>
u ine</w>
u ting</w>
v is</w>
v ag
v ap
v age</w>
v ator</w>
v agu
w r</w>
w l</w>
w ore</w>
w ine</w>
w ary</w>
w ong</w>
w ill
y l</w>
y un
y ahu</w>
z i</w>
th i
th 2</w>
th ou
th on</w>
th al
th read</w>
th ecdc</w>
in t
in ter</w>
in tly</w>
in comes</w>
in jec
in coming</w>
in don
in correct</w>
an ec
an gi
an ning</w>
an gha
re m
re l</w>
re f</w>
re sur
re medi
re pri
re sted</w>
re side</w>
re ject</w>
re apply</w>
re lying</w>
re distribution</w>
re ward</w>
re lating</w>
re agent</w>
re productive</w>
re presents</w>
re solved</w>
re iter
re agents</w>
re pair</w>
ti p</w>
ti ght</w>
ti ous</w>
ti ghtly</w>
er i
er ous</w>
co le</w>
co lo
co ck</w>
co ins</w>
co infections</w>
co operating</w>
co operation</w>
co variance</w>
co py</w>
co pied</w>
co sme
co ffee</w>
en a</w>
en se</w>
en ce
en tive</w>
en coun
en tal</w>
en 13
en sures</w>
en stein</w>
ar ity</w>
ar med</w>
ar rest</w>
ar rested</w>
ou l</w>
ou p</w>
ou red</w>
te m</w>
te i</w>
te es</w>
te as
te ds</w>
te tra
te mber</w>
te dro
on er</w>
on oun
on tari
on erous</w>
al ties</w>
al distancing</w>
al tun
al thy</w>
or i</w>
or leans</w>
vi d</w>
vi sed</w>
vi et
vi ct
ro y</w>
ro of</w>
ro me</w>
ro por
ro dents</w>
ro gers</w>
ro bust</w>
it ate</w>
it ous</w>
st ac
st one</w>
st ation</w>
st ack</w>
st reaming</w>
st altun
ca ms</w>
ca mb
ca red</w>
ca tho
ca regi
ca rer</w>
ac art</w>
ac custo
ac counting</w>
no on</w>
no ve
no one</w>
no is
no mination</w>
no lo</w>
no wad
as ks</w>
as sure</w>
as signed</w>
di y</w>
di stric
di re</w>
di alysis</w>
ec k</w>
ec ht
li d</w>
li m</w>
li st
li ation</w>
li am</w>
li kes</w>
li echt
ha mp
ha ble</w>
ha plo
ha gel</w>
si de
si gma</w>
si ckest</w>
the ses</w>
il a</w>
ru sh</w>
ru ns</w>
ru ral</w>
lo s</w>
lo ses</w>
lo sis</w>
lo west</w>
lo ops</w>
lo aned</w>
de x</w>
de al
de fec
de my</w>
de ple
de scen
de ep
de va
de plo
de ut
de sper
su e</w>
su stain
un infected</w>
un used</w>
un limited</w>
un safe</w>
un law
un detected</w>
un comfortable</w>
un cooked</w>
un noticed</w>
un folding</w>
se al</w>
se wing</w>
se dly</w>
se ller</w>
se gments</w>
se oul</w>
yo ko
ri d</w>
ri an</w>
ri ck</w>
ri ot</w>
ma ps</w>
ma tei</w>
le i
le y</w>
le ase</w>
be ll</w>
be ings</w>
be au
be ach</w>
be lief</w>
sp ag
sp df</w>
con ce
con feren
con sequ
con stantly</w>
ho les</w>
ho ods</w>
ho gue</w>
ho arding</w>
pro spec
pro ved</w>
pro pen
pro val</w>
pro phy
ur ging</w>
ab le
ab use</w>
ab ilize</w>
ab stract</w>
ne l
ne ten
ne ls</w>
ne war
ne br
po x</w>
po ver
po ons</w>
ch t</w>
ch ri
ch ur
ch arities</w>
la u
la x</w>
la virus</w>
la ir</w>
la ges</w>
la vage</w>
me e</w>
me ts</w>
me ta
me tal</w>
me dr
me ets</w>
tion s
tion ality</w>
tion ately</w>
so a
so l</w>
so ft</w>
so ta</w>
so ak</w>
tr as
tr ation</w>
tr ash</w>
tr apped</w>
mi mic</w>
mi che
mi ssed</w>
mi rac
bu l</w>
bu ck</w>
bu mp</w>
bu sh</w>
bu yer</w>
bu sy</w>
bu cket</w>
bu mpy</w>
ex pre
ex cer
ex pedi
ver sa</w>
ver tical</w>
op ening</w>
op pon
op sdashboard</w>
inf er
inf er</w>
inf ty</w>
inf late</w>
fi f
fi g</w>
fi x</w>
fi dd
ta ker</w>
ad here</w>
ad mitted</w>
ad option</w>
ad rian</w>
pe l</w>
pe tting</w>
sa mine</w>
sa int</w>
sa gents</w>
we st
we ap
cor ps</w>
cor ner</w>
cor relations</w>
ci pl
ci tes</w>
sh i</w>
sh at
sh ore</w>
sh ire</w>
sh rou
sh rin
sh iny</w>
sh tml</w>
sh angha
do c</w>
do es
do cs</w>
mo o
mo vi
mo isture</w>
pre fer
ap y</w>
ap point</w>
ap preci
he ight</w>
per u</w>
per su
per mits</w>
per ception</w>
to t
to oth</w>
to wns</w>
ce x</w>
ce ts</w>
ce ase</w>
ce ll
infec teds</w>
ge ous</w>
ge town</w>
wor n</w>
wor ding</w>
go ve</w>
go ld</w>
lu p</w>
lu mp</w>
lu cent</w>
lu zon</w>
whi che
ke ogh</w>
du st</w>
du ci
du ke</w>
du ms</w>
corona viru
ir responsible</w>
ren al</w>
ren ces</w>
ren ters</w>
20 6
20 2</w>
20 200
20 degc</w>
bo t</w>
bo y</w>
bo ss</w>
bo son</w>
bo dily</w>
bo eing</w>
ssi vely</w>
sti t
sti r</w>
sti mate</w>
fac ing</w>
cu ts</w>
cu losis</w>
pa in
pa ys</w>
sur ge
pu lling</w>
pu mping</w>
pu zz
pu bmed</w>
gi sh</w>
mu tual</w>
mu sic</w>
par is</w>
par ked</w>
par asi
par lours</w>
ra p</w>
mb ent</w>
hi king</w>
gen tly</w>
gen eva</w>
gen uine</w>
af m</w>
af fa
af ore
sc ales</w>
sc ramb
sc anning</w>
cont acted</w>
cont act
mon key</w>
mon aco</w>
ing ent</w>
gu ard</w>
gu lf</w>
coun ties</w>
da e</w>
inc ur
inc enti
inc entive</w>
comm it</w>
pl in</w>
pl ed</w>
por tu
tra il</w>
ol ds</w>
ol ina</w>
min d
min or</w>
of covid</w>
out group</w>
out groups</w>
out bound</w>
out lets</w>
for k</w>
for th</w>
for mu
for ty</w>
for mer
for given</w>
for bid</w>
for tnight</w>
imp air
imp licit</w>
ye ar
ris ing</w>
ris kier</w>
tu be</w>
tu ber
tu bes</w>
medi an</w>
medi ated</w>
medi cally</w>
wa ves</w>
ju ly</w>
ju an</w>
ju dge</w>
ser ves</w>
dif fers</w>
fa ulty</w>
mar ked</w>
fec v</w>
der ail
gr ant</w>
tri age</w>
tri gge
lin d
lin ess</w>
ste ven</w>
cur y</w>
stu di
low ering</w>
ten s</w>
ten tion</w>
ten ne
ten ded</w>
ten sions</w>
fin kel</w>
sta kes</w>
sta ining</w>
hu g</w>
hu mp</w>
hu gely</w>
hu set
el ded</w>
el abor
ali zed</w>
ali gn</w>
ali zation</w>
pi g</w>
sen i
sen ator</w>
trans lations</w>
trans action</w>
trans lucent</w>
pri mers</w>
pri ority</w>
na i
na k</w>
na eco
na 2co
ga p</w>
ga stro
publi sh</w>
inter rup
inter acting</w>
inter vals</w>
reas suring</w>
sel ected</w>
mer ic</w>
mer cury</w>
stri ke</w>
ph ases</w>
clo ses</w>
clo sure</w>
han ded</w>
han cock</w>
read s</w>
bas es</w>
mas sac
fun erals</w>
au fen
dis h</w>
dis count</w>
dis solution</w>
dis charged</w>
dis charges</w>
dis semin
dis cipl
govern mental</w>
with standing</w>
bi o</w>
bi a</w>
bi gge
bi ol</w>
bi dity</w>
is lands</w>
is bn</w>
tw enty</w>
pr onoun
gener ation</w>
gener ous</w>
air way</w>
air bus</w>
air plane</w>
cle av
app le</w>
app ended</w>
chan nels</w>
surfac tant</w>
sto meric</w>
str ingent</w>
ess ence</w>
tur ning</w>
vir gin
vac ant</w>
pen alties</w>
repor tedly</w>
was ted</w>
pan go
see ing</w>
hel ped</w>
hel mets</w>
ob struc
sho pp
sho cks</w>
sho pped</w>
sho cking</w>
rela tives</w>
rela xed</w>
rela pse</w>
meas les</w>
all ed</w>
ck ers</w>
mode lled</w>
loo sely</w>
under mine</w>
under cooked</w>
gre w</w>
gre gory</w>
consi ders</w>
stric tly</w>
velo city</w>
pas sive</w>
pas sages</w>
sub type</w>
man ila</w>
resu lted</w>
cen tre
ple as
emer gence</w>
poli tically</w>
restric tive</w>
ni e</w>
ni c</w>
car olina</w>
mat t</w>
mat ched</w>
temp ting</w>
val ence</w>
syste matic</w>
sign al</w>
sign als</w>
high light</w>
quar t</w>
ger ing</w>
appli cable</w>
proce ed
proce ssed</w>
over ly</w>
over la
over see</w>
produc ers</w>
produc tivity</w>
che ll</w>
che ating</w>
individu ally</w>
vo id</w>
vo mit
vo mit</w>
up coming</w>
sm ith</w>
ear nings</w>
00 8</w>
stra tive</w>
sup pression</w>
fur t</w>
im f</w>
lon g
vie w
vie wing</w>
vie wed</w>
scho ol
scho lar
contin ental</w>
ss ful</w>
hy bri
mit chell</w>
influ ence</w>
elec tric</w>
elec toral</w>
scri pt</w>
assu mes</w>
ini an</w>
contro ller</w>
simil arities</w>
treat y</w>
spread ers</w>
ny u</w>
ny se</w>
ach ment</w>
mini stic</w>
mini mise</w>
mini sters</w>
mini stries</w>
inte lli
exten ding</w>
influenz ae</w>
thro wing</w>
affec ting</w>
war nings</w>
blo ckers</w>
bio medical</w>
clini cal
den ed</w>
den se</w>
den ying</w>
har sh</w>
har dw
har ris</w>
19 22</w>
19 94</w>
19 48</w>
19 60s</w>
jo intly</w>
stat news</w>
clu sters</w>
defin es</w>
ster y</w>
ster ile</w>
lear ners</w>
seri al</w>
ven d
ven ues</w>
pot ato
soci aldistancing</w>
cho ler
cho alveolar</w>
cho ices</w>
recei pt</w>
snee zed</w>
col lar</w>
conta geous</w>
expo se</w>
expo sures</w>
distribu ting</w>
dru m</w>
authori zation</w>
ba ylor</w>
cha ired</w>
cha otic</w>
cha plin</w>
resi stance</w>
appe al</w>
trave ler</w>
physi ology</w>
rep o</w>
rep lies</w>
cir cles</w>
glob ally</w>
deter i
deter ministic</w>
hal ts</w>
lit ude</w>
oper ated</w>
bro w
cri me</w>
cri tically</w>
tro ops</w>
inten se</w>
regi men</w>
regi ster</w>
regi stered</w>
suf fe
spo ke
initi ate</w>
initi atives</w>
circu late</w>
circu lated</w>
circu lative</w>
bor n</w>
bor is</w>
bor row</w>
ed u</w>
ed ingly</w>
tail ored</w>
pla ys</w>
sha h</w>
sha w</w>
sha ke</w>
tran scription</w>
doc king</w>
stre p</w>
stre ssful</w>
gra b</w>
ul tras
exi stence</w>
asy nchronous</w>
scre en
scre ens</w>
scre ened</w>
associ ate</w>
dri ven</w>
dri ft</w>
spe lled</w>
safe st</w>
fore casts</w>
defini tive</w>
gar den
tis er</w>
syn the
consu lting</w>
docu mentation</w>
kore ans</w>
14 3</w>
14 73</w>
lead ership</w>
correc ted</w>
multi tude</w>
coll ateral</w>
aw ard</w>
ber g</w>
mal aise</w>
detail ing</w>
web cams</w>
manufac ture</w>
non essential</w>
us able</w>
us da</w>
argu able</w>
desi c
agre es</w>
gene ous</w>
origin ation</w>
ima ges</w>
new sagents</w>
detec table</w>
environ ments</w>
cru i
cru de</w>
lat rine</w>
staf fs</w>
imple menting</w>
form at</w>
ai mee</w>
equ ations</w>
fat alities</w>
mor bidity</w>
trac es</w>
trac ked</w>
trac ker</w>
regar ds</w>
regar ded</w>
impro per</w>
impro vement</w>
hin dsight</w>
sani tiser</w>
hol m</w>
bon d</w>
wal ks</w>
fau cets</w>
15 1</w>
wat er
progra mm
scienti st</w>
29 1</w>
bru ce</w>
dr astic</w>
len ses</w>
visit ation</w>
grap hs</w>
pack aged</w>
succe ed</w>
succe ssion</w>
succe ssive</w>
bir d</w>
incu mbent</w>
cap su
cap abilities</w>
cap ital</w>
cap ita</w>
accep tance</w>
investi gative</w>
don ated</w>
instruc tion</w>
instruc ted</w>
instruc tors</w>
cul tures</w>
finan ces</w>
finan cing</w>
crow ding</w>
50 5
cy to
cy top
her pes</w>
her pes
las m</w>
dist ur
dist ingu
chr is</w>
vali dating</w>
schedu les</w>
schedu ling</w>
shu t
shu tting</w>
dama ges</w>
respec ted</w>
respec tive</w>
diver se</w>
summ ari
law suit</w>
fail ures</w>
nation ality</w>
sco res</w>
conduc ting</w>
precau tion</w>
13 th</w>
recor dings</w>
disp ropor
design ate</w>
design ation</w>
opini ons</w>
compu tational</w>
justi n</w>
justi ce</w>
justi fication</w>
continu ed</w>
aca demy</w>
ebo lavirus</w>
nas hvil
attemp ted</w>
exclu de</w>
exclu ded</w>
exclu des</w>
economi cal</w>
economi sts</w>
recogni zed</w>
viro l</w>
post mates</w>
post natal</w>
langu ages</w>
pat rick</w>
pris ons</w>
sli de</w>
teg nell</w>
simu lated</w>
progre ssion</w>
explan ations</w>
spea ker</w>
doub led</w>
alterna tively</w>
od d</w>
assi gn</w>
conver t</w>
conver gence</w>
adap t</w>
adap ting</w>
adap tation</w>
calcu lated</w>
advan ces</w>
flo at</w>
flo wn</w>
flo ors</w>
flo ating</w>
tex ts</w>
opti mize</w>
presu med</w>
gran d
gran ting</w>
speciali zed</w>
gg ling</w>
ja mes</w>
ja il</w>
mac ro</w>
slow ed</w>
than k</w>
revie wers</w>
arr ay</w>
categ ori
att ach</w>
att acks</w>
bot tle</w>
immuno logy</w>
scrip tions</w>
18 60</w>
fla ps</w>
my th</w>
my cin</w>
pho sphate</w>
squ ats</w>
squ ee
roo t</w>
depar ted</w>
depar ting</w>
conven tion</w>
mut ant</w>
mut ating</w>
mut ants</w>
nucle ic</w>
auto mated</w>
help fully</w>
advis er</w>
advis ory</w>
free doms</w>
amen ded</w>
hon est</w>
insi der</w>
care fully</w>
lif ting</w>
beta coronavirus</w>
compe ten
electr ons</w>
lac tic</w>
plo s</w>
insec tici
camp uses</w>
sett les</w>
less on</w>
less ly</w>
less ness</w>
home owners</w>
apparen t</w>
perman ently</w>
custo mer</w>
subsequ ently</w>
critici sed</w>
evalu ates</w>
30 th</w>
30 99</w>
40 1</w>
gy m</w>
gy ms</w>
gy naeco
gor finkel</w>
py re
py thon</w>
tin a</w>
reli ably</w>
repe tition</w>
retire es</w>
exemp tion</w>
exemp ted</w>
head er</w>
evol ve</w>
evol ved</w>
day light</w>
day s1</w>
stran gers</w>
hypo thesis</w>
techno logical</w>
restaur ant</w>
bla ming</w>
far mers</w>
fall out</w>
streng then</w>
she er</w>
declar ing</w>
classi c</w>
graphi cs</w>
journ ali
legis lature</w>
fru stration</w>
fru strated</w>
pani cked</w>
rn ase</w>
refl ect</w>
refl ected</w>
refl ecting</w>
coh or
devi ce</w>
mathema tics</w>
trou bling</w>
exce edingly</w>
quanti tative</w>
shel f</w>
blu e
ot m</w>
ance ster</w>
achi e
homo geneous</w>
geor getown</w>
wai ve</w>
membran es</w>
95 7</w>
bra z
bra tions</w>
sca red</w>
libr aries</w>
corti sol</w>
expec ting</w>
therap ist</w>
25 degc</w>
cn bc</w>
divi ded</w>
divi dend</w>
disa sters</w>
promp t</w>
labe ls</w>
met res</w>
after noon</w>
pursu ant</w>
bat ch</w>
gri m</w>
gri ef</w>
ign or
ign ore</w>
rac e</w>
sn ps</w>
uti lity</w>
insu rer</w>
anno y
anno ta
sil ly</w>
sud den</w>
apar tments</w>
datab ases</w>
antiretro virals</w>
week ly</w>
engine ers</w>
stret ch</w>
drin k</w>
hung arian</w>
donal dtrump</w>
patter ns</w>
100 k</w>
100 7</w>
amp litude</w>
ig g</w>
kid neys</w>
inci dence</w>
inci dents</w>
deca de</w>
confin ed</w>
domin ic</w>
face book</w>
histori cally</w>
wave length</w>
gau ge</w>
gau ssian</w>
breast feed</w>
examin es</w>
examin ed</w>
examin ations</w>
child care</w>
child hood</w>
child birth</w>
hyper inflation</w>
commo dity</w>
colleag ue</w>
optimi stic</w>
evacu ated</w>
edi tion</w>
nsp 3</w>
puni tive</w>
sar sr</w>
inst alling</w>
inst acart</w>
inser tions</w>
time frame</w>
vio lation</w>
vio lations</w>
liber ty</w>
les sen</w>
miti gation</w>
adeno viruses</w>
valu ed</w>
electron ics</w>
disap pe
disap proval</w>
concentra tions</w>
24 th</w>
bail out</w>
yi eld</w>
invi ted</w>
invi tation</w>
alve oli</w>
accu mulate</w>
deduc tible</w>
sex ternal</w>
leth al</w>
protoco l</w>
agu aaa</w>
tox in</w>
tox ic</w>
rail way</w>
scar ce</w>
gues stimate</w>
plat form</w>
discour aged</w>
measu red</w>
measu rements</w>
simpli fied</w>
displa ying</w>
displa yed</w>
photo graphy</w>
phenomen a</w>
115 2</w>
115 00</w>
fing er
indepen dents</w>
referen ced</w>
referen dums</w>
colu mbia</w>
ene my</w>
envelo pe</w>
envelo ped</w>
diplo matic</w>
dee per</w>
des k</w>
des ks</w>
promi sing</w>
modi fication</w>
compla ining</w>
compet ent</w>
phr ase</w>
substitu te</w>
bron choalveolar</w>
residu es</w>
residu als</w>
repatri ate</w>
liter ally</w>
descrip tion</w>
descrip tive</w>
assemb ly</w>
chick en</w>
chick ens</w>
syncy tia</w>
deliver ies</w>
extinc tions</w>
guarante es</w>
georgi a</w>
manife sts</w>
bacteriopha ges</w>
avi ation</w>
crea tive</w>
foun dation</w>
gal lup</w>
mn l</w>
woul dangerous</w>
remin der</w>
revo ke</w>
endo some</w>
life time</w>
sick en</w>
spa tial</w>
conser vative</w>
propor tional</w>
propag ate</w>
propag ation</w>
mel tdown</w>
take out</w>
satis fied</w>
geo graphic</w>
key boards</w>
tum ours</w>
full text</w>
fini shed</w>
suppres sing</w>
claim spdf</w>
threat ens</w>
land lord</w>
bene fici
suffi ce</w>
borro wers</w>
edit or</w>
play ground</w>
surviv ors</w>
australi an</w>
australi ans</w>
acceler ate</w>
metabo lic</w>
glyco samine</w>
algorith m</w>
algorith ms</w>
iv ably</w>
kal man</w>
kis sing</w>
ove resti
rs v</w>
inven tory</w>
red dit</w>
reti red</w>
refer ring</w>
reson ance</w>
cave at</w>
asser t</w>
absen tee
layo ver</w>
mem ory</w>
sole ly</w>
pepti de</w>
prescri bed</w>
terri ble</w>
bott len
paralle l</w>
imper ial</w>
volati le</w>
clou d</w>
choo sing</w>
collabor ation</w>
distor ted</w>
scot t</w>
fashi oned</w>
extrapo lating</w>
nucleoti des</w>
neighbour hood</w>
narro wer</w>
amate ur</w>
frank furt</w>
hypothesi zed</w>
psycho logy</w>
reluct ance</w>
cit ations</w>
flow s</w>
ok ay</w>
osc il
ry an</w>
rhe sus</w>
sf o</w>
ws j</w>
inj ury</w>
inad missibility</w>
inhe rent</w>
real donaldtrump</w>
argen tina</w>
aler t</w>
road s</w>
acknowle dging</w>
not withstanding</w>
lig and</w>
detri mental</w>
sep tember</w>
constra ints</w>
propri et
projec tions</w>
pod cast</w>
pois son</w>
poore r</w>
mirr or</w>
veran staltun
infe rences</w>
fever ish</w>
modif y</w>
towe ls</w>
worth less</w>
gov t</w>
fact ories</w>
incredi bly</w>
minne sota</w>
forbi dden</w>
marke tplace</w>
decid es</w>
accord ingly</w>
suppo sedly</w>
class room</w>
balan ced</w>
ballo on</w>
fluore scent</w>
microsco py</w>
chrono cidal</w>
nasopharyn geal</w>
rhinorr hea</w>
adjust ment</w>
reimbur sement</w>
pharyn gitis</w>
excell ent</w>
colum n</w>
simultane ously</w>
olymp ics</w>
denomin ator</w>
ubiqu itous</w>
catastrophi c</w>
haemop hil
therapeu tics</w>
aque ous</w>
azithro mycin</w>
cine mas</w>
ela stomeric</w>
glu co
hexa mer</w>
istan bul</w>
iber ia</w>
jaf e</w>
jord an</w>
mnu chin</w>
nwa a036</w>
osa ka</w>
oto h</w>
oten sin</w>
overn ight</w>
oster holm</w>
sinc lair</w>
tge v</w>
vag ue</w>
thou ghts</w>
indon e
anec do
angi otensin</w>
remedi es</w>
cosme tic</w>
ence ph
en13 6</w>
teas poons</w>
tedro s</w>
ontari o</w>
viet nam</w>
caregi vers</w>
accusto med</w>
nove mber</w>
nois y</w>
nowad ays</w>
distric ts</w>
liecht enstein</w>
haplo type</w>
deut sch
desper ately</w>
sustain able</w>
unlaw fully</w>
spag nolo</w>
conce ivably</w>
consequ ently</w>
propen sity</w>
prophy lactic</w>
neten yahu</w>
newar k</w>
nebr aska</w>
pover ty</w>
medr xiv</w>
miche l</w>
mirac le</w>
expedi ted</w>
shrou ding</w>
shangha i</w>
appreci ate</w>
whiche ver</w>
parasi tes</w>
affa irs</w>
afore mentioned</w>
scramb ling</w>
contact less</w>
incenti ves</w>
former ly</w>
tuber culosis</w>
trigge red</w>
huset ts</w>
elabor ate</w>
na2co 3</w>
massac husetts</w>
aufen thal
bigge st</w>
virgin ia</w>
proceed ings</w>
vomit ing</w>
clinical trials</w>
hardw are</w>
potato es</w>
choler a</w>
cytop lasm</w>
herpes virus</w>
dispropor tionately</w>
nashvil le</w>
absentee ism</w>
0 6
0 13
0 60
1 t</w>
1 m</w>
1 10</w>
1 100</w>
1 12</w>
1 60</w>
1 14
1 29
1 27</w>
1 28
1 26
1 ab</w>
2 f</w>
2 20
2 28
2 26
2 pro</w>
2 17
2 nm</w>
3 4
3 5
3 e
3 m</w>
3 a</w>
3 c</w>
3 000</w>
3 88</w>
3 29
3 65</w>
3 90
3 001</w>
3 rd</w>
3 68
4 000</w>
4 00
4 15
4 27</w>
4 21</w>
4 degc</w>
4 129
5 m</w>
5 90
5 368
6 5
6 b
6 12</w>
6 48</w>
6 degc</w>
6 957</w>
7 4
7 40
7 85</w>
7 59
8 4
8 6</w>
8 35</w>
8 209</w>
9 9
9 ec
9 th</w>
9 50</w>
9 40</w>
9 26
9 423
9 66
a q</w>
a th
a er
a it</w>
a po
a we
a sts</w>
a ten</w>
a ready</w>
a yer</w>
a 59</w>
a ka</w>
a waiting</w>
a ware
a tia</w>
a ahu</w>
b l
b s
b w
b y
b 2</w>
b f</w>
b u</w>
b b</w>
b in</w>
b ay</w>
b all</w>
b mb
b able</w>
b da
b hu
b au
b loo
b ran
b ania</w>
b lend</w>
b sc</w>
b tw</w>
c f
c f</w>
c p</w>
c in
c is</w>
c ting</w>
c enti
c ance</w>
c tu
c ran
c ite</w>
c ling</w>
c ry</w>
c 45</w>
c pid</w>
c pap</w>
d c
d l
d w</w>
d as
d th</w>
d rea
d pi
d led</w>
d entifi
d 50</w>
d 40
d aci
d binom</w>
e in</w>
e ly</w>
e li
e so
e mi
e ssi
e ms</w>
e sc
e sts</w>
e try</w>
e id
e da</w>
e ma</w>
e bs</w>
e gy
e dily</w>
e ea</w>
e 9ec
f k</w>
f l</w>
f 6</w>
f at</w>
f an</w>
f ter</w>
f wi
f tes</w>
f ty</w>
f tly</w>
f te</w>
f ans</w>
f ws</w>
f loo
f ant
f law</w>
f co</w>
f ficial</w>
f d40
g d</w>
g g</w>
g al</w>
g ru
g ar</w>
g ous</w>
g ari
g all
g lan
g lands</w>
g gish</w>
h h
h k
h s
h k</w>
h it
h as
h ing
h ance</w>
h our
h ori
h nd</w>
h iring</w>
h stan</w>
h ku
i o
i p
i er</w>
i at
i op
i can</w>
i ding</w>
i sts</w>
i ons</w>
i ficu
i zed</w>
i special</w>
i she
i ata</w>
i av</w>
j r</w>
j er
j ac
j et</w>
j am</w>
j air</w>
j am
j ha</w>
j ama</w>
j fk</w>
k v
k m</w>
k u</w>
k b</w>
k on
k in</w>
k as
k at
k ho
k ne
k ingly</w>
k ine
k n95</w>
k lm</w>
k pm
k eny
k az
l ou
l do
l ars</w>
l ty</w>
l low
l ens</w>
l ected</w>
l ero
l dome
l centre</w>
l 63</w>
l tc</w>
m f
m b</w>
m is</w>
m ma
m ur
m ere</w>
m ing
m ye
m ans</w>
m ite</w>
m sm</w>
m alia</w>
n g
n s
n k</w>
n h</w>
n j</w>
n it
n at
n il
n an</w>
n ag
n ing
n go</w>
n ish</w>
n ber</w>
n sim</w>
n rs</w>
n sp</w>
n l63</w>
o s
o o</w>
o x</w>
o es</w>
o st
o le</w>
o ec
o we</w>
o viruses</w>
o logist</w>
o kings</w>
o sha</w>
o ya</w>
p w
p 1</w>
p 3</w>
p ly</w>
p yo
p ts</w>
p ab
p ill</w>
p ra
p ence</w>
p ound</w>
p aga
p ct
p ills</w>
p default</w>
p nrs</w>
q e</w>
q u</w>
q st
q qu
r ar
r ha
r you</w>
r ad
r able</w>
r ant</w>
r ous</w>
r hy
r ats</w>
r ounds</w>
r inging</w>
r apped</w>
s 2</w>
s u</w>
s and</w>
s as</w>
s sa
s ers</w>
s nu
s ons</w>
s wee
s lot</w>
s 00
s geno
s nar
s rt</w>
s ltc</w>
t r</w>
t su
t ci
t one</w>
t ine</w>
t rea
t ence</w>
t ase</w>
t tes</w>
t te</w>
t ans</w>
t ps</w>
t ori
t fl
t ness</w>
t ful</w>
t ale</w>
t fully</w>
t ingly</w>
t arily</w>
t aries</w>
t able
u 6
u z
u an</w>
u ten
u mer
u cle
u ters</w>
u ber</w>
u tory</w>
u kra
v 1</w>
v ine</w>
v anu
v ine
v ana</w>
v wp</w>
w y</w>
w 2</w>
w i</w>
w ou
w on</w>
w ly</w>
w ab
w ol
w ound</w>
w ins</w>
w ned</w>
w ind</w>
w ounds</w>
w rap</w>
w inian</w>
x y</w>
x i</w>
x and</w>
x ation</w>
x ia</w>
x bus</w>
y mo
y ment</w>
y man</w>
y ana</w>
y ps
y navigator</w>
z a</w>
z an
z en</w>
z ers</w>
z ine</w>
z able</w>
z ger
z ak</w>
z agre
z ene
z c45</w>
th y
th en
th ed</w>
th rea
th ways</w>
th qua
th ai</w>
in o
in f</w>
in con
in qu
in ant</w>
in tra
in ju
in line</w>
in duce</w>
in ject</w>
in appropriate</w>
in san
in capac
in ches</w>
in stant</w>
in complete</w>
in accurate</w>
in bound</w>
in gestion</w>
in jected</w>
in sey</w>
in stantly</w>
in competence</w>
in compatible</w>
an n</w>
an an</w>
an ci
an da</w>
an gd
an gel</w>
an cers</w>
an sammlungen</w>
re n</w>
re a</w>
re in
re in</w>
re st
re un
re ation</w>
re ty</w>
re cur
re uni
re sting</w>
re my</w>
re dre
re fri
re purpo
re lies</w>
re considered</w>
re sort</w>
re started</w>
re schedule</w>
re jected</w>
re directed</w>
re acted</w>
re routing</w>
re opened</w>
re but
re elected</w>
re introduction</w>
re vise</w>
re tention</w>
re valence</w>
re usable</w>
re scheduling</w>
re ttes</w>
re uters</w>
ti can</w>
ti tions</w>
ti ve
ti ter</w>
ti red</w>
ti te</w>
ti ger</w>
ti um</w>
ti gation</w>
er ce</w>
er work</w>
er limit</w>
er archi
co op
co pi
co pe</w>
co lon
co br
co erci
co ping</w>
co gni
co don</w>
co operate</w>
co worker</w>
co logists</w>
co inci
co lomb
co v2</w>
en or
en er</w>
en di
en su
en ab
en sing</w>
en ni
en ue</w>
en na</w>
en tail</w>
en danger
en coded</w>
en bau
en hance</w>
ar ou
ar te
ar ts</w>
ar ms</w>
ar ded</w>
ar gy</w>
ar ching</w>
ar thro
ou ch</w>
te d
te s
te ll
te mp</w>
te aches</w>
te sexternal</w>
on ers</w>
on ni
al e
al u
al d</w>
al it
al as</w>
al th</w>
al ter</w>
al velo
al ming</w>
al giving</w>
al jazeera</w>
al lages</w>
al bania</w>
or ad
or ney</w>
or ox</w>
vi n</w>
vi er</w>
vi al</w>
vi ta
vi ra
vi enna</w>
ro b</w>
ro ch
ro ss</w>
ro ll
ro pe</w>
ro bb
ro mani
ro bot</w>
it n</w>
it als</w>
it ated</w>
it ching</w>
it oes</w>
it ynavigator</w>
st y</w>
st i</w>
st or
st worthy</w>
st abilize</w>
ca s</w>
ca mp</w>
ca shi
ca mps</w>
ac king</w>
ac tional</w>
ac he</w>
ac ket</w>
ac compli
ac knowledge</w>
no v</w>
no tion</w>
no de</w>
no min
no type</w>
no table</w>
as e
as m</w>
as ing</w>
as sion</w>
as say</w>
as says</w>
as set</w>
as tically</w>
as sau
as ticity</w>
di p</w>
di er</w>
di li
di ent</w>
di so
di ssi
di ous</w>
di str
di mini
di zed</w>
di strict</w>
di ums</w>
at u</w>
at z</w>
at so
at ra
at san
at orial</w>
ec ho
ec tive</w>
ec hi
ec ca</w>
li a</w>
li ter</w>
li ver</w>
li able</w>
li tes</w>
li ck</w>
li ghts</w>
li ability</w>
li zation</w>
li bri
li gence</w>
li ghtly</w>
li amen
li cked</w>
li tigation</w>
wh atso
ha z
ha ve
ha ir
ha ma</w>
ha vana</w>
si ll</w>
si mon
si ded</w>
si ls</w>
si astic</w>
si pping</w>
si err
si ena</w>
the at
the rea
the ast</w>
the lancet</w>
the atlantic</w>
il or</w>
il logical</w>
il liquidity</w>
ru bri
ru mstances</w>
ru bb
ru mor</w>
ru tter</w>
lo b
lo g
lo sure</w>
lo gs</w>
lo cking</w>
lo sar
lo si</w>
lo idal</w>
de m</w>
de fi
de sc
de fa
de ad</w>
de part</w>
de fer
de tro
de sk
de parts</w>
de pression</w>
de serve</w>
de valu
de activate</w>
su n</w>
su ses</w>
su pre
su ple
su ess</w>
su mi</w>
su ited</w>
un g</w>
un il
un wit
un ter
un just</w>
un anim
un true</w>
un paid</w>
un diagnosed</w>
un changed</w>
un defined</w>
un controlled</w>
un spent</w>
un insu
un expired</w>
un reliable</w>
un washed</w>
un authorized</w>
un married</w>
un pack</w>
un packaged</w>
se ed</w>
se me
se ap
se ques
se sho
se lls</w>
se mit</w>
se llers</w>
se wage</w>
se ssions</w>
se gment</w>
ri le</w>
ri fi
ri bo
ri ding</w>
ri ous</w>
ri bon
ri dden</w>
mp h</w>
mp ps</w>
mp aro</w>
ma m
ma co
ma to</w>
ma tions</w>
ma ke
ma ine</w>
ma ga
ma dri
ma tics</w>
ma uri
ma kers</w>
ma iling</w>
ma tized</w>
le st</w>
le an</w>
le one</w>
le af
le tic</w>
le ban
le gs</w>
le ur</w>
le yen</w>
le aners</w>
be y</w>
be n</w>
be ts</w>
be vel</w>
be side</w>
be lls</w>
be half</w>
be arance</w>
be arer</w>
be kistan</w>
sp y</w>
sp an
sp on
sp ro
sp an</w>
sp ill</w>
sp her
sp ur</w>
con ci
con tra
con fu
con fli
con temp
con stru
con sci
con sor
con ian</w>
ho p</w>
ho pes</w>
ho pper</w>
ho ped</w>
pro b</w>
pro ps</w>
pro active</w>
pro mised</w>
pro actively</w>
pro paga
ur s</w>
ur able</w>
ur ges</w>
ab c
ab c</w>
ab ate</w>
ab we</w>
ab gr
ab ide</w>
ab users</w>
ne g</w>
ne ts</w>
ne ver
ne dy</w>
ne cologists</w>
po on</w>
po le</w>
po op</w>
po sse
ch y</w>
ch at</w>
ch at
ch ase</w>
ch us</w>
ch ari
ch pdefault</w>
ch ymo
ch enbau
la y</w>
la i</w>
la wn</w>
la ye
la tin</w>
la tesexternal</w>
me al</w>
me tri
me ss
me ga</w>
wit nesses</w>
tion er</w>
tion able</w>
tion chus</w>
so lo
so lit
so pran
so oner</w>
so apy</w>
so malia</w>
tr i</w>
tr on</w>
tr yps
mi de</w>
mi zed</w>
mi chi
mi sun
mi uso</w>
bu b
bu ys</w>
bu ty
bu ster</w>
bu tt
bu ried</w>
ex ci
ex cu
ex trac
ex changed</w>
ex pedia</w>
ex tracted</w>
ver a</w>
ver ge</w>
ver age</w>
ver ifi
ver sammlungen</w>
op ho
op ting</w>
op lan
op pose</w>
op aci
op pel</w>
op revalence</w>
inf ir
inf ringing</w>
fi er</w>
fi res</w>
fi city</w>
fi cate</w>
fi bers</w>
fi ji</w>
fi erce</w>
ta g</w>
ta ed</w>
ta kers</w>
ta ji
ta mparo</w>
ad ing</w>
ad or</w>
ad ver
ad ra
ad vo
ad mits</w>
ad verse</w>
pe g</w>
pe tro
pe ace</w>
pe titions</w>
pe losi</w>
pe tri</w>
sa o</w>
sa gt</w>
sa vers</w>
sa tell
qu ir
qu ery</w>
qu adra
gh t
gh ta
we ars</w>
we bin
we ima
we althy</w>
fro m
fro zen</w>
ve y</w>
ve g</w>
ve in</w>
ve lcentre</w>
ve tte</w>
cor ri
cor na
cor rup
cor relate</w>
cor rid
ci ga
ci sa</w>
ci rumstances</w>
fe sti
fe males</w>
fe dex</w>
sh ou
sh ment</w>
sh ing
sh enz
sh ed
sh ining</w>
sh eri
do sing</w>
do mini
do led</w>
do ord
do cked</w>
do ha</w>
do bson</w>
do llar</w>
mo z
mo du
mo ly
mo squ
mo tor
mo meters</w>
mo ldo
ag gra
ag ement</w>
pre p</w>
pre ser
pre mat
pre clu
pre made</w>
pre dispo
pre ferences</w>
pre scriptions</w>
ap r</w>
ap hy
ap ical</w>
ap shot</w>
he y</w>
he li
he al</w>
he ating</w>
he aring</w>
he mor
he moly
per tu
per lman</w>
to ys</w>
to bac
to my</w>
to oth
to wer</w>
to ff</w>
to mato</w>
ce s
ce able</w>
ce lon
ce os</w>
infec tive</w>
ge o</w>
ge lman</w>
ge sture</w>
wor ded</w>
wor ries</w>
wor ldome
go als</w>
go tt
lu be</w>
lu ci
lu lar</w>
coron al</w>
ke en</w>
mm n</w>
mm en</w>
du al</w>
du mb
du ties</w>
corona viri
ter t</w>
ter y</w>
ter ly</w>
ter med</w>
ter ry</w>
ir d</w>
ir b</w>
ir re
ir is</w>
ir relevant</w>
ren thu
ren tine</w>
20 5
20 c</w>
20 78</w>
bo y
bo il
bo ld</w>
bo il</w>
bo ils</w>
bo thered</w>
bo wl</w>
bo vine</w>
ssi onal</w>
sti e</w>
sti cking</w>
fac ed</w>
cu e</w>
cu o</w>
cu es</w>
cu mb
cu ps</w>
cu shi
cu ba</w>
cu si</w>
cu rious</w>
cu vette</w>
cu toff</w>
pa use</w>
pa thways</w>
sur ge</w>
sur round</w>
pu pi
pu lled</w>
pu shed</w>
pu mps</w>
gi c</w>
gi ari
gi ft</w>
mu lates</w>
mu scu
par king</w>
par ole</w>
par liamen
par simon
oun dless</w>
ra m</w>
ra in</w>
ra mi
ra ys</w>
ra mp</w>
mb le</w>
mb abwe</w>
cou s</w>
cou ver</w>
cou ll</w>
hi s
hi o</w>
hi p</w>
hi st</w>
hi sto
hi erarchi
gen ous</w>
gen itals</w>
comp ute</w>
comp ul
comp lying</w>
comp iled</w>
comp ounding</w>
comp ass</w>
comp assion</w>
af fin
sc i</w>
sc ali
sc aling</w>
sc rapped</w>
sy mbo
cont ours</w>
mon o
mon oc
ing ness</w>
ing conditions</w>
gu ous</w>
gu est</w>
gu ards</w>
gu cht</w>
gu angd
coun ty</w>
coun ters</w>
da eg
da vis</w>
da vid</w>
wi red</w>
wi ves</w>
wi ping</w>
wi sely</w>
wi ped</w>
wi dth</w>
inc ite</w>
comm and</w>
comm ute</w>
comm erci
comm uting</w>
es is</w>
es ter</w>
es says</w>
es ri</w>
enti rety</w>
pl 2pro</w>
tra p</w>
tra its</w>
min i</w>
min ds</w>
min us</w>
min ster</w>
min eral</w>
tho ld</w>
tho red</w>
tho mas</w>
out going</w>
out right</w>
out ward</w>
out doors</w>
out lining</w>
out weigh</w>
for um</w>
for bearance</w>
imp ris
imp lan
imp licitly</w>
imp edi
imp acted</w>
ye ah</w>
ye llow
ris on</w>
ll o</w>
ll i</w>
can ts</w>
can ned</w>
medi care</w>
wa stage</w>
dise s
ju mping</w>
ser um</w>
ser bia</w>
ser oprevalence</w>
our g</w>
nu is
nu meri
dif fusion</w>
fa red</w>
fa vo
fu n</w>
fu el
fu ller</w>
mar k
mar kel</w>
ef s</w>
fec t</w>
der standing</w>
der bil
der gardens</w>
gr y</w>
gr ay</w>
gr oundless</w>
tri g
tri ck</w>
tri ck
tri bal</w>
tri phosphate</w>
tri vial</w>
av enue</w>
lin ation</w>
lin ens</w>
lin kage</w>
ste ine</w>
ste ph
ste ering</w>
cur b</w>
rec ru
rec ent
rec itation</w>
rec reation</w>
low ers</w>
low down</w>
ten der</w>
ten ance</w>
ten ure</w>
ten ess</w>
ten tative</w>
ten dency</w>
fin avir</w>
fin ish</w>
fin nish</w>
sta irs</w>
sta mping</w>
sta diums</w>
hu anan</w>
el a</w>
el er
el ding</w>
el ders</w>
el astic</w>
el ancers</w>
el lular</w>
ali an</w>
ali zing</w>
ali tis</w>
pi is
pi ck
sen ing</w>
sen ed</w>
sen tin
sen tence</w>
trans gre
trans mits</w>
trans missions</w>
some day</w>
pri ori</w>
bet ting</w>
na be</w>
na il</w>
na ils</w>
na uru</w>
na zi</w>
ga stri
ga ming</w>
ga ined</w>
ga thered</w>
ga mma
uni dentifi
publi ci
publi shing</w>
inter cep
inter ference</w>
inter bank</w>
inter rupt</w>
inter nationally</w>
inter continental</w>
possi bilities</w>
evi den
evi ctions</w>
qui ckest</w>
sel dom</w>
mer kel</w>
stri p</w>
stri al</w>
ph leg
ww w2</w>
mil len
han eda</w>
sin ks</w>
read ings</w>
lar ing</w>
lar ity</w>
mas ter</w>
duc ks</w>
vern on</w>
fun ded</w>
au di
au ctions</w>
au sgeno
au thored</w>
dis lo
dis allowing</w>
dis regard</w>
dis solved</w>
dis cos</w>
tre t</w>
govern ing</w>
govern ance</w>
govern ors</w>
with dra
with drew</w>
bi g
bi e</w>
bi tion</w>
bi as</w>
bi ases</w>
bi cycle</w>
bi pap</w>
exa mine</w>
is er</w>
is wab
ori e</w>
ori a</w>
ori ties</w>
tw o
dec lining</w>
dec eler
gener ously</w>
appro ving</w>
appro ves</w>
appro aching</w>
air planes</w>
air flow</w>
air bn
men t
men tary</w>
dro ve</w>
cle ans
cle arance</w>
cle aners</w>
app ing</w>
app endi
fo x</w>
fo cation</w>
fo ster</w>
fo mites</w>
fo mite</w>
effec ted</w>
chan cell
cd 4</w>
cd 14
sto po
sto cking</w>
str al</w>
str ay</w>
str aps</w>
vir suses</w>
vac u
vac ancies</w>
pen e
pen g</w>
acti ve
acti vator</w>
fli x</w>
fli es</w>
fli er</w>
fli xbus</w>
anti bacterial</w>
anti malarial</w>
anti pyre
respon ders</w>
was hable</w>
was hio</w>
pan try</w>
protec ts</w>
protec tions</w>
see gene</w>
ob tain
ob sole
ob stac
sho ck</w>
rela tes</w>
meas urable</w>
dur ability</w>
sec t</w>
sec tors</w>
tru mp
tru th</w>
tru sted</w>
all s</w>
thin ks</w>
mode led</w>
loo p</w>
are ema</w>
under line</w>
under water</w>
under diagnosed</w>
under reacting</w>
under valued</w>
gre en
consi sting</w>
regu lates</w>
regu latesexternal</w>
contr ary</w>
contr actual</w>
stric ter</w>
sub stance</w>
sub mitted</w>
sub total</w>
sub stack</w>
man n</w>
man ages</w>
man dated</w>
eng aged</w>
eng agement</w>
whe at</w>
whe el</w>
cen tric</w>
popu lac
popu larity</w>
eco logy</w>
emplo y</w>
emplo ying</w>
depen dence</w>
depen dents</w>
fol ks</w>
fol ded</w>
specifi cs</w>
specifi cations</w>
direc ts</w>
ran k</w>
ran ks</w>
ran ges</w>
ran ee</w>
tou ted</w>
tou ches</w>
restric ts</w>
ni le</w>
ni ig
ni ght
sear ched</w>
sear ches</w>
car t</w>
car lo</w>
fre elancers</w>
mat s</w>
temp 3</w>
cance ls</w>
quar rentine</w>
ger ia</w>
ger ator</w>
ger mans</w>
star ters</w>
appli cant</w>
appli cants</w>
proce ssor</w>
boo ts</w>
boo sting</w>
epi center</w>
over booking</w>
over dra
over lap</w>
over sight</w>
over loaded</w>
over dispersion</w>
over crowding</w>
over arching</w>
work ings</w>
work force</w>
addi tive</w>
parti al</w>
vo x</w>
vo ter</w>
up hold</w>
up shot</w>
up stream</w>
up dating</w>
up loads</w>
sugge stion</w>
ban ds</w>
ban dan
sm alle
stru st</w>
iso lates</w>
iso propy
ear ned</w>
ear thqua
nec essi
servi cing</w>
00 5
00 pm</w>
00 60
allow ance</w>
stra tions</w>
nor berg</w>
im ho</w>
resear ching</w>
pay er</w>
pay check</w>
chec k
chec ker</w>
scho lar</w>
scho lars</w>
contin ent</w>
contin uation</w>
ss is</w>
ss ory</w>
cre w
cre dits</w>
cau sal</w>
cau tious</w>
comple ate</w>
comple ment</w>
comple teness</w>
glo bul
mit ories</w>
mit erlimit</w>
cro ss
cro ssed</w>
cro atia</w>
main tenance</w>
proble matic</w>
pac ificu
neu tering</w>
ther mometers</w>
spread sheet</w>
200 6
200 m</w>
ny region</w>
rit a</w>
ach y</w>
eas ter</w>
exten sions</w>
war fare</w>
war zene
contrac tion</w>
blo wn</w>
bio technology</w>
particu late</w>
clini cs</w>
clini cians</w>
am ous</w>
den ds</w>
den gue</w>
har dy</w>
har ry</w>
har dly</w>
har bor</w>
har rison</w>
19 5</w>
19 80</w>
jo g</w>
stat utory</w>
defin ing</w>
samp lers</w>
samp ler</w>
ster ilize</w>
lear ns</w>
cl orox</w>
lan ding</w>
lan inf</w>
ven ture</w>
health ier</w>
confir ms</w>
pot entials</w>
hum ani
euro surveillance</w>
cho se</w>
cho ir</w>
ei chenbau
br ant</w>
br ings</w>
br ought</w>
br ace</w>
br acket</w>
supp lier</w>
concer t</w>
suppor ts</w>
suppor ters</w>
fil er</w>
fil tration</w>
col orad
col loidal</w>
solu ble</w>
distribu tions</w>
distribu tors</w>
dru nk</w>
abo ard</w>
ba o</w>
ba it</w>
ba king</w>
ba yes</w>
cha n</w>
cha mber</w>
cha ff</w>
resi dential</w>
resi dency</w>
lea f</w>
lea ked</w>
appe tite</w>
trave ls</w>
physi cs</w>
organi se</w>
organi zed</w>
organi sations</w>
organi zers</w>
experi ment</w>
cir ca</w>
predic ts</w>
glob algiving</w>
ben ding</w>
ben jam
char ity</w>
char les</w>
char tered</w>
char itynavigator</w>
hal ting</w>
oper ator</w>
oper ators</w>
mul ticity</w>
bro okings</w>
cri ti
cri tics</w>
fr actions</w>
fr actional</w>
diag nose</w>
diag ram</w>
fer ring</w>
inten tions</w>
regi mens</w>
suf focation</w>
cat ches</w>
spo ke</w>
ful fill</w>
initi ation</w>
circu m
dea f</w>
infecti ousness</w>
ed ge</w>
ed ges</w>
ed iting</w>
ed onia</w>
diagno sing</w>
diagno stics</w>
pla gue</w>
pla giari
sha me</w>
sha ped</w>
requ ests</w>
tran spa
tran script</w>
feder ally</w>
medic inal</w>
bin der</w>
ki ck</w>
ki os</w>
ki cked</w>
ki miuso</w>
atten dant</w>
who ever</w>
maj orities</w>
gra m</w>
gra ve</w>
gra ted</w>
gra vity</w>
gra dient</w>
ul ting</w>
com a</w>
com missions</w>
associ ating</w>
presi dency</w>
certain ties</w>
benef iting</w>
dri ed</w>
spe edily</w>
stand point</w>
fore most</w>
fore head</w>
gar den</w>
gar lic</w>
10 9
10 9</w>
10 1</w>
10 5</w>
10 16</w>
10 48
10 56</w>
10 73
10 93</w>
sch wei
sch warzene
youn gest</w>
consu med</w>
consu mers</w>
asympto matically</w>
asympto matics</w>
announ ce</w>
announ ces</w>
announ cing</w>
docu men
manu al</w>
remo ving</w>
remo vals</w>
equi libri
lie b</w>
compli cates</w>
signifi cance</w>
14 80</w>
14 28
14 74</w>
coll ate</w>
survi ving</w>
aw k
ber lin</w>
ber nie</w>
mal ta</w>
mal ay
mid st</w>
mid wife</w>
mid wives</w>
exerci sing</w>
leng thening</w>
tax ing</w>
scen e</w>
scen es</w>
repli cated</w>
repli cates</w>
deli ber
contain ling</w>
paren theses</w>
communi sm</w>
communi cate</w>
bit ing</w>
non stero
non resident</w>
non filers</w>
us c</w>
susp ending</w>
argu ing</w>
desi vir</w>
desi rable</w>
ep stein</w>
ly sis</w>
san ction</w>
san itary</w>
san juan</w>
agre sti</w>
gene tici
origin ate</w>
origin ates</w>
cr i</w>
cr abgr
cal m</w>
cal med</w>
new s
new by</w>
new ton</w>
new born</w>
presen ter</w>
presen ting</w>
presen tly</w>
bri dge</w>
bri ef</w>
carri age</w>
lat or</w>
lat ent</w>
sche mes</w>
reser ves</w>
separ ation</w>
form alism</w>
line cap</w>
hospitali sed</w>
ai ms</w>
ai de</w>
ai med</w>
fat ty</w>
mor tem</w>
wo ven</w>
tici sm</w>
dra g</w>
dra conian</w>
buil ds</w>
buil dings</w>
impro ving</w>
impro vements</w>
impro vise</w>
impro bable</w>
hin t</w>
hin ts</w>
hin der</w>
hin shaw</w>
ow ed</w>
conclu ded</w>
sol v
sol ver</w>
bon us</w>
ite m</w>
geno type</w>
basi cs</w>
15 8</w>
15 th</w>
15 00</w>
15 80
wat ers</w>
wat ery</w>
ext ant</w>
likeli hoods</w>
preval ent</w>
secre tions</w>
secre taries</w>
29 2</w>
29 3</w>
29 95
29 09</w>
29 9423
dr yer</w>
dr tedros</w>
dr astically</w>
len der</w>
deb ilit
ordin ate</w>
succe sses</w>
bir ths</w>
est oppel</w>
flu x</w>
spi red</w>
spi ked</w>
spi ky</w>
trad ers</w>
tempor al</w>
investi gate</w>
investi gating</w>
ble eding</w>
don ors</w>
don ations</w>
wan es</w>
wan ting</w>
wan der</w>
addre sses</w>
admini str
admini stered</w>
admini strative</w>
stimu lu
stimu late</w>
finan cially</w>
crow d</w>
50 199
cy tes</w>
cy pru
cy cling</w>
cy steine</w>
her ring</w>
quali fies</w>
quali fications</w>
stron gest</w>
determin ation</w>
syndro mes</w>
fra mes</w>
va x</w>
va tes</w>
va kia</w>
va tican</w>
vali date</w>
vali dity</w>
comb ine</w>
consider ably</w>
aero space</w>
fle a</w>
vis or</w>
vis cusi</w>
vis cous</w>
noti fication</w>
noti ceable</w>
may or</w>
focu ses</w>
identi cal</w>
invest ments</w>
mechani stic</w>
28 th</w>
28 73
fit ted</w>
fit zger
intro duces</w>
respec ts</w>
respec ting</w>
diver ge</w>
dest roy</w>
fig uring</w>
wea ve</w>
wea ken</w>
wea ker</w>
nation alities</w>
nation alism</w>
discu ssion</w>
discu ssions</w>
scientifi cally</w>
sanitiz ers</w>
ld nt</w>
tan k</w>
precau tionary</w>
europe ans</w>
13 7</w>
13 43</w>
13 423
bre ast</w>
alter nate</w>
disp ensing</w>
chlor ite</w>
continu um</w>
establi shing</w>
26 00</w>
smo ky</w>
top ics</w>
exclu sions</w>
interpre ting</w>
interpre tative</w>
disrup ts</w>
disrup ting</w>
recogni zes</w>
bur g</w>
bur ned</w>
dy k</w>
dy ad</w>
viro mes</w>
post al</w>
post ure</w>
poly protein</w>
poly sac
poly propy
pedi atri
wei ghts</w>
persi sts</w>
persi sted</w>
hydro pho
hydro xide</w>
bb b</w>
dar ker</w>
dar winian</w>
pat ro
pat ent</w>
pris oners</w>
pris tionchus</w>
sli ce</w>
scep ticism</w>
uno fficial</w>
simu litis</w>
progre ssing</w>
progre ssed</w>
progre ssively</w>
surve y
contribu tion</w>
contribu ting</w>
doub les</w>
alterna tives</w>
sal t</w>
wil ly</w>
wil son</w>
wil liam</w>
assi es</w>
assi st</w>
assi stant</w>
def ended</w>
conver ging</w>
conver verge</w>
dow sill</w>
compari sion</w>
compari sons</w>
calcu lations</w>
calcu lator</w>
edu cated</w>
tele conference</w>
tele briefing</w>
lic ence</w>
dead lier</w>
demon stration</w>
demon strates</w>
let ters</w>
constitu te</w>
constitu tionality</w>
even ly</w>
even tual</w>
glas sman</w>
mac y</w>
mac ron</w>
mac edonia</w>
slow s</w>
yn dyk</w>
than k
revie ws</w>
revie wer</w>
att ached</w>
att achment</w>
att orney</w>
unfortun ate</w>
bul let
bul lets</w>
bul gari
adju sting</w>
approxi mated</w>
immuno logical</w>
immuno suppres
immuno suppression</w>
immuno globul
contagi on</w>
contagi ousness</w>
18 9</w>
18 00</w>
cb c</w>
emb alming</w>
emb ourg</w>
emb assies</w>
fla p</w>
my stery</w>
squ at</w>
tal ks</w>
win dowsill</w>
roo ted</w>
short fall</w>
short cut</w>
nucle ases</w>
auto mation</w>
advis ories</w>
16 9
16 7</w>
16 th</w>
17 3</w>
17 th</w>
27 9</w>
27 th</w>
amen d</w>
pin o</w>
pap default</w>
pap ua</w>
pap erwork</w>
insi st</w>
insi cally</w>
care ers</w>
care ful</w>
care taker</w>
compe lled</w>
affi liation</w>
commer ce</w>
text book</w>
ko on
lac ed</w>
won ders</w>
ref val</w>
camp us</w>
sett led</w>
less er</w>
construc t</w>
home less</w>
mis leading</w>
mis fold</w>
mis folding</w>
teri ous</w>
custo dy</w>
radi ate</w>
primar ies</w>
decla res</w>
back fire</w>
back bone</w>
substan ti
000 2995
critici sms</w>
30 s</w>
30 13
40 s</w>
40 fd40
85 8</w>
85 2</w>
90 s</w>
90 79
gy necologists</w>
gor ously</w>
swit ching</w>
reli ability</w>
alle ged</w>
dilu ting</w>
dilu te</w>
congre ssional</w>
exemp tions</w>
appoin ted</w>
head s</w>
head aches</w>
head ache</w>
evol ves</w>
day 2</w>
day 1</w>
fav oring</w>
phar maco
stran ger</w>
stran gle</w>
hypo chlorite</w>
neutr ality</w>
easi est</w>
bla h</w>
bla med</w>
remain der</w>
streng thening</w>
disc lose</w>
disc arded</w>
hope ful</w>
wed dings</w>
she ets</w>
she eting</w>
premi er</w>
prece dence</w>
prece dents</w>
covid 19
declar ations</w>
where ver</w>
classi cal</w>
classi fy</w>
strong lifts</w>
legis lative</w>
48 e9ec
77 79</w>
bab y
ele vated</w>
swi mming</w>
swi ftly</w>
uri es</w>
refl ection</w>
end point</w>
ono mic</w>
super infection</w>
super nat
super visor</w>
mathema tici
bud ding</w>
bud gets</w>
bud sman</w>
execu tives</w>
infla tionary</w>
quanti ties</w>
quanti fy</w>
shel ves</w>
shel ters</w>
preci ous</w>
preci sion</w>
musc les</w>
commit tees</w>
gradu ating</w>
milli liter</w>
recover able</w>
phylo gen
phylo genetics</w>
phylo genetici
199 1</w>
phili ps</w>
characteri ze</w>
characteri zation</w>
blu ish</w>
kin dergardens</w>
pha ge</w>
rou tes</w>
sle y</w>
sle eved</w>
sle eve</w>
ance stral</w>
rever t</w>
rever sed</w>
acce ssing</w>
que en</w>
que ue</w>
prepar ations</w>
60 8
95 3</w>
97 8</w>
97 80
bar re</w>
bar rel</w>
bar celon
bra in</w>
ey al</w>
eth ical</w>
eth yl</w>
eth nic</w>
eth iop
sca b</w>
sca aahu</w>
alber t</w>
alber tans</w>
veterin arian</w>
off s</w>
off ent
expec ts</w>
expec tations</w>
expec tant</w>
electro chemical</w>
philipp ine</w>
adequ ately</w>
2f coronavirus</w>
2f www</w>
2f 2019</w>
46 7b
46 940</w>
46 9079
fabri cs</w>
kar u
roun ding</w>
roun ded</w>
yu an</w>
zi mbabwe</w>
religi on</w>
dig it</w>
dig its</w>
dig ging</w>
divi ding</w>
divi dends</w>
atri c</w>
degre es</w>
concep ts</w>
concep tual</w>
promp ted</w>
net flix</w>
opport uni
vege table</w>
appl es</w>
surpris ingly</w>
after ward</w>
numer ic</w>
pheno type</w>
occa sions</w>
pursu ed</w>
transpor ting</w>
ulti mate</w>
challeng ing</w>
challeng ed</w>
79 2</w>
ax y</w>
ax les</w>
moun tain</w>
moun tains</w>
rac ial</w>
sn apshot</w>
insu lated</w>
insu lin</w>
anno tation</w>
coordin ating</w>
coordin ated</w>
coordin ator</w>
notic es</w>
illu sion</w>
illu stration</w>
illu strates</w>
sud an</w>
aggre gate</w>
aggre gated</w>
specu late</w>
sero type</w>
decre es</w>
stret ching</w>
drin ks</w>
100 469079
110 46940</w>
38 2</w>
bc v</w>
hor ses</w>
hor nak</w>
hor sesho
pal ms</w>
ske wed</w>
inci dentally</w>
archi ve</w>
alo e</w>
ash ing</w>
lia o</w>
neg lec
neg lected</w>
neg ligence</w>
lap top</w>
expres ses</w>
expres sing</w>
domin ating</w>
domin ated</w>
face time</w>
face masks</w>
face shield</w>
histori c</w>
gau ss</w>
gau tret</w>
phil lips</w>
breast milk</w>
objec tive</w>
particip ate</w>
bacteri um</w>
down turn</w>
down load</w>
optimi zed</w>
optimi zation</w>
cortico id</w>
em bed
eur 250</w>
hur t</w>
hur ting</w>
nb k
nsp 5</w>
puni shed</w>
puni shment</w>
smar t</w>
inser t</w>
inser ted</w>
annu ally</w>
time line</w>
arran ged</w>
vio let</w>
accru ed</w>
discre tionary</w>
live science</w>
mamm alian</w>
prox y</w>
propo ses</w>
propo gative</w>
vehi cles</w>
scrat ching</w>
cryst allo
cryst alli
pharmac y</w>
nanop articles</w>
11 11</w>
bail ed</w>
elimin ated</w>
plu m
plu g</w>
plu sh</w>
plu mbers</w>
sac rifi
tor ate</w>
yi elds</w>
yi elded</w>
yout u</w>
reb ecca</w>
enhan cement</w>
viol ate</w>
viol ence</w>
viol ating</w>
iter ranee</w>
accu sations</w>
accu mulates</w>
discri min
set tle</w>
leth ality</w>
leth argy</w>
surroun ded</w>
surroun dings</w>
muta tes</w>
para medi
compre ssion</w>
scar ring</w>
gues ses</w>
gues sing</w>
ware houses</w>
ware housing</w>
jud ges</w>
jud gments</w>
jud gment</w>
responsi bilities</w>
measu re
recomb inant</w>
strugg le</w>
strugg led</w>
citizen ry</w>
simpli fication</w>
consul tations</w>
broadca sting</w>
photo meter</w>
occasi onal</w>
utili ties</w>
utili ze</w>
55 12</w>
ak in</w>
ak hstan</w>
je remy</w>
muni cip
mck insey</w>
sou p</w>
sou thern</w>
ski p</w>
ski ing</w>
ski pping</w>
ton ight</w>
allo cate</w>
math cal</w>
promi ses</w>
promi ssory</w>
promo ting</w>
pol ari
pol ite</w>
expe l</w>
exhi biting</w>
veri kios</w>
modi fications</w>
luck ily</w>
compla ints</w>
priori ti
priori tize</w>
priori tized</w>
phr ases</w>
phr asing</w>
substitu tion</w>
substitu tions</w>
voi ced</w>
furl ough</w>
bron x</w>
bron chi
collap ses</w>
frag ment</w>
frag ments</w>
assemb le</w>
assemb lies</w>
deliver ing</w>
suspici ous</w>
establish es</w>
postpon ed</w>
manife st</w>
manife stations</w>
power lifts</w>
22 2nm</w>
58 6</w>
avi an</w>
crea tes</w>
gal axy</w>
rin se</w>
slo vakia</w>
sse an</w>
sad s</w>
van couver</w>
van derbil
intr a</w>
intr insically</w>
inhal er</w>
ano m
ano de</w>
reci pi
reci pe</w>
reci pes</w>
remin ds</w>
revo cation</w>
enter tain
enter ovirus</w>
acqu iring</w>
life long</w>
sick ness</w>
defe at</w>
defe ating</w>
defe ated</w>
semin ars</w>
conv inc
conser vation</w>
hot line</w>
take away</w>
toler ance</w>
geo metric</w>
irrit ate</w>
irrit ation</w>
surger y</w>
compo sed</w>
fini shing</w>
stoch asticity</w>
understand able</w>
understand ably</w>
famili arity</w>
epitheli al</w>
claim ing</w>
threat ening</w>
thresho lds</w>
shif ted</w>
suppli ed</w>
bah rain</w>
bene fi
suffi x</w>
borro wing</w>
edit ors</w>
play grounds</w>
surviv ability</w>
tane ous</w>
conveni ent</w>
calibr i</w>
metabo lites</w>
emphasi ze</w>
arrange ment</w>
negoti ating</w>
negoti ations</w>
09 926
68 002</w>
ay am</w>
amu sed</w>
amu sement</w>
bil ayer</w>
ds dna</w>
dor mitories</w>
hall s</w>
kis sed</w>
mou se</w>
mou ths</w>
oli ver</w>
ove renthu
wri ter</w>
wri tes</w>
you ve</w>
you gov</w>
thri ve</w>
intu itive</w>
inven ted</w>
ange les</w>
ange la</w>
refer ral</w>
alli ance</w>
cave ats</w>
asser tion</w>
dele ted</w>
dele terious</w>
underesti mate</w>
absen tee</w>
absor b</w>
med itation</w>
med iterranee</w>
mem ori
pepti des</w>
box es</w>
box set</w>
bott les</w>
facilit ate</w>
facilit ates</w>
commen ted</w>
plas ma</w>
imper fect</w>
align ed</w>
explo red</w>
foo ter</w>
foo thold</w>
authorit ative</w>
authorit arian</w>
volati lity</w>
neuro logic</w>
cler ical</w>
clou ds</w>
choo ses</w>
transcrip tase</w>
distor ting</w>
scot land</w>
fashi on</w>
extrapo lation</w>
nucleoti de</w>
competi tive</w>
competi tors</w>
neighbour ing</w>
favor able</w>
favor ite</w>
narro wly</w>
electroly tes</w>
electroly te</w>
amate urs</w>
frank ly</w>
ambi guous</w>
psycho logical</w>
resemb le</w>
resemb les</w>
reluct ant</w>
04 5512</w>
119 590
45 68002</w>
47 40fd40
70 145</w>
ka iser</w>
mso chpdefault</w>
mso papdefault</w>
sali vary</w>
sali va</w>
zx 21</w>
that viable</w>
analo gy</w>
analo gous</w>
eradi cated</w>
cool ing</w>
cool er</w>
orf 8</w>
orf 1ab</w>
viri ons</w>
camer as</w>
attr active</w>
attr action</w>
depor t</w>
righ tfully</w>
proof ing</w>
proof reading</w>
prosecu ting</w>
chun k</w>
excre ment</w>
fili buster</w>
fili pino</w>
qua il</w>
shar p</w>
cele brations</w>
cele brant</w>
worsen ing</w>
lux embourg</w>
muco sa</w>
muco sal</w>
counc ils</w>
counc ilor</w>
impre ssive</w>
protein ase</w>
intervie ws</w>
break down</w>
certi ficate</w>
differenti ation</w>
pran ayam</w>
cdc says</w>
need lessly</w>
immuni zation</w>
occurren ce</w>
occurren ces</w>
dict ate</w>
shape 2</w>
shape 1</w>
occup ation</w>
diversi fy</w>
weak ening</w>
swab bed</w>
weigh ted</w>
defend ant</w>
defend ants</w>
demonstr ating</w>
demonstr ably</w>
flavi virus</w>
manipu lations</w>
volunte ers</w>
37 119590
490 4568002</w>
705 48</w>
786 111</w>
a3 21
amo y</w>
gla d</w>
if n</w>
iu ds</w>
ker kho
ken nedy</w>
np geo</w>
om budsman</w>
pil ot</w>
sas se</w>
slu ggish</w>
ssel s</w>
vap our</w>
vagu ely</w>
will ingness</w>
yun a</w>
thi ck</w>
injec tion</w>
rem desivir</w>
repri eve</w>
colo red</w>
encoun tering</w>
vict oria</w>
camb ria</w>
hamp shire</w>
deal ers</w>
defec tive</w>
deple te</w>
deep ly</w>
deva stating</w>
deplo yment</w>
yoko hama</w>
beau ty</w>
conferen cing</w>
prospec t</w>
nel finavir</w>
chri stie</w>
chur ches</w>
soa ked</w>
oppon ents</w>
infer ior</w>
fif th</w>
fidd ling</w>
west minster</w>
weap on
shat tering</w>
does n</w>
movi es</w>
prefer able</w>
persu ade</w>
tot alling</w>
coronaviru se</w>
206 79</w>
stit ching</w>
pain kill
surge on</w>
portu gal</w>
mind ful</w>
formu lated</w>
impair ment</w>
year s
derail leur</w>
lind sey</w>
tenne ssean</w>
seni ors</w>
nai ve</w>
interrup ted</w>
discipl ine</w>
pronoun ced</w>
cleav age</w>
pango lin</w>
obstruc tion</w>
shopp ers</w>
pleas ure</w>
overla ps</w>
long standing</w>
view point</w>
school ing</w>
scholar ship</w>
hybri d</w>
intelli gence</w>
vend ors</w>
deteri oration</w>
suffe rers</w>
spoke sman</w>
ultras ound</w>
screen shot</w>
garden ing</w>
synthe tic</w>
crui ses</w>
programm es</w>
distur bing</w>
distingu ish</w>
shut tered</w>
summari ze</w>
grand parents</w>
competen cies</w>
insectici de</w>
gynaeco logists</w>
journali sts</w>
blue print</w>
achie vement</w>
braz il</w>
ignor ant</w>
annoy ingly</w>
annota ted</w>
finger nails</w>
benefici aries</w>
overesti mated</w>
bottlen eck</w>
oscil lation</w>
propriet ors</w>
veranstaltun gen</w>
haemophil us</w>
gluco se</w>
indone sian</w>
enceph alitis</w>
deutsch e</w>
aufenthal t</w>
060 966
226 297</w>
400 02</w>
4129 279</w>
5368 70145</w>
759 4740fd40
99 00</w>
aer oplan
awe some</w>
aware ness</w>
bda 7594740fd40
bhu tan</w>
cf m</w>
das zak</w>
dpi width</w>
egy pt</w>
fwi w</w>
fant astic</w>
gru ency</w>
gall on</w>
hs v</w>
hit ting</w>
hku 1</w>
iat atra
kv r</w>
kon yndyk</w>
kne e</w>
kine tics</w>
kpm g</w>
keny a</w>
kaz akhstan</w>
mye litis</w>
ns w</w>
nit rile</w>
nil ly</w>
nag oya</w>
oec d</w>
pw c</w>
pyo genes</w>
pab p</w>
pct miterlimit</w>
qst 7</w>
qqu ad</w>
rar r</w>
rhy me</w>
snu ggling</w>
snar k</w>
tci d50</w>
trea ties</w>
tfl yer</w>
table spoons</w>
uz bekistan</w>
uten sils</w>
umer ation</w>
ukra ine</w>
vanu atu</w>
vine gar</w>
zagre b</w>
threa ten</w>
incon gruency</w>
inqu ire</w>
inju ries</w>
insan e</w>
anci ent</w>
reun ite</w>
reuni fication</w>
redre ss</w>
refri gerator</w>
repurpo sed</w>
rebut tal</w>
copi es</w>
cobr a</w>
coerci on</w>
colomb ia</w>
enor mous</w>
ensu red</w>
arou se</w>
arthro po
onni er</w>
vita min</w>
vira emia</w>
robb ins</w>
accompli sh</w>
diso bey</w>
dimini shed</w>
whatso ever</w>
sierr a</w>
therea fter</w>
rubri c</w>
losar tan</w>
defi c
defa ulting</w>
detro it</w>
desk top</w>
supre me</w>
suple ment</w>
unwit tingly</w>
unter sagt</w>
uninsu red</w>
seme ster</w>
ribo some</w>
ribon ucle
maga zine</w>
madri d</w>
leaf hopper</w>
leban on</w>
spher ical</w>
contra dic
confu sed</w>
confli cting</w>
contemp lating</w>
constru ed</w>
consor tium</w>
never theless</w>
posse ss</w>
chari de</w>
chymo tryps
laye red</w>
mess onnier</w>
solit ary</w>
sopran os</w>
misun derstanding</w>
exci mer</w>
verifi ed</w>
opaci ties</w>
infir med</w>
taji kistan</w>
advo cate</w>
petro l</w>
satell ite</w>
quir ks</w>
quadra tic</w>
webin ar</w>
weima r</w>
corna viruses</w>
corrid or</w>
ciga rettes</w>
festi val</w>
shing les</w>
shenz hen</w>
shed ding</w>
sheri ff</w>
doord ash</w>
mosqu itoes</w>
moldo va</w>
preser ving</w>
hemor rha
hemoly mph</w>
pertu ssis</w>
worldome ters</w>
gott lieb</w>
coronaviri dae</w>
pupi l</w>
muscu lar</w>
parliamen tary</w>
parsimon ious</w>
hierarchi cal</w>
affin ity</w>
scali se</w>
guangd ong</w>
daeg u</w>
commerci ally</w>
implan ts</w>
impedi ment</w>
yellow stone</w>
favo red</w>
trick y</w>
steph en</w>
piis 1473</w>
sentin el</w>
transgre ssors</w>
gastri c</w>
intercep t</w>
eviden ced</w>
phleg m</w>
millen ni
ausgeno mmen</w>
withdra w
airbn b</w>
appendi x</w>
chancell or</w>
cd14 7</w>
obsole te</w>
populac e</w>
niig ata</w>
overdra ft</w>
smalle st</w>
isopropy l</w>
earthqua ke</w>
necessi ties</w>
0060 86
pacificu s</w>
eichenbau m</w>
colorad o</w>
benjam in</w>
plagiari sm</w>
transpa rent</w>
1048 6957</w>
1073 786111</w>
schwarzene gger</w>
equilibri um</w>
nonstero idal</w>
crabgr ass</w>
1580 226297</w>
299423 467b
debilit ating</w>
50199 40002</w>
cypru s</w>
fitzger ald</w>
13423 8209</w>
polysac charide</w>
polypropy lene</w>
pediatri cs</w>
hydropho bi
bulgari a</w>
immunoglobul in</w>
0002995 732</w>
48e9ec f6</w>
phylogenetici sts</w>
barcelon a</w>
ethiop ia</w>
offent li
100469079 1</w>
horsesho e</w>
crystallo graphy</w>
crystalli sing</w>
vanderbil t</w>
09926 973</w>
overenthu siastic</w>
37119590 5</w>
kerkho ve</w>
060966 18</w>
bda7594740fd40 299423467b
iatatra velcentre</w>
chymotryps in</w>
bda7594740fd40299423467b 48e9ecf6</w>
