#version: 0.2 - Trained by `huggingface/tokenizers`
t h
i n
a n
th e</w>
r e
t i
e r
o n
o u
a r
e n
t o</w>
in g</w>
o r
i s</w>
e d</w>
o n</w>
e s</w>
a l
o f</w>
e r</w>
an d</w>
a t</w>
o r</w>
s t
i n</w>
a t
v i
i t
r o
l y</w>
a s
e c
a c
a n</w>
i c
o m
a l</w>
n o
ti on</w>
v e</w>
h a
e s
l e</w>
w h
th at</w>
d i
r u
l i
i l
e n</w>
l o
i t</w>
f or</w>
ar e</w>
s i
s u
d e
t r
s e
a s</w>
l d</w>
no t</w>
s e</w>
th e
u n
vi ru
b e</w>
c o
a b
c on
p ro
y o
t s</w>
yo u</w>
s p
l e
m a
er e</w>
p o
u r
e x
c h
en t</w>
c e</w>
b e
a m
r i
viru s</w>
w it
ou ld</w>
ha ve</w>
ti on
wit h</w>
s t</w>
th is</w>
o p
a tion</w>
b u
v er
s h
e l
a d
n e
q u
1 9</w>
in f
c om
m e
ou n
g h
f f
at e</w>
ou r</w>
i f</w>
ro m</w>
a y</w>
a p
t ed</w>
c or
f rom</w>
a g
m p
c an</w>
s o</w>
tion s</w>
er s</w>
h o
th er</w>
il l</w>
m i
d o
p e
i r
ou t</w>
u l
t h</w>
p re
m o
t e
or e</w>
c h</w>
t a
bu t</w>
v e
p er
w e
al ly</w>
the y</w>
k e</w>
y our</w>
om e</w>
b y</w>
w ill</w>
it y</w>
a u
p l
e t</w>
on e</w>
on a
th ere</w>
g o
a r</w>
w or
ti m
m ent</w>
o l
inf ec
re n
op le</w>
c i
an y</w>
a y
pe ople</w>
h e
cor ona
d s</w>
d u
in e</w>
u m
t er
as e</w>
w ould</w>
al l</w>
d o</w>
gh t</w>
ti c
vi d</w>
2 0
t er</w>
v er</w>
f e
p ar
ha s</w>
a i
corona virus</w>
g h</w>
d ing</w>
s es</w>
re a
co vid</w>
m ore</w>
es s</w>
o ther</w>
w e</w>
en ts</w>
b o
ab le</w>
wh o</w>
t ing</w>
ic h</w>
i m
c l
i s
wh ich</w>
c oun
s si
d e</w>
ti ve</w>
s ed</w>
s ome</w>
f ac
w as</w>
k ing</w>
p u
su r
h i
k e
con t
st r
ay s</w>
es t</w>
t o
ab out</w>
at ed</w>
d er</w>
ou gh</w>
he al
i r</w>
g i
g en
ou r
en ti
k s</w>
re d</w>
the ir</w>
s y
o d</w>
w n</w>
m y</w>
tr a
i es</w>
p a
re c
al so</w>
an ce</w>
an t</w>
w i
be en</w>
n o</w>
an s
no w</w>
a f
e v
tim e</w>
e m
g e</w>
u s</w>
as es</w>
in g
f i
s o
com m
p or
an c
sh ould</w>
heal th</w>
ou t
t ly</w>
g et</w>
es e</w>
g r
d ic
coun tr
m u
ar y</w>
e p
as t</w>
ri s
au se</w>
d er
l a
t t
ec t</w>
wh at</w>
ac c
b ec
ac t</w>
ma y</w>
th an</w>
h e</w>
al s</w>
f or
t u
ur e</w>
re sp
li ke</w>
ve l</w>
s ti
m on
ec i
b le</w>
ho w</w>
ren t</w>
2 0</w>
ver y</w>
ou s</w>
th o
ar s</w>
d ed</w>
re s</w>
te st
an s</w>
s c
f in
wh en</w>
di ff
on g</w>
a m</w>
s er
c ould</w>
j u
en ce</w>
s ing</w>
di se
s it
do es</w>
e t
a v
a tions</w>
0 0</w>
oun d</w>
per s
be t
m in
d ay</w>
c ur
on ly</w>
lo w
th ese</w>
ag e</w>
rea d</w>
at es</w>
infec ted</w>
b er</w>
t om
se l
c ases</w>
om e
g u
pu b
m any</w>
m e</w>
ai d</w>
f ir
y e
t y</w>
n um
cl u
viru ses</w>
t en
u p</w>
p p
or y</w>
u se</w>
C O
ar i
su ch</w>
de mi
p an
s am
es s
p le</w>
w ay</w>
th ing</w>
the m</w>
mo st</w>
th en</w>
s ome
V I
tion al</w>
e ff
f un
l l</w>
lo w</w>
d at
mp tom
CO VI
i mp
el l</w>
bec ause</w>
al i
tr ans
h tt
t e</w>
ti es</w>
ar ch</w>
wh ere</w>
COVI D</w>
po ssi
r a
b rea
p h
ne w</w>
re ad
it s</w>
du c
s en
dise ase</w>
pro b
W h
d ays</w>
p r
af ter</w>
a d</w>
c re
g n
w ere</w>
in ter
sp read</w>
f ore</w>
in a</w>
tra vel</w>
demi c</w>
st e
tho se</w>
s s</w>
ma tion</w>
diff e
ris k</w>
ju st</w>
i c</w>
li ke
a in
m il
p ri
sy mptom
ti c</w>
ver n
wi th
c es</w>
20 20</w>
pub li
d y</w>
or t
st u
ev en</w>
dat a</w>
ec on
qu es
htt p</w>
c lo
s in
ic al</w>
pers on</w>
m as
at er</w>
lo c
ne ed</w>
inf or
v ing</w>
ex p
be ing</w>
ap pro
ha d</w>
go vern
s aid</w>
ac h</w>
o ff
t re
re qu
c er
el l
symptom s</w>
h ome</w>
ma ke</w>
h an
l in
me dic
ing s</w>
b as
f u
t w
num ber</w>
a ir
b i
w s</w>
p le
ar d</w>
sti ll</w>
di s
l ess</w>
in to</w>
mi ght</w>
at e
c are</w>
g e
or s</w>
in clu
v acc
wor k</w>
we ver</w>
n a
h um
o c
f l
o b
vi s
di st
ex am
pa ti
w w
b ac
y ing</w>
possi ble</w>
p s</w>
ww w</w>
tr i
ic i
be fore</w>
f li
l ine</w>
countr ies</w>
ec ted</w>
like ly</w>
s ch
on s</w>
i le</w>
re g
il ity</w>
gen er
c ase</w>
st s</w>
c le
resp on
we e
h ere</w>
en d</w>
mu ch</w>
h el
k now</w>
d es
i d</w>
o w</w>
il l
co v</w>
infec tion</w>
mo de
at ing</w>
ssi on</w>
publi c</w>
t ur
do wn</w>
countr y</w>
d ro
wh ile</w>
se e</w>
sur e</w>
t est</w>
infor mation</w>
i d
l t</w>
sp eci
so ci
a re
o f
v ed</w>
v es</w>
ch an
e mp
re por
diffe rent</w>
out brea
tw o</w>
k no
th s</w>
pro vi
sel f</w>
T he</w>
st ate</w>
ex t</w>
fir st</w>
ic k</w>
ch ina</w>
co m</w>
pre v
m an
un der
per i
1 0</w>
or i
l es</w>
th r
me as
ques tion</w>
n ing</w>
al l
si on</w>
ta ke</w>
o ver</w>
ve lo
sam e</w>
w ell</w>
th in
re as
c u
pl ac
f ic
k ed</w>
m ar
a il
d ur
f o
an t
an ti
ar ly</w>
cont act</w>
c anc
g o</w>
pro t
vi r
lo o
l ic
s ars</w>
con si
sp it
a in</w>
l ar
l ong</w>
st ay</w>
str ic
m un
p ul
u sed</w>
govern ment</w>
m ents</w>
de velo
ho wever</w>
m s</w>
p en
ho spit
enti al</w>
c au
an y
exam ple</w>
th er
g er</w>
ne e
pl ic
em s</w>
pati ents</w>
en g
go ing</w>
pan demic</w>
thr ough</w>
at ory</w>
sit u
Wh at</w>
h is</w>
r an
dur ing</w>
e i
p as
u res</w>
v en</w>
tim es</w>
or t</w>
it ed</w>
outbrea k</w>
w er</w>
st ar
con tr
20 19</w>
im mun
u e</w>
medic al</w>
g re
m ed</w>
it e</w>
le ast</w>
am p</w>
mi ssion</w>
eff ec
t or</w>
we en</w>
ain st</w>
z e</w>
po in
ch il
ag ainst</w>
bet ween</w>
th ough</w>
c y</w>
wh e
u sing</w>
en t
un i
thin k</w>
ab ly</w>
qu ar
hel p</w>
d ent</w>
f ol
m at
c d
re stric
resp ir
k et</w>
p e</w>
t ru
i a</w>
ec tion</w>
go od</w>
bo dy</w>
fac e</w>
econ om
d re
du e</w>
lo g
po pul
di d</w>
lo t</w>
c ri
c an
n ess</w>
po si
bac k</w>
0 00</w>
l l
ac ti
te mp
su b
or der</w>
bo o
h ou
w as
ic e</w>
sin ce</w>
emp lo
situ ation</w>
s ol
di rec
read y</w>
s ay</w>
s ick</w>
w ater</w>
tr y</w>
ta in</w>
f ul
g a
l u
ar tic
with out</w>
r e</w>
in cre
vacc ine</w>
cd c</w>
d ec
s our
ta in
I s</w>
a ff
c our
o o
re se
par tic
mode l</w>
d ate</w>
r ate</w>
t ure</w>
re su
hum an</w>
e l</w>
av ail
c e
i ly</w>
ar ound</w>
gh ts</w>
some one</w>
t y
li m
bas ed</w>
wh y</w>
un der</w>
wor ld</w>
em er
meas ures</w>
whe ther</w>
C o
ad vi
quar ant
pro duc
hi gh</w>
respir atory</w>
d ence</w>
re l
si de</w>
pre s
tic al</w>
s m
is su
na tional</w>
sh o
me di
fi c</w>
re e</w>
en s</w>
hi gh
cur rent</w>
b an
ap p
ren tly</w>
trans mission</w>
f am
e y</w>
t en</w>
w ant</w>
0 3</w>
au th
fe w</w>
ye ar</w>
at s</w>
ri ght</w>
imp ort
avail able</w>
H ow</w>
i l</w>
st an
ma in
test ing</w>
1 4</w>
i de
in v
in di
ou th</w>
si gn
sy ste
fl u</w>
fli ght</w>
s ays</w>
ti z
en tly</w>
c ar
st ates</w>
ab ility</w>
re co
al ready</w>
mon ey</w>
test s</w>
fin d</w>
th ers</w>
d ers</w>
v ari
ac tu
ne ws</w>
reg ul
u p
an other</w>
st ru
syste m</w>
al ity</w>
su g
comm on</w>
vis a</w>
soci al</w>
develo p
artic le</w>
a ve</w>
n ed</w>
popul ation</w>
p er</w>
wor k
plac e</w>
o thers</w>
re comm
requ i
kno wn</w>
ou s
ou gh
le g
re tur
com p
cor ding</w>
f ur
m a</w>
t a</w>
al low
com e</w>
o ver
ha pp
inclu ding</w>
s ci
st o
h er</w>
an i
st ed</w>
ro w
ic ally</w>
prob le
respon se</w>
emer gen
p ur
y s
in i
in es</w>
vi e
su p
ch ec
ans wer</w>
d eci
o re
r it
an im
is ol
cont in
gi ven</w>
han ds</w>
as su
ac h
con di
sh e</w>
me ans</w>
off ici
poin t</w>
C h
p ay
lar ge</w>
uni ver
d r
g er
g et
l ast</w>
w ays</w>
re si
indi vi
stru c
d ents</w>
k es</w>
s ity</w>
ver y
ad di
loc al</w>
ate ly</w>
f ound</w>
n or
se ver
ser vi
restric tions</w>
indivi du
e p</w>
j o
re ally</w>
ch ing</w>
pu t</w>
f r
m ul
in te
st er</w>
me an</w>
ai r</w>
ep i
av o
wee ks</w>
f ar</w>
u s
fu l</w>
chan ge</w>
d on</w>
e very
n on</w>
v o
se ems</w>
mon ths</w>
fam ily</w>
import ant</w>
1 0
v al
ac cording</w>
me m
min i
g am
t ou
y es</w>
de pen
un ti
bo th</w>
test ed</w>
posi tive</w>
c ed</w>
c ause</w>
s a
or g
pro f
ap plic
du ce</w>
mu st</w>
dro ple
peri od</w>
unti l</w>
m arch</w>
u ro
en ough</w>
si mil
ye ars</w>
b ers</w>
pl an
to o</w>
gener al</w>
m en
st ing</w>
ve ly</w>
quarant ine</w>
h and</w>
s ec
se e
mas k</w>
prot ect</w>
1 5</w>
c en
h y
n ec
do c
prob ably</w>
lin es</w>
e vi
pro te
cont ro
of f</w>
1 2</w>
I f</w>
g lo
at ure</w>
di es</w>
sp read
fe ren
rese arch</w>
g t</w>
ti s
on al</w>
se qu
comm un
emergen cy</w>
3 0</w>
U S</w>
e ach</w>
th ings</w>
es tim
get ting</w>
b est</w>
n a</w>
si mp
po t
ter m</w>
vir al</w>
d en
h ar
m p</w>
y et</w>
re la
re fun
con fir
con cer
pre dic
cur rently</w>
tre at
recomm en
inte re
b r
e very</w>
g in
l and</w>
n i
t m
t al
speci fic</w>
sm all</w>
C an</w>
z ed</w>
po li
low ing</w>
mas ks</w>
rel ated</w>
work ers</w>
I n</w>
a p</w>
u m</w>
at h</w>
ma de</w>
sh i
com ple
infec tions</w>
ci tiz
ke ep</w>
e d
w ar
are a</w>
o log
st at
li f
ex ten
our s</w>
immun e</w>
su sp
tra v
gr ou
et c</w>
chil dre
childre n</w>
se v
ch ar
tic s</w>
cl ai
heal th
sti tu
mar ket</w>
0 0
T his</w>
c ap
n s</w>
o wn</w>
ma in</w>
la w</w>
with in</w>
emplo y
sol u
simil ar</w>
d es</w>
e qu
pro c
ag ain</w>
fac es</w>
repor ted</w>
canc ell
partic ul
high er</w>
prev ent</w>
advi ce</w>
sever al</w>
tm l</w>
sev ere</w>
1 4
1 00</w>
g n</w>
l ater</w>
st oc
po lic
fun c
drople ts</w>
1 9
o m</w>
s econ
t ors</w>
w a
ic ul
bu sin
ap pe
corona viruses</w>
sur faces</w>
anc ing</w>
bet a</w>
fli ghts</w>
contr ac
actu ally</w>
h tml</w>
s af
an ts</w>
er ic
ra ther</w>
sci enti
b or
e f
g es</w>
n ext</w>
p ap
t es</w>
v en
de fin
par t</w>
clo se</w>
f il
m ing</w>
m ic
v al</w>
le ar
po sed</w>
ex per
cour se</w>
ous ly</w>
avo id</w>
applic ation</w>
c ep
do ing</w>
20 0
sit e</w>
app ly</w>
retur n</w>
h an</w>
u t</w>
ac tion</w>
rec ei
some thing</w>
ill ness</w>
leg al</w>
6 6</w>
d ru
f ri
j ect</w>
n am
st er
ha ving</w>
le t</w>
por t</w>
bet ter</w>
evi dence</w>
c ough</w>
in ese</w>
st a
inf lu
ay ing</w>
low er</w>
effec tive</w>
gam ma</w>
2 5</w>
d one</w>
e as
g s</w>
g ed</w>
g est</w>
i li
l an
u su
ti vely</w>
of ten</w>
univer sity</w>
nec ess
1 8</w>
h at</w>
h ours</w>
i ous</w>
t le</w>
li on</w>
sh ort</w>
wee k</w>
hospit al</w>
ful l</w>
sour ce</w>
glo b
c at
l on
par am
anc es</w>
diff icul
dist ancing</w>
k in
co l
po se</w>
fac t</w>
hou se</w>
resu l
M y</w>
c all
j ec
as k</w>
sh ed</w>
par t
ess ential</w>
treat ment</w>
b ro
on ce</w>
on line</w>
en z
li ve</w>
si ve</w>
am oun
prev en
fo od</w>
star t</w>
a way</w>
h u
u han</w>
on a</w>
sp ec
le ave</w>
pl es</w>
stu dy</w>
cle ar</w>
fol lowing</w>
can not</w>
oo l</w>
m ort
t ext</w>
no vel</w>
li st</w>
cl in
hum ans</w>
temp er
fur ther</w>
chec k</w>
saf e</w>
b ility</w>
e arly</w>
g en</w>
n y
p eci
de a
gi ve</w>
nor m
1 3
c ul
g in</w>
k en</w>
an n
st and</w>
is h</w>
glob al</w>
S o</w>
c ris
o ld</w>
p ay</w>
t ro
z ation</w>
op en</w>
so ap</w>
for m</w>
reas on</w>
was h
sto p</w>
servi ces</w>
c ough
k i
l at
l it
m it
ab o
coun t</w>
dise ases</w>
ph ys
consi der</w>
auth ori
proble m</w>
cris is</w>
1 6</w>
1 1</w>
i fic
l s</w>
s ing
ou ght</w>
di t</w>
se t</w>
ve red</w>
econom ic</w>
ty p
ini ti
vie w</w>
c all</w>
f y</w>
in ten
co ld</w>
ma j
ex peri
ho ld</w>
out side</w>
inter national</w>
ei ther</w>
commun ity</w>
C or
b in
l ing</w>
n er</w>
s nee
su pp
el s</w>
el ec
wor king</w>
clo sed</w>
air line</w>
sch ool</w>
immun ity</w>
epi demic</w>
6 0</w>
b en
f a
l ab
n cov</w>
th ro
ti ci
al though</w>
ta king</w>
acti vi
contro l</w>
resul ts</w>
I t</w>
f t</w>
h al
m an</w>
t ers</w>
su m
de ter
de red</w>
enti ally</w>
cer tain</w>
incre ase</w>
ore a</w>
org ani
confir med</w>
influ enz
1 3</w>
5 0</w>
t al</w>
di sc
ag es</w>
bec ome</w>
id enti
under stand</w>
any thing</w>
Co V</w>
amoun t</w>
dea ths</w>
c r
re duce</w>
ic k
gu id
loo k</w>
sign ific
condi tions</w>
Ch ina</w>
refun d</w>
abo ve</w>
influenz a</w>
b an</w>
g y</w>
p ac
th ree</w>
re ly</w>
re gi
al low</w>
con tain
sp o
we b
des cri
was h</w>
aff ected</w>
ty pe</w>
allow ed</w>
b lo
s h</w>
s ha
al e</w>
as ed</w>
es peci
wh o
ma kes</w>
ta il
ol s</w>
eff ect</w>
provi de</w>
prote in</w>
cancell ed</w>
stoc k</w>
func tion</w>
guid ance</w>
especi ally</w>
t ation</w>
no te</w>
pl an</w>
infec ti
der al</w>
any one</w>
stan d
contin ue</w>
addi tional</w>
1 2
I n
i al</w>
en try</w>
ro ss</w>
the ta</w>
ex i
sur face</w>
rec ently</w>
gener ally</w>
loo king</w>
ben ef
l ed</w>
r na</w>
an al
ac tive</w>
su ff
ma king</w>
ci al</w>
fi ed</w>
num bers</w>
loc k
ell s</w>
chil d</w>
citiz ens</w>
stat us</w>
lif e</w>
A R
c ir
h op
w ers</w>
ar ing</w>
no se</w>
li e
ch o
ri bu
te ly</w>
fe ver</w>
rec ent</w>
Wh y</w>
mil d</w>
issu e</w>
sa fe
b ill</w>
t ec
w ing</w>
at ten
un ited</w>
le v
ex cep
ir e</w>
dist ribu
contr act</w>
tru mp</w>
resu lt</w>
individu als</w>
H o
M arch</w>
a tic</w>
b it</w>
g row
en ing</w>
vi sit
it al
as king</w>
ac tions</w>
sh ow</w>
go t</w>
stu dents</w>
tru e</w>
sour ces</w>
medi a</w>
spread ing</w>
usu ally</w>
B ut</w>
b er
c am
r y</w>
w al
es ti
de l
am eric
pre si
mon th</w>
pub lic
diffe ren
fu ture</w>
ent al</w>
anim als</w>
pap er</w>
necess ary</w>
ann oun
b ly</w>
u te</w>
re f
di ag
ad v
ag o</w>
ste ad</w>
ob ser
des i
ori gin
hospit als</w>
cau ses</w>
infecti ous</w>
a ma
d r</w>
l un
t able</w>
u k</w>
u es</w>
x i
vi a</w>
as soci
un less</w>
co ll
com pan
mo ve</w>
appro pri
han d
fo re
eng en</w>
feren ce</w>
grou p</w>
m outh</w>
s k
in stead</w>
an g
an ing</w>
si ze</w>
infec t</w>
pa tho
gr ad
et ers</w>
reg ar
cen tr
lon ger</w>
ital y</w>
diag no
8 0</w>
a w
m al
p ast</w>
re duc
ic s</w>
ex pl
pre vi
go v</w>
der ing</w>
ques tions</w>
lim ited</w>
Co vid</w>
ban k</w>
sug ge
see m</w>
temper ature</w>
authori ties</w>
2 2</w>
c as
d a</w>
o s</w>
p ne
es si
pro gr
op er
ta ken</w>
sen se</w>
tri p</w>
pas sen
econom y</w>
ga ther
offici al</w>
clin ical</w>
ny times</w>
sing le</w>
A re</w>
e uro
g ing</w>
h ard</w>
ar ch
or ity</w>
li ght</w>
tr ying</w>
se en</w>
mi d
tic ket</w>
to day</w>
sch o
emplo ye
ide a</w>
mort ality</w>
Ho wever</w>
a k</w>
b re
d en</w>
n d</w>
p i
t ting</w>
w r
in ation</w>
es ses</w>
de ath</w>
qu ite</w>
pa red</w>
acc ess</w>
imp act</w>
are as</w>
reas ons</w>
pres ent</w>
pot ential</w>
particul ar</w>
9 5</w>
c ity</w>
e ar
y oun
ar t</w>
al ways</w>
mi s
inclu de</w>
boo king</w>
comp any</w>
shi p</w>
param eters</w>
lit tle</w>
Cor ona
blo od</w>
1 7</w>
W e</w>
t un
w rit
in s</w>
in sur
er ing</w>
ar ri
or g</w>
ac k</w>
exp ect</w>
sug gest</w>
requi red</w>
mul ti
olog y</w>
proc ess</w>
busin ess</w>
lock down</w>
b a
c ells</w>
m er</w>
w on
z ing</w>
ar gu
st re
it ing</w>
di ed</w>
pro ce
be low</w>
ne ga
cor rec
we ar</w>
ol der</w>
str ate
to ld</w>
ful ly</w>
offici als</w>
tec h
scho ols</w>
insur ance</w>
2 4</w>
c ha
s on</w>
t ell</w>
y our
al co
vi de
sp e
le ad
be gin</w>
ag re
do m</w>
bo dies</w>
for ce</w>
man u
develo p</w>
effec ts</w>
isol ation</w>
compan ies</w>
alco ho
c c
e st
f it</w>
h in
l d
n al</w>
v ali
th ought</w>
in dic
ho od</w>
sur vi
pp er</w>
ran ge</w>
call ed</w>
safe ty</w>
p aid</w>
on ia</w>
st ory</w>
the re
ch inese</w>
op p
tic ally</w>
to tal</w>
ev ent</w>
sel ves</w>
prob ability</w>
cer tain
reas on
inv ol
mem ber</w>
dru g</w>
kin d</w>
pne um
Corona virus</w>
H O</w>
S AR
c at</w>
f ree</w>
m ers</w>
r ap
in stitu
ru les</w>
li ving</w>
lo gi
co ver</w>
ex t
am ong</w>
bu y</w>
el se</w>
cor ona</w>
ta il</w>
fe deral</w>
sc en
pr ac
exp ected</w>
govern ments</w>
vacc ines</w>
nee ds</w>
fol low</w>
ger many</w>
every one</w>
val ue</w>
tou ching</w>
difficul t</w>
appropri ate</w>
your self</w>
W HO</w>
b ed</w>
b le
b ur
c ent
e ld</w>
en ter</w>
ac y</w>
com ing</w>
im medi
ser ious</w>
sam ple</w>
pr acti
happ en</w>
norm al</w>
SAR S</w>
S h
b ru
n on
s outh</w>
u ary</w>
an uary</w>
er r
on es</w>
as i
as s
co ver
sh are</w>
ne i
str ation</w>
la b</w>
bi o
speci fic
cau sed</w>
direc t</w>
sup port</w>
simp ly</w>
trav el
web site</w>
alcoho l</w>
pneum onia</w>
b ats</w>
e ment</w>
f at
f requ
g ro
k orea</w>
s tim
t ar
at or</w>
om es</w>
li es</w>
de tail
le vel</w>
bu il
com es</w>
mi gr
mit ted</w>
presi dent</w>
manu fac
there fore</w>
E uro
w om
th re
in st
re al</w>
en vir
or ies</w>
le ft</w>
ex tre
ho l
gr ap
ari ly</w>
sam ples</w>
dist ance</w>
mode ls</w>
chan ges</w>
canc el</w>
nee ded</w>
deci sion</w>
secon d</w>
pac k
mal ari
envir on
b ri
b order</w>
d ri
i ma
l or
l ying</w>
p t</w>
r out
re mo
di a</w>
po st</w>
tion ed</w>
qu ick
wi se</w>
pr ice</w>
appro ach</w>
pati ent</w>
man ag
hou se
develop ment</w>
health care</w>
employ ment</w>
wash ing</w>
nega tive</w>
Sh ould</w>
4 0</w>
F e
c al
g ers</w>
k ill</w>
r 0</w>
in t</w>
in de
re main</w>
er ci
al ph
ac count</w>
un likely</w>
ma il</w>
ne w
pre gn
fe el</w>
so on</w>
acc ep
sc re
stu dies</w>
stan ding</w>
anim al</w>
individu al</w>
estim ate</w>
intere st</w>
solu tion</w>
maj or</w>
associ ated</w>
fore i
aw are</w>
practi ce</w>
alph a</w>
F or</w>
U K</w>
d ge</w>
f ra
m y
s aying</w>
in ated</w>
or ts</w>
pro per
pre ss</w>
htt ps</w>
fic ation</w>
consi dered</w>
develop ed</w>
jo b</w>
poli tical</w>
trav ell
phys ical</w>
scen ari
bru ary</w>
fra c</w>
b ad</w>
c um
d om
d ra
m ine</w>
w uhan</w>
in ve
or d
at ur
si ons</w>
de b
ad a</w>
ad mini
ta x</w>
ta tions</w>
cl as
acc ur
pers onal</w>
mil lion</w>
vis it</w>
repor t</w>
repor ts</w>
under lying</w>
prot ection</w>
proble ms</w>
grow th</w>
announ ced</w>
malari a</w>
2 1</w>
A s</w>
on t</w>
si ble</w>
de f
de part
the m
ex erci
ch ance</w>
ri ed</w>
ad ul
ag en
per for
publi shed</w>
appro ved</w>
plac es</w>
dr y</w>
sequ ence</w>
simp le</w>
exper ts</w>
experi ence</w>
signific ant</w>
who le</w>
quick ly</w>
3 1</w>
U n
b on
c ent</w>
d ly</w>
l ation</w>
o w
o l</w>
p i</w>
v ol
th us</w>
al most</w>
ac a
li gi
ma y
ur ity</w>
com pu
me ly</w>
im migr
ep s</w>
ain s</w>
appro val</w>
mat er
partic les</w>
clai m</w>
health y</w>
polic y</w>
cough ing</w>
regar ding</w>
multi ple</w>
stim ul
them selves</w>
s ection</w>
en e</w>
st ems</w>
as y
me th
pre sen
is m</w>
fac tors</w>
hi v</w>
to m</w>
cur ve</w>
medic ine</w>
ob jec
sch engen</w>
produc tion</w>
sequ en
preven tion</w>
gather ings</w>
ble ach</w>
wom en</w>
2 9
2 3</w>
R e
l am
l eng
o k</w>
o es</w>
w ard</w>
ac e</w>
ic es</w>
ru n</w>
tr an
ex ac
ad vis
fac tor</w>
sy stems</w>
like li
mas s</w>
lin k</w>
bi g</w>
ici ent</w>
anti bodies</w>
gre at</w>
boo k</w>
sho ws</w>
depen dent</w>
equ i
lear ning</w>
recei ve</w>
stand ard</w>
distribu tion</w>
9 0</w>
9 9</w>
G er
b al
d ama
j our
l ate</w>
s ent</w>
t on</w>
x im
z er
z es</w>
in ci
re ser
st ances</w>
it self</w>
ro om</w>
il lion</w>
su e</w>
se as
se par
ex po
ri ghts</w>
sh ort
ne ver</w>
ho st</w>
do w
ai ly</w>
hi m</w>
ke y</w>
ke ts</w>
sy n
sc ale</w>
imp le
speci al</w>
kno w
pas s</w>
star ted</w>
sub ject</w>
actu al</w>
pur pose</w>
ys is</w>
cap ac
scienti sts</w>
meth od</w>
c ou
d ated</w>
d aily</w>
g l
n u
u tes</w>
v ation</w>
ru n
con su
ch e
ad dre
do g</w>
pe an</w>
ta x
wor se</w>
is tic</w>
to ge
cle an</w>
meas ure</w>
star ting</w>
direc tly</w>
reco vered</w>
vari ous</w>
doc tor</w>
tal k</w>
cat ch</w>
supp ly</w>
cir cum
previ ous</w>
toge ther</w>
1 5
c ing</w>
d ou
e f</w>
i ds</w>
m om
p ite</w>
re p
st om
ha ps</w>
su cc
ex tr
op ti
go es</w>
cont ext</w>
str ali
fi eld</w>
possi bly</w>
pri or</w>
inclu des</w>
na tion
bac ter
des pite</w>
gre ss</w>
assu me</w>
prof ess
comple tely</w>
olog ical</w>
bro ad
vide o</w>
likeli hood</w>
2 8</w>
e ter</w>
i tion</w>
m it</w>
m so</w>
m ental</w>
s ort</w>
en sure</w>
ec ts</w>
ac ross</w>
no ti
se ly</w>
com pared</w>
cor por
fe et</w>
gen e
ev ol
air lines</w>
oc cur
ob vi
temp or
lim it</w>
produc ts</w>
requi re
prof essi
pot entially</w>
ili ties</w>
activi ty</w>
lie ve</w>
passen gers</w>
house hold</w>
asy mptom
2 6</w>
2 7</w>
A l
N e
d ates</w>
f oc
o ther
s is</w>
v in
v ar
an ted</w>
re main
de t
de ad
sp i
po ses</w>
op s</w>
per haps</w>
we aring</w>
ai l</w>
wi de</w>
tt y</w>
min utes</w>
ali zed</w>
brea thing</w>
exp on
off er</w>
ge ts</w>
tri als</w>
provi der</w>
boo ked</w>
inv esti
isol ate</w>
recommen d
appe ar</w>
strate gy</w>
manufac tu
capac ity</w>
A T
W uhan</w>
a k
a ver
c a
c k</w>
f re
f al
o ds</w>
an cial</w>
si mul
de li
co st</w>
ab li
con clu
con duc
qu ali
ci es</w>
gu ide
cle aning</w>
ill s</w>
canc el
issu es</w>
condi tion</w>
dr in
scienti fic</w>
hal f</w>
correc t</w>
est abli
reason able</w>
immedi ately</w>
specific ally</w>
pregn ant</w>
admini stration</w>
adul ts</w>
stimul us</w>
exac tly</w>
asymptom atic</w>
D o</w>
e ly</w>
h er
h it</w>
j anuary</w>
m ary</w>
s an
s ani
w at
y le</w>
in c
in cu
re le
re sources</w>
or k</w>
ru p
de p
po st
ex posed</w>
oun ds</w>
pre tty</w>
20 0</w>
fi g
cre ate</w>
pri me</w>
tre at</w>
bas ically</w>
ple ase</w>
fl u
provi ded</w>
can ada</w>
aff ect</w>
pres sure</w>
auth ority</w>
requi res</w>
pay ment</w>
addi tion</w>
sec urity</w>
spread s</w>
feren ces</w>
concer ned</w>
initi al</w>
activi ties</w>
anal ysis</w>
excep t</w>
know le
mom ent</w>
guide lines</w>
3 5</w>
A nd</w>
D oes</w>
a tive</w>
b at</w>
b ation</w>
b ir
e u
e ts</w>
e ver</w>
f our</w>
n er
n atur
p lot</w>
s mo
u pper</w>
th ir
re st</w>
en ed</w>
as ked</w>
li ed</w>
lo an</w>
lo ts</w>
le ad</w>
com par
pe dia</w>
te e</w>
he ard</w>
ter ms</w>
ans wers</w>
ing ly</w>
mu t
for tun
tu res</w>
fin ancial</w>
ste p</w>
tri bu
under standing</w>
prot ec
rese arch
develop ing</w>
ach ing</w>
Ch inese</w>
servi ce</w>
mem bers</w>
concer ns</w>
recommen ded</w>
grou ps</w>
bor ders</w>
deter min
organi zation</w>
patho gen
depart ment</w>
circum stances</w>
other wise</w>
A c
a a
b it
b ol
d an
l ec
n e</w>
p age</w>
r ates</w>
t op
th es
in come</w>
an tly</w>
en cour
ac ts</w>
se arch</w>
un employment</w>
pro por
ri x</w>
infec ting</w>
ter ing</w>
str ain</w>
to p</w>
ev ents</w>
em ents</w>
la w
gu ar
stu dent</w>
ran dom</w>
mat rix</w>
main tain</w>
up date</w>
contin u
val ues</w>
men tioned</w>
war ds</w>
particul arly</w>
lear n</w>
spec ies</w>
descri bed</w>
benef its</w>
differen ce</w>
desi gn
sugge sts</w>
inve st
ord in
exerci se</w>
investi g
aver age</w>
5 0
A C
C on
I tal
S t
c y
d y
f le
f air
n y</w>
r ss</w>
t ary</w>
re fu
en ded</w>
st ly</w>
vi d
as tic</w>
no thing</w>
es sing</w>
di e</w>
co de</w>
con ver
con stitu
ch lor
op tion</w>
op ini
me tho
ta g</w>
wor ds</w>
he ad</w>
par ty</w>
fun ds</w>
trans mitted</w>
possi bility</w>
cre dit</w>
exp en
requ ire</w>
outbrea ks</w>
anti body</w>
mat ter</w>
issu ed</w>
sho wing</w>
reco ver</w>
regul ar</w>
epi demi
mini ster</w>
estim ates</w>
rela tive</w>
char ac
mic ro
ster n</w>
eas ily</w>
col le
typ ically</w>
exi sting</w>
employe es</w>
vali d</w>
nei gh
frequ ently</w>
my self</w>
may be</w>
expo sure</w>
incu bation</w>
fig ure</w>
Ital y</w>
8 8
O r</w>
T ru
d f</w>
f all</w>
l en
n CoV</w>
s al</w>
in ing</w>
ar r
at ors</w>
li qu
de m
de st
de mo
con tain</w>
be lieve</w>
ag ed</w>
fe bruary</w>
par ts</w>
gi ene</w>
tu al</w>
pers ons</w>
ph ar
sen d</w>
hel p
lar ger</w>
posi tion</w>
car ri
regul arly</w>
ach es</w>
struc ture</w>
us a</w>
every thing</w>
tou ch</w>
sec re
hy giene</w>
doc um
exten sion</w>
busin esses</w>
cat ching</w>
lun g</w>
progr am
youn g</w>
leng th</w>
4 8</w>
5 00</w>
7 4</w>
9 4</w>
c t
d on
e mail</w>
s w
s qu
v enti
w ed</w>
w il
in tro
ti ves</w>
on d</w>
st eps</w>
at temp
su s</w>
con st</w>
pro duce</w>
sp ort</w>
po ly</w>
ex clu
pre cau
mo der
pl ay</w>
im pro
gr ound</w>
pri v
air port</w>
oc cu
cri tical</w>
sho wn</w>
happ ens</w>
assu mp
vo te</w>
wa it</w>
recei ved</w>
thro at</w>
regi on</w>
cho ice</w>
obser ved</w>
origin al</w>
won dering</w>
certain ly</w>
forei gn</w>
profess or</w>
2 9</w>
3 0
3 2</w>
7 0</w>
A pri
b s</w>
c row
f it
f ail
f da</w>
h un
l y
l ack</w>
m or
re ach</w>
on g
al th</w>
ec han
di spo
tr ac
co vered</w>
ex am</w>
ch em
be gin
tion ally</w>
ad e</w>
com plic
mo lec
ve ment</w>
au strali
str ong</w>
inter pre
incre ased</w>
ban ks</w>
reco gn
allow s</w>
depen ding</w>
see k</w>
rela tively</w>
susp ected</w>
mic s</w>
sta tis
ki pedia</w>
deter mine</w>
americ ans</w>
Tru mp</w>
Apri l</w>
N A</w>
O n</w>
T he
c ats</w>
e e</w>
e ligi
f ine</w>
g g
m echan
s al
u se
x y
en ds</w>
st yle</w>
at ures</w>
ac id</w>
ac ute</w>
il s</w>
un able</w>
con ference</w>
ch all
op tions</w>
pre ci
bo ard</w>
im possible</w>
cont ag
gi ving</w>
enti re</w>
bec omes</w>
av ing</w>
dis rup
ob li
ill ed</w>
resi dent</w>
resi dence</w>
depen ds</w>
tis sue</w>
contrac ep
cough s</w>
cas h</w>
bre ath</w>
fat ality</w>
extre mely</w>
cal cul
Ger many</w>
addre ss</w>
expon ential</w>
fal se</w>
sani tiz
fortun ately</w>
dem and</w>
N o
T here</w>
c ell</w>
e yes</w>
f er</w>
f ast</w>
k i</w>
in ed</w>
in struc
re lev
as se
es n</w>
ab les</w>
el der
we i
ci ties</w>
ter na
str ains</w>
pa in</w>
et y</w>
fun ding</w>
pr e</w>
bas is</w>
resi dents</w>
men tion</w>
prote ins</w>
defin ition</w>
lan gu
anal y
lev els</w>
del ay</w>
centr al</w>
diagno sed</w>
pack age</w>
sequen ces</w>
spi ke</w>
manufactu re
thir d</w>
1 7
1 000</w>
3 8</w>
4 0
A m
T han
a er
e u</w>
i red</w>
m ac
u t
re cor
re plic
er gy</w>
st ri
it ems</w>
as h
ac ting</w>
po wer</w>
ch oo
ho te
mi ssi
ul ar</w>
ta kes</w>
wor th</w>
wor ks</w>
wor ried</w>
cont am
anc y</w>
for ced</w>
tu ally</w>
ser i
ju sti
min im
some times</w>
ph one</w>
ph ase</w>
chan ged</w>
log y</w>
direc tor</w>
sm all
pur poses</w>
sup por
assu ming</w>
contro ll
polic ies</w>
dru gs</w>
difficul ty</w>
norm ally</w>
wal k</w>
wr ong</w>
survi ve</w>
inde x</w>
accur ate</w>
agen cy</w>
separ ate</w>
fair ly</w>
opini on</w>
charac ter
elder ly</w>
3 6</w>
4 5</w>
7 5</w>
8 8</w>
Q u
W ill</w>
e mo
p df</w>
s ore</w>
w in
w ent</w>
y ork</w>
th ous
re view</w>
re public
ar ds</w>
st opp
es tion</w>
wh ite</w>
li sh</w>
lo g</w>
lo ans</w>
pro vin
sp r
be ha
el ection</w>
do or</w>
do esn</w>
ter nal</w>
gen ome</w>
pr ices</w>
ill ing</w>
id ly</w>
pas sed</w>
poin ts</w>
regul ations</w>
up dated</w>
pay ments</w>
org an
plan ning</w>
hy dro
appe ars</w>
snee zing</w>
elec tr
suff icient</w>
cam e</w>
progr am</w>
euro pe</w>
rap idly</w>
gro cer
scre ening</w>
imple men
extr a</w>
knowle dge</w>
relev ant</w>
H e
b illion</w>
c ro
d le</w>
e red</w>
f ont</w>
k y</w>
p ar</w>
s it</w>
t ment</w>
u ate</w>
re ver
re vie
re ference</w>
ti al</w>
en d
al one</w>
vi ty</w>
ec h</w>
ac e
ic a</w>
es sion</w>
ru le</w>
li er</w>
li ves</w>
si r
si ties</w>
su m</w>
de al</w>
sp ace</w>
le q</w>
ex plan
ch i
ap pa
ir ing</w>
pl ans</w>
sur ve
hi story</w>
ris ks</w>
ess entially</w>
fun d</w>
requ est</w>
inclu ded</w>
tri ang
tur n</w>
loo ks</w>
high ly</w>
recomm end</w>
pur ch
fr am
commun ic
predic t</w>
fil ter</w>
nam e</w>
organi z
ext ent</w>
Un ited</w>
zer o</w>
seas onal</w>
dou b
opti mi
metho ds</w>
intro duc
Am eric
aer o
triang leq</w>
2 6
a x
c ru
f tw
g ine</w>
p are</w>
p ment</w>
s ation</w>
s low</w>
t ren
er al</w>
st af
at t
es day</w>
the ory</w>
ab solu
con tribu
pro hi
bu s</w>
sh el
ne ar</w>
ap an</w>
mo d
mo stly</w>
he ad
cont ent</w>
to il
wi kipedia</w>
fi le</w>
so ftw
ep ing</w>
gu ess</w>
read ing</w>
pr inci
off ering</w>
bac k
dro me</w>
thin king</w>
situ ations</w>
incre as
ce ment</w>
ough ly</w>
deci ded</w>
hy po
concer n</w>
intere sted</w>
eas y</w>
typ es</w>
elec tions</w>
identi fied</w>
benef it</w>
sk in</w>
employe e</w>
writ ing</w>
prac tic
travel ing</w>
detail s</w>
thre at</w>
ima gine</w>
scenari o</w>
cou ple</w>
tempor ary</w>
recommend ations</w>
neigh b
secre tary</w>
precau tions</w>
langu age</w>
beha vi
He alth</w>
staf f</w>
4 4</w>
7 2</w>
S outh</w>
T o</w>
b b
c o</w>
c ar</w>
c ate
f e</w>
f ec
f ail</w>
i se</w>
n ers</w>
p ic
s y</w>
on going</w>
st ant</w>
di sp
lo se</w>
ex emp
ex ternal</w>
ri l</w>
op t</w>
ver s</w>
ad d</w>
qu o
qu e</w>
me an
ap ril</w>
ag ing</w>
mo vement</w>
pl ying</w>
ter rit
str y</w>
af t</w>
la ws</w>
eff orts</w>
sen si
ain ed</w>
lin e
bas ic</w>
kno ws</w>
cu t</w>
hospit alized</w>
app lied</w>
fam ili
up on</w>
univer sities</w>
har m</w>
recommen ds</w>
citiz en</w>
exten d</w>
contrac ting</w>
pap ers</w>
hop e</w>
adv ance</w>
lun gs</w>
expl ain</w>
writ ten</w>
tech n
rout ine</w>
equi pment</w>
dama ge</w>
nu cle
run ning</w>
gene tic</w>
pathogen s</w>
bol a</w>
vid 19</w>
begin ning</w>
cate g
0 1</w>
1 6
F r
G T
K orea</w>
b ran
d i</w>
k ers</w>
m ach
n or</w>
n one</w>
p r</w>
s co
al ong</w>
al terna
st ren
st ate
co sts</w>
ch ed</w>
sh ut</w>
do ts</w>
pre ce
pre pare</w>
he art</w>
coun ts</w>
pa ren
fi ve</w>
fi ght</w>
por ts</w>
sti c</w>
pers on
min d</w>
sam pl
trans it</w>
off ice</w>
dec re
produc ed</w>
inv est</w>
isol ated</w>
sever ity</w>
param eter</w>
jec ts</w>
hu ge</w>
13 1</w>
experi en
lab or
signific antly</w>
patho gen</w>
ba thro
ld n</w>
inst ance</w>
environ ment</w>
advis or</w>
dow n
syn drome</w>
noti ce</w>
australi a</w>
seri ously</w>
softw are</w>
stren g
0 2</w>
6 2</w>
S ch
a red</w>
c ure</w>
d ings</w>
e duc
f lo
h our</w>
i or</w>
m er
o day</w>
o logi
p at
p ris
s or
s li
t an
v ary</w>
w anted</w>
y ond</w>
th an
in e
re li
or ders</w>
ro le</w>
as p
as si
lo ss</w>
de gre
se tt
un known</w>
co ff
con n
bu ying</w>
sh or
ad ded</w>
ne t</w>
com pen
me et</w>
mo ving</w>
wor d</w>
wor ld
du res</w>
fe es</w>
par tici
fac ilities</w>
hi li
gi ves</w>
ing ton</w>
mu tations</w>
fin al</w>
sit es</w>
min ute</w>
Wh en</w>
exp ec
bi ological</w>
dis infect</w>
repor ting</w>
cau sing</w>
ther more</w>
popul ations</w>
cri tici
can di
artic les</w>
dec la
main ly</w>
allow ing</w>
ger ous</w>
fr ance</w>
doc tors</w>
initi ally</w>
snee zes</w>
sum mer</w>
contain s</w>
atten tion</w>
reduc ed</w>
proce dures</w>
agre ed</w>
bon ds</w>
aca demic</w>
natur al</w>
protec tive</w>
research ers</w>
guar an
dy nam
recogn i
The y</w>
hote l</w>
minim um</w>
Fr ance</w>
state ment</w>
2 7
N ow</w>
P h
a king</w>
b ar
e ating</w>
n ature</w>
s en</w>
s we
t ter</w>
w ai
x ed</w>
in side</w>
re d
en tering</w>
st ers</w>
st ance</w>
wh el
si x</w>
un fortunately</w>
ab or
pro mi
po wers</w>
be yond</w>
sh e
ad ap
mi a</w>
ir s</w>
ve t</w>
we a
par ks</w>
gi es</w>
wi fe</w>
comm only</w>
sc ep
clo sing</w>
respon ses</w>
respon sible</w>
provi ding</w>
consi der
ther ap
acti v
sol ve</w>
main tain
sign s</w>
car ry</w>
over all</w>
over whel
avo i
predic tion</w>
solu tions</w>
defin ed</w>
usu al</w>
mort g
inten ded</w>
cr ats</w>
contain ment</w>
lie f</w>
esti mation</w>
mid ity</w>
tar ge
deb t</w>
succ ess
corpor ate</w>
require ments</w>
remain s</w>
conduc ted</w>
invest ment</w>
docum ents</w>
venti lat
statis tics</w>
use ful</w>
obli g
manufacture r</w>
implemen ted</w>
explan ation</w>
appa rently</w>
5 2</w>
L i
R es
b its</w>
d ation</w>
d ary</w>
e bola</w>
f f</w>
f ly</w>
f ter</w>
h on
m c
o de</w>
o il</w>
r at
t led</w>
u al</w>
y n
an ds</w>
re al
re member</w>
ti l
ti s</w>
en ding</w>
or al</w>
vi ol
it h</w>
di an</w>
de po
con fi
con ven
pro ject</w>
le aving</w>
ma th
sh opp
me tr
me aning</w>
ap ar
pe ak</w>
ren ch</w>
20 03</w>
hi c</w>
ke eping</w>
to ok</w>
enti rely</w>
rec ep
ev en
comm er
mon it
ph i</w>
air ports</w>
vacc ination</w>
exam ples</w>
mar kets</w>
consi dering</w>
ther lan
happ ened</w>
pay ing</w>
jo h
tal king</w>
comple te</w>
susp ended</w>
polic e</w>
exper t</w>
fri end</w>
preven ting</w>
hu midity</w>
snee ze</w>
who se</w>
americ an</w>
hand ling</w>
passen ger</w>
mid dle</w>
buil d</w>
mater ial</w>
short ness</w>
consu l
foc us</w>
dead ly</w>
propor tion</w>
occu r</w>
eligi ble</w>
contag ious</w>
stopp ed</w>
chi ef</w>
toil et</w>
bathro om</w>
coff ee</w>
1 8
1 st</w>
3 9</w>
5 9</w>
A A
C T
E U</w>
N or
P resident</w>
T h
W or
b ab
b loc
b matrix</w>
d ying</w>
f all
g d
g le</w>
i ed</w>
k er</w>
r on
s wit
s ound</w>
v ul
y s</w>
z ech</w>
an d
en ergy</w>
st able</w>
it ely</w>
ro w</w>
ic on
wh ate
di ver
lo st</w>
de mon
de mics</w>
con centr
po ol
ex act</w>
ch es</w>
sh all</w>
ne u
ne y</w>
qu e
com bin
do ll
ul ty</w>
pre ad</w>
pre ssion</w>
per man
we stern</w>
cl a
tra di
af r
comm it
out come</w>
sel l</w>
ess ment</w>
dat as
appro xim
lin ked</w>
gener ated</w>
cle arly</w>
dro p</w>
prev al
anti bio
vir tual</w>
whe re
fol low
sub st
pres ence</w>
vari ance</w>
ni ght</w>
comple x</w>
char ge</w>
equ ation</w>
secon ds</w>
defin itely</w>
fil ed</w>
exper im
200 9</w>
sta ur
necess arily</w>
part ner</w>
differen ces</w>
euro pean</w>
ear lier</w>
youn ger</w>
detail ed</w>
proper ty</w>
travell ing</w>
travell ers</w>
scenari os</w>
perfor m
nation als</w>
var phi</w>
cancel ed</w>
ner able</w>
dan gerous</w>
top ic</w>
ordin ary</w>
St ates</w>
fle xi
colle ge</w>
sanitiz er</w>
contam inated</w>
increas ing</w>
hili pp
scep ti
confi dence</w>
therlan ds</w>
vul nerable</w>
whate ver</w>
4 9</w>
6 4</w>
8 5</w>
A u
C D
E x
S A</w>
c are
d able</w>
d ential</w>
e ting</w>
f er
f are</w>
g ar
g ger</w>
h s</w>
h om
i er</w>
l ess
n p</w>
p es</w>
p tion</w>
r s</w>
r ai
s s
s able</w>
in si
re public</w>
re presen
re staur
al ing</w>
st ro
it ary</w>
ec e</w>
su per
se min
se tting</w>
con fu
con sequences</w>
sp end</w>
le ts</w>
po ly
ap er</w>
ap plying</w>
ho t
per cent
go al</w>
wor ry</w>
fe el
par ties</w>
str an
tra ining</w>
fun d
inter ven
clo th</w>
medic ines</w>
dis infection</w>
plac ed</w>
eng ine
effec tively</w>
ll ing</w>
dec line</w>
advi sed</w>
vari able</w>
sci ence</w>
cen ter</w>
treat ments</w>
poli tici
employ ed</w>
proc essing</w>
ven ess</w>
bro ad</w>
temper atures</w>
ki ds</w>
lat ter</w>
grow ing</w>
wal king</w>
previ ously</w>
oper ating</w>
certain ty</w>
institu tions</w>
prac tical</w>
cover ing</w>
Euro pe</w>
Euro pean</w>
immigr ation</w>
bal ance</w>
obvi ously</w>
professi onal</w>
simul ation</w>
quali fy</w>
post p
help ful</w>
carri er</w>
priv ate</w>
assump tions</w>
crow ded</w>
complic ations</w>
chall eng
choo se</w>
thous ands</w>
paren ts</w>
Sch engen</w>
world wide</w>
depo sit</w>
recep tor</w>
demon str
4 6
4 6</w>
5 3</w>
6 5</w>
A fter</w>
S ome</w>
W ould</w>
b ans</w>
c ard</w>
c rit
d ar
f av
i st</w>
i de</w>
j ur
o xy
r hin
s av
s ave</w>
in dependent</w>
re ti
re pe
ti vity</w>
or ted</w>
st e</w>
st ated</w>
st aying</w>
it ali
ec u
ic er</w>
li min
li br
si r</w>
su scepti
de par
co pper</w>
ma tic</w>
qu ad</w>
do cu
pe ts</w>
pre pared</w>
te aching</w>
fac ility</w>
ke ting</w>
rec ession</w>
wi des
ev al
anc ed</w>
for ward</w>
pan demics</w>
some where</w>
pri mary</w>
infor med</w>
tri ed</w>
sch ed
thr ough
cu stom
incre ases</w>
advi se</w>
quarant ines</w>
produc t</w>
app lies</w>
ach ed</w>
plan ned</w>
tis h</w>
refun dable</w>
exten ded</w>
employ er</w>
nam es</w>
ster o
wash ington</w>
del ta</w>
grad e</w>
diagno sis</w>
spe aking</w>
lead er</w>
cent ers</w>
ass essment</w>
extre me</w>
grap hic</w>
objec ts</w>
obvi ous</w>
Al so</w>
thes is</w>
liqu id</w>
attemp t</w>
mor ning</w>
small er</w>
organ is
sampl ing</w>
labor atory</w>
decla red</w>
Wor ld</w>
cla mation</w>
subst anti
perform ance</w>
hilipp ines</w>
CD C</w>
crit er
docu ment</w>
wides pread</w>
sched ul
1 25</w>
4 1</w>
5 1</w>
A ir
C om
E dit</w>
G i
I V</w>
S in
a z
b ound</w>
c a</w>
c i</w>
c ab
c ross</w>
e y
e dit</w>
f ed</w>
h ence</w>
j un
n g
n as
o on
p ho
q quad</w>
r t</w>
w ou
w el
th or
th ma</w>
or dered</w>
at oday</w>
vi able</w>
as h</w>
di ly</w>
di am
tr ou
the ma
un clear</w>
co vid19</w>
pro clamation</w>
ex ecu
ch ances</w>
ad ju
me eting</w>
ap poin
ag ent</w>
mi d</w>
au tom
pl astic</w>
ci vi
tic kets</w>
20 16</w>
par k</w>
fac ulty</w>
hi le</w>
gen ce</w>
wi ki</w>
comm ents</w>
mu no
ra di
cre ated</w>
cre ating</w>
inter val</w>
inter net</w>
with dra
appro aches</w>
vis as</w>
tur al</w>
man i
restric tion</w>
rel ation</w>
reco very</w>
deci de</w>
struc tures</w>
us atoday</w>
vo ting</w>
10 1</w>
mini mi
drople t</w>
estim ated</w>
intere sting</w>
br ing</w>
clai med</w>
cancell ation</w>
lat est</w>
identi fy</w>
cir cul
hop e
desi gn</w>
hand le</w>
argu ment</w>
invol ved</w>
tar get</w>
hol ders</w>
remo te</w>
proper ly</w>
perfor med</w>
jour n
professi on
det ected</w>
establi shed</w>
dispo sable</w>
chem ical</w>
famili es</w>
alterna tive</w>
Ph D</w>
mortg age</w>
perman ent</w>
percent age</w>
oxy gen</w>
through out</w>
Gi ven</w>
Sin ce</w>
6 1</w>
9 6</w>
D i
D el
S I
W ith</w>
W hile</w>
b es</w>
e ding</w>
f ill</w>
g ent</w>
g ate</w>
i zed</w>
j ob
l m</w>
l ac
o s
p a</w>
p m</w>
p id</w>
r ying</w>
t ol
u ses</w>
v s</w>
v ec
re fl
re ferences</w>
en for
st ain
ro ll</w>
ro ad</w>
ac qu
li sted</w>
si gn</w>
con stant</w>
pro p
sp li
sp ir
le tter</w>
ma thema
ex c
ex pan
ch ron
be i</w>
am p
bu l
ad op
ne l</w>
qu anti
com pe
per cent</w>
we d
wor st</w>
he ld</w>
bo tt
im muno
enti tled</w>
sy mp
ev ed</w>
la un
sc ri
et a</w>
sel ling</w>
some body</w>
ra tic</w>
brea k</w>
mil k</w>
tre e</w>
tre ated</w>
bi ology</w>
vacc inated</w>
hel ps</w>
man ner</w>
ant i</w>
any way</w>
ther n</w>
dec lar
lim it
ban ned</w>
retur ning</w>
fur thermore</w>
emergen cies</w>
fr ont</w>
susp ect</w>
clai ms</w>
stoc ks</w>
bor ne</w>
fri ends</w>
lab s</w>
disc us
wr ite</w>
bri ef
Fe deral</w>
accep table</w>
clas s</w>
mater i
tran sp
gl as
bacter ia</w>
evol u
her d</w>
rele ase</w>
rele ased</w>
dep end</w>
bir th</w>
compar is
constitu tional</w>
dest ination</w>
wil d</w>
wei ght</w>
controll ed</w>
provin ce</w>
rever se</w>
ace 2</w>
absolu tely</w>
decre ase</w>
compen sation</w>
even tually</w>
commer cial</w>
preval ence</w>
antibio tics</w>
criter ia</w>
profession als</w>
0 4</w>
2 8
4 7</w>
G o
H IV</w>
P o
R NA</w>
T hat</w>
V i
a vi
c ast</w>
c zech</w>
f r</w>
g or
h ong</w>
j ected</w>
k it</w>
k ong</w>
m rna</w>
n son</w>
o d
o p</w>
o virus</w>
r oun
s a</w>
s er</w>
s tic
s ses</w>
s anc
w on</w>
w ish</w>
z oon
th y</w>
er ve</w>
on to</w>
or ing</w>
st ore</w>
vi ro
ac ted</w>
no tic
di ab
il legal</w>
lo ad
lo ad</w>
su res</w>
con struc
le ase</w>
po w
po or</w>
ex tra
be li
be hin
tion ary</w>
ne arly</w>
gh tly</w>
cor respon
ir an</w>
ul t</w>
pre mi
mo d</w>
te le
per spec
tim ate</w>
infec t
ay ed</w>
fe wer</w>
bo t
im posed</w>
coun ter
coun ter</w>
fac t
fac ts</w>
cont acts</w>
str on
to wards</w>
em bas
sc ha
fin dings</w>
et es</w>
num er
imp lic
brea st
pri m
symptom atic</w>
tre ating</w>
tw ice</w>
dis infecting</w>
tri ps</w>
sch e
man age</w>
peri ods</w>
canc er</w>
consi st
pas sport</w>
effec ti
cour t</w>
partic le</w>
happ ening</w>
sto res</w>
chec ks</w>
fr action</w>
mem bran
sa w</w>
plan e</w>
stat ements</w>
eas ier</w>
fa ster</w>
disc u
regi ons</w>
stand ards</w>
exi st</w>
visit ors</w>
expl ained</w>
gather ing</w>
mis information</w>
won der</w>
tech no
rap id</w>
err ing</w>
err or</w>
nei ther</w>
environ mental</w>
manag ement</w>
inde ed</w>
new sp
lam b
require ment</w>
fre e
deli very</w>
conclu sion</w>
wat ch</w>
flu id</w>
mut ate</w>
investig ation</w>
chlor o
epidemi ology</w>
phar mac
mechan ism</w>
asse ts</w>
Than ks</w>
shel ter</w>
line ar</w>
techn ical</w>
degre e</w>
wea ther</w>
targe ted</w>
shopp ing</w>
apar tment</w>
concentr ation</w>
pool ed</w>
where as</w>
feel ing</w>
libr ary</w>
hope fully</w>
enfor cement</w>
spli t</w>
symp tom</w>
zoon o
diab etes</w>
behin d</w>
3 3</w>
4 3</w>
5 7
5 6</w>
9 1</w>
A si
B oo
D A</w>
F I
H e</w>
L on
S en
S he</w>
U SA</w>
c b
c r</w>
c t</w>
d a
d n</w>
d ance</w>
d less</w>
f oun
f low</w>
f ying</w>
g y
g c</w>
h omes</w>
j apan</w>
m ber</w>
n ar
n ice</w>
n esday</w>
o 2</w>
r on</w>
r ac
r ound</w>
s sed</w>
t our</w>
u n</w>
v ap
w ants</w>
w illing</w>
th u
re ssion</w>
re lief</w>
ti tle</w>
al d</w>
st age</w>
as thma</w>
om ial</w>
no body</w>
wh om</w>
il ed</w>
su n
de vi
tr act</w>
tr ade</w>
co h
ab ilities</w>
pro of</w>
pro per</w>
pro gress</w>
sp ent</w>
ri se</w>
qu ine</w>
me t
ff ic</w>
ag ue</w>
do gs</w>
pre par
te red</w>
per si
go ods</w>
ssi an</w>
to t
tra in</w>
tra ffic</w>
em ber</w>
so ld</w>
out comes</w>
gr a
ris ky</w>
for m
fin ally</w>
ser ies</w>
fir e</w>
pp ed</w>
eff ici
trans missi
ph y
sen ate</w>
pr o</w>
clo sely</w>
off icer</w>
requ iring</w>
ell ing</w>
dis infect
respon d</w>
wee k
ori gin</w>
anti gen</w>
loo ked</w>
stric t</w>
any where</w>
ran k
gre at
gre ater</w>
ent ation</w>
log ical</w>
sub jects</w>
reco ver
regul ation</w>
sug g
poli tics</w>
war ning</w>
wa iting</w>
fri vol
call ing</w>
phys ically</w>
Cor ona</w>
bin ding</w>
cam p
ref er</w>
sugge sted</w>
strate gies</w>
cha in</w>
spe ak</w>
lead ing</w>
agre ement</w>
institu te</w>
buil ding</w>
ima ge</w>
rout e</w>
forei gn
compu ter</w>
occur red</w>
expen ses</w>
arr ay</w>
moder n</w>
impro ve</w>
fit ting</w>
recor d</w>
republic ans</w>
grocer y</w>
territ ory</w>
dynam ic</w>
ventilat ors</w>
bab y</w>
commit tee</w>
approxim ately</w>
restaur ants</w>
suscepti ble</w>
nas al</w>
bot tom</w>
sche du
effecti veness</w>
lamb da</w>
chloro quine</w>
Lon don</w>
frivol ous</w>
1 1
4 7
4 2</w>
A G
C an
D e
F DA</w>
J anuary</w>
T e
a ti
a de
a head</w>
b b</w>
d ure</w>
e x</w>
f ar
f ect</w>
f ish</w>
g ri
h 2
h as
i on</w>
k illed</w>
n ur
p ick</w>
r an</w>
r are</w>
s on
s low
s ounds</w>
t in
in ations</w>
re tro
re production</w>
re ached</w>
ar ran
ac hi
ac counts</w>
no tes</w>
es tions</w>
di lu
su d
de fa
ab s</w>
con nec
con spir
pro ve</w>
sp an
sp ac
am in
op t
bu y
sh ops</w>
el bo
qu ick</w>
qu ality</w>
ff ner</w>
ag ree</w>
mi ti
mi sta
do i</w>
pre sum
pre scri
mo ther</w>
ta tive</w>
fe e</w>
par tial</w>
is ed</w>
gen e</w>
af ter
gr anted</w>
for mul
fin ding</w>
ali ze</w>
trans fer</w>
inter view</w>
mil itary</w>
exp ired</w>
off ered</w>
lin ks</w>
ob tain</w>
ob ject</w>
eng lish</w>
pas s
uni ties</w>
sub sequ
sol s</w>
high est</w>
indi a</w>
sup posed</w>
deci sions</w>
val ent</w>
gam es</w>
00 0
14 8</w>
secon dary</w>
contrac ted</w>
maj ority</w>
bin omial</w>
supp lies</w>
elec tro
sum mary</w>
identi fication</w>
cr aft</w>
sha res</w>
grad uate</w>
argu e</w>
stre ss</w>
proce dure</w>
immedi ate</w>
manag ed</w>
dom es
tran sport</w>
reser vo
dow ns</w>
tax es</w>
broad cast</w>
Ne w</w>
det ect</w>
drin k</w>
san ders</w>
determin ed</w>
Ac t</w>
law ful</w>
demo crats</w>
fram e</w>
aero sols</w>
tren ds</w>
princi ple</w>
practic es</w>
experien cing</w>
educ ation</w>
guaran tee</w>
success ful</w>
Res erve</w>
icon external</w>
fund am
stero ids</w>
ey e</w>
trou ble</w>
materi als</w>
stic k</w>
stron ger</w>
scha ffner</w>
membran e</w>
schedu le</w>
elbo w</w>
presum ably</w>
1 14</w>
1 12</w>
3 7</w>
6 0
7 3</w>
8 7</w>
9 0
9 7</w>
D ue</w>
E D
E con
J o
O r
P er
P ro
S pain</w>
c aff
f el
g an</w>
g ical</w>
h essi
l ay
n ations</w>
o k
p cr</w>
r ou
r oughly</w>
s mar
t v</w>
u ation</w>
w ave</w>
y out
z on</w>
in it</w>
in du
in hal
an ia</w>
re actions</w>
ar ching</w>
en se</w>
en cy</w>
en force</w>
ec ting</w>
om o</w>
no ted</w>
ha bit
es sed</w>
si m</w>
de tail</w>
tr illion</w>
the ore
un necessary</w>
con cep
con gress</w>
sp orts</w>
sp ending</w>
ma ils</w>
po ll
ur y</w>
ex pression</w>
cor e</w>
mi o</w>
do t</w>
do ors</w>
pe er</w>
mo di
ter min
fe ar</w>
fe eding</w>
bo x</w>
is n</w>
ssi a</w>
str ong
fi gu
so li
la yo
la tions</w>
resp ect</w>
gu st</w>
gu ide</w>
ten d</w>
ari an</w>
pan ic</w>
imp orted</w>
ali ties</w>
trans mit</w>
ste el</w>
appro x</w>
air craft</w>
dis covered</w>
gener ic</w>
chan ging</w>
mar k</w>
fo rec
pul l</w>
pen al
uni que</w>
mat ters</w>
restric ted</w>
dre ds</w>
log istic</w>
direc ted</w>
lim iting</w>
quarant ined</w>
auth or</w>
comp are</w>
fur l
assu med</w>
inte gr
every body</w>
glo ves</w>
har d
rela tion
predic ted</w>
predic tions</w>
susp end</w>
char ged</w>
equ al</w>
contrac ts</w>
typ ical</w>
cr y
cho sen</w>
excep tion</w>
distribu ted</w>
visit ing</w>
adv anced</w>
coll ected</w>
arri val</w>
indic ates</w>
invol ve</w>
cover age</w>
travel ers</w>
hol ding</w>
Fe bruary</w>
clas si
agen cies</w>
jour nal</w>
reser vation</w>
seas on</w>
run ny</w>
che ap</w>
tax pay
stom ach</w>
Ne therlands</w>
Ac cording</w>
encour age</w>
expen sive</w>
program s</w>
fail ure</w>
hun dreds</w>
contracep tion</w>
contracep tive</w>
replic ation</w>
Qu estion</w>
organiz ations</w>
behavi or</w>
sensi tivity</w>
mach ine</w>
sli ghtly</w>
reli able</w>
sett ings</w>
recogni ze</w>
swe den</w>
oblig ations</w>
math bb</w>
monit or</w>
tradi tional</w>
hot els</w>
schedul ed</w>
civi l</w>
Del ta</w>
wed nesday</w>
brief ing</w>
comparis on</w>
perspec tive</w>
embas sy</w>
prim arily</w>
Boo king</w>
vap or</w>
conspir acy</w>
spac es</w>
domes tic</w>
Econ om
caff e
hessi an</w>
2 nd</w>
4 00</w>
5 7</w>
8 4</w>
9 2</w>
E S</w>
F in
F rom</w>
F rench</w>
H ere</w>
O ff
O ne</w>
R ec
a ster</w>
b l
b a</w>
c n
c s
c u</w>
c el
c ratic</w>
e th
e ure</w>
e state</w>
f ru
f au
f la
g au
i res</w>
i gn
k a</w>
l er</w>
m m
m c</w>
m ess
n 95</w>
o viruses</w>
p ed</w>
p al</w>
r ty</w>
s m</w>
t wee
u be</w>
u sc
v als</w>
v ative</w>
w ar</w>
x ing</w>
re ality</w>
re move</w>
ti mely</w>
er a</w>
on set</w>
ou se</w>
en tr
or ona
al man</w>
st or
st ability</w>
at ri
ro te</w>
om s</w>
di dn</w>
di rty</w>
li ons</w>
li sts</w>
de gc</w>
se arch
un certainty</w>
viru l
con ferences</w>
le ment</w>
po x</w>
be ds</w>
op por
ver i
sh ing</w>
ad en
inf lam
com for
ap art</w>
cor ti
ul es</w>
te a</w>
ve re
per form</w>
pl us</w>
20 17</w>
ai m</w>
cl ause</w>
pu tting</w>
sur gical</w>
ke y
wi pe</w>
ev ac
comm unities</w>
out lin
pp e</w>
pan ts</w>
eff ort</w>
eff icient</w>
ra w</w>
pr int</w>
inter action</w>
loc ation</w>
infor ma
exp ires</w>
soci ety</w>
provi des</w>
cu sto
fo o
anti viral</w>
anti retro
respir ators</w>
ide as</w>
sign ed</w>
vari ables</w>
up dates</w>
leg ally</w>
contin ues</w>
addi tionally</w>
jo int</w>
applic ations</w>
den ied</w>
exten sive</w>
func tions</w>
call s</w>
preven tive</w>
phys ici
inten sive</w>
maj eure</w>
contain ed</w>
In dia</w>
exi sts</w>
presi dential</w>
adv ant
reduc ing</w>
bre ach</w>
tech ni
lor d</w>
bacter ial</w>
dep th</w>
molec ular</w>
interpre tation</w>
calcul ate</w>
No te</w>
asse m
revie wed</w>
purch ase</w>
streng th</w>
partici pants</w>
candi date</w>
maintain ing</w>
avoi ding</w>
politici ans</w>
custom ers</w>
minimi ze</w>
job s</w>
adop ted</w>
notic ed</w>
tot ally</w>
foreign ers</w>
ade qu
span ish</w>
subsequ ent</w>
4 5
5 9
A d
A m</w>
A fr
I T</w>
L et</w>
M o
O b
P ar
P ri
T T
U p
a tional</w>
b ing</w>
b es
c le</w>
c lim
c fr</w>
e at</w>
g as</w>
g reg
h ic
i bu
i ties</w>
k id
m es</w>
n ation</w>
n am</w>
n esses</w>
o x</w>
p lo
p ate</w>
r n
s il
s le
s sing</w>
u ally</w>
u ated</w>
u ps</w>
w an
w rote</w>
in er
in vi
in tu
in ser
an os
re ment</w>
re pu
ar ding</w>
it able</w>
ac orona
om ing</w>
ru b</w>
li o</w>
il ing</w>
de ly</w>
un prece
con sen
le g</w>
le gi
ex p</w>
ch ic
op h
op tim
bu d
el and</w>
ne t
ne sted</w>
com promi
gh ting</w>
ap ore</w>
ho t</w>
do se</w>
ir ation</w>
te am</w>
ta u</w>
per fect</w>
go o
he at</w>
he ar</w>
20 18</w>
20 13</w>
rea dily</w>
is dic
ssi ve</w>
sur pris
wi dely</w>
ing ing</w>
fi xed</w>
mu sc
mon day</w>
fin ed</w>
diff er</w>
ju d
av es</w>
bet acorona
pp ing</w>
ali for
diffe rently</w>
pri ori
stu ck</w>
stu ff</w>
clo ser</w>
dist inc
exam s</w>
id es</w>
kno wing</w>
provi sions</w>
dur ation</w>
fol ding</w>
avail ability</w>
sho t</w>
main land</w>
car rying</w>
leg is
comp on
comp ly</w>
fur t</w>
pay roll</w>
tou ched</w>
prof en</w>
den ted</w>
den cy</w>
har der</w>
confir m</w>
confir mation</w>
poli o</w>
war ned</w>
cap it
fil ing</w>
fil ters</w>
kin s</w>
col um
hu bei</w>
cul ture</w>
lit er
mit ting</w>
sha re
public ations</w>
ref ers</w>
xi v</w>
regar dless</w>
reduc tion</w>
arri ving</w>
vide os</w>
non immigr
ass ess</w>
hol ds</w>
grap h</w>
dri ve</w>
accep ted</w>
clas ses</w>
opti m</w>
drin king</w>
natur ally</w>
refu sed</w>
assump tion</w>
sal es</w>
instruc tions</w>
Than k</w>
emo tional</w>
republic an</w>
hydro gen</w>
grocer ies</w>
introduc ed</w>
Americ an</w>
cru ise</w>
categ ory</w>
sco pe</w>
ologi sts</w>
real istic</w>
jur isdic
execu tive</w>
chron ic</w>
laun dry</w>
declar ation</w>
evolu tion</w>
extra ordinary</w>
newsp aper</w>
free dom</w>
prepar ing</w>
rank furt</w>
defa ult</w>
strong ly</w>
cry st
fau ci</w>
usc is</w>
virul ence</w>
ibu profen</w>
anos mia</w>
unprece dented</w>
consen sus</w>
0 5</w>
2 3
2 5
3 7
3 00</w>
8 1</w>
A t</w>
B e
D ate</w>
D NA</w>
M E
P e
P R</w>
S ec
U ni
b un
b ought</w>
b ills</w>
c tion</w>
d na</w>
d board</w>
e ve</w>
h ome
i i</w>
j an</w>
k ills</w>
m m</w>
n an
r ing</w>
r ab
s ke
s lowing</w>
t elling</w>
v ou
v ations</w>
w est</w>
y u
z z
in ary</w>
in habit
re min
re infected</w>
re ss</w>
re over</w>
re ven
re action</w>
re ligi
on ed</w>
en h
en ted</w>
en ty</w>
or ting</w>
st ations</w>
st ops</w>
at a</w>
at ar</w>
at ten</w>
ac k
ac cor
di vi
di arr
li c</w>
li pid</w>
lo ved</w>
se q</w>
the ories</w>
co p
con sum
con sent</w>
pro gre
le th
ex pres
ex change</w>
ch er</w>
be gan</w>
sh ut
el se
ad just</w>
ag ues</w>
ho li
pre su
mo vi
mo reover</w>
ve hic
go ch</w>
du ty</w>
fe ed</w>
rea m</w>
bo goch</w>
gen es</w>
so l</w>
por tion</w>
ep ide
la p</w>
mon ton</w>
sit ting</w>
dat ab
ali en</w>
prob able</w>
Wh ere</w>
inter nal</w>
mil lions</w>
stu dying</w>
loc k</w>
loc ated</w>
exp iration</w>
govern or</w>
requ e
ell ed</w>
air borne</w>
fl ying</w>
fl atten</w>
reg ression</w>
ill nesses</w>
tur ned</w>
are r</w>
provi ders</w>
vir als</w>
lar gest</w>
pen ding</w>
ran dom
chil d
ent ally</w>
dec ember</w>
oo m</w>
emer ging</w>
car dboard</w>
vari ation</w>
regul atory</w>
ous ness</w>
retur ned</w>
chec ked</w>
ger man</w>
nor th</w>
vo ted</w>
prof it</w>
plan es</w>
ni h</w>
shi ft</w>
ed monton</w>
employ ers</w>
14 0</w>
part ners</w>
ann ual</w>
inten sity</w>
lab el</w>
disc re
lock downs</w>
AR ES</w>
americ a</w>
ref use</w>
obser vation</w>
oper ate</w>
tun ity</w>
vali dation</w>
invol ving</w>
asi de</w>
cover s</w>
grap h
Fe b</w>
ow ner</w>
ow ners</w>
vol un
equi valent</w>
Ger man</w>
rep ly</w>
evol ving</w>
occur s</w>
tempor arily</w>
recommend ation</w>
cancel lations</w>
design ed</w>
refu sal</w>
chlor ine</w>
colle agues</w>
priv acy</w>
xy chloroquine</w>
spr ing</w>
surve y</w>
doub t</w>
back ground</w>
pat ter
conn ection</w>
shor ter</w>
red ness</w>
consider ation</w>
joh nson</w>
gd p</w>
neu tr
combin ation</w>
flexi bility</w>
challeng es</w>
thor oughly</w>
diam eter</w>
withdra w</w>
vec tor</w>
stain less</w>
prop ag
mathema tical</w>
compe ti
consist ent</w>
great ly</w>
figu res</w>
caffe ine</w>
oppor tunity</w>
adequ ate</w>
legi timate</w>
surpris ing</w>
musc le</w>
1 19</w>
4 40</w>
5 8</w>
5 4</w>
6 7</w>
7 7
7 8</w>
A s
A ll</w>
B ar
C ould</w>
C ARES</w>
D emo
E ng
F rankfurt</w>
G en
H ong</w>
J apan</w>
K ong</w>
K alman</w>
L S</w>
M on
R om
S ci
Y o
a a</w>
a ke</w>
b c
b at
b ar</w>
b ited</w>
b lam
e e
g t
g on
g ori
h im
i g
i ght</w>
i sts</w>
i gn</w>
k ish</w>
l o</w>
l in</w>
m r</w>
n h
n s
n ia</w>
n cb
o I</w>
o th</w>
p v</w>
p ath</w>
s ence</w>
s wa
t ext
u r</w>
v ac
v ague</w>
w an</w>
x lab</w>
z en</w>
z ations</w>
in hi
in activ
an xi
ti ll</w>
ar bit
en ge</w>
en ces</w>
en velo
en forced</w>
or row</w>
al le
al ber
al gori
st on</w>
st ays</w>
vi c
it es</w>
it ly</w>
as ia</w>
ac et
ic on</w>
ic ity</w>
ha m</w>
di um</w>
ru ssia</w>
li st
lo sses</w>
si ght</w>
si vely</w>
si bly</w>
de ep</w>
de aling</w>
tr ack</w>
se as</w>
co l</w>
ab road</w>
ab sence</w>
pro ven</w>
pro xim
le tting</w>
ma xim
po l
po ll</w>
po sted</w>
po ol</w>
ur ing</w>
ex plic
am end
el ds</w>
ad ic
qu es</w>
ap se</w>
ap preci
ag ents</w>
mp ed</w>
pe t</w>
pre fer</w>
pre limin
ve get
per mit</w>
wor ked</w>
ren ce</w>
he a</w>
he av
um p</w>
tic keting</w>
20 10</w>
20 11</w>
fe ature</w>
cl ari
sur ing</w>
sur roun
hi stor
ke eps</w>
str ai
to ols</w>
tra ins</w>
pa ths</w>
out door</w>
der i
tt e</w>
bec oming</w>
for ms</w>
resp ec
sc rat
tom orrow</w>
pp p</w>
some what</w>
trans cri
trans lation</w>
ra ti
ph en
ain ing</w>
loc ations</w>
medic ation</w>
air ways</w>
bi gger</w>
ge o
oc cas
fl atten
mode lling</w>
emp ty</w>
provi sion</w>
man dat
meas u
fic ations</w>
anti ci
anti gen
cau tion</w>
pas sing</w>
star ts</w>
contr ast</w>
econom ics</w>
hou ses</w>
sol ved</w>
direc tions</w>
produc tive</w>
pres ents</w>
sho wed</w>
import ance</w>
car ried</w>
retur ns</w>
comp li
over seas</w>
nor thern</w>
sec ure</w>
cen sus</w>
har v
00 2</w>
00 1</w>
scienti st</w>
lear ned</w>
recei ving</w>
ster day</w>
sta tic</w>
amoun ts</w>
clin ic</w>
authori zed</w>
sing apore</w>
descri be</w>
blo g</w>
sha red</w>
excep tions</w>
visit ation</w>
origin ated</w>
xi de</w>
associ ation</w>
coll ection</w>
diagno stic</w>
sugge sting</w>
oper ation</w>
pi ec
ba g</w>
correc tly</w>
lead ers</w>
institu tion</w>
cent res</w>
asi an</w>
fat al</w>
bri tish</w>
accep t</w>
presen ted</w>
objec tive</w>
che mi
rep atri
wat ching</w>
encour aged</w>
continu ous</w>
Con gress</w>
program ming</w>
sw abs</w>
molec ules</w>
chall enge</w>
disrup tion</w>
suppor tive</w>
optimi ze</w>
fec es</w>
person ally</w>
shor tly</w>
candi dates</w>
wai ver</w>
she et</w>
Nor way</w>
doll ar</w>
doll ars</w>
datas et</w>
datas ets</w>
follow s</w>
follow ed</w>
stran ded</w>
wou ldn</w>
journ als</w>
bott le</w>
glas s</w>
Vi ru
gor ous</w>
FI P</w>
Sen ate</w>
coh ort</w>
phy lo
week end</w>
sugg estions</w>
formul a</w>
reservo ir</w>
Jo h
penal ty</w>
relation ship</w>
cel ona</w>
twee ted</w>
corti co
Par is</w>
bes ides</w>
goo gle</w>
betacorona viruses</w>
alifor nia</w>
share holders</w>
vou cher</w>
inhabit ants</w>
random ly</w>
Yo u</w>
gon na</w>
him self</w>
ncb i</w>
arbit r
algori th
maxim um</w>
amend ment</w>
prelimin ary</w>
0 5
0 9</w>
2 f
2 1st</w>
3 4</w>
4 8
6 8</w>
9 3</w>
A r
A ny</w>
E 2</w>
M e
P r
P hilippines</w>
S T
S u
S peci
T im
U U
a h
a po
a dian</w>
b ad
b oun
b ase</w>
d c</w>
d or
e g</w>
e able</w>
e ast</w>
e mails</w>
f as
f ab
g un
g ma</w>
h asi
j ing</w>
k p
k its</w>
p uni
p hilippines</w>
t fo
y al</w>
y lab</w>
th in</w>
in t
an no
re p</w>
ti ps</w>
on y</w>
ar ti
al ed</w>
st ages</w>
at er
at tribu
vi r</w>
it er
as ury</w>
om bar
ha el</w>
li e</w>
li am
li pi
su itable</w>
tr ad
se a</w>
se ven</w>
un like</w>
co ordin
co variance</w>
pro po
pro mp
sp in</w>
sp ain</w>
ma mm
am e</w>
ri c</w>
ri es</w>
wit ter</w>
op posed</w>
bu ses</w>
bu sy</w>
ver sion</w>
ver sus</w>
ad ding</w>
ne g
com ment</w>
me ter</w>
me als</w>
ap or
cor relation</w>
do w</w>
ir rit
mo ved</w>
te ach</w>
ve ter
we ak</w>
we ak
au di
pl at
pl enty</w>
go ld</w>
um s</w>
20 th</w>
fe ars</w>
fe asi
par liam
im pose</w>
cl ick</w>
is o
is ation</w>
pu rely</w>
to wn</w>
wi pes</w>
ev apor
fi p</w>
fi ghting</w>
so vere
por tfo
out put</w>
out lets</w>
gr ant</w>
gr ad</w>
dic al</w>
tt on</w>
for ces</w>
for mer</w>
sel ection</w>
ye sterday</w>
demi a</w>
some how</w>
ali zation</w>
ph il
sen ding</w>
Wh o</w>
inter actions</w>
ort ation</w>
clo sures</w>
infor m</w>
tre asury</w>
ge ly</w>
tri al</w>
tri gger</w>
ici al</w>
sch em
respon si
tur ing</w>
all er
any more</w>
quar ter</w>
acti vely</w>
hou sing</w>
ga ve</w>
ga ther</w>
cour ts</w>
lim its</w>
medi um</w>
import ation</w>
ide al</w>
stru gg
work er</w>
sup pose</w>
every day</w>
10 7</w>
mini stry</w>
sa tis
prof its</w>
den ial</w>
har m
refun ds</w>
intere sts</w>
citiz en
war m</w>
lif ts</w>
char ges</w>
cap able</w>
19 8</w>
wa ste</w>
bor n</w>
mic hael</w>
200 6</w>
200 8</w>
nam ed</w>
lan d
kin ds</w>
col ds</w>
spec ul
spo t</w>
web sites</w>
12 1</w>
suff er</w>
safe ly</w>
atten d</w>
visit s</w>
ref erring</w>
desi red</w>
centr e</w>
expl ains</w>
pi ece</w>
indic ate</w>
indic ated</w>
invol ves</w>
err ors</w>
bio informa
specific ity</w>
remo tely</w>
new ly</w>
pregn ancy</w>
scre en</w>
accur ately</w>
def ine</w>
def ense</w>
depart ments</w>
aca demia</w>
Re public
imple ment</w>
dou ble</w>
bacter i
broad er</w>
broad ca
Al though</w>
var ies</w>
conclu sions</w>
conduc t</w>
establi sh
smo kers</w>
protec ting</w>
research er</w>
determin ing</w>
investig ations</w>
demo cratic</w>
venti lation</w>
fail ed</w>
sir 2</w>
ax s</w>
neighb ors</w>
bb c</w>
exemp t</w>
quo ted</w>
sensi tive</w>
nucle ic</w>
categ ories</w>
ologi st</w>
than ks</w>
abor tion</w>
til de</w>
metr ic</w>
bloc k</w>
fall s</w>
gd pr</w>
afr aid</w>
flexi ble</w>
engine ering</w>
sav ings</w>
reti rement</w>
itali an</w>
depar ture</w>
substanti ally</w>
Air lines</w>
appoin tment</w>
acqu ired</w>
transp ortation</w>
load ed</w>
pow er
beli eved</w>
premi um</w>
fact ory</w>
numer ous</w>
recover ing</w>
opt 2</w>
fundam ental</w>
ED IT</w>
Or g
forec ast</w>
gau ssian</w>
Up date</w>
clim ate</w>
repu tation</w>
net work</w>
legis lation</w>
nan op
else where</w>
vehic le</w>
epide mics</w>
nh 3</w>
swa b</w>
anxi ety</w>
heav y</w>
clari fy</w>
rati o</w>
phen om
mandat ory</w>
piec es</w>
arbitr ary</w>
lipi ds</w>
portfo lio</w>
0 pt</w>
1 20
1 10</w>
1 16</w>
3 8
5 5</w>
6 7
6 3</w>
7 6</w>
7 7</w>
8 0
9 8</w>
A AT
B ri
C u
C ur
C oun
F ed</w>
G oo
J u
L u
M ini
P ol
R 0</w>
S o
S our
b s
b ra
b les</w>
b ail
c ars</w>
c up</w>
c ited</w>
e g
e than
e limin
f rench</w>
g a</w>
g one</w>
g ements</w>
h or
h ur
i p
i on
i an</w>
j ection</w>
k ar
k ing
k ings</w>
l ens</w>
m in</w>
o xide</w>
p in
p ha
r ich</w>
r icul
s n
s ou
s atur
t ch</w>
t ments</w>
t ably</w>
t ask</w>
u le</w>
y er</w>
th ou
in tr
in et</w>
in door</w>
an th
an tom</w>
re b
re di
re plac
re lu
re source</w>
re present</w>
re alize</w>
on ing</w>
on er</w>
ar ance</w>
en jo
en ever</w>
st ream</w>
at al</w>
vi ce</w>
vi sion</w>
vi ously</w>
vi sibly</w>
ac coun
ic o</w>
ic an</w>
wh enever</w>
di g
ru pt</w>
il it
de duc
de struc
se ve
se arching</w>
the ta
un its</w>
un well</w>
un related</w>
un lawful</w>
ab ili
con ser
pro mo
ma ster</w>
po sts</w>
po land</w>
ur gent</w>
ex hi
ex hal
am s</w>
tion ing</w>
sh oc
el ine</w>
me t</w>
me ant</w>
ag gre
ho sts</w>
mi x</w>
ul tim
mo ti
mo bi
ta tional</w>
per oxide</w>
au gust</w>
pl ay
pl aying</w>
um e</w>
20 15</w>
fe els</w>
fe atures</w>
par ms</w>
par tis
is tics</w>
pu ts</w>
sur pri
ke l</w>
to ward</w>
gi um</w>
gi thu
our selves</w>
pa rent</w>
ing u
ing redi
gr ounds</w>
mu tation</w>
tt ers</w>
for d</w>
sc ared</w>
fin i
ser ve</w>
ju mped</w>
sel ect</w>
gu e</w>
gu n</w>
pub s</w>
ye ar
eff ic
fun c</w>
imp acts</w>
ali ve</w>
ali ens</w>
ra rely</w>
ph r
ph antom</w>
sen ior</w>
inter act</w>
mas sive</w>
loc ked</w>
appro ve</w>
off ers</w>
dis aster</w>
dist ress</w>
bac ked</w>
reg ard</w>
respon ding</w>
ill ance</w>
emp hasi
prev ents</w>
man ia</w>
cu omo</w>
fic ally</w>
lic en
nee ding</w>
mat h</w>
tru st</w>
cri min
direc tion</w>
lu ck</w>
aff ects</w>
ce le
issu ing</w>
ban king</w>
sign ing</w>
car di
ore an</w>
10 000</w>
tou ri
org an</w>
men tions</w>
hy per
prote ase</w>
den ly</w>
br inging</w>
ni e</w>
ed en</w>
clai ming</w>
stitu te</w>
equ ally</w>
proc esses</w>
cancell ing</w>
14 4</w>
appe ared</w>
saf er</w>
200 4</w>
eas ed</w>
wash ed</w>
thro w</w>
regi onal</w>
descri bes</w>
descri bing</w>
12 3</w>
suff ering</w>
cam pu
public ation</w>
ama ica</w>
sk ills</w>
grad es</w>
ear n</w>
ear ning</w>
mis sing</w>
arri ve</w>
arri ved</w>
proce ed</w>
reason ably</w>
frequ ent</w>
gro w</w>
buil t</w>
thre at
thre ats</w>
pack ages</w>
house holds</w>
deb ate</w>
vol ume</w>
jour ney</w>
zer land</w>
dead line</w>
manufactu red</w>
establi sh</w>
flu ids</w>
knowle d
eu r</w>
smo ke</w>
AC E2</w>
liqu ids</w>
dest inations</w>
carri ers</w>
fit ness</w>
eligi bility</w>
preci sely</w>
analy ses</w>
hydro xychloroquine</w>
surve illance</w>
purch ased</w>
communic ation</w>
organiz ers</w>
doub ling</w>
tren d</w>
absolu te</w>
quo te</w>
mean time</w>
mean ing
nucle i</w>
person nel</w>
experien ced</w>
sor ry</w>
asp ects</w>
guaran te
overwhel med</w>
avoi ded</w>
yn man</w>
afr ica</w>
Au strali
semin ars</w>
confu sed</w>
postp one</w>
organis ation</w>
adju sted</w>
mani fe
tol er
limit ation</w>
limit ations</w>
discus sed</w>
sanc tions</w>
breast feeding</w>
pharmac ies</w>
zoono tic</w>
foun dation</w>
11 th</w>
Can ada</w>
sud denly</w>
amin o</w>
miti gate</w>
prescri ption</w>
Per son</w>
yout ube</w>
concep t</w>
layo ver</w>
cn n</w>
physici an</w>
advant age</w>
Afr ica</w>
Pri me</w>
bud get</w>
jurisdic tions</w>
religi ous</w>
datab ase</w>
Bar celona</w>
veget ables</w>
strai ght</w>
harv ard</w>
fab ric</w>
ombar dy</w>
feasi ble</w>
sovere ign</w>
phenom en
Mini ster</w>
ethan ol</w>
thou ghts</w>
seve rely</w>
0 6</w>
1 03</w>
1 18</w>
1 50</w>
3 9
4 4
5 8
6 9</w>
7 1</w>
8 3</w>
8 9</w>
A GT
C C
E I
E ven</w>
F ur
F ri
F ir
F ox</w>
H 1
H as</w>
I C
I ran</w>
M c
N 95</w>
O f</w>
O pt</w>
P A</w>
P lease</w>
R D</w>
S we
W e
W i
Y ork</w>
a res</w>
a tically</w>
b y
b il
b ay
b ling</w>
c k
c c</w>
c ket</w>
d den</w>
e c</w>
e ti
e ing</w>
e di
f air</w>
f illed</w>
g ir
g ain</w>
g 13</w>
g ross</w>
h ire</w>
i e</w>
j am
k o
k new</w>
l aid</w>
l pv</w>
m i</w>
m en</w>
n ic
n om
n sp
n ls</w>
n lm</w>
o t
o x
o t</w>
o od</w>
p h</w>
r r
s ki
s ale</w>
s aving</w>
s ba</w>
t on
t as
t ab
t am
t witter</w>
u ti
u sel
v a</w>
v om
z oom</w>
th ly</w>
th read</w>
in al</w>
an a</w>
an ese</w>
re fri
re tail</w>
re placed</w>
ti n</w>
er red</w>
en ter
al together</w>
st an</w>
st ation</w>
st ar</w>
vi su
it u
it arian</w>
it iner
ro oms</w>
ac ks</w>
ac knowled
ic u</w>
ic eland</w>
ha ven</w>
es hi
es cap
di pl
li m</w>
li ber
li gence</w>
su it</w>
de tec
tr ation</w>
se g
the at
the tical</w>
un employed</w>
co o
ab sor
con cen
con vin
sp ouse</w>
le aves</w>
ma r</w>
po s</w>
po sing</w>
po ore
po site</w>
be d
be t</w>
ri min
sh aring</w>
ad es</w>
ad ver
inf e
inf ra
com b
com mission</w>
me at</w>
me et
me rely</w>
ap s</w>
ap anese</w>
ag ricul
mp s</w>
mi xing</w>
mi rr
do c</w>
mo tion</w>
mo de</w>
mo squ
te en</w>
ta i
per mission</w>
pl ain</w>
go tt
tim s</w>
ren cy</w>
par tly</w>
is land</w>
tra tions</w>
em ed</w>
fi elds</w>
so iled</w>
so dium</w>
so oner</w>
anc et</w>
gr ants</w>
gr and
for bi
tu esday</w>
fin ance</w>
et nam</w>
cur ves</w>
ari al</w>
imp lies</w>
trans actions</w>
trans mitting</w>
brea k
Wh ich</w>
inter f
inter medi
sin d</w>
cer ti
lin en</w>
fu n</w>
bi g
bi a</w>
bi as</w>
ge or
ge ment</w>
sch ol
cle an
ill u
dro s</w>
speci ali
under stand
all ergy</w>
cu red</w>
mar keting</w>
ant a</w>
vir tually</w>
lar gely</w>
hospit al
pas ses</w>
contr adic
ent ary</w>
restric t</w>
restric ting</w>
econom ist</w>
dre w</w>
popul ar</w>
cri me</w>
boo kings</w>
dec ree</w>
dec eased</w>
emer ged</w>
advi ses</w>
advi sing</w>
quarant ining</w>
sho p</w>
ban k
ban ning</w>
auth or
auth ors</w>
ide ally</w>
regul ated</w>
pur i
vie ws</w>
chec k
isol ating</w>
univer sal</w>
struc tural</w>
nor way</w>
fr ag
us ers</w>
every where</w>
10 0
val u
gam e</w>
simil arly</w>
sec tions</w>
see king</w>
den sity</w>
rela tions</w>
shi f
shi ps</w>
comple ted</w>
ed it
clai mer</w>
14 3</w>
14 7</w>
19 18</w>
secon dly</w>
200 5</w>
resul ting</w>
spec im
13 4</w>
inten tionally</w>
bin om</w>
fa q</w>
disc rimin
regi stration</w>
In f
hop ing</w>
hop kins</w>
visit or</w>
del ayed</w>
announ cement</w>
obser vations</w>
coll abor
sk i</w>
mis sed</w>
stre et</w>
logi es</w>
bur den</w>
frequ ency</w>
inst ances</w>
pack aging</w>
dri ver</w>
dri ving</w>
dri vers</w>
remo ved</w>
manag ing</w>
proper ties</w>
dom in
inve sting</w>
bon ate</w>
sequen cing</w>
short ages</w>
cou ldn</w>
gl y
15 th</w>
profess ors</w>
corpor ations</w>
Ne ws</w>
expon entially</w>
fre sh</w>
inc ess</w>
aa aa
top ics</w>
guar dian</w>
continu ing</w>
cy cle</w>
neigh bor
88 88</w>
len ding</w>
len ders</w>
don ald</w>
moder ate</w>
complic ated</w>
molec ule</w>
statis tical</w>
ash ing</w>
small pox</w>
suppor ting</w>
character ized</w>
thous and</w>
cro ssing</w>
fram e
optimi zation</w>
Americ ans</w>
att ack</w>
contribu te</w>
prohi bits</w>
mod nested</w>
practic ing</w>
neighb or</w>
behavi our</w>
exemp tion</w>
mer ase</w>
tan e
expec ting</w>
critici sm</w>
therap y</w>
maintain ed</w>
rat g13</w>
experim ental</w>
poly merase</w>
stran ge</w>
interven tion</w>
interven tions</w>
rhin ovirus</w>
sav ed</w>
repe at</w>
substanti al</w>
cab inet</w>
wel come</w>
wel fare</w>
radi o</w>
tol l</w>
Go vern
viro logy</w>
construc tion</w>
implic ations</w>
techno logy</w>
Asi an</w>
effici ents</w>
disinfect ant</w>
disinfect ants</w>
camp ai
h2 o</w>
has n</w>
nur sing</w>
slow ly</w>
tin y</w>
achi eve</w>
pass age</w>
poll s</w>
soli d</w>
integr al</w>
hard est</w>
taxpay er</w>
Rec ently</w>
bl ue</w>
mess age</w>
search ed</w>
custo dy</w>
Ob viously</w>
optim al</w>
compon ents</w>
Pe ople</w>
Uni ver
rab ies</w>
reven ue</w>
holi day</w>
patter n</w>
Mon day</w>
vic tims</w>
explic itly</w>
flatten ing</w>
antigen ic</w>
compli ance</w>
Viru s</w>
cortico steroids</w>
fas hi
veter inary</w>
parliam ent</w>
harm ful</w>
citizen ship</w>
land lord</w>
bioinforma tics</w>
relu ct
ultim ately</w>
crimin al</w>
cele br
Fir st</w>
usel ess</w>
refri ger
concen trations</w>
meet ings</w>
1 20</w>
1 30</w>
2 F
5 5
9 6
A n
A p
A n</w>
A ir</w>
B P</w>
B er
C le
C ol
D ata</w>
D uring</w>
F ang
G C
G ene</w>
H S</w>
H ave</w>
J an</w>
M ay</w>
O P
O f
R u
S P
T ur
a b</w>
a stern</w>
a stro
b ent</w>
b ars</w>
b arri
c li
c dot</w>
e m</w>
f th
f ell</w>
f its</w>
g all
h r
h a</w>
i m</w>
i ka</w>
j ones</w>
j ump</w>
k o</w>
k illing</w>
l a</w>
l ay</w>
l end</w>
m d</w>
m al</w>
m el
m ari
n au
n hs</w>
o h</w>
p it
p es
q rt</w>
r y
r ad
s c</w>
s ar
s in</w>
s qrt</w>
t i</w>
t we
t um
u mo
u ters</w>
v a
v i</w>
v ast</w>
v ous</w>
w ound</w>
w age</w>
y i
in no
in depen
in doors</w>
an es
re sc
re place</w>
re consider</w>
re book</w>
re acting</w>
ti ze</w>
ar g
ar by</w>
en co
en able</w>
en act</w>
en ced</w>
en suring</w>
or ban</w>
or xiv</w>
al ar
al ve
st ating</w>
at r
at ories</w>
vi ability</w>
ac com
ac ci
ic ked</w>
om ic</w>
no on</w>
no ise</w>
es us</w>
li ties</w>
il a</w>
si tion</w>
su b</w>
de x</w>
de fe
de ep
de ad</w>
tr as
se at</w>
se af
co ol</w>
co ok</w>
ab str
ab use</w>
con g
con fin
pro posed</w>
pro pose</w>
pro file</w>
pro jects</w>
sp ar
le tters</w>
po se
po ster
ex it</w>
be l
be ar</w>
be lon
op ha
op posite</w>
bu st</w>
sh u
sh ou
sh ire</w>
ad ds</w>
ne therlands</w>
ne arby</w>
inf ant</w>
inf ants</w>
com bat</w>
ag s</w>
ag rap
pre pa
pre fer
mo bility</w>
ve mber</w>
per mitted</w>
per fec
we b</w>
au to</w>
au di</w>
ol es
ci vet</w>
he aring</w>
du ties</w>
20 14</w>
fe ynman</w>
par agrap
ssi ons</w>
fac e
fac ilit
ke pt</w>
to w
to x
tra ined</w>
wi der</w>
ans a</w>
out line</w>
out bound</w>
ris ing</w>
acc ru
bec ame</w>
for get</w>
tu m</w>
mon thly</w>
sc ans</w>
cur rency</w>
sel ected</w>
ye ast</w>
ten ds</w>
ten ance</w>
ten ant</w>
pp m</w>
ari ties</w>
fun eral</w>
ali gn</w>
ali zations</w>
brea the</w>
sen sible</w>
pr ic
cre w</w>
ste red</w>
clo thing</w>
clo ture</w>
off ices</w>
tre es</w>
medic ations</w>
fu r</w>
bi tion</w>
bi orxiv</w>
ge e</w>
ge red</w>
na oc
reg im
tur ns</w>
mar gin</w>
eng land</w>
respir ator</w>
econom ies</w>
ll ed</w>
sub way</w>
sub section</w>
sub mit</w>
boo ks</w>
was n</w>
dec ades</w>
ce x</w>
Co vid19</w>
rel and</w>
rel ates</w>
import antly</w>
stan ds</w>
main tenance</w>
car ing</w>
vari ety</w>
comp ounds</w>
ani zation</w>
row ing</w>
chec king</w>
deci des</w>
anim e</w>
condi tional</w>
offici ally</w>
ger ms</w>
resi du
resi dential</w>
jo in</w>
10 9</w>
sec tor</w>
evi ction</w>
predic table</w>
recommen ding</w>
br on
war mer</w>
susp ici
wa ke</w>
defin i
fil tration</w>
200 7</w>
fri day</w>
fri eden</w>
cat astro
lon don</w>
col or</w>
enz y
hu b</w>
experi ment</w>
identi fying</w>
contain er</w>
sha pe</w>
tail s</w>
12 8</w>
In ter
visit ed</w>
wal d</w>
ref erred</w>
coll apse</w>
appropri ately</w>
cas ual</w>
pne umo
arch i
reason ing</w>
logi c</w>
ext inc
prac tically</w>
ass essing</w>
travel ed</w>
gro ws</w>
manufac turing</w>
inst ant</w>
environ ments</w>
cal end
accur acy</w>
adul t</w>
Un fortunately</w>
immigr ants</w>
29 1</w>
dama ges</w>
short age</w>
gl m</w>
che aper</w>
tax able</w>
succ ess</w>
corpor ation</w>
foc used</w>
remain ing</w>
quali fied</w>
drin ks</w>
eu tical</w>
ner vous</w>
compar ing</w>
mut ated</w>
dan ger</w>
encour aging</w>
design ated</w>
constitu tion</w>
metho do
exclu sively</w>
30 th</w>
trac ing</w>
disrup ted</w>
analy ze</w>
manufacture rs</w>
stri a</w>
stri es</w>
choo sing</w>
provin ces</w>
spr ay</w>
organ ism</w>
sir d</w>
sir mc
communic able</w>
Americ a</w>
aero sol</w>
prohi bited</w>
hypo thetical</w>
pic ture</w>
mean while</w>
mach ines</w>
asp ect</w>
assi stance</w>
degre es</w>
conn ected</w>
adap tive</w>
therap ies</w>
ventilat or</w>
til ity</w>
viol ation</w>
conven tions</w>
Th en</w>
Th ese</w>
que tte</w>
experim entation</w>
Ex am
hom ology</w>
rai se</w>
insi ght</w>
represen tative</w>
super vis
confu sion</w>
poly aden
politici an</w>
demonstr ate</w>
demonstr ated</w>
dar k</w>
fav or
fav or</w>
rhin oviruses</w>
repe ated</w>
eval uate</w>
organis ms</w>
cab in</w>
jun k</w>
autom atically</w>
circul ating</w>
SI R</w>
avi r</w>
od ds</w>
correspon ding</w>
pharmac eutical</w>
devi ces</w>
persi st</w>
transmissi ble</w>
h2 o2</w>
arran gements</w>
connec ting</w>
mista ke</w>
ok ay</w>
indu stry</w>
theore tical</w>
furl ough</w>
furl ough
comfor table</w>
key word</w>
evac uation</w>
antiretro viral</w>
techni que</w>
chic ago</w>
capit al</w>
liter ature</w>
nonimmigr ant</w>
diarr hea</w>
consum er</w>
expres sed</w>
shut down</w>
volun te
Eng lish</w>
Gen eral</w>
Rom ania</w>
bc g</w>
text outline</w>
alber ta</w>
proxim ity</w>
appreci ate</w>
geo graphic</w>
antici pate</w>
chemi stry</w>
bad ly</w>
gun s</w>
propo sal</w>
mamm als</w>
schem e</w>
responsi bility</w>
Org anization</w>
120 6</w>
Bri tish</w>
Goo gle</w>
Sour ce</w>
satur day</w>
anth ony</w>
exhal es</w>
aggre ssive</w>
mobi le</w>
githu b</w>
ingredi ents</w>
effic acy</w>
campu s</w>
Swe den</w>
eti quette</w>
itiner ary</w>
dipl om
poore r</w>
infra structure</w>
mirr or</w>
tai wan</w>
interf ere</w>
big gest</w>
gly co
Fang can
Of com</w>
fth ansa</w>
twe et</w>
anes thes
alve ol
seaf ood</w>
poster ior</w>
prepa redness</w>
perfec tly</w>
paragrap h</w>
naoc l</w>
calend ar</w>
sirmc 2</w>
polyaden y
2 m</w>
5 39</w>
7 9</w>
8 5
8 7
8 2</w>
8 00</w>
A AC
B an
C R</w>
C ity</w>
C hi
C entr
D r</w>
D on
D is
G CT
G PA</w>
G BP</w>
H u
H um
I O
I s
K L
K az
M any</w>
N 1</w>
O T
O n
R S</w>
V ow
a tives</w>
c g
c in
c ei
c ce
d d
d red</w>
d hs</w>
d pa</w>
e a</w>
e the
e id
e lev
e astern</w>
f om
f ies</w>
f cc</w>
g ul
g ary</w>
h 1
h en</w>
h its</w>
h line</w>
h cov</w>
i tive</w>
i zation</w>
j e
j p</w>
j apanese</w>
l as
l ated</w>
l aying</w>
l anta</w>
m s
m acy</w>
n t</w>
n 1</w>
n ate</w>
n ell</w>
n um</w>
o ting</w>
p ing</w>
p al
p un
p au
p ter</w>
p ages</w>
q atar</w>
r d</w>
r in
r is</w>
r am
s lo
s ali
s ms</w>
s ick
t or
t at
t ent</w>
t ory</w>
t ells</w>
w a</w>
w ages</w>
y o</w>
y ed</w>
z one</w>
th qu
th ening</w>
in duc
in ject</w>
in jur
an ders</w>
re ve
re act</w>
re ject</w>
re tail
re sort</w>
re lieve</w>
re solve</w>
re son
ti matic</w>
er t</w>
ar ity</w>
en s
en counter</w>
en tered</w>
or d</w>
or bi
al ex</w>
st ories</w>
st ingly</w>
st ained</w>
vi tal</w>
vi etnam</w>
ro wer</w>
ro dents</w>
ac ids</w>
ic h
ic tv</w>
no ting</w>
es ian</w>
li est</w>
li ps</w>
li ghts</w>
lo sing</w>
lo sis</w>
su cce
de le
de grad
de emed</w>
tr o</w>
se y</w>
se at
se ts</w>
se ats</w>
un k</w>
un certain</w>
co efficients</w>
pro to
pro ved</w>
ma p</w>
po ons</w>
ex ce
ex press</w>
ex ico</w>
am mon
am id</w>
ri d</w>
op ec</w>
ver t</w>
el er
el ected</w>
el bur
ad mission</w>
ad missi
ne ys</w>
inf ty</w>
com pri
ap p</w>
ul tras
pre print</w>
mo ves</w>
te mber</w>
ta p</w>
we red</w>
au sible</w>
go wn</w>
wor ding</w>
wor sen
ol ing</w>
infec ts</w>
ren ces</w>
ci l</w>
ci pl
ay er</w>
corona viral</w>
um ents</w>
tic le</w>
20 00</w>
fe ed
bo ards</w>
bo arding</w>
bo iling</w>
cl es</w>
is ing</w>
is ms</w>
coun ted</w>
fac epi
pu sh</w>
str ing
to ol</w>
enti als</w>
pa a</w>
ev a</w>
anc e
gr am</w>
ep a</w>
la sts</w>
acc us
for mation</w>
tu red</w>
sc ar
ser o
av el
sel s</w>
sel ler</w>
gu il
ten ancy</w>
CO N
trans iting</w>
ra tion
ra tional</w>
ra el</w>
brea king</w>
read ers</w>
sen ators</w>
pr one</w>
inter face</w>
inter active</w>
inter vals</w>
ste in</w>
ste tr
ell ular</w>
air s</w>
bi ke</w>
dis abilities</w>
dis claimer</w>
dis cipl
ge l</w>
hum an
dist ant</w>
dist ingu
exam in
exam ination</w>
ici ans</w>
gener ate</w>
respon ded</w>
tur kish</w>
dro ps</w>
dro pped</w>
id ity</w>
speci fied</w>
of com</w>
chan nel</w>
emp has
kno bs</w>
under way</w>
thin ks</w>
cu losis</w>
mun ici
develo ps</w>
ran ging</w>
ei ght</w>
gre en</w>
quar ters</w>
mat ch</w>
can adian</w>
posi tions</w>
acti vation</w>
produc es</w>
sm ell</w>
app ed</w>
stan tly</w>
sign als</w>
car ds</w>
car bonate</w>
vari ability</w>
leg s</w>
over view</w>
happ y</w>
sto ch
vie wing</w>
sup pres
deci ding</w>
rit ain</w>
assu mes</w>
dr astic</w>
resi dency</w>
us age</w>
vo id</w>
vo tes</w>
vo ters</w>
10 5</w>
10 th</w>
10 16</w>
see ing</w>
doc s</w>
rela x</w>
concer ning</w>
br n</w>
br ings</w>
br ought</w>
tal ks</w>
ed u</w>
ed ings</w>
susp en
00 000
cap ture</w>
14 9</w>
19 98</w>
defin es</w>
defin ite</w>
200 1</w>
nam ing</w>
influ enced</w>
jec tive</w>
bro ken</w>
ny t</w>
13 8</w>
inten d</w>
supp lement</w>
lab or</w>
thro ats</w>
sum mari
disc our
cr ash</w>
pac k</w>
spo ts</w>
hop es</w>
ber g</w>
ber culosis</w>
obser ve</w>
origin s</w>
origin ally</w>
coll ect</w>
hand led</w>
hand washing</w>
reduc tions</w>
mid night</w>
ear thqu
ba h
argu ing</w>
argu ed</w>
stre t
stre ets</w>
proce edings</w>
cha pter</w>
spe ed</w>
spe ech</w>
lead s</w>
est yle</w>
indic ation</w>
indic ating</w>
survi ved</w>
survi val</w>
logi st</w>
non ethe
wom an</w>
manag er</w>
new s
dra w</w>
exerci ses</w>
sequen ced</w>
tran sition</w>
advis ory</w>
dama ged</w>
zer os</w>
inci dence</w>
reser ved</w>
separ ated</w>
expo sing</w>
syn cy
consu me</w>
foc using</w>
var ying</w>
ca res</w>
simul ations</w>
deli ver
deli ver</w>
her pes
compar able</w>
propor tion
invest ments</w>
epidemi ological</w>
epidemi ologist</w>
micro bes</w>
micro biology</w>
demo graphic</w>
phar macy</w>
help ing</w>
docum ented</w>
squ ares</w>
wil d
attemp ts</w>
exclu des</w>
hun dred</w>
dispo se</w>
interpre t</w>
interpre ted</w>
mechan isms</w>
sal ary</w>
mac ro
replic ate</w>
justi fied</w>
controll ing</w>
character istic</w>
character istics</w>
stopp ing</w>
spr aying</w>
electr on
electr on</w>
cro wn</w>
introduc ing</w>
ax le</w>
contribu tions</w>
princi pal</w>
neighb our
bb ing</w>
pic tures</w>
territ ories</w>
techn ically</w>
prece ding</w>
tan g</w>
compen s
critici zed</w>
promi se</w>
consider ations</w>
overwhel ming</w>
targe ting</w>
success fully</w>
metr e</w>
consul ar</w>
bloc ks</w>
swit ch</w>
diver si
diver sity</w>
insi der</w>
challeng ing</w>
jun e</w>
pho to</w>
thor ough</w>
autom atic</w>
lac king</w>
refl ects</w>
od d</w>
correspon dent</w>
discu ss</w>
discu ssion</w>
57 1</w>
Asi a</w>
sun day</w>
gra ham</w>
form al</w>
transmissi bility</w>
recover ies</w>
ati a</w>
dilu ted</w>
sud den</w>
connec tions</w>
buy back</w>
miti g
fel t</w>
smar ter</w>
theore tically</w>
taxpay ers</w>
Econom ic</w>
Fin land</w>
Off ice</w>
fru it</w>
outlin estyle</w>
antiretro virals</w>
techni ques</w>
kid ney</w>
sil ver</w>
invi tation</w>
compromi sed</w>
colum n</w>
Sec urity</w>
remin der</w>
accor dance</w>
divi ded</w>
leth al</w>
movi es</w>
reque sts</w>
discre tion</w>
neutr al</w>
competi tion</w>
Demo crats</w>
blam e</w>
inhi bit
acet ate</w>
surroun ding</w>
deri vative</w>
respec tively</w>
scrat ch</w>
phylo genetic</w>
trad ing</w>
evapor ation</w>
Republic an</w>
bacteri opha
nanop article</w>
Coun try</w>
Ju ly</w>
Pol and</w>
king dom</w>
enjo y</w>
phenomen on</w>
Fur thermore</w>
We stern</w>
ko v</w>
nic o
itu de</w>
intermedi ate</w>
schol ar
bank rupt</w>
discrimin ation</w>
neighbor hood</w>
frame work</w>
tane ously</w>
campai gn</w>
Univer sity</w>
Cle arly</w>
nau sea</w>
abstr act</w>
confin ement</w>
bel gium</w>
belon gs</w>
defini tions</w>
methodo logy</w>
Fangcan g</w>
polyadeny lation</w>
Chi ef</w>
Don ald</w>
KL M</w>
Vow elbur
sali va</w>
ammon ia</w>
feed back</w>
facepi ece</w>
00000 000</w>
earthqu ake</w>
nonethe less</w>
1 15
2 4
2 29
2 2nd</w>
3 2
3 28</w>
3 rd</w>
5 6
6 9
6 00</w>
7 3
8 30</w>
9 4
A I
A b</w>
A C</w>
A re
B as
C ro
C alifornia</w>
D 19</w>
E D</w>
E M</w>
E mp
F ol
G rou
H op
H el
L ast</w>
M an
M ain
N Y
N a
N o</w>
P an
Q atar</w>
R o
R T</w>
S E</w>
S lo
S un
S im
S ep
S anders</w>
T oday</w>
W as</w>
W ash
a th
b one</w>
b our
b row
b lan
b lack</w>
b ags</w>
c al</w>
c alifornia</w>
d ant</w>
d econ
d ash
e le
e ds</w>
e ase</w>
e ous</w>
e mia</w>
e lement</w>
f ro
f ing
f are
g m</w>
g ator</w>
i x</w>
i ded</w>
i reland</w>
k tor</w>
k han</w>
k orean</w>
l u</w>
l ancet</w>
m h
m oun
m its</w>
m ale</w>
n es
n ings</w>
n pr</w>
n bs
o S</w>
o ti
o is</w>
o red</w>
o sc
o ta</w>
p s
p y
p 2</w>
p on
p sy
p ure</w>
q s</w>
r r</w>
r h</w>
r al</w>
r ally</w>
r lap</w>
s i</w>
s ad
s day</w>
s lower</w>
s orts</w>
s core</w>
s audi</w>
t c</w>
t l</w>
t m</w>
t ang
u ine</w>
v t</w>
v o</w>
v news</w>
v ak
w u</w>
w ell
x x</w>
x es</w>
y el
y mp
y pe</w>
z e
z ika</w>
th ri
in ity</w>
in test
in cur
in evi
in sufficient</w>
in definitely</w>
in nate</w>
an e</w>
an air</w>
an drew</w>
re ci
re infection</w>
re feren
re open</w>
re booking</w>
re aching</w>
re jected</w>
re productive</w>
re presents</w>
ti se</w>
ti gh
ti ous</w>
on ward</w>
ar re
ar ies</w>
ar rest</w>
en e
en ce
en sive</w>
al li
al ong
al thy</w>
st ep
st ure</w>
st ence</w>
at trac
at eral</w>
vi ri
vi et</w>
vi sible</w>
vi gorous</w>
ro yal</w>
ro bust</w>
as ks</w>
as sign
ec h
ec k</w>
ec tive</w>
ec dc</w>
ac compan
ic lo
ic als</w>
ha m
ha i</w>
es sive</w>
wh il
di ent</w>
di ble</w>
ru ral</w>
li ve
li ver</w>
li fe
li able</w>
li fication</w>
lo pin
si c</w>
si des</w>
su es</w>
su stained</w>
de f</w>
de T</w>
de dic
tr ace</w>
se x</w>
se ed</w>
se es</w>
se me
se em
un common</w>
un limited</w>
un win
un usual</w>
un realistic</w>
co s</w>
co cc
co ord
co tton</w>
ab sen
con cre
con dom
con greg
pro p</w>
pro test</w>
pro jected</w>
yo tic</w>
sp l
sp here</w>
sp orting</w>
le y</w>
ma g</w>
ma gn
ma sters</w>
po sit
po lling</w>
ur o</w>
ur ged</w>
ur ities</w>
ur sday</w>
ex pe
ch e</w>
ch en</w>
ch est</w>
be gun</w>
am bi
am bul
ri d
ri de</w>
ri ble</w>
ri gorous</w>
ver sa</w>
sh a</w>
sh ar
sh oo
ad mitted</w>
ad opt</w>
inf o</w>
inf lation</w>
com orbi
ap ps</w>
ag u
ho arding</w>
ho ea</w>
mi ss</w>
do or
do ses</w>
do zen</w>
pe op
ir ical</w>
ul ate</w>
pre ju
pre existing</w>
mo thers</w>
ta ke
ve ts</w>
ve ments</w>
we t</w>
au stria</w>
pl ausible</w>
go p</w>
go fund
wor th
wor sen</w>
tim eline</w>
ol ymp
ren tal</w>
he mi
he pati
du st</w>
du tch</w>
tic o</w>
20 21</w>
fe b</w>
ai se</w>
im ming</w>
im posing</w>
cl ass
cl ade</w>
is ode</w>
coun cil</w>
fac ing</w>
pu zz
cont acted</w>
str ang
to k
to ber</w>
gi c</w>
gi g</w>
gi on</w>
gen omic</w>
gen uine</w>
pa ste</w>
rec tang
ans w
af ore
ing er</w>
fi l</w>
fi able</w>
so le</w>
por ous</w>
dic e</w>
ep isode</w>
la sting</w>
acc used</w>
tu berculosis</w>
sti gma</w>
sc are</w>
fin es</w>
fin ds</w>
fin land</w>
ser ves</w>
ju ly</w>
ju ice</w>
cur ious</w>
ome dical</w>
fir m</w>
clu ster</w>
clu bs</w>
ten sion</w>
dat ing</w>
COVI D19</w>
cre d
inter ior</w>
ste ve</w>
like wise</w>
mil der</w>
pri de</w>
pri ority</w>
stu died</w>
exp lo
exp ects</w>
exp elled</w>
appro xi
govern mental</w>
lin ois</w>
bi ased</w>
dis infected</w>
dis appear</w>
dis semin
na vi
ob stetr
tri g
ici ently</w>
cle arer</w>
des cent</w>
tur ning</w>
soci ally</w>
emp irical</w>
under sto
under graduate</w>
ori al</w>
cu tting</w>
fic ate</w>
mar ried</w>
mar kov</w>
fo ld</w>
fo rese
stric tly</w>
hospit alizations</w>
plic ative</w>
eng aging</w>
gre ase</w>
posi tively</w>
posi tives</w>
hou ston</w>
ful l
ga z
lu gg
dec lin
dec reas
aff ord</w>
cour ses</w>
rese m
main stream</w>
inv o
inv asi
tiz ed</w>
vari ations</w>
work place</w>
sci ences</w>
sci ence
sup press</w>
sup pose
condi tioned</w>
servi c
jo ke</w>
mul ti</w>
us h</w>
10 6</w>
mem ber
tou ris
plan ts</w>
plan et</w>
sec u
har dly</w>
predic ting</w>
predic tive</w>
predic tors</w>
shi eld</w>
stat ute</w>
lif t</w>
lif ted</w>
exten ding</w>
proc essed</w>
stoc kp
func tional</w>
func tioning</w>
19 75</w>
wa sting</w>
busin ess
appe arance</w>
ven ia</w>
mic row
200 2</w>
fri dge</w>
influ ence</w>
lan ded</w>
difficul ties</w>
part ment</w>
dea u</w>
13 2</w>
cul tural</w>
sing ing</w>
inten tion</w>
bin ds</w>
fa ti
hal t</w>
identi ty</w>
pac ked</w>
spo on</w>
spo ons</w>
descri ption</w>
12 7</w>
12 87</w>
suff ered</w>
suff iciently</w>
cho ices</w>
atten dance</w>
atten uated</w>
ber t</w>
ber ries</w>
del ays</w>
differen ti
obser ving</w>
coll ecting</w>
sk illed</w>
ang el
grad ually</w>
reduc es</w>
oper ational</w>
ear liest</w>
hin d
survi v
logi sts</w>
bur n</w>
bur g</w>
bur ger</w>
non frivolous</w>
cover ings</w>
tar gets</w>
manufac ture</w>
grap hs</w>
remo val</w>
dra wn</w>
deb ts</w>
def ence</w>
perfor ming</w>
Un der</w>
ow ned</w>
compu ters</w>
compu tational</w>
immigr ant</w>
presen tation</w>
objec tions</w>
objec tively</w>
Re gion</w>
reser ve</w>
addre ssed</w>
nation ally</w>
gene tically</w>
evol ve</w>
occur ring</w>
Al terna
det ection</w>
simul taneously</w>
deli vered</w>
conclu de</w>
bir ds</w>
eu a</w>
eu kar
smo king</w>
smo oth</w>
pathogen ic</w>
aa c</w>
design ing</w>
cy tes</w>
conver ted</w>
conver gence</w>
chlor ite</w>
opini ons</w>
epidemi ologists</w>
micro scope</w>
88 8</w>
dest ro
help ed</w>
ct v</w>
ct vnews</w>
squ are</w>
intro duce</w>
occu p
crow ds</w>
fit ted</w>
chem ically</w>
chem icals</w>
australi an</w>
recogn ition</w>
gg les</w>
mechan ical</w>
preci se</w>
disrup tions</w>
obli ged</w>
sanitiz ers</w>
instruc ted</w>
recor ds</w>
recor ded</w>
hote z</w>
justi ce</w>
minim al</w>
win ter</w>
win dow</w>
implemen ting</w>
revie wers</w>
ace tic</w>
communic ations</w>
optimi stic</w>
cru cial</w>
att acks</w>
contribu ted</w>
increas ingly</w>
hypo chlorite</w>
pic ked</w>
disp er
famili ar</w>
nucle oti
labor atories</w>
streng then</w>
flo or</w>
mer son</w>
pris on</w>
assi st</w>
conn ect</w>
partici p
partici pate</w>
expec tation</w>
expec tations</w>
critici sed</w>
dynam ics</w>
27 44</w>
wai ve</w>
wai ved</w>
she ets</w>
adap t</w>
adap ted</w>
therap eu
activ ated</w>
oblig ation</w>
hon or</w>
hon est</w>
til deT</w>
conven tional</w>
metr ics</w>
monit oring</w>
joh n</w>
joh ns</w>
Nor th</w>
que ens
Au gust</w>
semin ar</w>
engine ered</w>
postp oned</w>
postp oning</w>
reti red</w>
depar ted</w>
eval u
eval uated</w>
diam ond</w>
appoin tments</w>
mani pul
circul ation</w>
SI RD</w>
vec tors</w>
refl ect</w>
prop y
exc ess</w>
exc use</w>
expan ded</w>
discus sing</w>
glas ses</w>
evolu tionary</w>
construc ted</w>
beli ev
tele vision</w>
techno logies</w>
gy ms</w>
thu ania</w>
met res</w>
gra dient</w>
form ally</w>
sugg estion</w>
camp ing</w>
AG G
dilu tion</w>
opt 1</w>
buy er</w>
mista kes</w>
after noon</w>
electro ly
60 s</w>
lay er</w>
yout u</w>
modi fication</w>
classi fication</w>
eth ical</w>
fla vi
search es</w>
veri fy</w>
veri fied</w>
inflam mation</w>
comfor t</w>
assem ble</w>
45 15</w>
Mo st</w>
kid neys</w>
rn as</w>
intu itive</w>
compromi se</w>
distinc tion</w>
liter ally</w>
nonimmigr ants</w>
Be fore</w>
bun ch</w>
accor d
progre ssion</w>
presu me</w>
movi e</w>
bat ch</w>
vac ation</w>
list en</w>
histor ical</w>
occas ion
repatri ation</w>
Joh nson</w>
algorith m</w>
Ar ticle</w>
Speci al</w>
arti f
irrit ation</w>
plat form</w>
aller gies</w>
specul ation</w>
broadca ster</w>
establish ment</w>
power ful</w>
So cial</w>
sou thern</w>
reb ates</w>
theta tildeT</w>
conser vative</w>
fini shed</w>
licen sed</w>
touri st</w>
guarante ed</w>
Australi a</w>
Fri day</w>
H1 N1</w>
Wi kipedia</w>
vom iting</w>
escap e</w>
theat ers</w>
gott en</w>
puri fi
check point</w>
valu able</w>
shif ts</w>
Inf ected</w>
fashi on</w>
reluct ance</w>
OP T</w>
barri er</w>
yi eld</w>
resc ue</w>
arg uments</w>
accom mod
cong estion</w>
shu tting</w>
accru e</w>
bron cho
suspici on</w>
catastro p
supervis or</w>
furlough ed</w>
alveol ar</w>
Kaz ak
h1 n1</w>
ultras ound</w>
accus ations</w>
ration ale</w>
human itarian</w>
distingu ish</w>
emphas is</w>
munici p
suspen sion</w>
bah n</w>
nico video</w>
scholar ship</w>
Vowelbur ger
Man ila</w>
Sun day</w>
Sep tember</w>
fare ast</w>
nbs p</w>
vak ia</w>
along side</w>
iclo vir</w>
whil st</w>
lopin avir</w>
seem ingly</w>
concre te</w>
condom s</w>
preju dice</w>
gofund me</w>
rectang ular</w>
afore mentioned</w>
approxi mation</w>
understo od</w>
suppose dly</w>
Alterna tively</w>
eukar yotic</w>
queens land</w>
occasion ally</w>
0 1
1 15</w>
1 11</w>
1 200</w>
1 101</w>
2 12</w>
2 50
3 20</w>
4 26
7 00</w>
7 37
8 3
9 7
A t
A S</w>
A P</w>
A ny
B i
B or
B ec
B el
B ei
C G
C N
C re
C all</w>
C zech</w>
D AT
E very
E ST
F lu</w>
G e
G u
G PR</w>
H 2
H er</w>
H un
I m
J e
J amaica</w>
L and
L ombardy</w>
M ar
M un
M ore</w>
N O
O ur</w>
P P
P as
R E
R ob
R ME
S C
S E
S y
S S</w>
S er
S tr
S wit
S econ
S tre
S ext
T G
T H
V is
Y et</w>
a c</w>
a u</w>
a virus</w>
a rent</w>
a sts</w>
a ked</w>
a sters</w>
b and</w>
b ic
b al</w>
b ated</w>
b ance</w>
b lin
b end</w>
b lowing</w>
b bs</w>
c v</w>
c it
c tions</w>
c ali
c ky</w>
d al</w>
d ity</w>
d ay
d ens</w>
d ently</w>
d entally</w>
e os</w>
e era</w>
f s</w>
f en
f ate</w>
f our
g p</w>
g al</w>
g ains</w>
g pr</w>
h k
h ate</w>
h ill</w>
h ori
h sa</w>
h tm</w>
i er
i sh
i fic</w>
i zing</w>
i jing</w>
j az
j amaica</w>
k l
k eshi
l g</w>
l i</w>
l le</w>
l ers</w>
l ai
l lap</w>
l ombardy</w>
m g</w>
m u</w>
m ess</w>
m est</w>
m ates</w>
m atory</w>
m aca
m ingly</w>
n r</w>
n m</w>
n k</w>
n out</w>
n ity</w>
o R</w>
o D</w>
o se</w>
o ten
o ils</w>
p x</w>
p tions</w>
p anc
p tical</w>
p ills</w>
p lots</w>
p mc</w>
r o</w>
r ating</w>
s 7</w>
s f</w>
s ac
s es
s se
s me
s ers</w>
s start</w>
s light</w>
s ession</w>
s sels</w>
t t</w>
t w</w>
t ac
t ag
t down</w>
t ables</w>
u b
u re
u bi
u tility</w>
v as
v es
w ill
w ells</w>
x y</w>
x em
y a</w>
y ers</w>
y esus</w>
z ens</w>
th y
th at
th ail
th ursday</w>
in k
in o</w>
in su
in ate</w>
in ter</w>
in ability</w>
in coming</w>
in direct</w>
in accurate</w>
in jected</w>
an o
an gi
an ten
an da</w>
re op
re im
re infor
re id</w>
re vo
re tary</w>
re mind</w>
re purchase</w>
re posit
ti e</w>
ti m</w>
ti tion</w>
ti me
ti ter</w>
ti ble</w>
ti tled</w>
ou ses</w>
ou tri
ar ab
ar my</w>
ar range</w>
en or
en coun
en na</w>
en dly</w>
or a</w>
or dering</w>
al and</w>
al lo
al be
al ter</w>
st ent</w>
st ool</w>
at en</w>
at tr
vi ktor</w>
vi lle</w>
it op
it ted</w>
ro les</w>
ro lling</w>
ro mania</w>
as ser
ac king</w>
ac he</w>
ac iclovir</w>
ic c
ic ers</w>
ic us</w>
ic ode</w>
no ses</w>
no tably</w>
ha ble</w>
ha bit</w>
ha bits</w>
di c</w>
di ties</w>
di men
ru m
ru ssian</w>
ru bbing</w>
li d</w>
li ers</w>
li ved</w>
li ability</w>
li zed</w>
il way</w>
il linois</w>
lo gn
si zes</w>
si gma</w>
si gpr</w>
su stain
tr ine</w>
tr ies</w>
tr ick
se ment</w>
se mi</w>
un d</w>
un it</w>
un used</w>
un know
un reasonable</w>
un icode</w>
co des</w>
ab sent</w>
con sequence</w>
con fined</w>
pro pan
pro of
pro ves</w>
pro lon
pro jec
pro spec
sp on
sp ur
sp ouses</w>
le ans</w>
ma tically</w>
ma kers</w>
ma gaz
ma keshi
po is
po sting</w>
ex pose</w>
be y</w>
be au
be aring</w>
be ijing</w>
am a</w>
am i</w>
wit n
op en
el li
ad y</w>
ad ratic</w>
ne j
ne go
ne uro
qu adratic</w>
inf r
inf er</w>
com pl
me d
me tal</w>
ff p</w>
ff in</w>
ap y</w>
ap ers</w>
ap pen
mi x
mi c</w>
pe ter</w>
ir in</w>
ir responsible</w>
ir icus</w>
ul l</w>
ul ated</w>
mo le</w>
te es</w>
te as
te mp</w>
te dly</w>
te dros</w>
per tain
per carbonate</w>
per acetic</w>
we are
we alth</w>
we arer</w>
we althy</w>
pl um
go vt</w>
go ggles</w>
wor n</w>
wor rying</w>
tim ing</w>
ren he
ci sc
he avi
corona viru
ter r
tic ated</w>
20 12</w>
par a
par as
par alle
ai ds</w>
cl er
is s</w>
is tically</w>
is rael</w>
coun ting</w>
sur ro
sur ge
sur ger
hi de</w>
cont ents</w>
cont acting</w>
str and</w>
str ay</w>
str ain
str aw
gi veness</w>
gi bbs</w>
gen omes</w>
enti ties</w>
pa ins</w>
pa irs</w>
rec all</w>
ev ening</w>
em as</w>
so ak</w>
comm it</w>
anc ement</w>
out doors</w>
gr ave</w>
ep itop
ris ki
la x</w>
la tionary</w>
acc um
acc essi
acc eler
for given</w>
for giveness</w>
ju dge</w>
cur tail
low ers</w>
fir ms</w>
clu sters</w>
ten s</w>
ten ing</w>
ten ure</w>
pan icked</w>
imp re
imp er
imp ly</w>
imp ression</w>
ali se</w>
ali zing</w>
trans for
ra z
ra p</w>
ra in</w>
ra ilway</w>
brea ks</w>
ph it</w>
ph ases</w>
read s</w>
read er</w>
prob abilities</w>
pr incess</w>
cre dible</w>
inter n
ste m</w>
pri mar
publi sh</w>
stu pid</w>
clo sure</w>
sin ki</w>
exp and</w>
exp ire</w>
han om</w>
bi o</w>
bi lities</w>
bi omedical</w>
dis h</w>
dis allowed</w>
dis asters</w>
ge al</w>
ge ar</w>
na to</w>
oc ation</w>
oc tober</w>
fl at</w>
ob ama</w>
dist ur
exam ined</w>
bac ks</w>
tri age</w>
cle ans
des icc
dro w
id al</w>
are n</w>
meas les</w>
all ed</w>
mar ks</w>
mar ked</w>
anti virals</w>
prot ected</w>
loo se</w>
consi sts</w>
consi ders</w>
mun ich</w>
pul mon
pen n</w>
hospit alization</w>
cau ght</w>
any ways</w>
eng age</w>
ran cisc
pas sive</w>
poin ted</w>
ent ory</w>
mat ches</w>
cd na</w>
tru sts</w>
tru deau</w>
econom ists</w>
cri tically</w>
sub stances</w>
sub stitute</w>
ful fil</w>
ga tive</w>
lu fthansa</w>
incre ments</w>
dec ade</w>
sour ced</w>
aff ecting</w>
emer ge</w>
produc ing</w>
rel ate</w>
sho ld</w>
inv entory</w>
syste matic</w>
car lo</w>
vari ed</w>
vari ant</w>
regul ates</w>
up coming</w>
work places</w>
comp ound</w>
over come</w>
over sight</w>
over reacting</w>
pur su
pur sue</w>
ore sc
dr ying</w>
get optim</w>
individu ally</w>
us d</w>
us er</w>
vo ter</w>
10 8</w>
sa ke</w>
applic able</w>
sec urities</w>
doc trine</w>
contro ls</w>
tis sues</w>
har sh</w>
confir ming</w>
intere stingly</w>
ni o
poli tico</w>
shi pped</w>
shi pping</w>
ed ges</w>
ed iting</w>
war mest</w>
lif y</w>
char t</w>
00 3
cap s</w>
cap su
equ ations</w>
proc ess
14 3
14 5</w>
14 th</w>
19 60s</w>
wa sted</w>
appe aring</w>
appe aling</w>
contrac tor</w>
scienti fically</w>
bor is</w>
bor row
bor row</w>
mic ron</w>
exper tise</w>
cep t</w>
cep tion</w>
200 3
recei pt</w>
dru nk</w>
fri endly</w>
nam ely</w>
lan tic</w>
glob ally</w>
col our</w>
bro wn</w>
hu bs</w>
ki bb
lat or</w>
bin d</w>
supp le
supp liers</w>
fa ke</w>
fa qs</w>
lab our</w>
lab els</w>
deter gent</w>
organi zed</w>
disc lose</w>
pac ific</w>
spo se</w>
In stitute</w>
In dex</w>
atten ding</w>
excep tional</w>
cam els</w>
public ly</w>
differen tial</w>
announ ce</w>
adv oc
ama zing</w>
ama zon</w>
hand les</w>
sk ill</w>
expl aining</w>
oper ations</w>
bre yesus</w>
pi gs</w>
youn gest</w>
arri vals</w>
multi plicative</w>
argu es</w>
argu ably</w>
stre ss
stre ssed</w>
nega tively</w>
correc tion</w>
cha ir</w>
cha os</w>
cha ins</w>
spe ak
agre es</w>
agre ements</w>
alcoho ls</w>
indic ator</w>
survi ves</w>
non profits</w>
bio safety</w>
travel er</w>
fat alities</w>
gro wn</w>
migr ation</w>
thre shold</w>
bri ef</w>
dri ven</w>
remo ving</w>
accep ting</w>
travell ed</w>
may or</w>
compu te</w>
compu tations</w>
mater nity</w>
stimul ate</w>
advis ories</w>
bal lot</w>
bal lots</w>
inci dents</w>
syn thesis</w>
nu clear</w>
15 5</w>
rep lied</w>
extr action</w>
nation wide</w>
broad ly</w>
noti fications</w>
gene tics</w>
occur rence</w>
remain der</w>
ak a</w>
ca ke</w>
conclu sive</w>
conduc ting</w>
cancel ing</w>
wat er
inc enti
dep lo
flu oresc
ner ship</w>
thir ds</w>
pathogen icity</w>
aa a</w>
thes ized</w>
propor tions</w>
continu ed</w>
continu ously</w>
design ation</w>
invest ors</w>
Con si
fle et</w>
fair e</w>
refu sing</w>
conver t</w>
conver ting</w>
expen se</w>
len ses</w>
liqu idity</w>
phar yn
don or</w>
sw ine</w>
sw imming</w>
squ ats</w>
exclu ding</w>
exclu de</w>
exclu sive</w>
moder na</w>
impro ved</w>
30 2</w>
trac king</w>
calcul ation</w>
calcul ating</w>
calcul ator</w>
No vel</w>
instruc tion</w>
instruc tor</w>
wei gh
wei gh</w>
17 th</w>
stri ke</w>
seri ousness</w>
justi fy</w>
justi fication</w>
suppor ted</w>
controll er</w>
Qu estions</w>
Qu ora</w>
electr ical</w>
rever sed</w>
revie ws</w>
appa rent</w>
surve ys</w>
introduc tion</w>
26 1</w>
contribu ting</w>
prohi bit</w>
prohi bition</w>
head s</w>
head ed</w>
princi ples</w>
exemp tions</w>
quo tes</w>
decre ases</w>
streng thening</w>
flo od</w>
flo wn</w>
pat r
reli ably</w>
expec t
decla res</w>
recogni zes</w>
activ ate</w>
Li thuania</w>
mc kibb
real istically</w>
conven i
math cal</w>
commer ce</w>
consul ates</w>
consul tation</w>
CT T
fall ing</w>
fall out</w>
swit ching</w>
swit zerland</w>
combin ed</w>
experim ents</w>
Ex change</w>
care er</w>
care ful</w>
care fully</w>
fer red</w>
hom eland</w>
less ons</w>
rai sing</w>
represen tation</w>
restaur ant</w>
stro ke</w>
confu sing</w>
itali ans</w>
custom er</w>
pho to
wou ld
radi ation</w>
withdra wn</w>
journ ali
Di se
SI GPR</w>
job less</w>
acqu ire</w>
expan ding</w>
Po ssi
sanc tion</w>
load s</w>
pow dered</w>
tele phone</w>
breast feed</w>
consist ently</w>
discu ssions</w>
newsp apers</w>
zoono ses</w>
FI RME
Sen ator</w>
cb p</w>
nar row</w>
devi ce</w>
effici ently</w>
great est</w>
Te sting</w>
far mers</w>
gri ffin</w>
nur ses</w>
achi eved</w>
after wards</w>
electro static</w>
reservo irs</w>
fundam entally</w>
Pro per
smar t</w>
indu stries</w>
inhal ed</w>
modi fy</w>
Econom ics</w>
Rec o
cs se</w>
eth ics</w>
fla g</w>
ign oring</w>
inflam matory</w>
evac uate</w>
foo t</w>
physici ans</w>
assem bly</w>
TT T
sle ep</w>
wan g</w>
invi ted</w>
chic ken</w>
optim sstart</w>
jud g
priori tize</w>
distinc t</w>
compon ent</w>
capit a</w>
cryst al</w>
ME RS</w>
Sec retary</w>
home made</w>
ske ptical</w>
cop y</w>
graph y</w>
Sci ence</w>
ig g</w>
inactiv ated</w>
envelo pe</w>
measu red</w>
Joh ns</w>
algorith ms</w>
Me dical</w>
ST EM</w>
Tim e</w>
ah u</w>
attribu ted</w>
neg ligence</w>
plat forms</w>
iso propan
strugg ling</w>
satis fied</w>
Cu omo</w>
Cur rently</w>
elimin ate</w>
replac ing</w>
accoun ting</w>
deduc tion</w>
destruc tion</w>
destruc tive</w>
moti v
partis an</w>
surpri se</w>
surpri sed</w>
hyper tension</w>
IC E</w>
bay esian</w>
gir ls</w>
tas mania</w>
infe rences</w>
comb ine</w>
agricul ture</w>
mosqu it
certi ficate</w>
clean ed</w>
speciali sts</w>
hospital isation</w>
edit ors</w>
specim en</w>
Govern ment</w>
refriger ator</w>
Ber nie</w>
Tur kish</w>
cli ents</w>
gall on</w>
ry an</w>
sar s
indepen dently</w>
spar se</w>
shou ldn</w>
face book</w>
tow els</w>
Inter national</w>
archi ves</w>
extinc tion</w>
Exam ples</w>
anesthes ia</w>
Centr al</w>
Hu bei</w>
Hum an</w>
cin emas</w>
eid l</w>
fom ite</w>
pau l</w>
induc ed</w>
retail ers</w>
reson ance</w>
degrad ed</w>
seat tle</w>
compri ses</w>
sero types</w>
guil ty</w>
CON FIRME
stoch astic</w>
compens ate</w>
inhibit or</w>
115 00</w>
229 e</w>
Are a</w>
Emp iricus</w>
Hop kins</w>
Pan demic</w>
Sim il
Wash ington</w>
bour g</w>
blan ket</w>
dash board</w>
fro zen</w>
mh v</w>
moun t</w>
osc ill
psy ch
well being</w>
yel low</w>
intest inal</w>
reci pi
attrac ted</w>
assign ments</w>
accompan ied</w>
live stock</w>
dedic ated</w>
seme ster</w>
ambul ance</w>
comorbi dities</w>
hepati tis</w>
answ ering</w>
navi gator</w>
touris m</w>
stockp ile</w>
business insider</w>
microw ave</w>
fati gue</w>
believ es</w>
accord ingly</w>
municip alities</w>
Bor is</w>
Bec ause</w>
Bei jing</w>
Land lord</w>
Mun ich</w>
NO T</w>
Swit zerland</w>
Stre et</w>
Sext us</w>
cali br
four th</w>
jaz eera</w>
lai sse
oten sin</w>
xem bourg</w>
thail and</w>
angi otensin</w>
anten atal</w>
reim bur
reposit ory</w>
outri ght</w>
arab ia</w>
albe it</w>
prolon ged</w>
magaz ine</w>
makeshi ft</w>
nego ti
weare rs</w>
renhe it</w>
heavi ly</w>
straw berries</w>
primar ies</w>
rancisc o</w>
mckibb in</w>
isopropan ol</w>
CONFIRME D</w>
laisse z</w>
0 8
0 m</w>
0 25</w>
1 k</w>
1 13</w>
1 88</w>
2 2
2 50</w>
2 26
3 4
3 37</w>
3 001</w>
4 th</w>
5 th</w>
5 000</w>
6 3
6 6
8 6
9 9
9 11</w>
9 53</w>
9 73</w>
9 320</w>
A id</w>
A ng
A void</w>
B C
B o
B C</w>
B ru
B ur
B oth</w>
C V</w>
C AC
D o
D S</w>
D en
D ec
D ay</w>
D ut
E ff
E bola</w>
F 1</w>
F all</w>
F light</w>
H y
H amp
H anno
I G
I M
I S
J 1</w>
K orean</w>
L a
L o
L A</w>
L ell
L ong
M a
M i
M r</w>
M er
M en
M ul
M ore
N Y</w>
N um
N ep
N 99</w>
N ational</w>
N HS</w>
O 2</w>
P re
P ay
P DAT
P ub
R y
R E</w>
R el
R et
R ed
R SS</w>
S a
S e
S O</w>
S co
S to
S em
S ome
S pan
S till</w>
S AS</w>
T u
T w
T ha
T ai
T reas
T ake</w>
U S
U I</w>
U PDAT
V ir
W all</w>
W ell</w>
Y 2003
Z oom</w>
a e</w>
a h</w>
a i</w>
a x</w>
a di
a kes</w>
a que
b f
b n
b c</w>
b d</w>
b n</w>
b on</w>
b other</w>
b ases</w>
b acc
b age</w>
b iting</w>
b 26
b quote</w>
b ritain</w>
c f</w>
c rea
c ents</w>
c ans
c us</w>
c amp</w>
c ites</w>
c ellular</w>
d est</w>
d ong</w>
d ness</w>
d ental</w>
e 2</w>
e re
e ded</w>
e uro</w>
f at</w>
f an</w>
f am</w>
f erring</w>
f rancisco</w>
g ou
g ging</w>
g aining</w>
g aps</w>
g b26
h r</w>
h o</w>
h all
h iring</w>
h stan</w>
h renheit</w>
i p</w>
i to</w>
i or
i ors</w>
i ons</w>
i sture</w>
j ay</w>
j uni
k r</w>
k g</w>
k er
k age</w>
l ent</w>
l est</w>
l ty</w>
l pr
l ici
l ating</w>
l man</w>
l asi
l ene</w>
l ysis</w>
l bs</w>
l friend</w>
l ump</w>
m b
m l</w>
m ou
m ere</w>
m ing
m lun
m RNA</w>
m entation</w>
m box</w>
m organ</w>
m entary</w>
m exico</w>
n l</w>
n i</w>
n ine</w>
n ai
n ish</w>
n els</w>
n ash
n atal</w>
o o</w>
o th
o ch
o ven</w>
o vas
p ly</w>
p as</w>
p tive</w>
p ays</w>
p ated</w>
p ound</w>
p tic</w>
p ical</w>
p ta</w>
p mc
p 0m</w>
r h
r i</w>
r as
r ic
r amp</w>
r ace</w>
r bd</w>
s f
s l
s an</w>
s om
s op
s ag
s can</w>
s als</w>
s ought</w>
s oph
t s
t r</w>
t z</w>
t ts</w>
t ted</w>
t ine</w>
t ance</w>
t ari
t ons</w>
t ability</w>
t ful</w>
t kr</w>
u no
u tum</w>
v 2</w>
v an
v on</w>
v in</w>
v an</w>
v ent</w>
v age</w>
w p</w>
w in</w>
w are</w>
w ad
w ine</w>
w ary</w>
w are
w aves</w>
w avel
y ard</w>
y land</w>
y ale</w>
y lim</w>
z x
z i</w>
z ec
z ard</w>
th on</w>
th es</w>
th al
th ick</w>
th rowing</w>
in s
in en</w>
in ts</w>
in qu
in he
in ess</w>
in ating</w>
in anim
in duce</w>
in cen
in effective</w>
in appropriate</w>
in cum
in ely</w>
in san
in bound</w>
in jection</w>
in admissi
an tim
an ship</w>
re con
re sur
re medi
re stim
re alized</w>
re aches</w>
re produce</w>
re schedule</w>
re combination</w>
re jection</w>
re finance</w>
re uters</w>
ti a</w>
ti p</w>
ti ally</w>
ti ght</w>
ti tu
ti sing</w>
ti redness</w>
er i
er ate</w>
er ship</w>
ou ts</w>
ou ver</w>
ou lt</w>
ar o</w>
ar u</w>
ar ms</w>
ar cg
en do
en demic</w>
en ue</w>
en ni
en dan
en acted</w>
or f
or ly</w>
or mal</w>
or leans</w>
al es</w>
al leg
al ism</w>
al ert</w>
st abili
at so
at oes</w>
at lanta</w>
vi er</w>
vi al</w>
vi sc
vi ct
it or</w>
it al</w>
it ation</w>
it ting</w>
it ous</w>
it ty</w>
it ative</w>
it em</w>
ro ad
ro man</w>
ro oting</w>
ro bert</w>
as s</w>
ac comp
ac tors</w>
ac knowledge</w>
ic he
om in
om is
om bia</w>
om itted</w>
no t
no tion</w>
no red</w>
no des</w>
no table</w>
no vember</w>
ha mp
ha ir</w>
ha em
es is</w>
wh oles
wh atso
wh iche
di p</w>
di v</w>
di et</w>
di vid
di rt</w>
di ure
di lator</w>
ru sh</w>
ru led</w>
li am</w>
li kes</w>
li sting</w>
li tis</w>
li gent</w>
il and</w>
lo d</w>
lo s</w>
lo ses</w>
lo ops</w>
si do
si gest</w>
su per</w>
de an</w>
de my</w>
de va
de restim
tr ash</w>
se x
se wing</w>
se mit</w>
se aled</w>
se inen</w>
the red</w>
un il
un available</w>
un paid</w>
un approved</w>
un intended</w>
un necessarily</w>
un controlled</w>
un desired</w>
un washed</w>
un predictable</w>
un derestim
co ded</w>
co ef</w>
co operation</w>
co oling</w>
ab un
con s</w>
con ve
con sci
con den
con jun
con stantly</w>
pro s</w>
pro lif
pro phy
pro secu
yo ga</w>
sp hate</w>
sp utum</w>
le i
le u
le ly</w>
ma x</w>
ma iling</w>
po p</w>
po ver
po orly</w>
ur i</w>
ur ine</w>
ur ging</w>
ex ha
ex ts</w>
ch in</w>
ch an</w>
ch ats</w>
be ars</w>
be ll
be fore
be lief</w>
am ate
am ps</w>
am ong
ri gh
op ac
op har
bu b
bu l</w>
bu rea
bu tt
bu tton</w>
bu cket</w>
ver tic
sh es</w>
sh ly</w>
sh ir
sh ment</w>
sh ed
sh ale</w>
el ed</w>
el abor
el ligence</w>
ad oles
ne gl
ne pal</w>
qu er
com a</w>
com pati
com plying</w>
me dary</w>
oun ding</w>
oun ced</w>
ff s</w>
ff icial</w>
ff p2</w>
ap ple</w>
ap hr
cor related</w>
cor ner</w>
mp y</w>
ho c</w>
ho les</w>
mi xed</w>
mi sun
do ws</w>
do zens</w>
pe w</w>
pe tition</w>
ir d</w>
ir able</w>
pre ser
mo isture</w>
te e
te re
te ds</w>
te ach
ta y
ta ste</w>
ve g</w>
per cei
per lman</w>
we l</w>
we ap
we ars</w>
au m</w>
au to
au tho
pl ays</w>
pl ayed</w>
go sti
wor thy</w>
wor ries</w>
tim es
ol ds</w>
ren ters</w>
ren ko</w>
ci ally</w>
he l</w>
he ating</w>
he dge</w>
du al</w>
du ci
tic ity</w>
20 2</w>
20 1</w>
20 5</w>
20 200
fe male</w>
ai ms</w>
bo y
bo t</w>
bo on</w>
bo ss</w>
bo il</w>
bo dy
bo ils</w>
bo dily</w>
bo iled</w>
bo ston</w>
im f</w>
cl ing</w>
is aac</w>
is ticated</w>
coun c
coun ties</w>
fac ed</w>
hi a</w>
ke en</w>
to bacc
gi an</w>
gi tis</w>
gi eva</w>
gen cy</w>
pa p</w>
rec ur
rec tor</w>
ing ness</w>
ing estion</w>
fi f
so apy</w>
so lely</w>
comm ons</w>
anc ell
anc ouver</w>
out going</w>
der standing</w>
la x
la g</w>
la under</w>
acc red
for th</w>
tu gal</w>
mon te</w>
tho ld</w>
sc ru
sc ary</w>
sc ram
diff ers</w>
ser ial</w>
ser ology</w>
ser ological</w>
av enue</w>
low s</w>
low ering</w>
sel lers</w>
gu t</w>
gu ang
gu pta</w>
pub lici
fir stly</w>
clu e</w>
clu es</w>
ten ed</w>
ten tion</w>
ten dency</w>
ten stein</w>
pp v</w>
ari se</w>
sam ine</w>
ess ence</w>
eff ected</w>
imp acted</w>
ali an</w>
ali gn
trans late</w>
trans ferred</w>
ra ab</w>
ph d</w>
ph ones</w>
sen ator</w>
sen gers</w>
sen iors</w>
prob abili
pr ou
pr of</w>
pr aise</w>
inter acting</w>
ste ady</w>
mil dly</w>
ques tioned</w>
clo ses</w>
clo thes</w>
mas ked</w>
appro ves</w>
han g</w>
fu sion</w>
dis mis
dis charged</w>
ate dly</w>
ge o</w>
ge ome
vacc inations</w>
hum oral</w>
fl our</w>
tri vial</w>
ici ally</w>
gener ation</w>
gener ating</w>
cle ared</w>
respon dents</w>
des ire</w>
des irable</w>
mode ling</w>
mode led</w>
mode lled</w>
tur key</w>
tur nout</w>
speci alized</w>
chan nels</w>
repor ters</w>
under grad</w>
ori a</w>
ori st</w>
all ing</w>
mar ke
mar gin
prot ects</w>
loo sen
spit al</w>
nee d
eng ine</w>
eng aged</w>
ran ges</w>
poin ting</w>
ent ure</w>
ent lic
quar t</w>
mat ure</w>
tru m</w>
tru ly</w>
tru th</w>
cri ses</w>
can adi
temp 2</w>
temp ting</w>
sub si
sub mitted</w>
sub jective</w>
emplo y</w>
sol ving</w>
direc tive</w>
ful fill</w>
ga p</w>
ga stro
dec lines</w>
dec ker</w>
tain ed</w>
aff airs</w>
aff inity</w>
rese arching</w>
ty len
emer ges</w>
rel ating</w>
rel apse</w>
pres sures</w>
sm an</w>
sm ith</w>
issu ance</w>
stan bul</w>
sign al</w>
sign ature</w>
car bon</w>
up shot</w>
comp elled</w>
fur in</w>
over dr
over loaded</w>
row names</w>
vie w
vie wed</w>
contin ents</w>
ach use
dr yer</w>
ger ing</w>
resi stant</w>
resi stance</w>
jo g</w>
fr on
vo ided</w>
10 4</w>
org ans</w>
simil arities</w>
hy dr
hy bri
glo be</w>
tis er</w>
estim ating</w>
simp ler</w>
den y</w>
den ying</w>
har an</w>
rela tives</w>
rela xed</w>
refun ded</w>
br ic
br ace</w>
poli tically</w>
comple ting</w>
ed t</w>
ed a</w>
war n</w>
war nings</w>
stat news</w>
lif ting</w>
exten sions</w>
cap abilities</w>
14 2</w>
19 1</w>
19 99</w>
19 48</w>
contrac tion</w>
contrac tors</w>
saf est</w>
bor rower</w>
ven d
fil es</w>
fil ers</w>
fil tering</w>
dru m</w>
ster ing</w>
eas i
ili an</w>
lon g
param e
col s</w>
col or
col lo
bro ther</w>
spec tor</w>
spec trum</w>
13 6</w>
13 9</w>
13 7</w>
13 th</w>
cul ar</w>
cul tures</w>
tro l</w>
tro pical</w>
cough ed</w>
ki stan</w>
mit tee</w>
phys ics</w>
initi atives</w>
inten tions</w>
snee zed</w>
supp lied</w>
fa res</w>
fa hrenheit</w>
deter ior
organi ze</w>
disc lo
signific ance</w>
regi ster</w>
descri ptive</w>
sha pe
sha ke</w>
sha ped</w>
infecti vity</w>
12 6</w>
12 th</w>
In fec
In spector</w>
suff ix</w>
cho se</w>
cho ir</w>
distribu te</w>
Ho spital</w>
wal es</w>
adv ances</w>
origin ate</w>
associ ate</w>
fore ver</w>
sk ype</w>
regar ds</w>
mal es</w>
expl ore</w>
euro zone</w>
pi g</w>
wr ong
writ es</w>
stre am
cha ired</w>
lead ership</w>
agre b</w>
hin ts</w>
indic ations</w>
survi ving</w>
opp on
institu tes</w>
scen es</w>
ble aching</w>
bur ied</w>
err al</w>
detail ing</w>
Euro star</w>
malari al</w>
bri dge</w>
dri ft</w>
ima ges</w>
rout es</w>
rout inely</w>
new born</w>
scre en
my th</w>
my ster
dom ain</w>
dra matic</w>
dra matically</w>
admini str
def en
def end
bon d</w>
ow nership</w>
aca demy</w>
compu ting</w>
asy mp
presen ting</w>
29 7</w>
Re lief</w>
Re uters</w>
leng ths</w>
leng thy</w>
exac er
equi pped</w>
bal lo
dama ging</w>
imple mentation</w>
cou ri
consu lt</w>
consu ming</w>
addre sses</w>
circum stance</w>
rep o</w>
stom er</w>
nation ality</w>
noti fy</w>
noti fied</w>
noti fication</w>
evol ved</w>
remain ed</w>
spi red</w>
spi kes</w>
investi gative</w>
fre ely</w>
fre shly</w>
quali fying</w>
san itary</w>
san jay</w>
sani tiser</w>
post doc</w>
bir th
fortun ate</w>
determin ation</w>
determin istic</w>
bol son
encour ages</w>
law suit</w>
design ate</w>
investig ated</w>
50 5</w>
Con nell</w>
St ack
cy cling</w>
conver sation</w>
constitu te</w>
micro sco
carri es</w>
docum entation</w>
program mer</w>
don ate</w>
sw ab
attemp ted</w>
attemp ting</w>
exclu ded</w>
precau tion</w>
impro ves</w>
impro vement</w>
30 s</w>
crow ding</w>
fail s</w>
dispo sed</w>
trac ker</w>
begin s</w>
interpre ting</w>
sal t</w>
sanitiz ing</w>
No vember</w>
langu ages</w>
17 1</w>
40 1</w>
40 1k</w>
ut c</w>
replic ating</w>
missi ve</w>
missi ons</w>
contam ination</w>
justi fiable</w>
emo tionally</w>
win dows</w>
provin cial</w>
electr ic</w>
electr icity</w>
sir mc</w>
explan ations</w>
purch ases</w>
communic ating</w>
organiz er</w>
doub led</w>
cru de</w>
att ached</w>
mod est</w>
mod infected</w>
head ache</w>
toil ets</w>
hypo thesis</w>
pic king</w>
territ orial</w>
16 1</w>
16 th</w>
bran ch</w>
mach iner
alterna tively</w>
down load</w>
educ ated</w>
flo at</w>
than k</w>
sett les</w>
red un
wea ken</w>
consider ably</w>
overwhel m</w>
overwhel mingly</w>
mortg ages</w>
oblig ated</w>
Li ke</w>
hon our</w>
hon est
rat ings</w>
viol ating</w>
conven tion</w>
math sf</w>
apar tments</w>
AA AA
Th us</w>
bloc ked</w>
swit ches</w>
icon pdf</w>
diver gence</w>
pool ing</w>
neu ter</w>
tradi tion</w>
commit tees</w>
approxim ate</w>
antibio tic</w>
Ex pedia</w>
gar den</w>
gar dens</w>
gar bage</w>
hom o
less er</w>
less ly</w>
rai sers</w>
represen ted</w>
super market</w>
feel ings</w>
engine er</w>
suscepti bles</w>
Com mission</w>
az ar</w>
cab ins</w>
ng tkr</w>
pho tom
adju st
circul ates</w>
Di rector</w>
os oph
mathema tics</w>
expan ds</w>
expan sion</w>
bul le
adop ting</w>
quanti le</w>
quanti ties</w>
quanti tative</w>
immuno logy</w>
laun dro
discus ses</w>
transp arent</w>
comparis ons</w>
Po st</w>
numer ic</w>
implic it</w>
implic ated</w>
breast milk</w>
rac ist</w>
sun light</w>
met abo
persi stent</w>
form at</w>
effici ency</w>
week ly</w>
Can adian</w>
De partment</w>
Te dros</w>
far ms</w>
gri ef</w>
arran ged</w>
arran gement</w>
amin oph
pass word</w>
Pro gram</w>
fel ine</w>
fel low</w>
lay ers</w>
rou ting</w>
smar t
inhal ation</w>
termin ology</w>
layo vers</w>
relation ships</w>
Off icer</w>
cs v</w>
fru its</w>
ign or
aden ovirus</w>
outlin ing</w>
outlin ed</w>
foo t
foo thold</w>
advant ages</w>
59 pm</w>
Afr ican</w>
plo tting</w>
rn ase</w>
rn ases</w>
sil ly</w>
inser ts</w>
inser tions</w>
jud gement</w>
colum bia</w>
jurisdic tion</w>
cryst als</w>
Uni on</w>
ske wed</w>
yu ki</w>
yu sha</w>
enh ance</w>
enh anced</w>
diarr hoea</w>
consum ers</w>
holi days</w>
reque sted</w>
child care</w>
child birth</w>
graph ics</w>
volun tary</w>
patter ns</w>
propag ation</w>
As su
Eng land</w>
Sci enti
bat tle</w>
gt ngtkr</w>
ig nored</w>
inactiv ate</w>
envelo ped</w>
acet aminoph
appreci ated</w>
histor ically</w>
measu re
antici pated</w>
repatri ate</w>
Me tro</w>
Pr incess</w>
Su ch</w>
Speci fically</w>
Tim es</w>
UU UU
apo logi
boun dary</w>
dor m
puni shed</w>
puni shment</w>
int elligence</w>
coordin ates</w>
promp ted</w>
weak er</w>
weak ened</w>
audi o</w>
audi ence</w>
iso propy
strugg le</w>
specul ative</w>
Republic ans</w>
Cu stomer</w>
bra z
bra in</w>
hur ric
ip c</w>
pha c</w>
reb ate</w>
replac ement</w>
deduc tible</w>
theta LS</w>
shoc k</w>
play ground</w>
partis anship</w>
year by
phr ase</w>
phr ases</w>
cardi ovas
touri sts</w>
threat ens</w>
meaning less</w>
meaning ful</w>
guarante es</w>
manife stations</w>
toler ance</w>
Mc Lell
Mc Connell</w>
bil ayer</w>
gir lfriend</w>
ox y</w>
ox ford</w>
acknowled ging</w>
liber ty</w>
detec table</w>
seg ment</w>
seg ments</w>
coo king</w>
bed ding</w>
agricul tural</w>
mosqu ito</w>
grand parents</w>
forbi d</w>
forbi dden</w>
break fast</w>
geor gieva</w>
illu str
speciali st</w>
understand able</w>
understand ably</w>
frag ments</w>
100 k</w>
edit or</w>
specim ens</w>
collabor ation</w>
celebr ations</w>
celebr ating</w>
2F m</w>
Ru ssia</w>
SP Y2003
hr v</w>
mel tdown</w>
pit ch</w>
inno vation</w>
acci dents</w>
facilit ate</w>
residu es</w>
enzy mes</w>
pneumo cocc
pneumo cytes</w>
glyco samine</w>
85 pt</w>
Ban k</w>
IO N</w>
elev ated</w>
pal m</w>
slo venia</w>
sick est</w>
injur y</w>
reve aled</w>
succe eded</w>
proto cols</w>
string ent</w>
discipl ine</w>
examin ers</w>
summari ze</w>
discour age</w>
stret ched</w>
news agents</w>
syncy tial</w>
herpes virus</w>
proportion ate</w>
wild life</w>
macro economic</w>
neighbour hood</w>
bacteriopha ge</w>
AI DS</w>
Bas ically</w>
Cro atia</w>
Fol lowing</w>
Hel sinki</w>
Main land</w>
NY C</w>
Ro yal</w>
Slo vakia</w>
ele ments</w>
fing ers</w>
ze aland</w>
arre sted</w>
ech tenstein</w>
life time</w>
coord ination</w>
spl ashing</w>
magn itude</w>
shoo t</w>
door knobs</w>
peop le
take out</w>
worth less</w>
hemi sphere</w>
tok yo</w>
trig gered</w>
forese eable</w>
lugg age</w>
invasi on</w>
member ship</w>
hind sight</w>
disper sion</w>
nucleoti des</w>
therapeu tic</w>
artif icially</w>
purifi er</w>
accommod ation</w>
Kazak hstan</w>
Vowelburger ™</w>
H2 O2</w>
Hun gary</w>
Pas sengers</w>
TG V</w>
blin d</w>
cit ations</w>
fen thal
maca ques</w>
panc akes</w>
ubi qu
will ingness</w>
logn e</w>
unknow ns</w>
projec tions</w>
spur ious</w>
mix ture</w>
teas poons</w>
para influenza</w>
surro gate</w>
riski er</w>
accessi ble</w>
curtail ed</w>
intern ship</w>
nio sh</w>
borrow ers</w>
supple mental</w>
incenti ves</w>
Consi der</w>
conveni ence</w>
photo s</w>
Dise ases</w>
Possi bly</w>
mosquit oes</w>
calibr ation</w>
reimbur sement</w>
BC G</w>
Bru ssels</w>
Bur r</w>
Den mark</w>
Dec ember</w>
Dut ch</w>
Hamp shire</w>
Hanno ver</w>
Long yearby
Mul ti
More over</w>
Nep al</w>
Ry anair</w>
Red dit</w>
Sem in
Span ish</w>
Tw o</w>
Tha iland</w>
Tai wan</w>
Treas ury</w>
UPDAT E</w>
aque ous</w>
bf gs</w>
crea tive</w>
cans ino</w>
gb26 26</w>
juni or</w>
lpr s</w>
lasi o</w>
mlun gen</w>
nash ville</w>
soph isticated</w>
uno fficial</w>
wavel eng
inanim ate</w>
incum bent</w>
insan e</w>
remedi es</w>
arcg is</w>
accomp lish</w>
omis sion</w>
wholes ale</w>
whatso ever</w>
whiche ver</w>
divid end</w>
sido renko</w>
prolif erate</w>
pover ty</w>
before hand</w>
among st</w>
ophar yn
burea u</w>
vertic es</w>
shir t</w>
shed ding</w>
elabor ate</w>
adoles cents</w>
compati ble</w>
teach ers</w>
autho red</w>
gosti n</w>
body weight</w>
tobacc o</w>
ancell or</w>
accred ited</w>
scram bling</w>
guang dong</w>
canadi ans</w>
tylen ol</w>
overdr aft</w>
achuse tts</w>
bolson aro</w>
Stack Exchange</w>
microsco p
machiner y</w>
acetaminoph en</w>
isopropy l</w>
hurric ane</w>
cardiovas cular</w>
McLell an</w>
SPY2003 20
pneumococc al</w>
Longyearby en</w>
0 4
0 6
0 8</w>
0 18</w>
0 88
0 36</w>
1 10
1 19
1 80</w>
1 17</w>
1 17
2 co
2 80</w>
2 22</w>
2 23
3 1
3 19</w>
3 00
3 29
3 62</w>
4 1
4 3
4 62</w>
5 ps</w>
5 90</w>
5 38</w>
5 40
7 0
7 4
7 5
7 6
7 9
7 b
7 05
8 60</w>
9 99</w>
9 75</w>
9 27
A N
A M</w>
A no
A ma
A me
A part</w>
A NA</w>
A pr</w>
A PR</w>
A ns
B L
B u
B y</w>
B B</w>
B I</w>
B at</w>
B lo
B est</w>
B ack
B ritain</w>
B lasio</w>
C E
C S
C O</w>
C am
C ap
C ases</w>
C enter</w>
C GT
C zec
D E
D L
E i
E n
E R</w>
E ar
E ach</w>
E pi
E mer
F re
F actors</w>
F CO</w>
G a
G re
G ru
G ra
H i
H R</w>
H T</w>
H is</w>
H ence</w>
H ouse</w>
I t
I mp
J an
J un
K o
L L
L oo
L AT
L ancet</w>
M or
M il
M ar</w>
M ain</w>
M exico</w>
N S
N d</w>
N T</w>
N 100</w>
N AP</w>
O s
O K</w>
O ther</w>
O pen
P H
P R
P y
P s</w>
P S</w>
P al</w>
P ur
P resu
R a
R h
R A</w>
R ight</w>
S 7</w>
S tu
S han
S ection</w>
S ee</w>
S ee
S NAP</w>
T or
T ran
T ok
T UI</w>
U r
U V</w>
U se</w>
W E</w>
W he
Y e
Y out
a at
a it</w>
a tion
a wa
a tively</w>
a stom
a tial</w>
a 036</w>
b k
b á
b all</w>
b la
b ber</w>
b low</w>
b are
b lu
b last</w>
b lat
b led</w>
b ail</w>
b tw</w>
c on</w>
c af
c ge</w>
c ite</w>
c ements</w>
c ream</w>
d s
d t</w>
d ous</w>
d ited</w>
d ani
d ys
d fr
d sec
d beta</w>
d ged</w>
d trump</w>
d ang
d sey</w>
e q</w>
e ar</w>
e ars</w>
e ties</w>
e arch</w>
e sts</w>
e try</w>
e bol
e load</w>
e breyesus</w>
f law
f illing</w>
f rank
f lows</w>
g g</w>
g and</w>
g il
g la
g ors</w>
g are
g ically</w>
g arian</w>
g hai</w>
h i</w>
h exam
h us
h ran</w>
h ensive</w>
h itting</w>
i f
i j
i at
i ze</w>
i tis</w>
i ousness</w>
j h
j a</w>
j o</w>
j er
j ac
j ail</w>
j enni
k u
k n</w>
k en
k it
k es
k un
k le
k ne
k is
k ore
k alman</w>
k ater
k icked</w>
k irin</w>
l v
l or</w>
l es
l are</w>
l ap
l ates</w>
l ours</w>
m on</w>
m sp
m ally</w>
m all</w>
m ome
m nu
m son
m essed</w>
n l
n p
n c</w>
n j</w>
n ou
n ul
n der</w>
n ary</w>
n wa
n ick
n ail</w>
n pv</w>
n bk
o st
o ts</w>
o gh</w>
o tic</w>
o vern
o sa
o sis</w>
o vere
o bey</w>
p d
p n
p ru
p our</w>
p hili
r ay</w>
r he
r ine</w>
r ated</w>
r ons</w>
r amp
r hea</w>
r binom</w>
s g
s d</w>
s p</w>
s at
s as
s ic
s ill</w>
s est</w>
s ory</w>
s lu
s ni
s tics</w>
s spo
s As
s dashboard</w>
t su
t one</w>
t us</w>
t ence</w>
t less</w>
t ge
t ant
t ection</w>
t land</w>
t ants</w>
t fully</w>
t ops</w>
t oral</w>
t oring</w>
t amin
t ack
u tion</w>
u ted</w>
u pre
u ber</w>
u cle
u ating</w>
u sion</w>
v or
v ably</w>
w re
w es</w>
w en</w>
w ore</w>
w ong</w>
w ire</w>
w ins</w>
w rap</w>
x ation</w>
x bus</w>
x lim</w>
y en</w>
y un
y ment</w>
y right</w>
y outh</w>
y ful</w>
y cle</w>
y ahu</w>
z u
z ar
z er</w>
z able</w>
z ep
th 2</w>
th ick
in y</w>
in sp
in tly</w>
in tru
in put</w>
in land</w>
in clin
in comes</w>
in ak
in correct</w>
in corporate</w>
in acceptable</w>
in activation</w>
in stantly</w>
in definite</w>
in burg</w>
an g</w>
an o</w>
an st
an ec
an om
an ay
an ting</w>
an gerous</w>
an isation</w>
re n</w>
re f</w>
re au
re fore</w>
re uni
re dre
re side</w>
re apply</w>
re new
re solution</w>
re vol
re ward</w>
re paying</w>
re solved</w>
re sorts</w>
re marks</w>
re introduction</w>
re tention</w>
ti vi
ti ary</w>
ti ful</w>
ti dy
ti stic</w>
er als</w>
er ic</w>
er ior</w>
er adic
on es
on tari
ou ter</w>
ou red</w>
ar gen
ar med</w>
ar land</w>
ar xiv</w>
en b
en a</w>
en tion</w>
en ab
en th</w>
en cep
en 136</w>
or ph
or ney</w>
al e
al y</w>
al as</w>
al um
al ter
al ty</w>
al loc
al tun
al lies</w>
al ised</w>
al arial</w>
al dtrump</w>
st y</w>
st one</w>
st ell
st aff
st airs</w>
st amps</w>
at t</w>
at titu
vi se</w>
vi ate</w>
vi sed</w>
vi gi
vi ces</w>
vi tro</w>
it a</w>
ro of</w>
ro om
ro me</w>
ro gers</w>
ro ot</w>
ro lled</w>
ro che</w>
as i</w>
as ing</w>
as ha
as sure</w>
as say</w>
as says</w>
as sa
as tically</w>
as ka</w>
ec ho
ec ology</w>
ac i
ac o</w>
ac tional</w>
ac art</w>
ic al
om berg</w>
om pas</w>
no one</w>
no lo</w>
no wad
ha plo
ha gel</w>
ha zard</w>
es ome</w>
di al</w>
di str
di so
di tional</w>
di stric
di re</w>
di bly</w>
di strict</w>
di zz
di vor
ru g</w>
ru ns</w>
ru bber</w>
li fied</w>
li echtenstein</w>
li gand</w>
lo wered</w>
lo si</w>
si es</w>
si de
su ed</w>
su its</w>
su ici
de al
de tr
de bit</w>
de ut
de pression</w>
de hydr
tr a</w>
tr ail</w>
tr apped</w>
se greg
se wage</w>
the li
the rea
the tic</w>
un ter
un expected</w>
un rest</w>
un law
un diagnosed</w>
un stable</w>
un vaccinated</w>
un constitutional</w>
un folding</w>
un authorized</w>
un consci
un fortunate</w>
co le</w>
co very</w>
co pe</w>
co don</w>
co ck</w>
co vid
co operating</w>
co vs</w>
co efficient</w>
co sme
ab i
ab c</w>
ab ol
con temp
con feren
con soli
con cei
con strain
pro poses</w>
sp er
sp ill</w>
sp lit
sp atial</w>
le a
le an</w>
le gen
le ge</w>
le ased</w>
le aning</w>
ma ker</w>
po t</w>
po on</w>
po ols</w>
po sely</w>
po cket</w>
ur l</w>
ur ich</w>
ur ban</w>
ex pre
ex por
ex cre
ex cu
ex port</w>
ch y</w>
ch ur
ch ris
ch ell</w>
ch arities</w>
ch ancellor</w>
be have</w>
be ach</w>
be half</w>
am pl
am end</w>
am ond</w>
ri a</w>
ri m</w>
ri ding</w>
ri ses</w>
ri fic
ri bon
ri ot</w>
ri gors</w>
tion 1</w>
tion able</w>
tion ality</w>
op tm
op ened</w>
op position</w>
op sdashboard</w>
bu g</w>
bu reau
ver se</w>
ver ne
ver age</w>
ver tical</w>
ver bal</w>
ver anst
sh i</w>
sh en
sh at
sh ore</w>
sh tml</w>
sh rou
sh rin
el f</w>
el ing</w>
el ess</w>
el ders</w>
el astom
ad o</w>
ad here</w>
ad option</w>
ad hanom</w>
ne al</w>
ne ten
ne war
ne yland</w>
qu ater
qu asi</w>
inf late</w>
inf erior</w>
com pre
com pas
com posed</w>
com plain</w>
me al</w>
me dr
me ets</w>
gh test</w>
gh tm
gh ebreyesus</w>
ap e</w>
cor ps</w>
cor relations</w>
cor rid
cor neal</w>
ag e
ag o
ag t
ag greg
mp ing</w>
mp tive</w>
ho sting</w>
ho ods</w>
ho tter</w>
do b
pe l</w>
pe trol</w>
ul ts</w>
ul ture</w>
ul timate</w>
pre sti
pre ferences</w>
mo vements</w>
te l</w>
te gn
ta a</w>
per cu
per ately</w>
per mitting</w>
per mits</w>
we st
we ird</w>
au ch</w>
au top
au fenthal
pl ed</w>
pl in</w>
pl as
pl ate</w>
pl ague</w>
go als</w>
wor dsec
ol ve</w>
ol ina</w>
infec tive</w>
infec teds</w>
ren s</w>
ren al</w>
ren ess</w>
ci li
ci dal</w>
ci gare
he i
he ar
corona viri
du ke</w>
du ms</w>
ter rible</w>
ter tiary</w>
20 22</w>
20 degc</w>
20 440</w>
fe ver
fe ier
par is</w>
par tially</w>
par lours</w>
ai k</w>
ai med</w>
ai ming</w>
bo son</w>
bo xes</w>
im min
im provi
im ental</w>
is bn</w>
coun ty</w>
coun selling</w>
ssi vely</w>
fac em
pu p
pu b</w>
pu ter</w>
pu mps</w>
sur fact
sur round</w>
hi king</w>
hi dden</w>
ke holders</w>
ke vin</w>
ke ogh</w>
str aps</w>
to ff</w>
to ys</w>
to oth
gi ft</w>
gen tly</w>
gen eva</w>
our ing</w>
sy m
sy ll
sy ria</w>
tra in
tra its</w>
tra jec
pa th
pa rently</w>
pa ink
pa kistan</w>
wi ped</w>
ans i</w>
ans wered</w>
af m</w>
af aik</w>
fi x</w>
fi re
fi li
fi gh
fi res</w>
fi dd
so il</w>
comm entary</w>
anc er</w>
anc ers</w>
anc est
out look</w>
out ward</w>
out weigh</w>
gr y</w>
gr ay</w>
gr ams</w>
gr anting</w>
dic t
dic tat
mu tual</w>
mu sic</w>
mu cus</w>
ep ic
ep age</w>
ris on</w>
der mat
la in</w>
la wn</w>
la vage</w>
tt es</w>
for k</w>
for um</w>
tu p</w>
tu ary</w>
resp ecting</w>
mon et
mon key</w>
mon wealth</w>
sc aff
sc aling</w>
sc ales</w>
fin ances</w>
fin kel</w>
ser ved</w>
ser tation</w>
ju an</w>
bet ting</w>
min d
min or</w>
min ds</w>
min ster</w>
min eral</w>
min nes
cur b</w>
gu y</w>
gu est</w>
gu ess
gu ard</w>
gu esses</w>
gu ests</w>
fir ing</w>
fir med</w>
ten tly</w>
ten ded</w>
ten sions</w>
ten nes
pp le</w>
pp en</w>
CO B
ari zation</w>
pan go
pan el</w>
pan ose</w>
ess entials</w>
fun ded</w>
mptom s</w>
imp ort</w>
ali a</w>
trans lu
trans lations</w>
trans ferring</w>
ph eral</w>
sen tence</w>
pr on
pr ints</w>
pr anay
cre ation</w>
inter state</w>
inter mit
inter ference</w>
inter im</w>
inter nationally</w>
inter cept</w>
with standing</w>
ques tioning</w>
clo sest</w>
sin ess</w>
mas s
loc ally</w>
infor mal</w>
govern ance</w>
govern ors</w>
off ensive</w>
tre men
ell ite</w>
han cock</w>
lin ess</w>
lin ens</w>
medic ally</w>
bas ics</w>
air plane</w>
bi d</w>
bi den</w>
ple as
dis count</w>
dis solution</w>
dis solved</w>
dis continuous</w>
dis charges</w>
dis proportion
dis covery</w>
dis sertation</w>
inclu sion</w>
na 2co
hum p</w>
fl ush</w>
dist ances</w>
dist orted</w>
exam ines</w>
fli es</w>
sch en</w>
sch ni
gener ously</w>
cle av
respon ders</w>
respon sive</w>
des k</w>
des perately</w>
dro xychloroquine</w>
dro medary</w>
id dle</w>
speci ally</w>
speci fy</w>
of covid</w>
repor tedly</w>
man date</w>
man dated</w>
under go</w>
under going</w>
under mine</w>
peri pheral</w>
ori zed</w>
reas suring</w>
cu e</w>
cu it</w>
cu ts</w>
cu toff</w>
fic tion</w>
fo ods</w>
vir gin
loo sely</w>
consi st</w>
pen n
ther mome
ran k</w>
contr ary</w>
contr actual</w>
gre w</w>
gre en
gre ece</w>
uni on</w>
fol ks</w>
fol ded</w>
mat s</w>
mat t</w>
mat ched</w>
cd c
restric tive</w>
econom ically</w>
log ically</w>
cri tics</w>
can ned</w>
sub mission</w>
sub stitu
sub set</w>
direc ts</w>
lu zon</w>
lu ck
lu cky</w>
lu xembourg</w>
incre dibly</w>
dec e
dec ent</w>
dec lare</w>
resu me</w>
ce ase</w>
Co logne</w>
produc tivity</w>
pres ses</w>
medi an</w>
medi ated</w>
high light</w>
ban dan
app ing</w>
fam ous</w>
stan ford</w>
inv ade</w>
indi an</w>
car thy</w>
up hold</w>
up wards</w>
up load</w>
leg es</w>
over ly</w>
over see</w>
over stay</w>
over looked</w>
over crowding</w>
row ly</w>
proble matic</w>
pur posely</w>
sup pression</w>
ach ment</w>
Ch ar
Ch ron
dr astically</w>
nor m</w>
jo se
jo yful</w>
jo intly</w>
fr actional</w>
epi theli
us able</w>
us da</w>
vo x</w>
10 49</w>
val ence</w>
mem ory</w>
mini sters</w>
mini stries</w>
sa haran</w>
applic ant</w>
cen tre
nec k</w>
nec ologists</w>
evi ctions</w>
spread ers</w>
sequ ently</w>
commun al</w>
estim ator</w>
simp lification</w>
pot ent</w>
pot atoes</w>
den o
den ed</w>
den se</w>
den gue</w>
den omin
har ve
har ris</w>
rela xing</w>
rela xation</w>
ni aid</w>
ni ghtm
ed ingly</w>
war ded</w>
olog ically</w>
stat utes</w>
stat ut
exten ds</w>
trav els</w>
sev enth</w>
char set</w>
char ging</w>
clai msp
health ier</w>
00 000</w>
cap ital
equ ili
proc toring</w>
particul ate</w>
14 73</w>
14 00000000</w>
stoc king</w>
19 22</w>
19 94</w>
bor rowing</w>
ef s</w>
mic hel</w>
mic rons</w>
ster ile</w>
ster ili
sta tistic</w>
sta keholders</w>
lan ding</w>
necess ity</w>
glob al
kin e
kin der
col leges</w>
resul ted</w>
jec ting</w>
bro ke</w>
bro ok
preven ted</w>
preven tative</w>
clin ics</w>
ny c</w>
ny u</w>
dea f</w>
13 3</w>
cul tured</w>
ann ually</w>
tro ops</w>
lat ent</w>
lat rine</w>
mit chell</w>
authori zation</w>
authori zes</w>
ific ation</w>
initi ated</w>
inten se</w>
inten tional</w>
bin ar</w>
elec tive</w>
elec toral</w>
fa ulty</w>
tici sm</w>
hal ting</w>
cr acy</w>
pac e</w>
regi stered</w>
contain ers</w>
spo ke</w>
sha h</w>
sha w</w>
sha me</w>
tail ored</w>
12 2</w>
12 4</w>
In formation</w>
In tere
exi stence</w>
benef ici
benef iting</w>
benef icial</w>
anal o
suff ice</w>
suff ere
cir cles</w>
cir cuit</w>
safe guar
tec h</w>
distribu tions</w>
distribu ting</w>
ber lin</w>
ber nie</w>
cam ps</w>
wal ks</w>
announ cing</w>
announ cements</w>
ref rain</w>
ref erral</w>
origin ation</w>
coll ap
coll ar</w>
coll ateral</w>
compan ion</w>
appropri ations</w>
fore most</w>
grad uation</w>
regar ded</w>
centr ic</w>
diagno stics</w>
cas hi
cas eload</w>
oper ated</w>
oper ates</w>
mid st</w>
scho oling</w>
bre ast</w>
bre wer</w>
pi ed</w>
wr t</w>
ear ned</w>
mis informed</w>
mis leading</w>
mis fold</w>
Corona viruses</w>
multi ply</w>
ba ke</w>
ba king</w>
argu able</w>
stre p</w>
stre tch</w>
nega tives</w>
cha mber</w>
cha otic</w>
cha plin</w>
vide och
manu al</w>
hin der</w>
vali date</w>
vali dated</w>
vali dating</w>
pneum on
scen e</w>
ble w</w>
bur st</w>
practi se</w>
ass essed</w>
bio cidal</w>
fat ty</w>
gro ss
buil ds</w>
Euro pa</w>
inst acart</w>
pack aged</w>
bri um</w>
ima gin
quick est</w>
manag eable</w>
scre ens</w>
scre ened</w>
inve sted</w>
deb unk</w>
admini stering</w>
def ended</w>
def lationary</w>
exerci sing</w>
ligi ble</w>
may o</w>
compu tation</w>
presen tations</w>
Re public</w>
Re ferences</w>
Re gar
tran spose</w>
advis er</w>
bal ancing</w>
separ ating</w>
separ ately</w>
syn thetic</w>
gl ance</w>
nu tri
consu med</w>
consu late</w>
15 8</w>
15 80
rep air</w>
succ um
succ ession</w>
succ essive</w>
extr act</w>
nation alities</w>
foc uses</w>
vin eg
dead lier</w>
dead lifts</w>
AT HS</w>
ca red</w>
ca tho
fal z</w>
simul ated</w>
deli ber
quali fications</w>
her pes</w>
san d
sani tize</w>
incu r</w>
post natal</w>
flu shing</w>
bir d</w>
bir thing</w>
smo o
mut ating</w>
mut ants</w>
determin es</w>
top las
thes es</w>
propor tional</w>
law rence</w>
continu um</w>
investig ate</w>
investig ating</w>
50 1</w>
50 000</w>
Con firmed</w>
St an
St ate</w>
cy cles</w>
cy toplas
fle w</w>
refu gee</w>
conver sion</w>
charac ter</w>
charac ters</w>
len der</w>
arr ing</w>
phar ms</w>
phar ma</w>
program me</w>
don ed</w>
don ation</w>
don aldtrump</w>
sw iss</w>
squ ee
wil liam</w>
precau tionary</w>
impro per</w>
occu pied</w>
30 99</w>
fail ing</w>
hun gary</w>
hun garian</w>
trac ed</w>
trac ked</w>
complic ation</w>
The ir</w>
The refore</w>
sal ad</w>
preci sion</w>
contag ion</w>
contag eous</w>
contag iousness</w>
disrup ting</w>
disrup tive</w>
contracep tives</w>
No t</w>
analy tical</w>
17 205</w>
40 s</w>
mac ro</w>
recor dings</w>
stri al</w>
justi fications</w>
win d</w>
win ning</w>
win dow
spr inger</w>
electr ons</w>
cro atia</w>
cro sspo
fram es</w>
communic ate</w>
introduc es</w>
ax is</w>
att orney</w>
shel ters</w>
head ing</w>
head er</w>
head aches</w>
hypo x
hypo thesized</w>
fec v</w>
disp laying</w>
line age</w>
line ages</w>
16 29</w>
GT GT
sco w</w>
sco res</w>
alterna tives</w>
bathro oms</w>
down play</w>
down turn</w>
down votes</w>
Sch ool</w>
flo ors</w>
flo ating</w>
sli de</w>
sli des</w>
sli ghtest</w>
asp x</w>
assi gn</w>
assi stant</w>
critici sms</w>
recogni zed</w>
27 th</w>
Ph il
swe ating</w>
swe eping</w>
promi sed</w>
she er</w>
adap tations</w>
Li ke
Res pon
mc carthy</w>
yn dy
real donaldtrump</w>
viol ate</w>
viol ence</w>
viol ations</w>
shopp ed</w>
even ly</w>
monit ored</w>
consul ting</w>
18 60</w>
Nor mally</w>
bab ies</w>
fall en</w>
concentr ated</w>
neu tering</w>
que en</w>
que ue</w>
combin ing</w>
tradi tionally</w>
afr ican</w>
preval ent</w>
where ver</w>
care r</w>
hom epage</w>
less en</w>
less ness</w>
rai ses</w>
rai sed</w>
ss ors</w>
insi st</w>
hot line</w>
hot spots</w>
interven e</w>
challeng ed</w>
dar ies</w>
repe atedly</w>
itali a</w>
stero id</w>
organis ations</w>
schedul ing</w>
schedul es</w>
Air ways</w>
Air Europa</w>
Com mittee</w>
Com puter</w>
Com monwealth</w>
pho sphate</w>
wou l
trou bling</w>
execu ted</w>
adju sting</w>
appoin ted</w>
autom ated</w>
minimi se</w>
Di st
Di amond</w>
Del tay
lac tic</w>
refl ected</w>
acqu iring</w>
exc ell
exc essive</w>
chron ous</w>
amp lification</w>
amp lify</w>
bul let</w>
quanti ty</w>
wed ding</w>
bott les</w>
bott len
immuno compromised</w>
declar ing</w>
declar ations</w>
brief ly</w>
transp orting</w>
Go ing</w>
Vi enna</w>
avi an</w>
avi ation</w>
gor finkel</w>
roun ded</w>
viro logical</w>
viro logist</w>
extra po
premi ses</w>
perspec tives</w>
counter measures</w>
counter parts</w>
counter tops</w>
zoono sis</w>
da e</w>
da vid</w>
gy m</w>
gy na
nar rower</w>
nar rowly</w>
rac ists</w>
met abol
transmissi ons</w>
Can in</w>
ati le</w>
ati ent</w>
gri m</w>
slow s</w>
slow ed</w>
achi e
buy ers</w>
prescri bed</w>
prescri ptions</w>
formul ated</w>
pass ages</w>
60 8
90 7
Or bá
Pro tection</w>
inhal ing</w>
concep ts</w>
poll ution</w>
termin al</w>
forec asts</w>
integr ate</w>
hard ware</w>
classi c</w>
classi fy</w>
Econom ist</w>
caffe inated</w>
Fin ally</w>
Off icers</w>
cs g</w>
fru stration</w>
fla v
ign ore</w>
mess ages</w>
entr ance</w>
aden oviruses</w>
corti sol</w>
custo m</w>
custo dial</w>
59 74</w>
Ad ditional</w>
inser t</w>
inser ted</w>
net works</w>
jud ged</w>
priori tized</w>
priori tising</w>
cryst alli
23 46
25 degc</w>
bun des
home owners</w>
yu an</w>
religi on</w>
enh ancement</w>
cop ies</w>
cop yright</w>
leth ality</w>
expres ses</w>
shut downs</w>
presu med</w>
presu mptive</w>
datab ases</w>
child hood</w>
graph ical</w>
propag ate</w>
competi tive</w>
77 11</w>
As thma</w>
Demo cratic</w>
Rom ani
blam ing</w>
ns r</w>
inhi bition</w>
inactiv ating</w>
envelo pes</w>
alle viate</w>
list ening</w>
proxim al</w>
pol ye
pol ite</w>
explic it</w>
surroun ded</w>
deri ved</w>
respec tive</w>
scrat ching</w>
transcri p
transcri pt</w>
transcri ption</w>
measu rement</w>
compli ant</w>
chemi sts</w>
Viru ses</w>
48 7
48 69
apo logies</w>
boun daries</w>
puni tive</w>
attribu tes</w>
iter ations</w>
iter ran
coordin ate</w>
promp t</w>
neg ligent</w>
neg ligible</w>
phil lips</w>
phil osoph
responsi bilities</w>
satis factory</w>
bacteri um</w>
establish es</w>
Org anisation</w>
nanop articles</w>
AAT T
Cur few</w>
Lu fthansa</w>
So dium</w>
bail ing</w>
bail out</w>
hor rible</w>
hur t</w>
ip ca</w>
sn ps</w>
intr ins
conser vation</w>
promo te</w>
promo tes</w>
exhi bited</w>
exhi biting</w>
play grounds</w>
fini shing</w>
emphasi ze</w>
emphasi zing</w>
licen see</w>
cardi ac</w>
Australi an</w>
manife sts</w>
phenomen a</w>
H1 B</w>
IC U</w>
Wi thin</w>
jam es</w>
nom ination</w>
nsp 3</w>
ot t</w>
ot m</w>
ski p</w>
ski ing</w>
ton ight</w>
tas ks</w>
tab el</w>
tab lets</w>
tab les
uti li
uti lities</w>
enter oviruses</w>
liber ties</w>
detec ting</w>
coo ked</w>
absor ption</w>
convin ce</w>
convin ced</w>
convin cing</w>
adver se</w>
infe rence</w>
break down</w>
geor ge</w>
hospital ised</w>
contradic t</w>
contradic tion</w>
contradic tory</w>
author itarian</w>
author itative</w>
shif ted</w>
domin ic</w>
domin ating</w>
aaaa aa</w>
aaaa aaaaaa</w>
Govern ments</w>
fashi oned</w>
reluct ant</w>
96 92</w>
Ap parently</w>
Col ombia</w>
SP Y</w>
rad ical</w>
tum ours</w>
indepen dents</w>
enco ding</w>
enco ded</w>
atr avel
acci dentally</w>
defe at</w>
deep er</w>
deep ly</w>
prefer able</w>
prefer ably</w>
tow ns</w>
tox ic</w>
pric ing</w>
pric ed</w>
regim e</w>
residu als</w>
enzy me</w>
archi ve</w>
extinc tions</w>
Exam ple</w>
favor able</w>
volunte ers</w>
diplom atic</w>
anesthes i
Ban ks</w>
Dis neyland</w>
Is n</w>
OT A</w>
On ly</w>
On ce</w>
gul ates</w>
ms ds</w>
pun ish</w>
rin se</w>
injur ies</w>
reve al</w>
proto col</w>
exce ed</w>
exce edingly</w>
admissi ons</w>
worsen s</w>
string sAs
ance ster</w>
scar ce</w>
discipl ined</w>
suppres sed</w>
summari zed</w>
discour aged</w>
syncy tia</w>
deliver ies</w>
herpes viruses</w>
electron ic</w>
electron ics</w>
neighbour ing</w>
diversi fication</w>
mitig ating</w>
bacteriopha ges</w>
Grou ps</w>
decon tam
decon tamin
thri ve</w>
inevi table</w>
inevi tably</w>
referen dums</w>
tigh tening</w>
ene my</w>
step ped</w>
viri ons</w>
unwin d</w>
absen tee
expe l</w>
expe dited</w>
ambi gu
agu aaa</w>
olymp ics</w>
class ical</w>
puzz le</w>
strang le</w>
strang ers</w>
cred its</w>
explo red</w>
obstetr icians</w>
full text</w>
declin ing</w>
declin ed</w>
decreas ing</w>
decreas ed</w>
resem ble</w>
invo ked</w>
science mag</w>
angel es</w>
surviv ors</w>
destro y</w>
destro yed</w>
particip ant</w>
evalu ates</w>
manipul ate</w>
electroly te</w>
flavi viruses</w>
broncho alveolar</w>
broncho dilator</w>
catastrop he</w>
catastrop hic</w>
737 12
At lanta</w>
Bel gium</w>
CN N</w>
Cre dit</w>
Every one</w>
EST A</w>
Im migration</w>
Je wish</w>
Rob ert</w>
Sy mptoms</w>
Secon d</w>
TH E</w>
bic ycle</w>
day light</w>
hori zon</w>
kl ompas</w>
sac rific
revo ke</w>
time frame</w>
enor m
encoun tering</w>
attr action</w>
asser t</w>
dimen sion</w>
sustain able</w>
trick le</w>
proof reading</w>
prospec tive</w>
pois son</w>
beau tiful</w>
witn essing</w>
elli ott</w>
nej m</w>
compl aining</w>
appen ded</w>
pertain ing</w>
coronaviru se</w>
terr orist</w>
paras ites</w>
paralle l</w>
surge ons</w>
surger y</w>
epitop es</w>
accum ulate</w>
impre ssive</w>
distur bance</w>
drow siness</w>
pulmon ary</w>
process or</w>
143 80</w>
stress ful</w>
speak er</w>
water borne</w>
deplo yment</w>
fluoresc ent</w>
pharyn gitis</w>
patr ick</w>
expect ancy</w>
would angerous</w>
journali st</w>
Proper ties</w>
judg ment</w>
motiv ated</w>
sars r</w>
Simil arly</w>
oscill ation</w>
psych ology</w>
recipi ents</w>
226 297</w>
Ang el
Eff ects</w>
Hy droxychloroquine</w>
Mer kel</w>
Men schen</w>
Num ber</w>
Pay Pal</w>
Pub lic</w>
Rel ated</w>
Sto ck</w>
Tu esday</w>
US D</w>
Vir tual</w>
gou verne
mou ths</w>
rh esus</w>
sf o</w>
sag t</w>
inhe rent</w>
incen tive</w>
inadmissi bility</w>
antim alarial</w>
endo some</w>
stabili ze</w>
vict oria</w>
road s</w>
not withstanding</w>
deva stating</w>
sex ually</w>
abun dance</w>
conden sation</w>
prophy lactic</w>
exha u
bell s</w>
righ tfully</w>
opac ities</w>
bub ble</w>
misun derstanding</w>
preser ving</w>
percei ved</w>
boy friend</w>
fif th</w>
probabili stic</w>
prou d</w>
margin al</w>
entlic hen</w>
subsi di
hybri d</w>
vend ors</w>
easi est</w>
collo idal</w>
deterior ation</w>
Infec tious</w>
oppon ents</w>
screen shot</w>
myster y</w>
asymp to
exacer bated</w>
ballo on</w>
couri ers</w>
birth day</w>
honest ly</w>
homo gene
photom eter</w>
laundro mats</w>
metabo lic</w>
smart phone</w>
Assu ming</w>
measure ments</w>
apologi se</w>
braz ilian</w>
ubiqu itous</w>
Multi ple</w>
Semin ar</w>
waveleng th</w>
opharyn geal</w>
microscop y</w>
117 91</w>
Ano ther</w>
Ama zon</w>
Ame x</w>
Ans wers</w>
Blo omberg</w>
Back ground</w>
Cap ak</w>
Czec hia</w>
DE ATHS</w>
Ei ther</w>
Emer gency</w>
Gru ppen</w>
Jun e</w>
Mil an</w>
Os lo</w>
Open Source</w>
Ra oult</w>
Shan ghai</w>
See gene</w>
Tor onto</w>
Tok yo</w>
Ur inary</w>
Yout ube</w>
awa reness</w>
bare ly</w>
dfr lab</w>
dang ers</w>
ebol avirus</w>
frank ly</w>
gla d</w>
hexam er</w>
hus band</w>
iat atravel
jenni fer</w>
kit chen</w>
kle wes</w>
kis sing</w>
kore ans</w>
kater inburg</w>
lap top</w>
mnu chin</w>
mson ormal</w>
nwa a036</w>
overn ight</w>
osa ka</w>
overe stim
sat ellite</w>
sic ken</w>
slu sh</w>
tge v</w>
tack le</w>
upre gulates</w>
wre schni
zep tabel</w>
inclin ed</w>
inak zeptabel</w>
anec do
reuni fication</w>
redre ss</w>
renew ed</w>
ontari o</w>
vigi l</w>
asha med</w>
nowad ays</w>
haplo type</w>
distric ts</w>
dizz iness</w>
divor ced</w>
suici de</w>
detr imental</w>
deut sch
therea fter</w>
unter sagt</w>
unlaw fully</w>
cosme tic</w>
concei vably</w>
legen d</w>
ampl itude</w>
ribon ucle
optm c</w>
veranst altun
shrou ding</w>
elastom eric</w>
neten yahu</w>
newar k</w>
quater nary</w>
compre hensive</w>
medr xiv</w>
corrid or</w>
tegn ell</w>
autop lot</w>
wordsec tion1</w>
cigare ttes</w>
coronaviri dae</w>
feier nder</w>
immin ent</w>
surfact ant</w>
trajec tory</w>
paink ill
monet ary</w>
minnes ota</w>
translu cent</w>
pranay am</w>
tremen dous</w>
disproportion ately</w>
na2co 3</w>
virgin ia</w>
thermome ter</w>
nightm are</w>
statut ory</w>
claimsp df</w>
equili brium</w>
safeguar ds</w>
videoch at</w>
gross ly</w>
1580 226297</w>
vineg ar</w>
cytoplas m</w>
crosspo sted</w>
Deltay t</w>
Orbá n</w>
philosoph y</w>
intrins ically</w>
tables poons</w>
stringsAs Factors</w>
absentee ism</w>
gouverne ment</w>
iatatravel centre</w>
wreschni ok</w>
0 3
0 7
0 c
0 g
0 7</w>
0 20</w>
0 19
0 50</w>
0 22</w>
0 60
0 45
0 99
0 NS
1 t</w>
1 m</w>
1 100</w>
1 60</w>
1 pt</w>
1 ab</w>
2 f</w>
2 T</w>
2 15</w>
2 13</w>
2 40</w>
2 21</w>
2 28</w>
2 29</w>
2 30
2 70</w>
2 44</w>
2 46</w>
2 51</w>
2 pro</w>
3 3
3 5
3 U
3 c</w>
3 d</w>
3 a</w>
3 m</w>
3 k</w>
3 10</w>
3 000</w>
3 66</w>
3 50</w>
3 22</w>
3 24</w>
3 88</w>
3 65</w>
3 45
3 67</w>
4 q
4 000</w>
4 15</w>
4 13
4 60</w>
4 21</w>
4 27</w>
4 46
4 91</w>
4 90
4 92</w>
4 degc</w>
5 1
5 b
5 G</w>
5 12</w>
5 hk
6 8
6 th</w>
6 19
6 18</w>
6 28</w>
6 48</w>
6 88</w>
6 01</w>
6 57
6 440</w>
6 56
7 000</w>
7 11</w>
7 50</w>
7 50
7 85</w>
7 59
8 th</w>
8 20
8 23</w>
8 35</w>
8 16
8 39</w>
8 49</w>
8 58</w>
9 8
9 ec
9 50</w>
9 40</w>
9 57
9 47
9 119
A S
A U
A b
A g
A x
A tt
A ss
A LL
B E</w>
B re
B on
B es
B ang
B raz
B igg</w>
B BC</w>
C P
C e
C i
C l
C l</w>
C S</w>
C red
C alifor
C AAC
C ham
C 003
C AN
C ulture</w>
D ou
D ed</w>
D oc
D evi
D ef
D ow
D ayer</w>
E U
E l
E A</w>
E C</w>
E st
E very</w>
E ven
E CDC</w>
E specially</w>
E 3U
F A
F F
F Y
F f
F H</w>
F li
F il
F un
F am
F oc
F ore
F ace
F lights</w>
F BI</w>
G G
G M
G o</w>
G B</w>
G C</w>
G lo
G et</w>
G he
G AT
G AG
G IS
H i</w>
H an
H ou
H ar
H ad</w>
H int</w>
H az
H ED
I T
I c
I S</w>
I I</w>
I H</w>
I C</w>
I da
I RD</w>
I reland</w>
I RS</w>
I stanbul</w>
I HR</w>
J x
J apanese</w>
J unk</w>
K it</w>
K ag
L E
L O
L in
L op
L is
L ater</w>
L ack</w>
L earning</w>
L ED</w>
M y
M S</w>
M al
M ac
M ic
M ur
M ol
M ay
M em
M ort
M ass
M ater
M iddle</w>
N E
N r</w>
N R</w>
N S</w>
N am
N ature</w>
N ico</w>
N CR</w>
N ull</w>
N IH</w>
O R
O c
O F</w>
O H</w>
O L</w>
O ver</w>
O BL
P l
P h</w>
P M</w>
P or
P al
P ent
P ut</w>
P 500</w>
P reference</w>
P reli
P SA</w>
P atr
P residential</w>
P ier
P 003
P atient</w>
Q U
R ic
R IG
S k
S w
S t</w>
S K</w>
S H</w>
S or
S an</w>
S am
S ta
S ing
S ell</w>
S hou
S chem
S yn
S pread</w>
S EI
S anta</w>
S audi</w>
T E
T R
T r
T y
T O</w>
T V</w>
T re
T ren
T ra
T emp
T op</w>
T ube</w>
T witter</w>
T ax</w>
U LED</w>
V R</w>
V ò</w>
V ancouver</w>
W ro
W ed
W ash</w>
W ashing</w>
W WE</w>
W FH</w>
Y ou
Y es</w>
Y our</w>
Z ika</w>
Z agreb</w>
Z urich</w>
a 8
a g</w>
a o</w>
a q</w>
a v</w>
a es</w>
a ic
a ks</w>
a tho
a ste
a ths</w>
a tics</w>
a han</w>
a 59</w>
a waiting</w>
a 32
a emia</w>
a warded</w>
b m
b w
b o</w>
b f</w>
b in</w>
b om
b en</w>
b ay</w>
b ally</w>
b read</w>
b loo
b ite</w>
b log
b rit
b ona</w>
b bin
b lies</w>
b ounds</w>
b da
c f
c w
c s</w>
c p</w>
c 1</w>
c z</w>
c ac
c as</w>
c ta
c able</w>
c ated</w>
c ks</w>
c tt
c am</w>
c ms</w>
c ave</w>
c iting</w>
c 45</w>
c pid</w>
c DNA</w>
c pap</w>
c tivi
d b
d l
d R</w>
d S</w>
d I</w>
d in
d as
d as</w>
d ona
d enti
d am</w>
d its</w>
d ad</w>
d ss</w>
d dy</w>
d hand</w>
d ants</w>
d man</w>
d 50</w>
d 40
d ancy</w>
d ney</w>
d Ex
d ash</w>
d binom</w>
e 0
e 6</w>
e to</w>
e an</w>
e en</w>
e tr
e as</w>
e ma
e ases</w>
e ye
e bs</w>
e dily</w>
e aster</w>
e ich
e 619
e 9ec
f l</w>
f 6</w>
f k</w>
f w</w>
f ts</w>
f est</w>
f wi
f ty</w>
f ess
f te</w>
f ws</w>
f ant
f loo
f avo
f tes</w>
f esti
f co</w>
f rankfurt</w>
f bc
f icial</w>
f d40
g c
g i</w>
g f</w>
g al
g at
g el
g ag
g 20</w>
g ous</w>
g les</w>
g els</w>
g ct
g ained</w>
h h
h s
h k</w>
h ir
h ke
h our
h ell</w>
h ali
h nd</w>
h erring</w>
h bar</w>
h eck</w>
i h
i o
i v
i o</w>
i v</w>
i ar
i si
i ke</w>
i ses</w>
i sion</w>
i onal</w>
i thro
i ber
i simple</w>
i ow
i special</w>
i ata</w>
i dual</w>
i stanbul</w>
j r</w>
j an
j ain</w>
j air</w>
j ority</w>
j ord
j ha</w>
j fk</w>
k 7
k v
k b</w>
k m</w>
k on
k al
k in</w>
k ly</w>
k as
k om
k ho
k ai
k able</w>
k id</w>
k ick</w>
k ness</w>
k ingly</w>
k top</w>
k lm</w>
k n95</w>
l w
l r</w>
l f</w>
l ou
l au
l ately</w>
l ash</w>
l ayed</w>
m f
m j
m n
m o</w>
m 2</w>
m is</w>
m ly</w>
m le</w>
m ill</w>
m ici
m all
m desi
m da</w>
m sm</w>
m ouse</w>
m entally</w>
n h</w>
n z</w>
n at
n it
n an</w>
n ber</w>
n ic</w>
n ile</w>
n go</w>
n ancy</w>
n ine
n icon
n sim</w>
n philippines</w>
n ago
o c</w>
o y</w>
o z</w>
o ing</w>
o ec
o le</w>
o li
o ve
o we</w>
o vo
o let</w>
o economic</w>
o graphic</w>
o ie</w>
o liver</w>
o sha</w>
p c
p w
p 3</w>
p 1</w>
p an</w>
p il
p ab
p yo
p ag
p ill</w>
p all</w>
p to
p ause</w>
p ence</w>
p ell</w>
p ile</w>
p air</w>
p ick
p ounds</w>
p hilipp
p eline</w>
p ouring</w>
p falz</w>
q u</w>
q st
q ing
r s
r a</w>
r ha
r you</w>
r ays</w>
r ant</w>
r ick
r cc
r ices</w>
r ich
r apped</w>
r color
r c1</w>
s u</w>
s ™</w>
s j</w>
s and</w>
s or</w>
s as</w>
s 19</w>
s ay
s ds</w>
s gen
s wi
s la
s ect</w>
s ong</w>
s ad</w>
s wee
s lic
s lot</w>
s essi
s sis</w>
s ils</w>
s rt</w>
s nar
s lugg
s rc1</w>
t b</w>
t ch
t el
t ci
t rea
t ough</w>
t ans</w>
t ina</w>
t ps</w>
t amp</w>
t ween</w>
t cy</w>
t ness</w>
t place</w>
t estim
t elec
t esti
t arily</w>
t ingly</w>
t wea
t night</w>
t unities</w>
t exts</w>
t ape</w>
u 6
u l</w>
u a</w>
u 1</w>
u v</w>
u ci
u ting</w>
u red</w>
u ded</w>
u ten
u sive</w>
u tenant</w>
v 1</w>
v ars</w>
v agu
v ocation</w>
v wp</w>
v ancouver</w>
w u
w y
w y</w>
w 2</w>
w i</w>
w ab
w all</w>
w ars</w>
w oo
w ini
w ounds</w>
w oven</w>
w sj</w>
x i</w>
x it</w>
x ili
y u</w>
y in</w>
y ro
y du
y tic</w>
y ness</w>
y ingly</w>
y navigator</w>
y ptic</w>
y ancer</w>
z y</w>
z a</w>
z air
z ger
z ak</w>
z eable</w>
z agreb</w>
z c45</w>
z ydu
ö ff
th ed</w>
th ay</w>
th gi
th ens</w>
th ord
th western</w>
th ecdc</w>
in f</w>
in tri
in line</w>
in stru
in sec
in active</w>
in capac
in directly</w>
in corpor
in compe
in arian</w>
in efficient</w>
in correctly</w>
in cong
in avir</w>
in ception</w>
in spired</w>
in convenience</w>
in compatible</w>
in jecting</w>
an an</w>
an ne
an ers</w>
an ci
an ning</w>
an cies</w>
an ode</w>
an nie</w>
an gry</w>
re s
re l</w>
re t</w>
re es</w>
re ac
re as</w>
re un
re ation</w>
re me
re ar</w>
re my</w>
re bec
re fin
re use</w>
re pri
re tri
re used</w>
re pur
re ach
re sting</w>
re pay</w>
re form</w>
re lie
re lies</w>
re considered</w>
re places</w>
re started</w>
re sor
re combin
re rs</w>
re agent</w>
re ssed</w>
re directed</w>
re ign
re agents</w>
re iter
re bookings</w>
re elected</w>
re butt
re vise</w>
re percu
re valence</w>
re scheduling</w>
re mdesi
re vocation</w>
ti le</w>
ti mi
ti sed</w>
ti te</w>
ti um</w>
ti tis</w>
ti ghtly</w>
er ts</w>
er ous</w>
er work</w>
er ced</w>
er ial</w>
er arch
on e
on ers</w>
on wards</w>
on ian</w>
on erous</w>
ou l</w>
ou p</w>
ou ds</w>
ar g</w>
ar ro
ar ded</w>
ar gy</w>
ar son</w>
ar dian</w>
ar bonate</w>
ar ising</w>
ar ose</w>
en er</w>
en in</w>
en su
en ag
en ting</w>
en der</w>
en tu
en sing</w>
en vis
en ey</w>
en closed</w>
en tail</w>
en ables</w>
en acting</w>
en sures</w>
en pox</w>
en sibly</w>
en capsu
or an
or able</w>
or der
or na
or id
or ism</w>
or ox</w>
al velo
al distancing</w>
al ysis</w>
al lied</w>
al jazeera</w>
al ja</w>
al ytic</w>
st r</w>
st i</w>
st un
st op
st ag
st um
st all</w>
st est</w>
st ayed</w>
st shelter</w>
at es
at ta
at us</w>
at ori
at ured</w>
vi l</w>
vi ra
vi tam
vi vo</w>
vi enna</w>
vi olet</w>
it e
it ate</w>
it ch</w>
it ated</w>
it als</w>
it tr</w>
it ynavigator</w>
ro o
ro b</w>
ro pe</w>
ro ck</w>
ro mani
ro bot</w>
ro bbin
as p</w>
as le
as por
as simil
as ap</w>
as set</w>
as signed</w>
as ticity</w>
ec b</w>
ec on</w>
ec te
ec ks</w>
ec tual</w>
ec ologists</w>
ec mo</w>
ac a</w>
ac ch
ac il</w>
ac ious</w>
ac ellular</w>
ac idity</w>
ac onian</w>
ic ed</w>
ic le</w>
ic it</w>
ic air</w>
ic ago</w>
ic itor</w>
om ed</w>
om pe
om ous</w>
om eters</w>
om bud
om men</w>
no v</w>
no is
no where</w>
no type</w>
no tation</w>
ha k
ha y
ha ir
ha gg
ha dn</w>
es p
es h</w>
es p</w>
es are
es ia</w>
es cal
es ri</w>
wh ol
wh ite
di x</w>
di er</w>
di ve</w>
di ssi
di ous</w>
di ll
di mini
di gest</w>
di ff</w>
di ums</w>
di la</w>
di atr
di aphr
ru bri
ru tter</w>
ru ency</w>
li p
li ti
li an</w>
li gh
li zation</w>
li lit
li hood</w>
il or</w>
il tr
il logical</w>
lo c</w>
lo ve</w>
si p</w>
si on
si er</w>
si al</w>
si tions</w>
si mu
si ded</w>
si ster</w>
si zed</w>
si err
si astic</w>
si pping</w>
si ena</w>
si zeable</w>
su n</w>
su to</w>
su pre
su ess</w>
su ple
su ms</w>
su ited</w>
su rely</w>
su ade</w>
de m</w>
de er</w>
de por
de als</w>
de pri
de ple
de man
de part</w>
de port</w>
de law
de parts</w>
de voting</w>
de activate</w>
tr i</w>
tr au
tr ic</w>
tr ick</w>
se c</w>
se an</w>
se al</w>
se ap
se ized</w>
se ums</w>
se emed</w>
se ptic</w>
se tup</w>
the irs</w>
the guardian</w>
the lancet</w>
un i</w>
un wit
un is
un infected</w>
un just</w>
un anim
un affected</w>
un true</w>
un changed</w>
un defined</w>
un informed</w>
un treated</w>
un equal</w>
un reliable</w>
un noticed</w>
un becoming</w>
un born</w>
un wound</w>
un trained</w>
un comfortable</w>
un married</w>
un insu
un hide</w>
un packaged</w>
co op
co ol
co gn
co vari
co br
co erci
co inci
co stly</w>
co sal</w>
co operate</w>
co worker</w>
co v2</w>
co erced</w>
ab i</w>
ab le
ab ate</w>
ab us</w>
ab gr
ab ide</w>
ab users</w>
con y</w>
con tra
con fl
con gre
con stru
con fer</w>
con sor
con foun
con duci
con fron
con sequently</w>
pro b</w>
pro tests</w>
pro mis
yo ko
sp y</w>
sp an</w>
sp ne
sp ag
sp ell</w>
sp aw
sp her
sp ur</w>
le one</w>
le tic</w>
le ak</w>
le aked</w>
le yen</w>
le aners</w>
ma e</w>
ma tions</w>
ma ine</w>
ma ke
ma gr
ma id</w>
ma xi
ma gic</w>
ma tized</w>
ma titis</w>
po d
po le</w>
po ss
po op</w>
po etry</w>
ur s</w>
ur able</w>
ur ges</w>
ur acil</w>
ex cer
ex termin
ch o</w>
ch i</w>
ch ol
ch ase</w>
ch us</w>
ch ick
ch ris</w>
ch unk</w>
be er</w>
be ts</w>
be ll</w>
be long</w>
be arer</w>
be arance</w>
be verage</w>
be rens</w>
am used</w>
am use
am enor
am mlungen</w>
am oy</w>
ri le</w>
ri bo
ri dic
ri age</w>
ri fl
ri dden</w>
tion er</w>
tion als</w>
tion less</w>
tion chus</w>
op ho
op ting</w>
op tional</w>
op ens</w>
op lan
op ening</w>
op pel</w>
op revalence</w>
bu n</w>
bu ser
bu ster</w>
bu gs</w>
bu sh</w>
bu ck</w>
bu bb
bu ys</w>
bu mpy</w>
ver ing</w>
ver al</w>
ver ment</w>
ver ge</w>
ver mon
ver sam
ver sely</w>
ver bally</w>
sh y</w>
sh er</w>
sh an</w>
sh ers</w>
sh ing
sh enz
sh ang
sh ining</w>
sh eri
sh iny</w>
el ded</w>
el ong</w>
el astic</w>
el ancers</w>
el uci
ad ing</w>
ad jec
ad mit</w>
ad jective</w>
ad mits</w>
ne g</w>
ne ts</w>
ne ves</w>
ne br
ne mar</w>
qu i
qu al
qu ir
qu ely</w>
inf in
inf ir
inf requ
inf lated</w>
inf ix</w>
inf lationary</w>
inf ul</w>
inf iltr
com ed</w>
com pul
com modi
com partment</w>
com missions</w>
me e</w>
me ts</w>
me ds</w>
me ter
me ters</w>
me tically</w>
oun ded</w>
oun dly</w>
oun dless</w>
gh ta
gh tened</w>
ap r</w>
ap est</w>
ap ical</w>
ap ples</w>
ap neu
ap shot</w>
cor ri
cor onal</w>
cor rup
ag m</w>
ag gr
ag ged</w>
ag ging</w>
ag iar
mp ps</w>
ho e</w>
ho p</w>
ho u</w>
ho ste
ho sted</w>
ho ok</w>
ho gue</w>
ho vering</w>
mi st</w>
mi ke</w>
mi sc
mi ami</w>
mi mic</w>
do s</w>
do sing</w>
do led</w>
do ha</w>
pe g</w>
pe ans</w>
pe ace</w>
pe gging</w>
pe losi</w>
pe diatr
ir y</w>
ir b</w>
ir is</w>
ir cul
ir man</w>
ul le</w>
ul ation</w>
ul us</w>
ul ous</w>
pre p</w>
pre made</w>
pre fa
pre paying</w>
pre tend</w>
pre serve</w>
pre mature</w>
pre fix</w>
mo tor</w>
mo des</w>
mo tor
te t</w>
te m</w>
te tra
te aring</w>
te ams</w>
te enag
ta b</w>
ta ed</w>
ta tively</w>
ta tives</w>
ta kers</w>
ve in</w>
ve for</w>
ve sted</w>
ve tte</w>
per u</w>
per tu
per mutations</w>
per ception</w>
per missive</w>
per suade</w>
we gian</w>
we ren</w>
we binar</w>
au l</w>
au ton
au ctions</w>
au sgen
au xili
pl u
pl t</w>
pl enti
pl ant</w>
pl ates</w>
pl ush</w>
pl 2pro</w>
pl agiar
ona vir</w>
go d</w>
go ve</w>
go ld
go od
go verment</w>
wor ded</w>
wor ten</w>
wor ship</w>
ol ation</w>
ol dest</w>
ren ting</w>
ren thu
ren tine</w>
ci d</w>
ci le</w>
ci se</w>
ci um</w>
ci sa</w>
ay ers</w>
he m
he y</w>
he al</w>
he mor
he ight</w>
du m
du m</w>
du bi
ter a</w>
ter ly</w>
ter ri
ter med</w>
ter ious</w>
ter ry</w>
ter ization</w>
tic k</w>
tic ks</w>
20 6
20 c</w>
20 s</w>
20 78</w>
20 67
fe at</w>
fe der
fe dex</w>
fe males</w>
fe tus</w>
par o</w>
par scale</w>
par tum</w>
par ano
par aphr
par ole</w>
ai de</w>
ai red</w>
ai mee</w>
rea tional</w>
bo w
bo y</w>
bo a</w>
bo at</w>
bo om
bo il
bo ld</w>
bo ther
bo xed</w>
bo ys</w>
bo lic</w>
bo eing</w>
bo thered</w>
im o</w>
cl ad</w>
cl ouds</w>
cl orox</w>
is ance</w>
is ations</w>
is scare</w>
is 1473</w>
is wab
coun ters</w>
ssi onal</w>
fac eshi
pu shed</w>
pu shing</w>
hi j
hi e</w>
hi p</w>
hi o</w>
hi sto
hi gan</w>
hi erarch
ke ep
ke ys</w>
cont est</w>
cont ours</w>
cont exts</w>
str a
str al</w>
str ate</w>
to c
to se</w>
to ine</w>
to wel</w>
heal ing</w>
gi a</w>
gi vers</w>
gen itals</w>
sy lv
tra p</w>
tra k</w>
pa in
pa re
pa tional</w>
pa ste
pa thy</w>
pa o2</w>
pa inful</w>
rec ru
rec reation</w>
rec ircul
rec reational</w>
wi red</w>
wi ves</w>
wi sely</w>
wi dow</w>
wi ping</w>
ans as</w>
ans ammlungen</w>
em e</w>
em a</w>
em an</w>
em br
em bal
em powers</w>
em bed
ing conditions</w>
ing ement</w>
ing ton
fi x
fi g</w>
fi er
fi de</w>
fi bers</w>
fi o2</w>
so res</w>
so ft</w>
so cc
so aked</w>
comm and</w>
comm ent
comm ute</w>
por tal</w>
por tugal</w>
out group</w>
gr am
gr asp</w>
gr oundless</w>
countr y
mu s
mu m</w>
mu tational</w>
mu seums</w>
ep df</w>
ep iso
ep stein</w>
ris suto</w>
der ail
der ful</w>
der bil
der matitis</w>
la tive</w>
la tin</w>
tt taa</w>
acc a
acc use</w>
for t</w>
for ty</w>
for mat
for give</w>
for mal
for cing</w>
for tnight</w>
for bearance</w>
tu be</w>
tu ation</w>
tu de</w>
tu tor</w>
resp ected</w>
sti r
sti r</w>
mon o
mon aco</w>
sc am</w>
sc aa
sc roll</w>
sc ab</w>
sc alise</w>
sc rap</w>
sc arring</w>
sc rapped</w>
sc anning</w>
fin ite</w>
fin ish</w>
fin nish</w>
diff usion</w>
ser ver</w>
ser um</w>
ser vers</w>
ser oprevalence</w>
ju gg
ju mping</w>
ju stshelter</w>
ju lian</w>
sit s</w>
et on</w>
et ro
et al</w>
min i</w>
min ary</w>
min ating</w>
min ority</w>
cur few</w>
low down</w>
sel ls</w>
sel ective</w>
gu ing</w>
gu essing</w>
gu ided</w>
pub med</w>
fir mly</w>
ye arly</w>
ye ah</w>
ye litis</w>
ten ess</w>
ten der</w>
ten tative</w>
CO V
CO V</w>
ari a</w>
ari ses</w>
ari de</w>
pan ies</w>
pan try</w>
ess ay</w>
some day</w>
VI D</w>
fun erals</w>
imp l
imp ris
imp lying</w>
imp edi
trans gre
trans action</w>
trans form</w>
trans lat
trans fusion</w>
trans lates</w>
possi bilities</w>
ph y</w>
read ings</w>
sen tin
cre w
cre ates</w>
inter chan
inter bank</w>
inter views</w>
ste am</w>
ain ts</w>
mil len
mil dness</w>
mil lilit
vern on</w>
with drew</w>
publi shing</w>
publi shes</w>
stu di
sin te
mas k
loc king</w>
exp at</w>
exp iring</w>
appro ving</w>
appro aching</w>
govern ing</w>
off s</w>
off set</w>
off icers</w>
tre ss</w>
ell u
ell a</w>
ell ectual</w>
han ging</w>
han eda</w>
lin ing</w>
lin ed</w>
lin er</w>
lin kage</w>
lin dsey</w>
medic are</w>
fu ss</w>
fu el</w>
fu eled</w>
tw o
tw enty</w>
air e</w>
air way</w>
air side</w>
air bus</w>
air flow</w>
air planes</w>
air bn
bi tive</w>
bi ases</w>
bi di</w>
bi dity</w>
bi pap</w>
bi zar
ple ased</w>
dis es
dis order</w>
dis ability</w>
dis cover</w>
dis approval</w>
dis continu
dis allowing</w>
dis agreed</w>
dis solve</w>
dis charge</w>
dis agreement</w>
dis agree</w>
dis rupt</w>
dis advantage</w>
dis missed</w>
dis counted</w>
dis comfort</w>
dis missive</w>
dis advantages</w>
ge ably</w>
ge stat
ge om</w>
ge dly</w>
ge town</w>
ge sture</w>
inclu sive</w>
na be</w>
na zi</w>
oc y
fl out</w>
fl yer</w>
fl orid
ob struc
ob jection</w>
ob tained</w>
dist orting</w>
dist ressed</w>
exam ine</w>
exam inations</w>
pati ence</w>
ww w2</w>
tri phosphate</w>
ici an</w>
gener ous</w>
gener ations</w>
gener alized</w>
cle aring</w>
cle arance</w>
hel per</w>
hel mets</w>
des ks</w>
des cen
des erve</w>
des olve</w>
des ktop</w>
ill um
tur ally</w>
dro ve</w>
dro pping</w>
soci ation</w>
soci eties</w>
soci oeconomic</w>
soci aldistancing</w>
are ema</w>
prev ent
man n</w>
man ages</w>
man ila</w>
under water</w>
under valu
under reacting</w>
under brace</w>
ori an</w>
ori ties</w>
ori zation</w>
ori entation</w>
ori ented</w>
meas urable</w>
all en</w>
all ance</w>
velo ping</w>
cu o</w>
cu es</w>
cu res</w>
cu ps</w>
cu shi
cu vette</w>
mar qu
mar riage</w>
dur al</w>
fo x</w>
ant acid</w>
anti bacterial</w>
anti py
loo p</w>
lic a</w>
lic ence</w>
lic ense</w>
consi d
spit e</w>
stric ter</w>
mun ity</w>
pen g</w>
pen ta</w>
pen alize</w>
cau sa
cau tioned</w>
cau sal</w>
cau dle</w>
cau tious</w>
any body</w>
ther mom
ther mia</w>
eng ag
ran ted</w>
ran ks</w>
ran os</w>
pas sively</w>
star ters</w>
immun ization</w>
whe at</w>
ent ers</w>
uni ons</w>
uni form</w>
uni quely</w>
quar rentine</w>
mat ories</w>
mat urity</w>
mat rices</w>
mat tress</w>
cd 4</w>
cd 147</w>
restric ts</w>
tru mp
tru ck</w>
econom ical</w>
dre ss
log 10</w>
log istics</w>
popul ace</w>
popul arity</w>
cri ti
ll i</w>
temp 3</w>
temp late</w>
sub stan
sub type</w>
sub stance</w>
sub strate</w>
boo t
boo ts</w>
boo ths</w>
boo sting</w>
hou ses
was hable</w>
was hio</w>
emplo ying</w>
sol ver</w>
sol ves</w>
sol itary</w>
sol icitor</w>
direc tional</w>
ful filled</w>
ga stri
ga thered</w>
lu x
lu be</w>
lu bric
artic le
dec om
dec ep
dec eler
tain ing</w>
aff ir
aff ili
ce os</w>
ce meter
Co efficients</w>
Co VID</w>
produc ers</w>
sho ts</w>
sho pow
high way</w>
high ways</w>
ban g</w>
ban ds</w>
ban kers</w>
stan ts</w>
stan ley</w>
inv ari
inv ali
inv ented</w>
sign atories</w>
car ts</w>
car olina</w>
vari olation</w>
regul ates
up held</w>
up dating</w>
up lift</w>
up loads</w>
sug ar</w>
develop ments</w>
work out</w>
work ings</w>
work force</w>
work shops</w>
leg ality</w>
comp iled</w>
comp ounding</w>
allow ance</w>
over booking</w>
over crowded</w>
over arching</w>
over lap</w>
over stretched</w>
over dispersion</w>
sto po
sto red</w>
emergen ce</w>
pur pose
pur ification</w>
ys acch
ini um</w>
ore tically</w>
rit a</w>
rit onavir</w>
contin ent</w>
contin ental</w>
assu red</w>
Ch ase</w>
Ch ris</w>
Ch eck</w>
Ch icago</w>
pay ed</w>
pay er</w>
pay ers</w>
pay out</w>
pay able</w>
univer se</w>
dr a</w>
dr yers</w>
dr tedros</w>
dr yness</w>
dr aconian</w>
resi li
indivi sible</w>
struc k</w>
struc tured</w>
struc turally</w>
addi tive</w>
nor ms</w>
nor ovirus</w>
nor berg</w>
nor thwestern</w>
individu alized</w>
jo ining</w>
fr actions</w>
mul ticity</w>
avo ids</w>
us c</w>
us i</w>
vo l</w>
10 46</w>
10 56</w>
10 05</w>
10 93</w>
10 4869
10 849</w>
val ently</w>
gam ing</w>
tou ches</w>
depen dence</w>
depen dents</w>
sa vers</w>
sa arland</w>
prof oundly</w>
applic ants</w>
simil arity</w>
men u</w>
sec tors</w>
see gene</w>
hy ster
hy att</w>
hy letic</w>
nec essi
doc si</w>
evi den
contro ver
glo ve</w>
spread sheet</w>
sequ e
commun ism</w>
simp li
pot entials</w>
den i
den ds</w>
den sely</w>
den cies</w>
den mark</w>
den dum</w>
har dy</w>
har ms</w>
har ry</w>
har rison</w>
confir ms</w>
predic ts</w>
predic tor</w>
predic tability</w>
br and</w>
br ine</w>
ni an</w>
ni ans</w>
ni ig
tal e</w>
poli ze
comple ate</w>
comple ment</w>
comple mentary</w>
comple teness</w>
ed ge</w>
ed oms</w>
war fare</w>
war ranted</w>
lif elong</w>
susp ending</w>
char ity</w>
char ter</w>
char les</w>
char tered</w>
char itynavigator</w>
00 02</w>
00 pm</w>
00 911</w>
00 608
cap tures</w>
cap itali
solu ble</w>
14 6</w>
14 1</w>
14 80</w>
14 74</w>
14 28
19 9</w>
19 th</w>
19 000</w>
19 80</w>
19 81</w>
19 67</w>
19 68</w>
19 94
19 70
secon dhand</w>
wa stage</w>
appe al</w>
appe tite</w>
bor ns</w>
pap erwork</w>
ven ue</w>
ven ues</w>
defin ing</w>
fil er</w>
lear ns</w>
lear ners</w>
200 m</w>
200 000</w>
fri end
sta diums</w>
ili es</w>
lan der</w>
lan inf</w>
cat ches</w>
cat alytic</w>
lon gest</w>
kin dly</w>
bro ch
hu mid</w>
hu gely</w>
hu anan</w>
clin ically</w>
clin ical
ny se</w>
13 5</w>
13 43</w>
13 823</w>
tro ll</w>
wash ers</w>
wash ington
ki os</w>
mit es</w>
mit ories</w>
abo ard</w>
authori zations</w>
ific us</w>
initi ation</w>
initi ate</w>
initi ating</w>
initi ative</w>
initi alization</w>
inten ding</w>
maj orities</w>
bin der</w>
supp lier</w>
ben ding</w>
ben jam
fa ther</w>
fa red</w>
fa ult</w>
fa stest</w>
lab elling</w>
lab elled</w>
lab eled</w>
thro po
tici an</w>
tici sts</w>
hal ted</w>
sum i</w>
organi se</w>
organi zing</w>
influenz ae</w>
disc ard</w>
disc rep
disc arded</w>
cr y</w>
cr at</w>
cr ash
cr ashing</w>
cr abgr
pac ificus</w>
contain ing</w>
contain ling</w>
spo ken</w>
spo kes
web cam
web page</w>
web cam</w>
web docsi</w>
blo wn</w>
sha king</w>
sha ws</w>
sha pes</w>
who ever</w>
infecti ousness</w>
stand point</w>
12 9</w>
12 17</w>
12 pm</w>
12 47
12 462</w>
In struc
In tro
In stead</w>
In don
In ternal</w>
In dian</w>
exi sted</w>
suff ocation</w>
cir cle</w>
hop ed</w>
lie b</w>
lie utenant</w>
atten uation</w>
atten dant</w>
atten dants</w>
Ho tel</w>
ber lain</w>
del aying</w>
announ ces</w>
ref val</w>
adv ancement</w>
adv enture</w>
origin ates</w>
ama ican</w>
coll ate</w>
fore st</w>
fore head</w>
sk yro
patho logy</w>
grad ed</w>
grad uating</w>
aw i</w>
aw ard</w>
aw esome</w>
mal aise</w>
expl oring</w>
cas ey</w>
cas ually</w>
oper ators</w>
euro pa</w>
euro peans</w>
mid wife</w>
mid wives</w>
pi peline</w>
pi is1473</w>
wr app</w>
wr apping</w>
ear th</w>
ear nings</w>
mis folding</w>
Corona viru
tun e</w>
tun ing</w>
writ er</w>
multi tude</w>
ba z
ba o</w>
ba it</w>
won t</w>
won ders</w>
won dered</w>
won derful</w>
stre pto
proce dural</w>
correc ted</w>
strate gically</w>
cha ff</w>
cha irman</w>
spe edily</w>
agre eing</w>
agre sti</w>
manu ally</w>
est oppel</w>
hin t</w>
hin shaw</w>
vali dity</w>
certain ties</w>
institu tional</w>
ext ant</w>
ext ingu
ble eding</w>
bur ning</w>
bur ned</w>
cent red</w>
bru ce</w>
non resident</w>
non refundable</w>
non stero
non linear</w>
non profit</w>
non filers</w>
err rate</w>
bio l</w>
bio technology</w>
bio ethics</w>
specific s</w>
buil dings</w>
Euro surveillance</w>
inst alled</w>
hol m</w>
hol der</w>
dri ed</w>
remo ves</w>
Fe w</w>
Fe ynman</w>
cal m</w>
cal med</w>
cal yptic</w>
cal cium</w>
new by</w>
new ton</w>
new scientist</w>
new borns</w>
accep tance</w>
my el
dom inated</w>
dra g</w>
dra in</w>
dra wing</w>
deb un
deb ilit
admini stered</w>
clas sed</w>
def ective</w>
agen esis</w>
bon us</w>
vol atile</w>
aca demics</w>
may ors</w>
may oral</w>
compu tes</w>
stimul u
objec tionable</w>
29 3</w>
29 2</w>
29 09</w>
29 94
29 957
Re g
Re ference</w>
Re gul
leng thening</w>
advis ers</w>
advis able</w>
advis ors</w>
likeli hoods</w>
equi valently</w>
bal anced</w>
bal cony</w>
inci pal</w>
inci dentally</w>
separ ation</w>
expo sures</w>
short en</w>
short fall</w>
short cut</w>
syn thesized</w>
syn chronous</w>
capac ities</w>
cou ll</w>
gl ue</w>
nu ovo
nu isance</w>
che at</w>
che ating</w>
che apest</w>
addre ssing</w>
tax i</w>
tax on
tax ing</w>
circum vent</w>
15 6</w>
15 1</w>
15 64</w>
rep trak</w>
succ esses</w>
extr acted</w>
extr acellular</w>
nation alism</w>
broad en</w>
gene ticists</w>
evol ves</w>
occur rences</w>
tempor al</w>
asymptom atics</w>
Al right</w>
spi ky</w>
AT T
AT CT
AT ION</w>
ak tu
ca ve
ca thay</w>
ca esare
ca dila</w>
fre elancers</w>
fre edoms</w>
fal si
fal sely</w>
simul ator</w>
conclu ded</w>
quali ties</w>
quali fies</w>
drin kable</w>
her metically</w>
san ding</w>
san juan</w>
wat ers</w>
wat ched</w>
inc ite</w>
inc eton</w>
rele ases</w>
rup tcy</w>
post al</w>
post ure</w>
post docs</w>
post mates</w>
fig uring</w>
flu x</w>
bir ths</w>
eu 261</w>
smo king
compar ision</w>
mut ant</w>
mut ates</w>
mut ability</w>
mut agenesis</w>
protec tions</w>
research es</w>
Ac ross</w>
bit es</w>
bol ster</w>
lec ture</w>
thes izing</w>
law yer</w>
law yers</w>
law makers</w>
law suits</w>
continu ity</w>
design s</w>
invest or</w>
ordin ate</w>
50 7
50 66
50 1994
AC G
AC T
Con tract</w>
Con versely</w>
St ay</w>
cy tok
dy spne
fle e</w>
fle a</w>
conver ge</w>
conver ging</w>
conver verge</w>
constitu ted</w>
constitu tes</w>
constitu tionality</w>
micro phone</w>
micro organisms</w>
colle ague</w>
88 1</w>
Tru e</w>
dest abili
demo graphics</w>
help fully</w>
secre tions</w>
secre tly</w>
program mes</w>
ct g
ct at
don ated</w>
don ors</w>
don ating</w>
sw ings</w>
squ at</w>
wil son</w>
moder ately</w>
impro vements</w>
fit zger
fail ures</w>
ly mp
mor atori
mor tem</w>
mor bidity</w>
dispo sitions</w>
trac es</w>
begin ing</w>
australi ans</w>
interpre tations</w>
The oretically</w>
mechan istic</w>
preci ous</w>
disrup ts</w>
obli vi
calcul ated</w>
calcul us</w>
No thing</w>
No where</w>
instruc t</w>
relev ance</w>
wei ghts</w>
wei ghting</w>
analy zed</w>
analy tics</w>
analy zing</w>
17 3</w>
17 2</w>
17 491</w>
40 5</w>
40 18</w>
40 171</w>
40 fd40
aer oplan
replic able</w>
replic ated</w>
replic ates</w>
stri p</w>
stri kes</w>
ash ton</w>
choo ses</w>
contam inate</w>
contam inating</w>
justi n</w>
small est</w>
suppor ts</w>
suppor ter</w>
suppor ters</w>
character ised</w>
character ization</w>
character izing</w>
Qu oting</w>
Qu een</w>
organ ic</w>
hydro pho
hydro xide</w>
cro ps</w>
cro ss
cro sses</w>
cro ssed</w>
rever t</w>
rever sible</w>
revie wer</w>
revie wing</w>
end point</w>
surve y
doub les</w>
aero space</w>
aero soli
26 th</w>
26 00</w>
26 973</w>
ax y</w>
ax les</w>
cru cially</w>
tren ding</w>
att ac
att achment</w>
contribu tion</w>
prohi bitive</w>
shel f</w>
shel ves</w>
mod ulated</w>
head line</w>
softw ares</w>
back fire</w>
back bone</w>
back lash</w>
hypo thesizing</w>
neighb ours</w>
behavi ors</w>
behavi oral</w>
bb b</w>
pic orna
disp ute</w>
disp lay
disp uted</w>
disp leased</w>
disp layed</w>
disp ensing</w>
exemp ted</w>
quo ting</w>
sensi bly</w>
famili arity</w>
nucle ases</w>
categ or
16 7</w>
16 00</w>
GT TT
bran ding</w>
bran ches</w>
sco tt</w>
prece dent</w>
prece dence</w>
prece dents</w>
paren ting</w>
paren theses</w>
sampl er</w>
sampl ers</w>
decre es</w>
down wards</w>
down load
down loaded</w>
down playing</w>
down regulates</w>
down graded</w>
educ ating</w>
educ ator</w>
mer ge</w>
mer kel</w>
pat ent</w>
pris ons</w>
pris oners</w>
pris tionchus</w>
sor ting</w>
sor ship</w>
tan k</w>
reli ance</w>
asp ing</w>
asp irin</w>
sett le</w>
sett led</w>
sett lement</w>
shor tened</w>
world ometers</w>
dynam ical</w>
bar red</w>
bar re</w>
bar celona</w>
bar rel</w>
red field</w>
she eting</w>
adap tation</w>
scep ticism</w>
consider able</w>
therap ist</w>
activ ator</w>
maintain s</w>
success or</w>
Li fe</w>
Li fts</w>
Res earch</w>
Res idual</w>
real time</w>
conven ed</w>
shopp ers</w>
recep tors</w>
even tual</w>
consul tations</w>
consul tants</w>
18 9</w>
18 th</w>
18 00</w>
18 12</w>
18 30</w>
AA T</w>
AA AG
CT AT
CT GC
Nor wegian</w>
bab y
bloc king</w>
swit ched</w>
and Data</w>
diver t</w>
diver se</w>
perman ently</w>
cla w</w>
commit ment</w>
approxim ated</w>
subst ack</w>
perform ances</w>
scepti bles</w>
Au th
Au stria</w>
care givers</w>
fer ry</w>
fer tility</w>
gar den
gar lic</w>
hom eless</w>
less on</w>
insi sted</w>
represen table</w>
represen tatives</w>
stro ll</w>
super vision</w>
super ficial</w>
super nat
poly propy
percent ages</w>
stran ger</w>
engine ers</w>
demonstr ates</w>
demonstr ating</w>
demonstr ably</w>
46 3</w>
46 36</w>
46 907
46 940</w>
dar ity</w>
dar ker</w>
dar wini
fav our
fav oring</w>
rhin or
sav es</w>
reti rees</w>
libr aries</w>
depar ting</w>
eval uation</w>
criter ion</w>
Com panies</w>
ey al</w>
nas opharyngeal</w>
oon tz</w>
wel comed</w>
execu tives</w>
adju v
autom ation</w>
radi ate</w>
radi ated</w>
withdra w
mani fest</w>
circul ate</w>
hope ful</w>
journ al
lac ed</w>
lac ked</w>
lac tational</w>
refl ection</w>
stain ing</w>
chron ology</w>
amp hi
amp lified</w>
bul k</w>
bul lets</w>
quanti fy</w>
compe ting</w>
compe te</w>
immuno logical</w>
immuno suppression</w>
glas sman</w>
28 7
28 1</w>
28 018</w>
28 9119
Go v</w>
Vi etnam</w>
gor ously</w>
roun d
roun ding</w>
stic king</w>
sanc tioned</w>
sanc tuary</w>
viro logists</w>
notic es</w>
notic eable</w>
extra pol
beli efs</w>
premi er</w>
premi se</w>
tele vised</w>
counter act</w>
counter argument</w>
counter intuitive</w>
fact check</w>
fact ories</w>
stron gest</w>
embas sies</w>
implic itly</w>
membran es</w>
techno logically</w>
free ze</w>
free zer</w>
57 002</w>
da eg
foun der</w>
foun da
gy pt</w>
gy necologists</w>
rac ing</w>
rac ial</w>
rac ism</w>
devi ate</w>
devi sed</w>
coh orts</w>
coh orted</w>
met als</w>
met apneu
prepar ation</w>
prepar ations</w>
persi sts</w>
persi stence</w>
gra b</w>
gra vity</w>
phy si
week ends</w>
foreign er</w>
47 40fd40
De ar</w>
De aths</w>
De veloping</w>
Te aching</w>
Te hran</w>
ati an</w>
far m</w>
far ther</w>
far ming</w>
gri dEx
nur se</w>
retro actively</w>
dilu te</w>
defa ults</w>
mista ken
after ward</w>
subsequ ently</w>
000 1pt</w>
000 29957
electro chemical</w>
electro lysis</w>
90 s</w>
90 5</w>
Jo b</w>
Jo Q</w>
Or ban</w>
Per u</w>
Per haps</w>
lay ered</w>
indu strial</w>
inhal er</w>
habit ual</w>
concep tual</w>
poll en</w>
termin ate</w>
strong lifts</w>
figu red</w>
soli darity</w>
layo ffs</w>
penal ties</w>
penal ised</w>
hard ship</w>
hard Bar
Fin ancial</w>
Fin nish</w>
cn bc</w>
cn nphilippines</w>
eth nic</w>
gau ss</w>
mm n</w>
mess aging</w>
entr ies</w>
atri c</w>
oppor tunities</w>
veri kios</w>
inflam matories</w>
key words</w>
key boards</w>
informa tive</w>
assem blies</w>
59 3</w>
Ad hanom</w>
Ad alja</w>
Mo scow</w>
Pri or</w>
bes ide</w>
greg ory</w>
plo t
plo s</w>
plo tted</w>
sle y</w>
sle eping</w>
sle eved</w>
sle eve</w>
wan es</w>
wan ting</w>
wan der</w>
invi ting</w>
intu ition</w>
intu bation</w>
repu table</w>
oph il
goo gles</w>
jud ges</w>
betacorona virus</w>
distinc tive</w>
legis lative</w>
colum ns</w>
share house</w>
cryst allo
25 th</w>
37 198</w>
Be ing</w>
Be low</w>
home work</w>
ske w</w>
remin ds</w>
remin ding</w>
reven tion</w>
reven ues</w>
divi de</w>
divi dends</w>
progre ssing</w>
progre ssively</w>
leth argy</w>
expres sing</w>
shut tered</w>
else vier</w>
vehic les</w>
discre te</w>
discre tionary</w>
neutr ality</w>
neutr alizing</w>
propag ates</w>
propag anda</w>
competi tors</w>
77 7</w>
77 79</w>
As sociation</w>
Demo crat</w>
Gen bank</w>
bc v</w>
blam ed</w>
gt g</w>
ns p</w>
ns w</w>
text book</w>
text bf</w>
vac ant</w>
alber t</w>
alber tans</w>
vic inity</w>
pol arization</w>
pol ysacch
veget able</w>
surroun dings</w>
histor ic</w>
respec tful</w>
transcri bed</w>
geo graphical</w>
occas ions</w>
occas ional</w>
flatten ed</w>
antigen s</w>
repatri ated</w>
phylo gen
phylo geneticists</w>
cortico steroid</w>
2f coronavirus</w>
2f www</w>
2f 2019</w>
48 e9ec
Me dic
Pr incipal</w>
Pr inceton</w>
Su b
Su sceptibles</w>
apo calyptic</w>
bad ge</w>
dor f</w>
dor mitories</w>
kp mg</w>
int ent</w>
int ellectual</w>
anno tation</w>
anno yingly</w>
ater ally</w>
coordin ating</w>
coordin ator</w>
propo sing</w>
promp ting</w>
promp tly</w>
mamm alian</w>
irrit ate</w>
veter inarian</w>
weak ening</w>
audi ences</w>
parliam entary</w>
evapor ate</w>
schem es</w>
aller gic</w>
strugg led</w>
satis fies</w>
harm less</w>
citizen ry</w>
broadca sting</w>
broadca sters</w>
establish ments</w>
power lifts</w>
38 2</w>
Coun tries</w>
Ju st</w>
Lu zon</w>
Lu xembourg</w>
Pol ice</w>
Sour ces</w>
bs c</w>
bail ed</w>
elimin ation</w>
elimin ated</w>
hor ses</w>
hor ses
kar u
pha ge</w>
pha ges</w>
sn acks</w>
sn apshot</w>
sou ps</w>
intr a</w>
accoun ted</w>
dig it</w>
dig its</w>
dig ging</w>
dig ital</w>
promo ting</w>
exhi bit</w>
exhi bits</w>
shoc king</w>
shoc ks</w>
moti vation</w>
moti vations</w>
githu buser
year s
year book</w>
effic acious</w>
phr asing</w>
emphasi zes</w>
campu ses</w>
threat en</w>
threat ening</w>
threat ened</w>
manife sted</w>
toler ant</w>
CC AC
EI C</w>
EI DL
Fur ther</w>
Fri eden</w>
bay es</w>
bay lor</w>
edi tion</w>
edi ble</w>
jam a</w>
nom inal</w>
nsp 5</w>
ski pping</w>
tam paro</w>
uti lized</w>
vom it</w>
enter pri
enter ovirus</w>
visu al</w>
visu alise</w>
acknowled ged</w>
acknowled gements</w>
eshi p</w>
escap ed</w>
detec tors</w>
theat lantic</w>
absor b</w>
absor bed</w>
absor bance</w>
adver tised</w>
comb o</w>
comb ating</w>
gott lieb</w>
intermedi ary</w>
certi fied</w>
geor getown</w>
clean liness</w>
illu sion</w>
illu stration</w>
bank ruptcy</w>
author ised</w>
puri fy</w>
check list</w>
frag ment</w>
frag ile</w>
100 46907
Inf ection</w>
collabor ators</w>
frame works</w>
tane ous</w>
campai gn
refriger ators</w>
2F 01
55 000</w>
96 618</w>
Ap proved</w>
Col or
Col lege</w>
GC A
OP EC</w>
barri ers</w>
gall up</w>
ry anair</w>
rad ar</w>
va x</w>
yi elds</w>
enco des</w>
alar m</w>
alar ming</w>
defe ated</w>
defe ating</w>
prefer red</w>
face time</w>
facilit ates</w>
tox in</w>
regim en</w>
regim ens</w>
suspici ous</w>
catastro ph
Inter cept</w>
supervis ors</w>
favor ite</w>
furlough ing</w>
volunte er</w>
volunte ering</w>
diplom ats</w>
glyco protein</w>
87 1
Centr e</w>
Dis claimer</w>
GCT T
Hum ans</w>
IO NS</w>
Is rael</w>
OT As</w>
eid ls</w>
elev ate</w>
gul f</w>
je remy</w>
las er</w>
pau sed</w>
slo vakia</w>
sick ness</w>
tor ate</w>
tor onto</w>
tat too</w>
induc ing</w>
retail er</w>
succe ed</w>
dele ted</w>
dele te</w>
dele terious</w>
degrad ation</w>
seat posts</w>
worsen ing</w>
worsen ed</w>
ance stral</w>
scar f</w>
sero type</w>
stoch asticity</w>
suppres sing</w>
deliver ing</w>
wild fire</w>
macro phages</w>
diversi fy</w>
diversi fied</w>
mitig ation</w>
mitig ated</w>
inhibit ors</w>
24 th</w>
24 324</w>
32 17
Cro atian</w>
Grou pe</w>
Hel p</w>
Na Cl</w>
Na tionals</w>
Slo venia</w>
ath a</w>
brow sing</w>
ele mentary</w>
fing er
py thon</w>
sad s</w>
sad ly</w>
incur red</w>
incur ring</w>
referen ced</w>
tigh ten</w>
alli ance</w>
ham mer</w>
life style</w>
unwin ding</w>
cocc us</w>
coord inated</w>
absen tee</w>
congreg ate</w>
spl its</w>
ambi ent</w>
shar per</w>
worth while</w>
olymp icair</w>
class room</w>
cred entials</w>
dissemin ated</w>
dissemin ating</w>
obstetr ic</w>
resem bles</w>
invo ke</w>
invasi ve</w>
servic er</w>
servic es
servic ers</w>
angel a</w>
hind awi</w>
surviv ability</w>
occup ation</w>
nucleoti de</w>
particip ation</w>
therapeu tics</w>
evalu ating</w>
manipul ation</w>
AGG AC
electroly tes</w>
flavi virus</w>
artif icial</w>
purifi ers</w>
accommod ations</w>
Kazak h</w>
Vowelburger s™</w>
426 38</w>
83 10849</w>
97 80
At lantic</w>
Any one</w>
Any way</w>
Bi o
Bi g</w>
Bel gian</w>
CN BC</w>
Gu ardian</w>
RE ALL
SC HED
SE GIS
Ser ies</w>
Ser vices</w>
Str ong</w>
Vis its</w>
Vis itor</w>
bic arbonate</w>
hk u1</w>
sac s</w>
sme ar</w>
ves sels</w>
thy lene</w>
reop ening</w>
reop ened</w>
reinfor ce</w>
revo ked</w>
encoun tered</w>
allo y</w>
attr active</w>
asser tion</w>
rum ours</w>
trick y</w>
proof ing</w>
prospec ts</w>
pois oning</w>
beau ty</w>
witn essed</w>
open ings</w>
neuro logic</w>
infr inging</w>
infr ingement</w>
compl aints</w>
med iterran
appen dix</w>
pertain s</w>
plum me
plum bers</w>
terr orism</w>
paras ite</w>
cler ical</w>
surge on</w>
surger ies</w>
epitop e</w>
acceler ate</w>
imper fect</w>
transfor ming</w>
transfor mations</w>
cleans er</w>
cleans ers</w>
desicc ate</w>
pursu ing</w>
pursu ant</w>
process ors</w>
advoc ate</w>
speak ers</w>
fluoresc ence</w>
weigh ted</w>
expect ant</w>
journali sts</w>
Reco very</w>
judg ments</w>
sars 2</w>
Simil ar</w>
psych ological</w>
recipi ent</w>
negoti ations</w>
99 00</w>
Bo eing</w>
Do esn</w>
La w</w>
Lo an</w>
Ma jority</w>
Mi ami</w>
Ret ur
Ret ention</w>
Se veral</w>
Sco tland</w>
Some what</w>
hall s</w>
ker kho
ming ling</w>
nai ve</w>
nai vely</w>
sl tc</w>
sop hie</w>
sop ranos</w>
van derbil
ware housing</w>
zx 21</w>
inqu ire</w>
recon cile</w>
resur gence</w>
endan gered</w>
orf 8</w>
orf 1ab</w>
alleg ed</w>
alleg ations</w>
visc ous</w>
visc usi</w>
hamp shire</w>
haem ophil
diure tic</w>
diure sis</w>
unil ateral</w>
unil aterally</w>
underestim ate</w>
conve yancer</w>
conjun ction</w>
conjun ctivi
amate ur</w>
amate urs</w>
negl ected</w>
quer y</w>
weap on
auto immune</w>
times 3</w>
counc ils</w>
counc ilor</w>
recur sion</w>
recur sive</w>
lax atives</w>
scru tiny</w>
publici zing</w>
dismis sal</w>
dismis sals</w>
geome try</w>
geome tric</w>
marke tplace</w>
loosen ing</w>
need lessly</w>
gastro intestinal</w>
view point</w>
long standing</w>
parame tri
parame terization</w>
color ado</w>
disclo sed</w>
disclo sure</w>
shape 2</w>
shape 1</w>
wrong ly</w>
stream ing</w>
stream ed</w>
administr ative</w>
defend ant</w>
defend ants</w>
swab bed</w>
redun dant</w>
redun dancy</w>
adjust ment</w>
adjust ments</w>
bulle t
bulle tin</w>
ignor ance</w>
ignor ant</w>
Scienti sts</w>
dorm ant</w>
dorm ancy</w>
illustr ates</w>
SPY200320 C003
SPY200320 P003
088 19</w>
110 46940</w>
31 161</w>
41 2002</w>
79 38</w>
7b 48e9ec
705 48</w>
Bu y</w>
CS SEGIS
Cam bridge</w>
Ear lier</w>
Fre e
Ga ulle</w>
Gre ece</w>
Gra ham</w>
Hi gh</w>
It alian</w>
Imp erial</w>
Jan atha</w>
Ko ch</w>
Loo k</w>
LAT AM</w>
PH EIC</w>
Py thon</w>
Pur ina</w>
Presu ming</w>
Rh Jx
Tran spose</w>
Whe reas</w>
Ye katerinburg</w>
bla h</w>
blat ant</w>
caf e</w>
dani el</w>
dys function</w>
flaw ed</w>
if n</w>
jh in</w>
kne e</w>
nl 63</w>
np geo</w>
nul lify</w>
nick name</w>
ost ensibly</w>
pd fs</w>
pn rs</w>
pru dent</w>
phili ps</w>
rhe inland</w>
ramp ing</w>
sas se</w>
yun a</w>
intru sive</w>
anom aly</w>
tidy verse</w>
eradic ated</w>
ones elf</w>
argen tine</w>
enb aum</w>
enab ling</w>
encep hali
orph an</w>
alum inium</w>
alter n
alloc ate</w>
staff s</w>
attitu des</w>
assa ult</w>
diso bey</w>
deal ers</w>
unconsci ousness</w>
covid 19
contemp lating</w>
conferen cing</w>
consoli dated</w>
constrain ts</w>
sper mici
split ting</w>
lea f</w>
expre ssi
expor ted</w>
excre ment</w>
excu sed</w>
chur ches</w>
chris tie</w>
bureau cracy</w>
shat tering</w>
compas sion</w>
aggreg ate</w>
dob son</w>
presti ge</w>
west minster</w>
aufenthal t</w>
plas ma</w>
hei ghtened</w>
fever ish</w>
improvi se</w>
facem asks</w>
pup il</w>
syll abus</w>
train ee</w>
path ways</w>
fili buster</w>
figh ters</w>
fidd ling</w>
ancest or</w>
dict ate</w>
dictat orial</w>
epic enter</w>
scaff old</w>
mind ful</w>
guess timate</w>
tennes sean</w>
COB OL</w>
pango lin</w>
pron ounced</w>
intermit tent</w>
mass achusetts</w>
pleas ure</w>
cleav age</w>
penn sylv
cdc says</w>
substitu tions</w>
luck ily</w>
dece dents</w>
Char les</w>
Chron icle</w>
jose ph</w>
epitheli al</w>
centre s
deno tes</w>
denomin ator</w>
capital ism</w>
sterili ze</w>
global giving</w>
kine tics</w>
kinder gardens</w>
brook ings</w>
Intere stingly</w>
benefici aries</w>
analo gous</w>
suffere rs</w>
collap ses</w>
cashi ers</w>
Regar ding</w>
nutri ent</w>
succum bed</w>
deliber ate</w>
smoo thing</w>
Stan ford</w>
window sill</w>
hypox emia</w>
Like wise</w>
Respon se</w>
yndy k</w>
Dist ancing</w>
excell ent</w>
bottlen ecks</w>
extrapo lation</w>
gyna ecologists</w>
metabol ites</w>
achie vement</w>
crystalli sing</w>
2346 7b48e9ec
Romani ans</w>
polye thylene</w>
utili ze</w>
anesthesi ologists</w>
ambigu ous</w>
73712 947
sacrific es</w>
enorm ous</w>
Angel a</w>
exhau sted</w>
homogene ous</w>
overestim ated</w>
deutsch e</w>
veranstaltun gen</w>
painkill ers</w>
0c m</w>
060 96618</w>
045 512</w>
099 26973</w>
0NS w</w>
345 46</w>
413 750
446 53</w>
656 001</w>
759 4740fd40
AS T</w>
Ab out</w>
Ax Ff
Att aching</w>
Ass essment</w>
Bes ides</w>
CP AP</w>
Ce le</w>
Califor nians</w>
Cham berlain</w>
Devi ance</w>
EU 261</w>
Est onia</w>
Even tually</w>
E3U RhJx
FF P
FY I</w>
Fli xbus</w>
Fam ilies</w>
Fore ign</w>
Face book</w>
GM T</w>
Ghe breyesus</w>
Han eda</w>
Hou sing</w>
Ic ke</w>
Ida ho</w>
Lop inavir</w>
Lis boa</w>
Mur phy</w>
Mol ec
May be</w>
Mem bers</w>
Mass achusetts</w>
Por tugal</w>
Pent a</w>
Preli minary</w>
Patr ick</w>
Ric hardBar
RIG HT</w>
Sk ype</w>
Sor ry</w>
Sing apore</w>
Schem e</w>
Syn drome</w>
SEI R</w>
Tra vel</w>
Wro claw</w>
Wed nesday</w>
You Tube</w>
aic pa</w>
a32 1
bda 7594740fd40
cf m</w>
cw op</w>
das zak</w>
dona tions</w>
ema iled</w>
eich enbaum</w>
e619 337</w>
fwi w</w>
fant astic</w>
favo red</w>
festi val</w>
fbc lid</w>
gal axy</w>
gel man</w>
hs v</w>
iber ia</w>
iow a</w>
jord an</w>
kv r</w>
kon yndyk</w>
kai ser</w>
lw d</w>
nit rile</w>
nine teen</w>
nicon ic
nago ya</w>
oec d</w>
ove renthu
pw c</w>
pab p</w>
pyo genes</w>
pag ination</w>
philipp ine</w>
qst 7</w>
qing yuan</w>
rick shaws</w>
rcc l</w>
rcolor brewer</w>
swee p</w>
slic e</w>
sessi ons</w>
snar k</w>
slugg ish</w>
tel econ
tci d50</w>
trea ties</w>
testim ony</w>
telec om
testi gn</w>
uten sils</w>
vagu ely</w>
zydu s</w>
öff entlichen</w>
thgi e</w>
thord arson</w>
intri guing</w>
insec tici
incong ruency</w>
anci ent</w>
reun ite</w>
reme dy</w>
rebec ca</w>
repur posed</w>
resor ted</w>
recombin ant</w>
rebutt al</w>
repercu ssions</w>
remdesi vir</w>
ensu red</w>
stum bled</w>
vira emia</w>
vitam in</w>
robbin s</w>
asle ep</w>
aspor a</w>
ecte d
ompe o</w>
ombud sman</w>
nois y</w>
hair dress
hagg led</w>
escal ate</w>
whol ly</w>
dill uded</w>
diaphr agm</w>
rubri c</w>
simu litis</w>
sierr a</w>
supre me</w>
suple ment</w>
unwit tingly</w>
uninsu red</w>
coop ed</w>
cool er</w>
covari ances</w>
cobr a</w>
coerci on</w>
confl ic
congre ssional</w>
constru ed</w>
consor tium</w>
conduci ve</w>
promis sory</w>
spag nolo</w>
spaw ned</w>
spher ical</w>
make up</w>
magr ittr</w>
maxi mi
poss ess</w>
chol era</w>
amuse ment</w>
amenor rhea</w>
ribo some</w>
ridic ulous</w>
rifl es</w>
bubb les</w>
vermon t</w>
versam mlungen</w>
shing les</w>
shenz hen</w>
shang hai</w>
sheri ff</w>
adjec tives</w>
nebr aska</w>
quir ks</w>
infir med</w>
infiltr ates</w>
commodi ties</w>
aggr av
hoste l</w>
misc arri
pediatr ics</w>
prefa b</w>
teenag ers</w>
pertu ssis</w>
auton omous</w>
ausgen ommen</w>
auxili ary</w>
plenti ful</w>
plagiar ism</w>
hemor rha
dubi ous</w>
2067 9</w>
feder ally</w>
parano id</w>
paraphr ased</w>
bother ing</w>
faceshi eld</w>
paste ur
embal ming</w>
embed ded</w>
socc er</w>
episo des</w>
formal ism</w>
scaa ahu</w>
jugg le</w>
impedi ment</w>
transgre ssors</w>
translat able</w>
sentin el</w>
interchan geably</w>
millen ni
millilit er</w>
airbn b</w>
bizar re</w>
gestat tet</w>
florid a</w>
undervalu ed</w>
antipy re
causa tive</w>
thermom eters</w>
gastri c</w>
affili ation</w>
shopow ner</w>
regulates external</w>
purpose fully</w>
104869 57</w>
hyster ia</w>
necessi ties</w>
eviden ced</w>
niig ata</w>
polize i</w>
00608 69
1970 s</w>
friend ship</w>
clinical trials</w>
benjam in</w>
discrep ancy</w>
crash ed</w>
crabgr ass</w>
webcam s</w>
Indon esia</w>
strepto coccus</w>
nonstero idal</w>
debilit ating</w>
2994 23467b48e9ec
nuovo coronavirus</w>
caesare an</w>
5066 412002</w>
501994 0002</w>
dyspne a</w>
fitzger ald</w>
moratori ums</w>
hydropho b
display style</w>
polypropy lene</w>
darwini an</w>
289119 3001</w>
extrapol ating</w>
daeg u</w>
metapneu mo
gridEx tra</w>
mistaken ly</w>
00029957 32</w>
crystallo graphy</w>
polysacch aride</w>
horses hoe</w>
githubuser content</w>
EIDL s</w>
10046907 91</w>
REALL Y</w>
SCHED ULED</w>
mediterran ee</w>
kerkho ve</w>
vanderbil t</w>
conjunctivi tis</w>
SPY200320C003 55000</w>
SPY200320P003 19000</w>
CSSEGIS andData</w>
encephali tis</w>
spermici des</w>
pennsylv ania</w>
73712947 72</w>
413750 7</w>
AxFf JoQ</w>
E3URhJx 0NSw</w>
RichardBar row</w>
bda7594740fd40 299423467b48e9ec
overenthu siastic</w>
hairdress ers</w>
bda7594740fd40299423467b48e9ec f6</w>
