#version: 0.2 - Trained by `huggingface/tokenizers`
t h
i n
a n
th e</w>
r e
t i
e r
c o
a r
e n
t o</w>
o u
in g</w>
i s</w>
t e
o n
o n</w>
a l
o r
o f</w>
an d</w>
e s</w>
v i
o r</w>
a t</w>
i n</w>
r o
i t
e r</w>
a s
e d</w>
l y</w>
a c
s t
n o
a l</w>
i c
e c
a n</w>
a t
i l
ti on</w>
w h
v e</w>
d i
h a
th at</w>
e s
p l
r u
ar e</w>
s i
u n
f or</w>
l i
i t</w>
e n</w>
y o
s u
s e
yo u</w>
no t</w>
l o
d e
s e</w>
co n
te d</w>
a s</w>
t r
th e
m a
b e</w>
h o
p ro
m e</w>
t s</w>
l d</w>
vi ru
s p
a b
u r
s t</w>
p o
m e
en t</w>
er e</w>
b e
c h
s o
ti on
w it
c e</w>
wit h</w>
r i
ha ve</w>
viru s</w>
e x
l e</w>
l a
l e
th is</w>
b u
m i
ou r</w>
n e
v er
in f
m p
a d
i f</w>
t a
s a
pl e</w>
f f
p e
y our</w>
co r
er s</w>
s o</w>
at e</w>
q u
tion s</w>
il l</w>
g h
ou ld</w>
w e
c an</w>
s h
f ro
i r
fro m</w>
d o
m o
a p
th er</w>
t h</w>
v e
1 9</w>
h e
or e</w>
p er
te r</w>
p re
a g
ou t</w>
bu t</w>
the y</w>
a tion</w>
w ill</w>
a y</w>
al ly</w>
c h</w>
it y</w>
t o
a u
inf ec
k e</w>
b y</w>
co vi
a m
on e</w>
m ent</w>
e t</w>
co m
pe o
covi d</w>
peo ple</w>
cor on
g o
th ere</w>
c i
d s</w>
w or
coron a
d u
f e
as e</w>
t er
re n
2 0
al l</w>
u m
d o</w>
i m
in e</w>
wh o</w>
g h</w>
an y</w>
l u
m ore</w>
es s</w>
s es</w>
ti c
p ar
d ing</w>
p a
re a
l l</w>
p u
v er</w>
corona virus</w>
w ould</w>
en ts</w>
ha s</w>
b o
i r</w>
gh t</w>
he al
o ther</w>
c e
f ac
ic h</w>
m s</w>
t ing</w>
ti ve</w>
w e</w>
wh ich</w>
a r</w>
s si
ou n
ab le</w>
k e
i d</w>
so me</w>
su r
d e</w>
m u
y s</w>
g i
g en
d er</w>
r a
co u
heal th</w>
s ed</w>
h i
s y
co un
al so</w>
the ir</w>
en ti
n o</w>
in g
re d</w>
con t
g e</w>
i es</w>
w i
s c
e v
o d</w>
in c
ma y</w>
g u
w n</w>
d a
s ti
w as</w>
k s</w>
an t</w>
ic al</w>
ab out</w>
k ing</w>
as es</w>
te s</w>
u s</w>
ou gh</w>
e m
h t
sh ould</w>
an ce</w>
com m
tr a
ti me</w>
ri s
o l
p or
ac t</w>
re sp
f i
an s
th an</w>
ou t
ar y</w>
be en</w>
t u
al s</w>
m in
ar s</w>
as t</w>
ho w</w>
t y</w>
th o
au se</w>
no w</w>
di se
es e</w>
g et</w>
st r
t ly</w>
ec i
ur e</w>
an s</w>
wh at</w>
b le</w>
wh en</w>
u l
s er
w a
ver y</w>
2 0</w>
infec ted</w>
l l
d ed</w>
o p
ve l</w>
per s
f or
m on
coun tr
di ff
li ke</w>
a f
re s</w>
ou r
re c
ou s</w>
ac c
en ce</w>
or y</w>
i s
d er
j u
c es</w>
ff ec
e l
ren t</w>
s te
0 0</w>
mp to
t p</w>
on ly</w>
viru ses</w>
pu b
th en</w>
on g</w>
do es</w>
ht tp</w>
b er</w>
d ay</w>
f in
be t
mo st</w>
es s
lo w
a v
u p</w>
u se</w>
c ases</w>
g r
l in
cou ld</w>
m any</w>
th ese</w>
st s</w>
ch in
g e
m ar
t e</w>
mi c</w>
n um
tion al</w>
dise ase</w>
t en
co mp
ti es</w>
oun d</w>
ne w</w>
it s</w>
st a
es t</w>
rea d</w>
ris k</w>
f ir
su ch</w>
pro te
c ur
n a
the m</w>
y e
sy mpto
tho se</w>
la tion</w>
b ec
p h
pro b
p p
s ing</w>
s it
so me
d at
al i
lo w</w>
me d
li ke
po ssi
bec ause</w>
c an
ar i
se l
ag e</w>
s s</w>
y ing</w>
wh ere</w>
p r
w ay</w>
f u
s en
tr ans
in ter
co v</w>
w ere</w>
du c
af ter</w>
f un
st an
il e</w>
ev en</w>
w w
b rea
m il
ne ed</w>
b as
g n
c are</w>
m as
re ad
ww w</w>
sp read</w>
pub li
sympto ms</w>
d y</w>
da ys</w>
ti m
20 20</w>
pers on</w>
f ore</w>
or t
pl e
chin a</w>
ing s</w>
th ing</w>
re as
h an
diff e
a ir
l ess</w>
sa id</w>
lo c
ma tion</w>
mi ght</w>
pa ti
inc lu
wi th
dat a</w>
re qu
ver n
c lo
c er
i mp
like ly</w>
infec tion</w>
ju st</w>
num ber</w>
ho me</w>
ex p
a ted</w>
inf or
go vern
s in
s ars</w>
e ffec
ag a
ma ke</w>
ap pro
ti c</w>
gen er
l t</w>
te st</w>
sti ll</w>
p s</w>
v ing</w>
tra vel</w>
v acc
c ase</w>
l ar
il ity</w>
h um
ac h</w>
so ci
i d
o ff
un i
c le
t w
st u
di s
de mic</w>
on s</w>
se e</w>
or s</w>
be ing</w>
a d</w>
w s</w>
p ri
ar d</w>
pl o
a tions</w>
wh ile</w>
ic k</w>
wor k</w>
resp on
in to</w>
t re
pro vi
ssi on</w>
publi c</w>
b i
st ing</w>
o f
ch an
possi ble</w>
f o
ic i
d ro
f l
ho we
ex am
howe ver</w>
l ine</w>
p an
at ing</w>
a re
vi r
st o
be fore</w>
d es
o b
mu ch</w>
cont act</w>
c d
il l
ec t</w>
v es</w>
ha d</w>
ne e
infor mation</w>
at ory</w>
pl ac
sp eci
k no
re por
c u
sur e</w>
co m</w>
con tr
b ac
m ents</w>
pre v
f a
re la
sel f</w>
m an
he l
pati ents</w>
we e
p i
p en
t ur
v ed</w>
st ate</w>
tw o</w>
m y</w>
te ly</w>
diffe rent</w>
cd c</w>
prote c
h e</w>
w as
pl ic
ta ke</w>
fir st</w>
si on</w>
se e
ch il
per i
resp ir
st ay</w>
med ical</w>
f ic
l es</w>
th r
o th
or i
out brea
tim es</w>
ho sp
me as
qu es
ve lo
g o</w>
g er</w>
t ru
mo de
p e</w>
al l
mi ssion</w>
we ll</w>
countr ies</w>
prob ab
do wn</w>
im m
con si
str ic
hosp it
n ess</w>
co me</w>
enti al</w>
c au
countr y</w>
c y</w>
d ur
h ere</w>
o ver</w>
s ho
1 0</w>
tr i
fac e</w>
an ti
govern ment</w>
or t</w>
ac ti
exam ple</w>
d re
po in
th s</w>
en g
un der
de velo
we en</w>
k now</w>
u res</w>
su b
ad vi
sa me</w>
bet ween</w>
en d</w>
ic e</w>
respir atory</w>
imm un
s ick</w>
w er</w>
th ough</w>
le ast</w>
g a
p as
po si
thr ough</w>
l ong</w>
t or</w>
u sed</w>
th in
di st
20 19</w>
dur ing</w>
f li
se ar
go ing</w>
sy ste
n ing</w>
wh e
bo dy</w>
go od</w>
em plo
c en
z e</w>
ta in</w>
bas ed</w>
a il
k ed</w>
s ted</w>
it e</w>
par tic
r ate</w>
in s</w>
in st</w>
co ur
aga inst</w>
e co
t y
t ers</w>
an t
re stric
d ic
s ec
r an
qu ar
f ol
g re
i l</w>
in di
lo o
ce p
sit u
imp ort
d ent</w>
h ou
m at
un der</w>
la r</w>
au th
0 3</w>
k et</w>
po pu
outbrea k</w>
i a</w>
di rec
su p
wa ter</w>
pan demic</w>
s a</w>
ar ly</w>
te n</w>
st ar
hi gh
hel p</w>
eco no
u e</w>
c ri
t ure</w>
u sing</w>
si de</w>
wor ld</w>
some one</w>
trans mission</w>
thin k</w>
lo g
de pen
em er
0 00</w>
ac cor
sa y</w>
hi gh</w>
c ar
i c</w>
s our
en s</w>
av ail
na tional</w>
m ed</w>
re gu
tr y</w>
oth ers</w>
d ec
fi c</w>
hum an</w>
l ic
in v
tic al</w>
han ds</w>
soci al</w>
d ers</w>
l s</w>
re e</w>
re su
ar ound</w>
te mp
me di
s m
t ting</w>
or der</w>
mar ch</w>
sta tes</w>
meas ures</w>
v al
te sting</w>
di d</w>
d ence</w>
v en</w>
re co
ac tu
pro duc
sa ys</w>
wor k
whe ther</w>
an y
ser vi
with out</w>
sin ce</w>
vacc ine</w>
comm on</w>
import ant</w>
d ate</w>
e t
f e</w>
y es</w>
th er
ad di
inclu ding</w>
p er</w>
pre s
requ i
situ ation</w>
accor ding</w>
i so
al ity</w>
du e</w>
loc al</w>
fl u</w>
bac k</w>
avail able</w>
a m</w>
ta in
ke e
read y</w>
t al</w>
ec ted</w>
plac e</w>
kno wn</w>
quar ant
at s</w>
fe w</w>
ques tion</w>
u p
an i
con di
me ans</w>
gh ts</w>
indi vi
b an
v o
y s
ou th</w>
te sts</w>
sa m
indivi du
n a</w>
al low
av o
syste m</w>
st ra
cur rent</w>
c ing</w>
s ci
ti z
si gn
probab ly</w>
c ed</w>
e pi
g g
g ro
m a</w>
re sear
ic ally</w>
ch ing</w>
ri ght</w>
mode l</w>
g er
in es</w>
an other</w>
sc ho
is su
f ur
t ou
ou s
st ru
wa ys</w>
lar ge</w>
off ici
e y</w>
n ec
wh y</w>
me m
ren tly</w>
bo o
ce ll
gener al</w>
i de
n or
o l</w>
o ver
al ready</w>
lo t</w>
respon se</w>
vir al</w>
poin t</w>
m l</w>
re comm
se ver
cont in
ye ar</w>
posi tive</w>
g es</w>
m en
ar tic
develo p
emer gen
d eci
k es</w>
an im
ma in
popu lation</w>
c a
e ver
m it
vi e
ne ws</w>
am p</w>
cont ro
mon ey</w>
restric tions</w>
ever y
0 0
a p</w>
c re
en tly</w>
se v
ans wer</w>
s h</w>
v ari
corona viruses</w>
du ce</w>
a ffec
c ause</w>
e u
g lo
h y
ch ec
mi ly</w>
ht ml</w>
mas ks</w>
fa mily</w>
chil dre
childre n</w>
e vi
h and</w>
on al</w>
ac h
pro c
gi ven</w>
work ers</w>
sev ere</w>
b ers</w>
p ur
y et</w>
en ough</w>
la w</w>
mu st</w>
stru c
h ar
s ch
le g
dro ple
protec t</w>
sm all</w>
g am
j o
l and</w>
l ast</w>
n ed</w>
te sted</w>
or g
as i
fin d</w>
drople ts</w>
1 4</w>
f ound</w>
re tur
ha pp
pro f
sp read
m ic
th ings</w>
as su
es ti
do c
prob le
mas k</w>
kee p</w>
a ir</w>
d en
o re
w ant</w>
in i
in te
te x
po li
pa y
bo th</w>
fac es</w>
plic ation</w>
d ents</w>
e l</w>
n on</w>
r y</w>
r it
di es</w>
si mil
po t
infec tions</w>
pu t</w>
comm un
gr ou
fu l</w>
tre at
are a</w>
o c
ma in</w>
bu sin
cou gh</w>
of f</w>
chan ge</w>
speci fic</w>
1 9
o m</w>
ic ul
il i
me an</w>
heal th
sur faces</w>
contr ac
wee ks</w>
high er</w>
f ar</w>
s ity</w>
t le</w>
at h</w>
at ure</w>
com ple
uni ver
avo id</w>
artic le</w>
c ho
n i
pl an
ex per
inc re
b est</w>
z ed</w>
su sp
inf lu
fe ren
el ec
lin es</w>
with in</w>
peri od</w>
emplo y
actu ally</w>
quarant ine</w>
e very</w>
un ti
se qu
to o</w>
par t</w>
our s</w>
ill ness</w>
rela ted</w>
immun e</w>
recomm en
sever al</w>
emergen cy</w>
1 5</w>
w ar
ve ly</w>
of ten</w>
unti l</w>
1 00</w>
b r
c la
e ach</w>
f r
n y
o wn</w>
th ro
vi sa</w>
ta tion</w>
sh i
sh e</w>
mon ths</w>
ye ars</w>
advi ce</w>
3 0</w>
d ru
m p</w>
u m</w>
re ally</w>
20 0
bet a</w>
c k</w>
c lin
l on
n cov</w>
v al</w>
de fin
ma tic</w>
ch ar
ci tiz
ter m</w>
repor ted</w>
prev en
servi ces</w>
resear ch</w>
c ap
t ors</w>
en z
di stan
con fir
la ter</w>
cou gh
diff icul
was h
simil ar</w>
c lu
d es</w>
f il
l ed</w>
v en
so ap</w>
sh ort</w>
cur rently</w>
aga in</w>
bi o
hospit al</w>
auth ori
evi dence</w>
leg al</w>
l ate</w>
s ing
st at
pl a
si ve</w>
se con
con cer
ex i
fun c
tex t</w>
e f
i ther</w>
s nee
ex ten
ra ther</w>
ess ential</w>
med ic
effec tive</w>
see ms</w>
nec ess
c at
e qu
h ours</w>
n s</w>
p ly</w>
r na</w>
ac tion</w>
com es</w>
low er</w>
glo b
distan cing</w>
a me
b ro
d one</w>
f t</w>
t a</w>
w ing</w>
er ic
so lu
tra ve
ge tting</w>
mar ket</w>
clo se</w>
fol low
log y</w>
sci enti
ous ly</w>
b or
g s</w>
h u
h er</w>
l ing</w>
m ort
an ts</w>
su gg
ab ility</w>
ap pe
ap plication</w>
par t
uni ted</w>
prev ent</w>
tru mp</w>
gam ma</w>
a tely</w>
c all</w>
g ed</w>
le a
le ar
pre dic
tic s</w>
sti tu
ser i
stu dy</w>
was h</w>
contro l</w>
b in
co l
de ter
am eric
dise ases</w>
fli ght</w>
cour se</w>
fur ther</w>
inte re
treat ment</w>
1 2</w>
i g
i fic
re si
po se</w>
do ing</w>
min i
fun d</w>
acti vi
influ enz
glob al</w>
d r</w>
j ec
l as
t ro
al y</w>
no vel</w>
pl es</w>
sh ed</w>
ph ys
sit e</w>
consi der</w>
fli ghts</w>
sup por
et c</w>
chec k</w>
a way</w>
b ility</w>
c all
u te</w>
ti s
on ce</w>
al though</w>
li on</w>
con ta
la tions</w>
fu ll</w>
hum ans</w>
ty p
sour ce</w>
influenz a</w>
b a
f ri
h al
j ect</w>
p ap
u su
it aly</w>
as k</w>
no se</w>
ic k
se t</w>
ex po
ce i
fac t</w>
gu id
immun ity</w>
addi tional</w>
condi tions</w>
l an
m ers</w>
u k</w>
ti vely</w>
li st</w>
tr an
ab o
ta il
infec ti
out side</w>
air line</w>
cle ar</w>
star t</w>
resu l
nor m
lea ve</w>
1 1</w>
b ly</w>
d a</w>
e arly</w>
f y</w>
f ul
o m
ex peri
am oun
mu l
bet ter</w>
prote in</w>
fo od</w>
loo k</w>
hou se</w>
temp er
vie w</w>
org ani
retur n</w>
ny times</w>
guid ance</w>
b lo
c ro
e ither</w>
g en</w>
l ab
p eci
at ten
be g
le t</w>
sa fe
ap ply</w>
ve red</w>
coun t</w>
ll ing</w>
can not</w>
mil d</w>
cer tain</w>
gener ally</w>
eu ro
b en
k ore
n er</w>
in ten
an n
re ly</w>
re duce</w>
es peci
ho ld</w>
par ame
inter national</w>
provi de</w>
wee k</w>
chil d</w>
ty pe</w>
econo mic</w>
especi ally</w>
k i
l it
u s
ac tive</w>
no te</w>
ma de</w>
sp o
fe ver</w>
sur face</w>
enti ally</w>
effec t</w>
id enti
1 3</w>
h is</w>
m al
u lar</w>
re cei
ac tions</w>
ha ving</w>
un less</w>
ma j
ri bu
gi ve</w>
reas on</w>
dist ribu
individu als</w>
sign ific
commun ity</w>
citiz ens</w>
authori ties</w>
stat us</w>
o per
th ree</w>
re gi
as soci
si t</w>
de a
pre si
pa tho
contin ue</w>
ini ti
clin ical</w>
sing le</w>
e d
e ff
er ci
al k</w>
su ff
ta king</w>
can ce
sto p</w>
abo ve</w>
infecti ous</w>
m it</w>
r ap
y our
co ld</w>
ar ing</w>
di sc
go v</w>
some thing</w>
des cri
contr act</w>
univer sity</w>
incre ase</w>
confir med</w>
func tion</w>
h an</w>
m ing</w>
p ay</w>
r e</w>
s ha
st er
di ag
sp ec
for m</w>
rec ent</w>
han d
ger many</w>
grou p</w>
1 0
s how</w>
z ation</w>
an ing</w>
en ing</w>
al low</w>
clo sed</w>
resu lt</w>
medi a</w>
scho ol</w>
affec ted</w>
resul ts</w>
amoun t</w>
k en</w>
m outh</w>
ou ght</w>
al e</w>
ma kes</w>
po lic
fe der
necess ary</w>
follow ing</w>
ben ef
your self</w>
diag no
1 8</w>
6 0</w>
g ar
n ex
s outh</w>
in ste
or ity</w>
be come</w>
ex cep
chin ese</w>
num bers</w>
man u
emplo ye
epi demic</w>
tou ching</w>
cell s</w>
busin ess</w>
lon ger</w>
kore a</w>
5 0</w>
c ir
c ris
h ard</w>
s k
an al
en try</w>
ac k</w>
wh o
li ve</w>
li mi
de red</w>
ma king</w>
ol s</w>
ol der</w>
pub lic
stan d
ga ther
pas sen
allow ed</w>
feder al</w>
nex t</w>
inste ad</w>
limi ted</w>
g y</w>
k in
ar t</w>
es si
de ath</w>
sp e
sa fe</w>
ir e</w>
infec t</w>
am ong</w>
vacc ines</w>
cau ses</w>
sour ces</w>
offici als</w>
spread ing</w>
feren ce</w>
mort ality</w>
ig n</w>
ann oun
dea ths</w>
cris is</w>
1 6</w>
o ld</w>
w u
x i
y oun
re li
re le
wor king</w>
sen se</w>
inclu de</w>
cer tain
cen tr
blo od</w>
safe ty</w>
8 0</w>
b er
c ul
e f</w>
l un
m an</w>
p ne
r 0</w>
ti ci
on line</w>
al ways</w>
or g</w>
di ed</w>
li fe</w>
we b
op en</w>
are as</w>
pres ent</w>
requi red</w>
iso lation</w>
snee z
sugg est</w>
pap er</w>
lit tle</w>
manu fac
a red</w>
b re
b it</w>
i gn
re duc
te ch
es ses</w>
pl i
fi ed</w>
reas ons</w>
diffe ren
nee ds</w>
probab ility</w>
partic ular</w>
any one</w>
anim als</w>
proble m</w>
ful ly</w>
presi dent</w>
2 5</w>
c as
e mp
f requ
i ly</w>
n on
re f
re mo
co ho
co ll
al coho
st re
pl an</w>
po l
la ted</w>
ta il</w>
qu ite</w>
to day</w>
pp er</w>
exp ect</w>
ban k</w>
mem ber</w>
ide a</w>
every one</w>
pot ential</w>
defin i
mul ti
temper ature</w>
wu han</w>
a k</w>
g ing</w>
p i</w>
t on</w>
de f
de tail
pro ce
mi d
inc reas
sti c</w>
appro pri
sto ck</w>
ob ser
ori g
hou se
esti ma
dru g</w>
usu ally</w>
b ed</w>
d r
in ed</w>
ar ri
on t</w>
st ory</w>
lo gi
qu ick
tic ket</w>
hi v</w>
for ce</w>
acc ess</w>
comp an
tru e</w>
offici al</w>
wash ing</w>
d en</w>
e st
l ying</w>
n al</w>
o s</w>
t ar
in ation</w>
co ver
ne ga
we ar</w>
pre vi
um on
effec ts</w>
fo re
hospit als</w>
eng en</w>
develo p</w>
proc ess</w>
sch engen</w>
exper ts</w>
preven tion</w>
difficul t</w>
pne umon
compan ies</w>
c ha
f at
f it</w>
p ac
s an
co ver</w>
st and</w>
di t</w>
ru les</w>
si m
si ze</w>
se en</w>
con su
the re
le ad
le vel</w>
ad v
ad ul
ta ken</w>
ter i
can cell
pr acti
ques tions</w>
log ical</w>
val ue</w>
issu e</w>
anim al</w>
mit ted</w>
cough ing</w>
alcoho l</w>
1 4
b ill</w>
i m</w>
t able</w>
u es</w>
re fund</w>
ou gh
ag es</w>
pr ac
fu ture</w>
tim ate</w>
govern ments</w>
chan ges</w>
nee ded</w>
under lying</w>
dist ance</w>
fol low</w>
inv ol
sam ples</w>
individu al</w>
seri ous</w>
suppor t</w>
mal ari
associ ated</w>
s on</w>
w th</w>
er ing</w>
en vir
de part
pa id</w>
bo dies</w>
sc re
ev ent</w>
pati ent</w>
cau sed</w>
ran ge</w>
econo my</w>
gro wth</w>
quick ly</w>
pneumon ia</w>
there fore</w>
envir on
b an</w>
b ats</w>
c ent</w>
c ity</w>
d ri
e p
f ree</w>
g ers</w>
m m
m so</w>
p ast</w>
in ing</w>
in sur
ar gu
te ll</w>
or ts</w>
un likely</w>
ho od</w>
do m</w>
com ing</w>
im medi
tic ally</w>
str ation</w>
rec ently</w>
loc k
stu dents</w>
see m</w>
depen dent</w>
scho ols</w>
health care</w>
phys ical</w>
norm al</w>
practi ce</w>
1 7</w>
d ra
e asi
l at
in de
re main</w>
on es</w>
si mp
li ving</w>
la b</w>
ta x</w>
ta tions</w>
pre gn
to tal</w>
sel ves</w>
stan ces</w>
imp act</w>
exp ected</w>
provi der</w>
protec tion</w>
signific ant</w>
malari a</w>
insur ance</w>
simp ly</w>
2 4</w>
9 5</w>
a w
b ru
b ri
c c
c r
e as
g ra
h in
m ine</w>
p ing</w>
w ers</w>
w om
th ought</w>
in dic
in stitu
re gar
er r
en cy</w>
or d
as y
ac ro
li ght</w>
ab ly</w>
be low</w>
ex pla
ad a</w>
sh are</w>
ag o</w>
fe et</w>
fac tor</w>
sur vi
wi se</w>
sc en
el se</w>
reas on
stu dies</w>
direc t</w>
ili ties</w>
call ed</w>
gather ings</w>
appropri ate</w>
er i
vi a</w>
as s
ac y</w>
at ur
se as
ho l
tion ed</w>
ke y</w>
sy n
pers onal</w>
acc ur
comp any</w>
can ada</w>
cle an</w>
repor ts</w>
fic ation</w>
mode ls</w>
under stand</w>
sub ject</w>
car ri
epi de
shi p</w>
intere st</w>
parame ters</w>
distribu tion</w>
nega tive</w>
b le
b order</w>
e ve</w>
j an
k ill</w>
l en
l eng
n u
r out
t un
w r
in t</w>
te c
or ies</w>
con tain
me ly</w>
be li
ch e
bu il
mi s
ne w
fe el</w>
brea thing</w>
appro ach</w>
plac es</w>
repor t</w>
up da
ys is</w>
proble ms</w>
medic ine</w>
experi ence</w>
web site</w>
manufac tu
asy mpto
2 9
d ry</w>
e ld</w>
e ment</w>
o ds</w>
u ary</w>
in ci
al most</w>
vi sit
ic s</w>
se par
de tec
tr ac
ex erci
cor rec
for m
appro ved</w>
pri me</w>
speci al</w>
speci fic
consi dered</w>
hospit ali
tri als</w>
sam ple</w>
boo king</w>
develop ment</w>
deci sion</w>
health y</w>
employ ment</w>
sequ en
multi ple</w>
jan uary</w>
c al
e ar
f ra
r ss</w>
th re
en ter</w>
it self</w>
pl ies</w>
si ble</w>
su e</w>
su pp
ho st</w>
po st</w>
po sed</w>
ad mini
mon th</w>
gr ap
mil lion</w>
mas s</w>
air lines</w>
sho ws</w>
partic les</w>
sec tion</w>
sec ur
actu al</w>
comple tely</w>
solu tion</w>
activi ty</w>
hal f</w>
kin d</w>
announ ced</w>
house hold</w>
adul ts</w>
cancell ed</w>
scen ari
b al
d ou
d ly</w>
g ge
n es
o k</w>
u sa</w>
th us</w>
ru n
ru p
si ons</w>
po ses</w>
me th
mi gr
sh or
do g</w>
pre ss</w>
ag re
to ge
fe bru
fac tors</w>
da ma
da ily</w>
possi bly</w>
inclu des</w>
oth er
requi re
main tain</w>
sch e
poli tical</w>
cap ac
bro ad
jec ts</w>
cir c
passen gers</w>
sim ple</w>
wom en</w>
asympto matic</w>
supp ly</w>
toge ther</w>
febru ary</w>
a tes</w>
d ge</w>
i se</w>
p ed</w>
t ary</w>
t alk</w>
en sure</w>
vi de
as king</w>
at or</w>
con st</w>
tr ying</w>
ri ghts</w>
le ft</w>
bu y</w>
ta x
pre sen
ag ed</w>
im migr
gen e
sc ale</w>
sti mu
min is
is m</w>
gr ad
comp ared</w>
bas ically</w>
air por
pri or</w>
rela tive</w>
reco vered</w>
produc ts</w>
secon d</w>
scienti sts</w>
patho gen
anal ysis</w>
lock down</w>
meth od</w>
c las
e li
f our</w>
f air
f da</w>
l or
m b
y le</w>
re ser
en e</w>
li mit</w>
de li
the m
sp ac
ch i
tion ally</w>
ex tre
sa tion</w>
to ld</w>
coron a</w>
ci es</w>
gi ene</w>
wi de</w>
publi shed</w>
tri p</w>
pas s</w>
sec re
loo king</w>
auth ority</w>
inv esti
produc tion</w>
servi ce</w>
addi tion</w>
boo k</w>
men tal</w>
develop ed</w>
hy giene</w>
mic ro
pot entially</w>
americ ans</w>
depart ment</w>
acro ss</w>
capac ity</w>
minis ter</w>
9 9</w>
b it
b ad</w>
c at</w>
i gh
m or
re sources</w>
al ph
vi sit</w>
ac ute</w>
st ance</w>
su gge
de m
de la
con clu
ab li
po ly</w>
so l
ex ac
mo ve</w>
au str
wor se</w>
ing ly</w>
gu ar
fi g
lin k</w>
cur ve</w>
like li
pr ice</w>
fun ds</w>
appro val</w>
outbrea ks</w>
up date</w>
allow s</w>
mem bers</w>
jo b</w>
mic s</w>
cla im
equ i
deter min
activi ties</w>
typ ically</w>
excep t</w>
est abli
aw are</w>
ord in
secur ity</w>
other wise</w>
them selves</w>
alph a</w>
austr ali
2 7</w>
4 0</w>
b ir
d f</w>
g t</w>
h un
i ma
p age</w>
w al
in come</w>
re al</w>
er o
en cour
ro om</w>
ac count</w>
es timate</w>
su cc
lo an</w>
de mo
pro per
so on</w>
ex t
cor por
we aring</w>
sh u
ll ed</w>
ari ly</w>
cle aning</w>
plic ations</w>
see k</w>
partic ul
gre at</w>
mat eri
any thing</w>
stra te
pur pose</w>
happ en</w>
spread s</w>
pay ment</w>
thro at</w>
exi sting</w>
cat ching</w>
descri bed</w>
polic y</w>
frequ ently</w>
estima tes</w>
pregn ant</w>
ble ach</w>
admini stration</w>
2 2</w>
e u</w>
f al
f lu
i te
i bu
i red</w>
j our
k ill
n am
s mo
t ty</w>
u pper</w>
w rit
an ted</w>
il lion</w>
pl em
ru n</w>
con text</w>
be comes</w>
la w
ve ment</w>
pre tty</w>
ter ms</w>
lu s</w>
bo ard</w>
is h</w>
ge ts</w>
pr e</w>
stan ding</w>
exp en
bi g</w>
anti bodies</w>
mat ter</w>
depen ding</w>
temp or
cre ate</w>
prof essi
oc cu
sequ ence</w>
scienti fic</w>
expo sure</w>
maj or</w>
benef its</w>
who le</w>
stand ard</w>
certain ly</w>
manufactu re
5 0
8 8
9 0</w>
b on
b at</w>
e ts</w>
i ds</w>
s ent</w>
s ort</w>
s ani
y or
re public
co de</w>
en d
ac e
ac ts</w>
di spo
se ly</w>
mi o
ad dre
qu ali
go t</w>
im pro
ce ment</w>
op ti
lar ger</w>
anti body</w>
acti v
syste ms</w>
direc tor</w>
reco ver</w>
requi res</w>
iso late</w>
condi tion</w>
doc tor</w>
grou ps</w>
cat ch</w>
lear ning</w>
organi zation</w>
euro pe</w>
orig in
adv an
epide mio
leng th</w>
exerci se</w>
circ um
investi g
fig ure</w>
likeli hood</w>
particul arly</w>
yor k</w>
a ero
b b
b ur
d on
d ation</w>
e ty</w>
f re
f ont</w>
p at
t t
w at
as ed</w>
as tic</w>
pl ay</w>
si r
un employment</w>
con duc
ch ance</w>
ne ver</w>
wor ds</w>
ess or</w>
exp on
lar ly</w>
tre at</w>
ici ent</w>
kno w
meas ure</w>
star ted</w>
cri tical</w>
depen ds</w>
regu larly</w>
oc cur
cla im</w>
difficul ty</w>
lear n</w>
tis sue</w>
employe es</w>
youn g</w>
sneez ing</w>
pac k
dem and</w>
plem en
circum stances</w>
1 3
2 1</w>
a ver
h er
l ec
n er
n atur
o w
p t</w>
s is</w>
v enti
an tly</w>
en ed</w>
te e</w>
no ti
no thing</w>
li mit
ta ge</w>
sa ying</w>
pe di
mo der
ag ency</w>
infec ting</w>
ci al</w>
par ty</w>
rea ted</w>
tu al</w>
str on
pers ons</w>
fin an
sta te
trans mitted</w>
id ly</w>
provi ded</w>
sho wing</w>
high ly</w>
regu lar</w>
regu lations</w>
stra in</w>
tou ch</w>
contin u
vari ous</w>
affec t</w>
assu me</w>
doc um
busin esses</w>
cough s</w>
bor ders</w>
expo sed</w>
tran sp
rap idly</w>
immedi ately</w>
stimu lus</w>
fair ly</w>
exac tly</w>
1 7
b ation</w>
c y
e yes</w>
f am
l d
s w
s ore</w>
t an
u tes</w>
w ard</w>
x y
re ference</w>
ac a
st op
st yle</w>
ha ps</w>
ru le</w>
pro duce</w>
sp i
ch es</w>
ch all
ch lor
ri l</w>
ap ril</w>
per haps</w>
pre pa
ter ing</w>
im possible</w>
im um</w>
bo l
inc u
gu ide
fi eld</w>
tu ally</w>
ste ps</w>
ess ing</w>
requ ire</w>
consi der
direc tly</w>
val ues</w>
issu es</w>
develop ing</w>
ach es</w>
pur poses</w>
contrac ep
cho ice</w>
dru gs</w>
concer ns</w>
deter mine</w>
beg in</w>
recei ve</w>
initi al</w>
diagno sed</w>
lun g</w>
bre ath</w>
fat ality</w>
scre ening</w>
easi ly</w>
separ ate</w>
sche du
secre tary</w>
ite ms</w>
5 00</w>
f er</w>
g d
h it</w>
i ght</w>
p df</w>
w ed</w>
in ve
re st</w>
re cor
re ach</w>
vi s
as se
ac cep
ic es</w>
at ors</w>
su s</w>
lo ts</w>
con tain</w>
le ve
ne igh
do or</w>
he ad</w>
pre cau
par ts</w>
gi ous</w>
ev ents</w>
tu res</w>
min utes</w>
ju sti
comp u
ph ar
possi bility</w>
fun d
gn i
dis rup
ob li
gre ss</w>
star ting</w>
val id</w>
issu ed</w>
men tioned</w>
prof essor</w>
pay ments</w>
susp ected</w>
exten sion</w>
appe ar</w>
ba thro
cro w
cance l</w>
increas ed</w>
regar ding</w>
seas onal</w>
correc t</w>
hospitali zed</w>
australi a</w>
fal se</w>
guide lines</w>
leve ls</w>
2 6</w>
b t</w>
c ra
f it
f ine</w>
v ol
th ir
co vered</w>
en ded</w>
at t
at ures</w>
con nec
con stitu
the ta</w>
pro v
me tho
ch ed</w>
ta kes</w>
ff e
sh ort
mo ment</w>
mo vement</w>
go es</w>
ter nal</w>
ce ll</w>
ke ts</w>
gi ving</w>
gen o
hi m</w>
op t</w>
prote ins</w>
ple ase</w>
plo t</w>
man ag
sear ch</w>
assu mp
contrac ting</w>
recommen ds</w>
concer ned</w>
atten tion</w>
employe e</w>
differen ce</w>
detail s</w>
previ ous</w>
inde x</w>
accur ate</w>
nu cle
upda ted</w>
sequen ces</w>
vide o</w>
aver age</w>
incu bation</w>
1 000</w>
2 8</w>
3 1</w>
c ru
l ack</w>
m ec
p ment</w>
v ant</w>
w alk</w>
z o
in struc
in tro
re view</w>
er gy</w>
ar r
ar ds</w>
vi ty</w>
ac ting</w>
at o
su mm
con ver
ma y
pro por
po wer</w>
ch em
le ad</w>
mi a</w>
mi ssi
qu o
we a
ir s</w>
mo lec
ter rit
im plemen
mu tations</w>
ra tes</w>
sc ri
wa it</w>
op ini
na tion
rela tively</w>
poin ts</w>
advi s
reco gni
vo te</w>
stra ins</w>
resear ch
every thing</w>
cre dit</w>
assu ming</w>
recommen ded</w>
war ds</w>
fr ance</w>
col le
conta min
euro pe
regi on</w>
spec ies</w>
sk in</w>
pli ed</w>
defini tion</w>
obser ved</w>
prac tic
reason able</w>
rout ine</w>
specific ally</w>
pathogen s</w>
eli gi
know le
mec han
c l
c ats</w>
d nes
e ver</w>
j ap
m c
m es
p ite</w>
s al
s qu
w in
z er
th es
co st</w>
on d</w>
st ly</w>
di e</w>
si mu
lo ans</w>
ho pe</w>
ex clu
bu s</w>
to p</w>
wor th</w>
fe el
pa ren
fac ilities</w>
pers on
for tun
el der
pp ing</w>
chan ged</w>
dro me</w>
des ign
des pite</w>
bac teri
under standing</w>
ran dom</w>
dec re
har m</w>
commun ic
elec tion</w>
char ac
appe ars</w>
americ an</w>
norm ally</w>
polic ies</w>
centr al</w>
tech n
environ ment</w>
syn drome</w>
dama ge</w>
sugge sts</w>
equi pment</w>
strate gy</w>
manufacture r</w>
sani tiz
aero so
expon ential</w>
pedi a</w>
finan cial</w>
bathro om</w>
8 8</w>
a tive</w>
b illion</w>
d i</w>
d an
d ings</w>
f all</w>
g est</w>
n y</w>
p r</w>
t ally</w>
an o
re ver
ti s</w>
ti ble</w>
en for
te g
st af
es sion</w>
de l
de st
con ference</w>
ma il</w>
ab or
po st
po ol
be ha
ex plan
ex ternal</w>
la ws</w>
le t
le gi
le av
do w
20 03</w>
oun ds</w>
cont ent</w>
wi ki
min ute</w>
ll s</w>
comp ar
ph one</w>
some times</w>
pr inci
bas is</w>
bas ic</w>
pri v
ob vi
kno ws</w>
jo h
happ ens</w>
den i
feren ces</w>
fil ed</w>
resi dents</w>
tran sit</w>
eff orts</w>
suff icient</w>
rele vant</w>
dr in
ough ly</w>
eas y</w>
require ments</w>
ext ent</w>
spi ke</w>
precau tions</w>
europe an</w>
elder ly</w>
staf f</w>
wiki pedia</w>
0 2</w>
1 5
2 6
7 0</w>
9 4</w>
c t
e bol
f er
f as
k i</w>
m er
n or</w>
n as
n ers</w>
o se</w>
p es</w>
v ar
ti ves</w>
on going</w>
as ked</w>
ac id</w>
st ri
at temp
wh el
wh ite</w>
pl ans</w>
un able</w>
un fortun
de ad
ab solu
me an
me aning</w>
ex emp
mi ze</w>
ad d</w>
ad ap
ad ded</w>
sh e
he art</w>
ci ties</w>
wor ks</w>
20 0</w>
hi story</w>
out come</w>
min d</w>
op tion</w>
op tions</w>
ste p</w>
ess entially</w>
gr ound</w>
inter pre
respon sible</w>
sto c
plac ed</w>
cu t</w>
cu sto
fa il
protec tive</w>
cen ter</w>
partic le</w>
popu lations</w>
pres sure</w>
up on</w>
ban ks</w>
over whel
deci ded</w>
hy dro
ach ing</w>
wash ing
snee ze</w>
sugg es
predic t</w>
lan gu
experi en
lab or
beg in
patho gen</w>
spe a
sneez es</w>
pol y
tar ge
wr ong</w>
fra c</w>
thre at</w>
gene tic</w>
airpor ts</w>
spac e</w>
chi ef</w>
extre mely</w>
addre ss</w>
natur al</w>
inve st
short ness</w>
beha vi
ebol a</w>
2 3</w>
b ran
c o</w>
c are
e ating</w>
f ec
f ast</w>
g rea
h our</w>
i con
m es</w>
m er</w>
m ach
p ic
p ris
s we
s low
u se
w il
th ous
in e
in stance</w>
ti al</w>
co sts</w>
al one</w>
al ter
or ders</w>
it ing</w>
st ren
st ant</w>
ec h</w>
si r</w>
si ties</w>
un known</w>
se tt
de al</w>
ma tely</w>
pro mi
ab les</w>
pre su
wor ld
du res</w>
pa r</w>
sur ve
ev en
da tions</w>
da tes</w>
str ong</w>
mon it
ph ase</w>
off ice</w>
dis infect</w>
respon ses</w>
sub stan
whe re
inv est</w>
iso lated</w>
sam pl
avo i
sci ence</w>
men tion</w>
struc ture</w>
seri ously</w>
resi dence</w>
typ es</w>
parame ter</w>
identi fied</w>
recei ved</w>
oper ating</w>
initi ally</w>
cas h</w>
proce dures</w>
beli eve</w>
ear li
run ning</w>
guar an
shu t</w>
opini on</w>
knowle dge</w>
del ta</w>
begin ning</w>
stren g
2 8
7 5</w>
b s</w>
d y
f are</w>
f lo
m ac
n one</w>
o xy
r at
w ent</w>
th an
in ce</w>
re ali
re fu
re public</w>
re cep
en ds</w>
te le
or al</w>
ro le</w>
ec tion</w>
li ves</w>
se ll</w>
lo ss</w>
the ory</w>
ho te
ex tr
ver s</w>
sa ge</w>
ir ing</w>
ap pa
pre ssion</w>
com bin
wor ri
bo t
enti rely</w>
enti re</w>
comm erci
tra di
min imum</w>
str y</w>
ll ers</w>
lin ked</w>
can di
sen d</w>
sen si
fun ding</w>
clo th</w>
vacc in
stu dent</w>
provi ding</w>
vir tual</w>
ill s</w>
contr ibu
prev al
tur n</w>
sho wn</w>
tri c</w>
pas sed</w>
pres ence</w>
allow ing</w>
sign s</w>
gro cer
recomm end</w>
sever ity</w>
ca teg
univer sities</w>
defin ed</w>
hu mid
mort g
us ato
youn ger</w>
reduc ed</w>
defini tely</w>
detail ed</w>
cover ing</w>
previ ously</w>
scenari os</w>
occu r</w>
neigh b
thir d</w>
geno me</w>
may be</w>
paren ts</w>
unfortun ately</w>
washing ton</w>
langu age</w>
humid ity</w>
usato day</w>
0 1</w>
2 7
a te
c a</w>
c i</w>
d il
d le</w>
e mo
e dit</w>
k er</w>
k ers</w>
n h
n d</w>
o il</w>
s co
s pl
s li
s en</w>
s able</w>
t ren
v ary</w>
v ali
y n
z ing</w>
in side</w>
in dependent</w>
an ds</w>
re vie
re member</w>
it ali
as p
il s</w>
di ver
si g
si tes</w>
li m
lo g</w>
con centr
pro hi
ch r
ex am</w>
ne u
ne t</w>
ne l</w>
ad ju
sh all</w>
mo stly</w>
ve t</w>
he ad
to il
to ok</w>
com plications</w>
go al</w>
par ties</w>
fac ility</w>
gi ves</w>
hi c</w>
tra ining</w>
op t
imp or
vacc ination</w>
off er</w>
dis infection</w>
des ign</w>
fa il</w>
anti bio
posi tion</w>
cen ters</w>
car ry</w>
sm all
et a</w>
ther more</w>
fur thermore</w>
ca mp
proc essing</w>
doc tors</w>
incre ases</w>
elec tr
elec tions</w>
recommen dations</w>
medic ines</w>
necess arily</w>
usu al</w>
inten ded</w>
benef it</w>
certain ty</w>
lun gs</w>
fore ign</w>
survi ve</w>
ass ess
carri er</w>
dela y</w>
tempor ary</w>
ace 2</w>
noti ce</w>
docum ents</w>
fam il
prepa red</w>
obli g
metho ds</w>
intro duc
implemen ted</w>
research ers</w>
zer o</w>
explan ation</w>
spea king</w>
alter na
world wide</w>
oxy gen</w>
commerci al</w>
7 2</w>
d ar
f au
f av
g or
g las
h ong</w>
j ur
k ong</w>
l ess
m rna</w>
n ature</w>
o lu
r s</w>
r t</w>
r ic
s al</w>
s ter</w>
s low</w>
s cep
t ory</w>
v ation</w>
w ill
y ond</w>
th or
re d
re ma
re pe
ti vity</w>
co pper</w>
en tal</w>
en tering</w>
al ing</w>
ro w</w>
con ven
me et</w>
be yond</w>
ne ar</w>
pe ak</w>
qu e</w>
ir an</w>
mo d</w>
ap plied</w>
pre ce
ag ing</w>
au to
20 16</w>
im mu
coun ts</w>
fi ve</w>
comp e
na me</w>
inter val</w>
inclu ded</w>
appro xi
tre e</w>
fl exi
ob jects</w>
repor ting</w>
cour t</w>
situ ations</w>
produc ed</w>
gro wing</w>
over all</w>
main tain
hy po
comple x</w>
exper im
employ er</w>
secon ds</w>
concer n</w>
hu ge</w>
conta ins</w>
signific antly</w>
hand ling</w>
who se</w>
passen ger</w>
gra m</w>
cal cul
establi shed</w>
ima g
corpor ate</w>
venti lat
chem ical</w>
pool ed</w>
recep tor</w>
appa rently</w>
assess ment</w>
famil ies</w>
rema ins</w>
immu no
0 4</w>
1 8
2 9</w>
4 8</w>
4 5</w>
a in</w>
b its</w>
b loc
c b
c r</w>
e p</w>
e tes</w>
f f</w>
f ed</w>
g ger</w>
k y</w>
k a</w>
l ac
m c</w>
n ar
o 2</w>
p tion</w>
s or
s tic
t in
t al
t ment</w>
w anted</w>
y er</w>
z ations</w>
an cy</w>
en ding</w>
on o
al u
ro ll</w>
ec e</w>
ec ts</w>
di ab
si x</w>
li sted</w>
li sh</w>
se tting</w>
lo se</w>
de mon
ho me
ho pe
sp r
po wers</w>
la un
la mb
ne y</w>
ad e</w>
sa ve</w>
we ster
sh el
do cu
ap plies</w>
per man
pre ci
ci vi
wor d</w>
fac ts</w>
ke ting</w>
cou ple</w>
cont acts</w>
sc ha
ev olu
ev alu
ans wers</w>
gr am
lin e
comp en
sta tis
ph y
sen ate</w>
effec tively</w>
off ering</w>
ob jec
thr ough
emergen cies</w>
main ly</w>
happ ened</w>
treat ments</w>
comple te</w>
cho ose</w>
susp ended</w>
fr ont</w>
ven ess</w>
bio logical</w>
trave l
trave llers</w>
part ner</w>
conta gious</w>
cance l
differen ces</w>
mid dle</w>
cr ats</w>
hol ders</w>
detec ted</w>
scenari o</w>
sol ve</w>
ordin ary</w>
bir th</w>
proper ly</w>
materi al</w>
republic ans</w>
dispo sable</w>
origin al</w>
investig ation</w>
pack age</w>
chall eng
crow ded</w>
prov ince</w>
jap an</w>
charac teri
enfor cement</w>
leav ing</w>
grea ter</w>
even tually</w>
concentr ation</w>
diab etes</w>
lamb da</w>
wester n</w>
docu ment</w>
1 6
5 9</w>
a de
a ff
b ans</w>
c z
c us</w>
c ard</w>
d on</w>
d ance</w>
d ary</w>
e duc
f r</w>
g c</w>
g ent</w>
h 2
h on
i or</w>
i de</w>
k it</w>
o mi
p a</w>
r are</w>
r hin
v ul
x ed</w>
re ti
re fl
en ergy</w>
vi ro
vi able</w>
ro o
it ary</w>
ac qu
st ent</w>
st able</w>
ec u
di ly</w>
pl et</w>
pl astic</w>
ru ssi
su scep
lo st</w>
de mics</w>
con sequences</w>
pro gram</w>
pro gram
ex act</w>
la tes</w>
le ts</w>
ff ner</w>
mo ving</w>
ap er</w>
per for
per form
ag ent</w>
covi d
go ods</w>
fe es</w>
par ks</w>
bo w</w>
ra di
ev ol
comm only</w>
ris ks</w>
str an
wa i
el bow</w>
sympto matic</w>
pr ices</w>
ple ment</w>
gener ated</w>
uni ties</w>
cle arly</w>
dro plet</w>
exam ples</w>
pan demics</w>
tur al</w>
peri ods</w>
cau sing</w>
eng lish</w>
indi a</w>
dec lar
reco very</w>
produc t</w>
mem bran
00 0
gam es</w>
poli tici
ni ght</w>
exper t</w>
susp ect</w>
employ ed</w>
br ing</w>
fr action</w>
equ ation</w>
fri vol
temper atures</w>
rap id</w>
hand le</w>
diagno sis</w>
anal y
tech no
increas ing</w>
estima ted</w>
tar get</w>
san ders</w>
prac tical</w>
contain ment</w>
buil d</w>
grap hic</w>
immigr ation</w>
reser vo
deli very</w>
conclu sion</w>
determin ed</w>
succ ess
flu id</w>
writ ten</w>
fre e
ner able</w>
cra ft</w>
assump tions</w>
contamin ated</w>
techn ical</w>
sanitiz er</w>
nas al</w>
labor atory</w>
targe ted</w>
icon external</w>
where as</w>
sampl ing</w>
earli er</w>
worri ed</w>
preval ence</w>
imag ine</w>
scha ffner</w>
through out</w>
cz ech</w>
vul nerable</w>
suscep tible</w>
perform ance</w>
frivol ous</w>
3 0
3 2</w>
4 0
9 6</w>
a ma
c ab
c reated</w>
e y
e mail</w>
f ile</w>
g ate</w>
h essi
l y
l er
l ating</w>
n e</w>
o d
o virus</w>
p are</w>
p cr</w>
r ying</w>
s er</w>
s wit
t v</w>
u al</w>
u ses</w>
th ma</w>
in si
re plic
re plication</w>
er al</w>
co n</w>
te red</w>
on als</w>
as si
as thma</w>
ac hi
no ted</w>
no body</w>
wh ate
di an</w>
di sp
ha bit
li qu
se lling</w>
de par
con fi
con gress</w>
sp end</w>
ab s</w>
ex ecu
bu l
bu ying</w>
mi o</w>
inf la
pe ts</w>
gh tly</w>
we dnes
per si
per cent</w>
pre ad</w>
wor st</w>
ter ia</w>
mu t
gen ce</w>
coun ter</w>
wi des
ev ed</w>
gu ess</w>
rec ession</w>
ste el</w>
fin al</w>
fin dings</w>
sta in
trans missi
brea k</w>
air craft</w>
chan ces</w>
fo cus</w>
dro p</w>
bac teria</w>
man i
stric t</w>
advi sed</w>
econo mi
depen d</w>
dec la
dec line</w>
any way</w>
kee ping</w>
ger ous</w>
deci de</w>
vari ance</w>
glo ves</w>
pur ch
poli tics</w>
plan e</w>
plan ning</w>
200 9</w>
preven ting</w>
bio logy</w>
exten d</w>
bro ad</w>
bin omi
identi fy</w>
identi fication</w>
maj ority</w>
regi ons</w>
reli ef</w>
pol ice</w>
def au
lead er</w>
adv ance</w>
environ mental</w>
inde ed</w>
institu tions</w>
expla in</w>
new sp
bal ance</w>
encour age</w>
demo crats</w>
law ful</w>
professi onal</w>
professi onals</w>
advan ced</w>
conduc ted</w>
state ment</w>
recor d</w>
asse ts</w>
propor tion</w>
eligi ble</w>
decre ase</w>
aeroso ls</w>
rever se</w>
obvi ously</w>
swe den</w>
thous ands</w>
extr a</w>
mortg age</w>
antibio tics</w>
hope fully</w>
hessi an</w>
whate ver</w>
confi dence</w>
wednes day</w>
wides pread</w>
binomi al</w>
3 8</w>
4 6
5 7
6 5</w>
8 5</w>
9 0
9 7
a x
b es</w>
b ab
c t</w>
c u</w>
d ying</w>
e red</w>
f ly</w>
f ill</w>
f ying</w>
f all
g ical</w>
h at</w>
m y
m ary</w>
n ice</w>
p on
p ick</w>
s s
s ound</w>
u sc
v s</w>
in activ
re actions</w>
re presen
re ferences</w>
co h
on to</w>
al ong</w>
or ing</w>
vi r</w>
vi si
ac u
di vi
pl ying</w>
si m</w>
li f
de p
de gre
de gc</w>
con struc
con stant</w>
sp orts</w>
po or</w>
be i</w>
be ds</w>
tion ary</w>
qu e
do i</w>
he ard</w>
per cen
pre scri
pre pare</w>
to m</w>
fe wer</w>
par tici
pa in</w>
wi ki</w>
comm unities</w>
out lin
ju d
fin ally</w>
gr anted</w>
mar kets</w>
sympto m</w>
pp e</w>
some body</w>
inter ven
inter net</w>
read ing</w>
requ est</w>
clo sing</w>
clo sely</w>
infor med</w>
off ic
tw ice</w>
pri mar
respon d</w>
hel ps</w>
anti viral</w>
advi se</w>
thin king</w>
ant i</w>
sup plies</w>
cri tici
regu lation</w>
ther n</w>
addi tionally</w>
boo ked</w>
artic les</w>
ca ffe
ach ed</w>
org an
happ ening</w>
susp end</w>
char ge</w>
trave ling</w>
call ing</w>
cro ss</w>
lab s</w>
disc u
disc us
ster o
stand ards</w>
spe ak</w>
remo te</w>
coll ected</w>
stre ss</w>
logi sts</w>
cha in</w>
lead ing</w>
immedi ate</w>
bri ef
expla ined</w>
wr ite</w>
claim ed</w>
wal king</w>
writ ing</w>
expen ses</w>
quali fy</w>
impro ve</w>
wat ch</w>
her d</w>
stron ger</w>
schedu le</w>
vis as</w>
constitu tional</w>
manag ement</w>
territ ory</w>
colle ge</w>
simu lation</w>
feel ing</w>
bacteri al</w>
dest ination</w>
compar is
princi ple</w>
absolu tely</w>
invest ment</w>
use ful</w>
sett ings</w>
guaran tee</w>
vaccin ated</w>
toil et</w>
small er</w>
alterna tive</w>
tal king</w>
perman ent</w>
travel ers</w>
ade qu
perfor med</w>
covid 19</w>
membran e</w>
1 1
1 st</w>
3 6</w>
4 9</w>
b a</w>
b la
b ling</w>
c er</w>
c ast</w>
c rit
c fr</w>
d ure</w>
d less</w>
e ding</w>
e ure</w>
f ect</w>
l m</w>
n 95</w>
o p</w>
p m</w>
r n
r on</w>
r ty</w>
s y</w>
s sing</w>
t reated</w>
t ables</w>
u n</w>
w ar</w>
y ed</w>
in er
re sta
ti mely</w>
ar ding</w>
on ic</w>
or dered</w>
st ability</w>
il legal</w>
di rty</w>
su m</w>
su per
su res</w>
de bt</w>
tr ou
the ma
the ore
ma thema
me t
me ter</w>
so f
ex tra
ex pression</w>
ne g
ne arly</w>
ad en
ff ic</w>
we l
ir ation</w>
do se</w>
do mes
ap poin
ve re
he ld</w>
pre mi
infec t
wor ry</w>
fe ar</w>
ter n</w>
par k</w>
sur gical</w>
wi fe</w>
ev acu
comm it
tra ffic</w>
fi gu
out comes</w>
min al</w>
mon day</w>
ten d</w>
na tions</w>
ph ili
some where</w>
ari an</w>
trans fer</w>
mil itary</w>
effec ti
soci ety</w>
dis infecting</w>
tre ating</w>
provi des</w>
fo cu
pan ic</w>
ob tain</w>
hel p
pi c</w>
tri ps</w>
dre ds</w>
sub jects</w>
loo ks</w>
ther ap
ca me</w>
cre ating</w>
proc la
struc tures</w>
secon dary</w>
exten sive</w>
solu tions</w>
trave lling</w>
hu bei</w>
bin ding</w>
intere sting</w>
phys ici
fri ends</w>
inten sive</w>
maj eure</w>
cance led</w>
rele ase</w>
rele ased</w>
proce dure</w>
invol ve</w>
argu e</w>
institu te</w>
seas on</w>
che ap</w>
buil ding</w>
upda tes</w>
run ny</w>
require ment</w>
tax es</w>
airpor t</w>
hun dreds</w>
materi als</w>
jour n
expen sive</w>
republic an</w>
occur red</w>
moder n</w>
state ments</w>
transp ort</w>
aca demic</w>
phar mac
practic es</w>
let ter</w>
stoc ks</w>
sugges ted</w>
dil u
emo tional</w>
spl it</w>
oblig ations</w>
fau ci</w>
will ing</w>
approxi mately</w>
civi l</w>
ey e</w>
decla red</w>
usc is</w>
dep th</w>
percen tage</w>
resta ur
4 4</w>
4 00</w>
a id</w>
c n
c tion</w>
c tions</w>
c ar</w>
c lim
d est</w>
d ential</w>
d na</w>
d board</w>
e x</w>
e le
f ar
f low</w>
g ri
h ence</w>
i i</w>
j an</w>
n son</w>
o t</w>
p id</w>
r as
r oun
s on
s un
s le
s ses</w>
s sed</w>
t wee
w on
y u
z es</w>
in it</w>
in habit
re g
re pu
re ality</w>
re production</w>
er ia</w>
st or
st ore</w>
st age</w>
di sa
ru b</w>
un necessary</w>
li sts</w>
lo ad</w>
de b
de tail</w>
con n
ho mo
pro p
pro per</w>
pro ject</w>
viru l
sp an
sp ending</w>
be ta
so ld</w>
la test</w>
bu d
mi d</w>
mi ti
ta ges</w>
cor e</w>
cor respon
qu ick</w>
qu anti
qu ality</w>
we ight</w>
do ors</w>
mo di
per spec
pre par
ag en
to pic</w>
com for
com promi
go ch</w>
du ty</w>
du ces</w>
20 13</w>
im posed</w>
pa ying</w>
bo goch</w>
ke y
wi pe</w>
wi sh</w>
em ents</w>
em ber</w>
em bas
comm ents</w>
por t
fi ght</w>
fi sh</w>
ser o
mon ton</w>
af ric
fir e</w>
ph il
clo ser</w>
exp an
appro x</w>
appro aches</w>
tw are</w>
dis as
dis covered</w>
dis infect
pri mary</w>
provi ders</w>
bac k
man age</w>
consi stent</w>
sho pping</w>
sub sequ
restric tion</w>
fol ding</w>
auth or</w>
emer ging</w>
car dboard</w>
regu l
dec ember</w>
reco ver
any where</w>
vo ting</w>
ger man</w>
tou ched</w>
deci sions</w>
main land</w>
vari able</w>
poli o</w>
pay roll</w>
contrac ts</w>
cho sen</w>
ni h</w>
plan es</w>
elec tro
employ ers</w>
war ning</w>
char ged</w>
fil ters</w>
exten ded</w>
bor ne</w>
americ a</w>
inten sity</w>
distribu ted</w>
oper ate</w>
ed monton</w>
cir cu
gather ing</w>
cul ture</w>
reduc ing</w>
non immigr
ref er</w>
orig in</w>
invol ved</w>
lat ter</w>
err or</w>
hol ds</w>
agre ed</w>
tax pay
grad u
clas si
extre me</w>
kill ed</w>
bon ds</w>
epidemio logy</w>
stron g
stop ped</w>
chlor o
consider ing</w>
contracep tion</w>
contracep tive</w>
gd p</w>
fit ting</w>
cru ise</w>
zo ono
instruc tions</w>
summ ary</w>
wea ther</w>
mechan ism</w>
dan gerous</w>
legi s
dow n
priv ate</w>
joh nson</w>
deni ed</w>
fas ter</w>
behavi or</w>
monit or</w>
avoi ding</w>
tradi tional</w>
sensi tivity</w>
grocer y</w>
sli ghtly</w>
neu tr
impor ted</w>
red ness</w>
ventilat ors</w>
laun dry</w>
evolu tion</w>
compen sation</w>
declar ation</w>
stain less</w>
defau lt</w>
offic er</w>
comparis on</w>
adequ ate</w>
crit eria</w>
sof tware</w>
domes tic</w>
effecti veness</w>
restaur ants</w>
2 3
3 7
4 5
4 7
6 4</w>
a a</w>
a head</w>
b ar
b ra
b ound</w>
e at</w>
e ting</w>
f la
f oun
g le</w>
g au
i con</w>
m r</w>
m m</w>
n ur
n ation</w>
n cb
o t
p v</w>
p ho
r ou
r oughly</w>
s p</w>
s il
s ke
t as
u t
u ti
u ps</w>
v ative</w>
w an
w est</w>
z z
th y</w>
in o</w>
re lation</w>
re ss</w>
re over</w>
re tro
ti ally</w>
ti sh</w>
ti tle</w>
co ffe
en velo
on set</w>
al ber
it ly</w>
as h
as h</w>
as ia</w>
ac i
no tic
ec ting</w>
di arr
un clear</w>
un certainty</w>
li o</w>
li ons</w>
se q</w>
de vi
de posi
de ep</w>
con cep
tr act</w>
pro gress</w>
sp ort</w>
ur y</w>
ri c</w>
ri x</w>
ex c
la p</w>
mi x
ne ither</w>
ad just</w>
cor ti
qu ine</w>
do gs</w>
mo reover</w>
ap ore</w>
he at</w>
per form</w>
per fect</w>
to wards</w>
to tally</w>
20 18</w>
tic kets</w>
tic keting</w>
bo x</w>
fac ul
sur ing</w>
gi es</w>
out door</w>
min ation</w>
wa ve</w>
af ter
is ms</w>
is dic
sta ying</w>
na m</w>
pp p</w>
pp ed</w>
ali en</w>
pr int</w>
air ways</w>
with dra
requ iring</w>
exp iration</w>
gener ic</w>
lar gest</w>
chan ging</w>
are r</w>
sto res</w>
ob ject</w>
ill ed</w>
speci ali
man ner</w>
pen ding</w>
cau tion</w>
sho ps</w>
anti gen
mat rix</w>
direc ted</w>
direc tions</w>
high est</w>
avail ability</w>
quarant ines</w>
quarant ined</w>
ban ned</w>
ous ness</w>
nor th</w>
contro lled</w>
every body</w>
00 2</w>
00 1</w>
vari ation</w>
chec ks</w>
asi an</w>
retur ning</w>
prof en</w>
19 9
contrac ted</w>
cla use</w>
preven tive</w>
fil ter</w>
sing apore</w>
pla ying</w>
exi sts</w>
equ al</w>
call s</w>
pap ers</w>
organi zations</w>
beg an</w>
ki ds</w>
sha re
diagno stic</w>
xi v</w>
bre ach</w>
emp h
ref ers</w>
arri val</w>
logi st</w>
cover s</w>
fore ign
easi er</w>
bri tish</w>
cr y
indic ates</w>
visit ors</w>
dou bt</w>
agre ement</w>
broad cast</w>
grad e</w>
spac es</w>
mor ning</w>
claim s</w>
ibu profen</w>
tempor arily</w>
opti mize</w>
don al
limit ing</w>
transp or
cy c
chlor ine</w>
compu ter</w>
fund am
connec tion</w>
summ er</w>
nation als</w>
recogni ze</w>
design ed</w>
experien cing</w>
combin ation</w>
bot tom</w>
candi date</w>
tren ds</w>
vali dation</w>
gor ous</w>
glas s</w>
jur isdic
thor oughly</w>
maintain ing</w>
stic k</w>
statis tics</w>
phy lo
cancel lation</w>
educ ation</w>
russi a</w>
reservo ir</w>
success ful</w>
execu tive</w>
bab y</w>
degre e</w>
caffe ine</w>
brief ing</w>
commit tee</w>
figu res</w>
phili pp
help ful</w>
procla mation</w>
inhabit ants</w>
virul ence</w>
perspec tive</w>
agen cies</w>
regul atory</w>
chloro quine</w>
ncb i</w>
coffe e</w>
deposi t</w>
facul ty</w>
2 5
2 f
3 9</w>
3 00</w>
4 8
6 0
6 9
6 2</w>
8 5
a im</w>
b c
b ing</w>
b es
b lu
b reas
c ure</w>
c ali
e ast</w>
f ru
f ab
g y
g on
g un
h s</w>
j un
j ob
j ected</w>
k o
k p
l o</w>
m un
r ound</w>
s n
s m</w>
s ence</w>
s mia</w>
t reas
t led</w>
v ec
x lab</w>
z e
in hal
an d
an xi
re main
re ven
re action</w>
ti me
co ordin
ar ran
ar bit
en se</w>
en ge</w>
te aching</w>
as tro
no tes</w>
il ed</w>
wh om</w>
ha el</w>
pl us</w>
li pi
su d
se ven</w>
de ly</w>
tr ack</w>
ma bly</w>
ma tically</w>
ho mes</w>
sp in</w>
sp ir
sp ain</w>
ab sence</w>
me tr
me tric</w>
so vere
ri se</w>
le g</w>
mp ed</w>
ad op
pe er</w>
do t</w>
mo ther</w>
ap art</w>
ap plying</w>
ve ge
he av
ag ree</w>
to p
to mor
com pli
fe e</w>
ter in
20 10</w>
20 11</w>
rea dily</w>
pu ll</w>
ssi ve</w>
sur pris
mu sc
ing ing</w>
wi dely</w>
gu ide</w>
fi p</w>
fi xed</w>
ser ies</w>
wa iting</w>
op tim
el se
lin ks</w>
mar g
sta ys</w>
sit ting</w>
dat as
can a
trans lation</w>
trans mit</w>
mil lions</w>
loc ation</w>
exp ired</w>
id es</w>
provi sion</w>
fo rec
fo lio</w>
plic itly</w>
chil d
respir ators</w>
all er
anti retro
pas sport</w>
dist inc
quar ter</w>
car rying</w>
val ent</w>
work er</w>
sci en
fur l
ide as</w>
nor thern</w>
har v
har der</w>
jo int</w>
mic hael</w>
plan ned</w>
shi ft</w>
200 6</w>
clin ic</w>
citiz en</w>
cap it
fil ing</w>
authori zed</w>
exi st</w>
func tions</w>
follow ed</w>
bor ro
part ners</w>
predic tions</w>
phys ically</w>
typ ical</w>
blo g</w>
associ ation</w>
eff ici
eff ort</w>
sha red</w>
reduc tion</w>
emp ty</w>
arri ving</w>
cover age</w>
fat al</w>
invol ving</w>
dri ve</w>
argu ment</w>
regar dless</w>
err ing</w>
ass ess</w>
rout e</w>
contain ed</w>
visit ing</w>
fra me</w>
shor ter</w>
broad er</w>
broad cas
determin ing</w>
ima ge</w>
proper ty</w>
jour nal</w>
nam es</w>
opti mi
bb c</w>
sir 2</w>
occur s</w>
ow ner</w>
venti lation</w>
sw abs</w>
chall enge</w>
consider ation</w>
gd pr</w>
abor tion</w>
dead ly</w>
interpre tation</w>
fail ure</w>
mach ine</w>
presu mably</w>
streng th</w>
reali stic</w>
nh 3</w>
revie wed</w>
itali an</w>
sig n</w>
chr onic</w>
opt 2</w>
introduc ed</w>
compe ti
free dom</w>
liqu id</w>
newsp aper</w>
coh ort</w>
primar ily</w>
stero ids</w>
trou ble</w>
clim ate</w>
twee ted</w>
repu tation</w>
disa p
span ish</w>
beta coronaviruses</w>
prepar ing</w>
port folio</w>
subsequ ent</w>
strong ly</w>
share holders</w>
breas t
gon na</w>
treas ury</w>
arbit r
lipi ds</w>
tomor row</w>
0 pt</w>
1 2
4 40</w>
6 1</w>
b at
b id
c ti
d c</w>
e g</w>
e th
e state</w>
f le
f ren
f ran
h im
i e</w>
k its</w>
l lar</w>
m ly</w>
n b
n ano
o de</w>
p ha
s wa
s ick
s atur
t ton</w>
v als</w>
y ers</w>
y lab</w>
th u
in a</w>
in al</w>
in du
re p</w>
re min
re infected</w>
re fund
re ached</w>
co o
co p
ar ance</w>
en ted</w>
al ed</w>
al le
ro ad</w>
st on</w>
no t
ic ity</w>
di ame
es tion</w>
un like</w>
un related</w>
li am
li br
li pid</w>
se a</w>
se ve
de aling</w>
con fin
con sent</w>
ma x
pro of</w>
pro ve</w>
pro mp
po ol</w>
po land</w>
me als</w>
me eting</w>
so li
ex pe
bu ses</w>
mi sta
ne t
mp s</w>
ad ding</w>
pe t</w>
qu es</w>
ir rit
do z
do min
do llar</w>
ap ar
ve terin
he a</w>
au gu
am end
com ment</w>
fe ed</w>
fe ature</w>
fe eding</w>
20 15</w>
im pose</w>
im plement</w>
par liam
pu tting</w>
sur roun
gen e</w>
ra ise</w>
hi stor
enti tled</w>
gu e</w>
da ted</w>
resp ect</w>
tu es
ul es</w>
for ced</w>
is ing</w>
der ing</w>
ge o
mar k</w>
num er
comp on
some what</w>
ali ens</w>
sel ection</w>
pr o</w>
inter actions</w>
inter nal</w>
mil k</w>
loc k</w>
govern or</w>
uni que</w>
bi gger</w>
fl atten
nee ding</w>
cu om
man ia</w>
wee k
tur ing</w>
tur ned</w>
tru c
sho t</w>
anti ci
eng ine
dist ress</w>
cen t
cen sus</w>
cour ts</w>
restric ted</w>
ran do
loo ked</w>
import ance</w>
mat ters</w>
ban king</w>
mit ting</w>
eu r</w>
har m
org an</w>
retur ns</w>
inte gr
tex t
19 8</w>
war ned</w>
200 4</w>
char ges</w>
medic ation</w>
suppor tive</w>
organi sation</w>
atten d</w>
recei ving</w>
oper ation</w>
regi onal</w>
disc re
10 000</w>
excep tions</w>
public ations</w>
reli able</w>
reli gious</w>
centr e</w>
frequ ent</w>
house holds</w>
logi stic</w>
consu l
depart ments</w>
eas ed</w>
carri ed</w>
che mi
visit ation</w>
detec t</w>
specific ity</w>
clas s</w>
encour aged</w>
demo cra
kill s</w>
smo kers</w>
conduc t</w>
aca de
fit ness</w>
assump tion</w>
nucle i</w>
nucle ic</w>
quo ted</w>
molec ular</w>
molec ules</w>
advis or</w>
eligi bility</w>
cl ick</w>
thes is</w>
person nel</w>
ano smia</w>
legi timate</w>
priv acy</w>
deni al</w>
var ies</w>
attemp t</w>
mean ing
experien ced</w>
surve y</w>
categ ory</w>
neighb ors</w>
sco pe</w>
adju sted</w>
flexi ble</w>
calcul ate</w>
line ar</w>
reti re
acqu ired</w>
politici ans</w>
extra ordinary</w>
neg li
premi um</w>
embas sy</w>
afric a</w>
disas ter</w>
legis lation</w>
foreign ers</w>
cry st
jurisdic tions</w>
philipp ines</w>
fab ric</w>
anxi ety</w>
sovere ign</w>
heav y</w>
surpris ing</w>
harv ard</w>
arbitr ary</w>
fren ch</w>
him self</w>
swa b</w>
refund able</w>
diame ter</w>
seve rely</w>
augu st</w>
amend ment</w>
cuom o</w>
democra tic</w>
0 5
1 10
3 3
4 6</w>
4 3</w>
5 6</w>
6 7
7 7
b ills</w>
c rea
f c
g el
g 13</w>
i p
i res</w>
i zed</w>
j a
j am
k o</w>
k ar
k ing
k new</w>
k ings</w>
k id
l in</w>
l pv</w>
n sp
n esses</w>
n lm</w>
o viruses</w>
p h</w>
p al</w>
p se</w>
p ate</w>
r ab
r icul
s mar
s ba</w>
t ask</w>
u re
w ou
x im
y out
z i
in tr
in tu
in ser
an th
re al
re plac
re pat
ti n</w>
ti m</w>
er a</w>
en ty</w>
en tation</w>
en ever</w>
te en</w>
te ach</w>
te am</w>
te lling</w>
on g
al li
al ty</w>
vi o
vi ol
it u
it iner
ac ted</w>
ic u</w>
ic el
at ly</w>
il ing</w>
il it
wh enever</w>
di g
ha m</w>
es sed</w>
un well</w>
un lawful</w>
li min
se as</w>
lo ad
lo ved</w>
de struc
con ser
con fu
con sen
con cen
con spir
tr ade</w>
ma mm
ho p
ho li
ho sts</w>
sp ent</w>
ab ilities</w>
po s</w>
po ll</w>
be t</w>
be coming</w>
be hin
ex pres
ex hal
ex plicitly</w>
le tting</w>
ne ther
ver i
ver sion</w>
ver sus</w>
ta i
ta g</w>
ta tive</w>
we ak</w>
sh ing</w>
sh aring</w>
do w</w>
do ll
mo dnes
ap plications</w>
pre limin
ag gre
ag ue</w>
ag ricul
to wn</w>
to ols</w>
to ler
com mission</w>
fe asi
fe yn
20 17</w>
lu ck</w>
par tis
pa rent</w>
fac tory</w>
ssi an</w>
coun ter
tra in</w>
ris ky</w>
por tion</w>
por tun
ll er</w>
op s</w>
op po
op portun
for ward</w>
diff er</w>
lin en</w>
ge or
comp ly</w>
sta ted</w>
sta tions</w>
cur ren
prob able</w>
dat ab
dat ory</w>
can cer</w>
inter act</w>
inter action</w>
diffe rently</w>
loc ations</w>
loc ked</w>
clo sures</w>
exp ec
exp ires</w>
respon si
vir als</w>
vir tually</w>
des ig
kno wing</w>
fa q</w>
rela tion
man datory</w>
pi ec
tru st</w>
mode lling</w>
all ergy</w>
dur ation</w>
advi ses</w>
ga me</w>
gre ssion</w>
gre atly</w>
mat h</w>
auth ors</w>
cri minal</w>
dec ree</w>
dec eased</w>
produc tive</w>
pres ents</w>
iso lating</w>
vo ted</w>
gro ss</w>
stru gg
over seas</w>
chec ked</w>
proc esses</w>
leg ally</w>
oc c
recommen dation</w>
thro w</w>
secon dly</w>
bin om</w>
col ds</w>
mini mize</w>
mini stry</w>
tran scri
amoun ts</w>
cro ssing</w>
lab el</w>
safe ly</w>
spo t</w>
presi dential</w>
eff ic
suff er</w>
suff ering</w>
descri be</w>
sha res</w>
kin ds</w>
tech ni
remo ve</w>
remo ved</w>
coll abor
coll ection</w>
lead ers</w>
cancell ing</w>
dri vers</w>
pregn ancy</w>
indic ate</w>
err ors</w>
reason ably</w>
epide mics</w>
len ding</w>
len ders</w>
form er</w>
grap h</w>
sugge sting</w>
sol ved</w>
guar dian</w>
nam ed</w>
88 88</w>
fre sh</w>
ow ners</w>
limit ation</w>
limit ations</w>
asse m
att ack</w>
zo om</w>
arr ay</w>
quo te</w>
sal es</w>
person ally</w>
dow ns</w>
drin k</w>
mer ase</w>
she et</w>
poly merase</w>
fec es</w>
substan tial</w>
substan tially</w>
avoi ded</w>
rat g13</w>
than ks</w>
refu sed</w>
hote l</w>
candi dates</w>
repe at</w>
flexi bility</w>
tin y</w>
demon str
spr ing</w>
shel ter</w>
objec tive</w>
challeng es</w>
h2 o</w>
stran ded</w>
wai ver</w>
mut ate</w>
visi bly</w>
prescri ption</w>
mathema tical</w>
wel fare</w>
physici an</w>
cn n</w>
bud get</w>
recover ing</w>
gau ssian</w>
corti co
antigen ic</w>
donal d</w>
transpor tation</w>
bes ides</w>
reven ue</w>
vege tables</w>
compli ance</w>
musc le</w>
else where</w>
tues day</w>
rando mly</w>
repat ri
icel and</w>
consen sus</w>
concen tra
conspir acy</w>
behin d</w>
nether lan
doll ars</w>
modnes ted</w>
prelimin ary</w>
opportun ity</w>
0 9</w>
0 5</w>
2 nd</w>
2 1st</w>
3 3</w>
4 1</w>
5 9
5 3</w>
8 0
9 1</w>
a b</w>
a tional</w>
b ase</w>
b ail
e a</w>
e di
e than
g t
g as</w>
g ori
h r
h ic
h en</w>
i an</w>
j ones</w>
k ins</w>
l end</w>
l ens</w>
m d</w>
m en</w>
o h</w>
p in
p hi
p uni
q at
r ich</w>
s c</w>
s ar
s ou
s me
s ounds</w>
t wit
t ch</w>
t down</w>
u le</w>
u sel
v an
v ou
v ac
w an</w>
w age</w>
w ants</w>
y es
z on</w>
in et</w>
in door</w>
re p
re di
re source</w>
re present</w>
re tail</w>
ti ps</w>
ti mately</w>
er n
co ol</w>
ar chi
en o
en han
en jo
en force</w>
en suring</w>
ou se</w>
on y</w>
al gori
or m
or ation</w>
or ting</w>
or ban</w>
vi cti
ro te</w>
it er
it able</w>
ac e</w>
ac ks</w>
ac counts</w>
st ro
st ages</w>
at al</w>
at tri
il lu
di plo
pl at
un its</w>
li c</w>
li m</w>
li ber
lo sses</w>
de duc
con g
con gre
tr illion</w>
the at
the ories</w>
ma r</w>
ma ted</w>
ho t</w>
pro mo
ur gent</w>
po w
po ster
me rely</w>
be l
ch ic
so iled</w>
inf ants</w>
inf ras
ta u</w>
sa tions</w>
do ms</w>
mo b
mo ti
mo de</w>
per mission</w>
per fec
ag ents</w>
com plic
go o
ci vet</w>
wor ked</w>
fe ars</w>
fe atures</w>
um p</w>
par ms</w>
pu rely</w>
ce x</w>
mu tation</w>
ra ti
ra rely</w>
coun ting</w>
ing redi
wi pes</w>
sc ans</w>
sc rat
tra ins</w>
ol es
fi gh
out line</w>
ul timately</w>
op ha
op posed</w>
for d</w>
for ms</w>
our selves</w>
acc ru
der i
ju mped</w>
el ds</w>
ge ly</w>
comp aring</w>
sta tic</w>
prote ase</w>
na oc
ph eno
some how</w>
ali ve</w>
ali ties</w>
ari al</w>
pr ic
fu n</w>
trans mitting</w>
inter f
inter view</w>
fun c</w>
brea the</w>
mas sive</w>
air borne</w>
off ers</w>
off ered</w>
stu ff</w>
respon ding</w>
tre es</w>
bi ted</w>
ill nesses</w>
bac ked</w>
pi ece</w>
tur ns</w>
protec ting</w>
see king</w>
fic ations</w>
sho wed</w>
tri al</w>
tri gger</w>
anti gen</w>
acti vely</w>
dre w</w>
eng land</w>
sub section</w>
advi sing</w>
import antly</w>
hou ses</w>
hou sing</w>
sup pose</w>
econo mics</w>
cri me</w>
regu lated</w>
lic en
val u
kee ps</w>
quarant ining</w>
condi tional</w>
ide al</w>
ide ally</w>
nor way</w>
every day</w>
vari ables</w>
affec ts</w>
evi ction</w>
prof its</w>
den sity</w>
war mer</w>
br on
br inging</w>
fr ag
200 8</w>
200 5</w>
lon don</w>
citiz en
cap able</w>
confir m</w>
follow s</w>
lear ned</w>
predic ted</w>
col la
col um
intere sts</w>
resi dent</w>
ba tes</w>
fri day</w>
fri end</w>
fri ed
lit er
us ers</w>
disc ri
descri bing</w>
spec im
public ation</w>
announ cement</w>
xi de</w>
manufac turing</w>
frequ ency</w>
remo tely</w>
def ense</w>
arri ve</w>
san ctions</w>
adul t</w>
invol ves</w>
scre en</w>
lock downs</w>
indic ated</w>
institu tion</w>
expla ins</w>
hol ding</w>
accur ately</w>
carri ers</w>
beli eved</w>
manufactu red</w>
trac ted</w>
grap h
dou ble</w>
shor tly</w>
shor tages</w>
sche me</w>
vide os</w>
presen ted</w>
reser vation</w>
conclu sions</w>
establi sh
wal d</w>
corpor ations</w>
flu ids</w>
manufacture rs</w>
opti m</w>
origin ated</w>
investig ations</w>
bur den</w>
wat ching</w>
sir d</w>
sir mc
moder ate</w>
continu ing</w>
continu ous</w>
xy chloroquine</w>
stop s</w>
prepa redness</w>
schedu led</w>
vis its</w>
accep t</w>
accep table</w>
disrup tion</w>
connec ting</w>
practic ing</w>
post pon
obvi ous</w>
absolu te</w>
exemp t</w>
custo dy</w>
custo mers</w>
overwhel med</w>
hydro gen</w>
hydro xychloroquine</w>
poly aden
slow ing</w>
wil d</w>
reali ze</w>
bot tle</w>
grocer ies</w>
nh s</w>
camp a
fav or</w>
bloc k</w>
nar ro
demon stra
h2 o2</w>
roo ms</w>
evol ving</w>
techno logy</w>
cab inet</w>
achi eve</w>
depar ture</w>
mani fe
purch ase</w>
lif ts</w>
discus sed</w>
theore tical</w>
appoin tment</w>
journ als</w>
homo logy</w>
miti gate</w>
comfor table</w>
disinfect ants</w>
nonimmigr ant</w>
nur sing</w>
alber ta</w>
notic ed</w>
bc g</w>
blu e</w>
gun s</w>
adop ted</w>
antiretro viral</w>
satur day</w>
max imum</w>
net work</w>
veterin ary</w>
parliam ent</w>
flatten ing</w>
truc ture</w>
cent res</w>
harm ful</w>
text outline</w>
retire ment</w>
anth ony</w>
itiner ary</w>
hop kins</w>
tai wan</w>
feasi ble</w>
feyn man</w>
oppo site</w>
curren cy</w>
datab ase</w>
desig na
piec es</w>
occ asi
effic acy</w>
netherlan ds</w>
ethan ol</w>
usel ess</w>
vou ch
algori th
attri bu
poster ior</w>
infras tructure</w>
perfec tly</w>
naoc l</w>
fried en</w>
sirmc 2</w>
polyaden y
1 20
1 00
3 5</w>
5 6
5 7</w>
7 3</w>
8 2</w>
8 1</w>
9 7</w>
a c</w>
a im
a vir</w>
b ent</w>
b ars</w>
b ought</w>
b arri
c ce
c ket</w>
c dot</w>
d d
d red</w>
d pa</w>
d hs</w>
e the
e id
f its</w>
g a</w>
g ly
h 1
h a</w>
h u</w>
h or
h its</w>
h cov</w>
j e
j p</w>
l ity</w>
m h
m in</w>
m ber</w>
m acro
n 1</w>
n au
n um</w>
o pe
o th</w>
o lar</w>
p s
p it
p au
q rt</w>
r in
r ing</w>
s r</w>
s ki
s qrt</w>
t our</w>
u be</w>
u sage</w>
v i</w>
v ast</w>
v ous</w>
v ings</w>
v ations</w>
w a</w>
w rote</w>
y al</w>
y el
th ening</w>
in vi
in st
in ts</w>
in depen
in jur
in doors</w>
an es
an ese</w>
re place</w>
re consider</w>
re book</w>
re funds</w>
re placed</w>
ti matic</w>
co ded</w>
co ok</w>
ar by</w>
en s
en t
en able</w>
en counter</w>
al ve
al together</w>
al ex</w>
or xiv</w>
vi et
vi ability</w>
it arian</w>
ac com
ac ci
st ers</w>
no ting</w>
no ise</w>
ic tv</w>
at ten</w>
at ories</w>
di um</w>
pl enty</w>
un prece
li fe
su m
su cce
se ts</w>
se min
lo sing</w>
tr ation</w>
pro po
pro ven</w>
pro pose</w>
pro xim
ab sor
po ore
po lls</w>
me l
me t</w>
me at</w>
be d
be ar</w>
so dium</w>
ex ce
la im
la id</w>
le th
mi x</w>
ne arby</w>
ver t</w>
inf ant</w>
ad es</w>
ad ds</w>
sa u
sa fer</w>
mo vi
mo squ
ve hic
he ar</w>
per mitted</w>
ag rap
ag ues</w>
to co
am s</w>
am bi
am ino</w>
go wn</w>
ci ted</w>
corona viral</w>
du ties</w>
ter min
20 th</w>
20 00</w>
20 14</w>
um s</w>
lu lar</w>
par agrap
pa a</w>
pu l
pu ts</w>
bo arding</w>
fac epi
fac ilit
ke l</w>
sur pri
gi um</w>
gi thu
gen om
ra w</w>
ra tional</w>
ing u
ev a</w>
ev ap
gu n</w>
em ed</w>
tra ined</w>
ris ing</w>
resp ec
tu m</w>
tu red</w>
ser ve</w>
for get</w>
for ces</w>
af t</w>
is land</w>
pub s</w>
fin ed</w>
fin ding</w>
comp ani
comp ounds</w>
ye ast</w>
ye ster
pp m</w>
sel ect</w>
fu r</w>
sen ding</w>
trans actions</w>
trans iting</w>
inter medi
inter active</w>
stan ds</w>
read ers</w>
clo thing</w>
cer ti
infor ma
appro ve</w>
cle an
stu ck</w>
stu dying</w>
pri ori
provi sions</w>
bi ke</w>
bi orxiv</w>
of com</w>
chan nel</w>
ici al</w>
fl ying</w>
fl atten</w>
pan ts</w>
kno bs</w>
contr ast</w>
prev ents</w>
man aged</w>
was te</w>
respir ator</w>
sho p</w>
under way</w>
sub way</w>
dist ant</w>
restric ting</w>
ran ging</w>
quar ters</w>
emer ged</w>
accor dance</w>
car ing</w>
car bon
vo ters</w>
gg ing</w>
gro w</w>
ger ms</w>
over view</w>
contin ues</w>
men tions</w>
contro lling</w>
vari ety</w>
eu tical</w>
hy per
struc tural</w>
har dest</w>
esti mation</w>
den ted</w>
simil arly</w>
19 18</w>
influ en
br n</w>
ny t</w>
shi f
shi ps</w>
200 7</w>
enz y
confir mation</w>
wash ed</w>
pla y
cat astro
equ ally</w>
predic tion</w>
predic table</w>
suppor ting</w>
ba g</w>
tail s</w>
resul ting</w>
lab or</w>
ann ual</w>
identi fying</w>
eff icient</w>
disc laim
spec u
hand washing</w>
reli eve</w>
reduc tions</w>
non ethe
ref use</w>
obser vation</w>
est yle</w>
consu lar</w>
14 0</w>
dri ving</w>
ep a</w>
eas tern</w>
gra ham</w>
reason ing</w>
contain er</w>
mis information</w>
new ly</w>
29 1</w>
correc tly</w>
sequen cing</w>
cal end
ear n</w>
thre ats</w>
dou b
dou bling</w>
shor tage</w>
deli ver</w>
micro biology</w>
micro bes</w>
equi valent</w>
establi sh</w>
hun dred</w>
succ ess</w>
demo graphic</w>
ext inc
strate gies</w>
jour ney</w>
kill ing</w>
nam ing</w>
epidemio logical</w>
pat tern</w>
ner vous</w>
natur ally</w>
docum ented</w>
tan e
tan g</w>
stop ping</w>
accep ted</w>
neigh bor
metho do
manag ing</w>
territ ories</w>
colle agues</w>
jap anese</w>
exclu si
bacteri opha
communic ation</w>
communic able</w>
communic ations</w>
aeroso l</w>
let ters</w>
drin king</w>
fer red</w>
var ying</w>
dead line</w>
mean while</w>
exemp tion</w>
adap tive</w>
fail ed</w>
overwhel ming</w>
behavi our</w>
mach ines</w>
pic ture</w>
slow ly</w>
promi se</w>
guaran te
categ ories</w>
asp ects</w>
diver sity</w>
lim its</w>
prohi bits</w>
dar k</w>
thor ough</w>
repe ated</w>
conven tions</w>
maintain ed</w>
experim ental</w>
bloc ks</w>
evalu ate</w>
rhin ovirus</w>
viro logy</w>
program s</w>
politici an</w>
od ds</w>
assi stance</w>
infla m
persi st</w>
transmissi ble</w>
transmissi bility</w>
economi st</w>
fall s</w>
construc tion</w>
partici pants</w>
outlin estyle</w>
interven tion</w>
organ isms</w>
discu ss</w>
bla me</w>
evacu ation</w>
focu sed</w>
pharmac ies</w>
pharmac eutical</w>
reg ard</w>
conn ected</w>
prop ag
correspon dent</w>
key word</w>
taxpay er</w>
zoono tic</w>
neutr al</w>
uti li
diarr hea</w>
199 8</w>
emph asi
cyc le</w>
fundam ental</w>
phylo genetic</w>
jun e</w>
job s</w>
ko v</w>
metr e</w>
marg in</w>
datas ets</w>
cana dian</w>
nano particle</w>
remin der</w>
libr ary</w>
apar tment</w>
geo graphic</w>
week end</w>
discre tion</w>
fc c</w>
king dom</w>
rab ies</w>
yout ube</w>
itu de</w>
confu sion</w>
mamm als</w>
exhal es</w>
qat ar</w>
twit ter</w>
victi ms</w>
bel gium</w>
chic ago</w>
complic ated</w>
goo gle</w>
rati o</w>
interf ere</w>
designa ted</w>
vouch er</w>
polyadeny lation</w>
gly co
ope c</w>
anes thes
viet nam</w>
unprece dented</w>
paragrap h</w>
facepi ece</w>
githu b</w>
yester day</w>
nonethe less</w>
calend ar</w>
1 28
3 28</w>
4 7</w>
5 8
6 6
7 6</w>
7 4</w>
8 4</w>
8 00</w>
a vi
a me</w>
a pe
b il
b un
b ad
b one</w>
b ar</w>
b oun
b id</w>
b rit
b lan
b matrix</w>
c ers</w>
c et</w>
c ars</w>
e ing</w>
e ds</w>
e mia</w>
f ing
f are
g m</w>
g is</w>
g one</w>
g ements</w>
h en
h ur
h ire</w>
i j
i re
i ties</w>
k han</w>
m s
m oun
m ach</w>
m acy</w>
n ate</w>
n ings</w>
n ia</w>
n ls</w>
o red</w>
o od</w>
o ta</w>
o xide</w>
p 2</w>
p al
p sy
p ack</w>
r y
r h</w>
s f</w>
s lo
s ms</w>
t l</w>
t or
t we
t um
t ments</w>
v a</w>
v as
v news</w>
w u</w>
w ri
y mp
y back</w>
z one</w>
th in</w>
th ers</w>
in hi
in stances</w>
an a</w>
an no
an ce
an gel
an drew</w>
an itarian</w>
re ve
re infection</w>
re vo
re ply</w>
re tail
re booking</w>
re acting</w>
re gression</w>
re bates</w>
ti a</w>
ti ze</w>
er red</w>
co s</w>
co tton</w>
ar o</w>
en act</w>
en tered</w>
te a</w>
on er</w>
on ed</w>
or d</w>
vi g
vi su
vi ce</w>
vi et</w>
vi sion</w>
vi tal</w>
vi gorous</w>
ro yal</w>
ac ids</w>
st rea
st ure</w>
st ence</w>
ic lo
ic als</w>
ic ked</w>
ec dc</w>
di am
di ble</w>
es ted</w>
es sive</w>
pl as
pl au
si c</w>
si ght</w>
un employed</w>
li ste
li ps</w>
yo tic</w>
su it</w>
su itable</w>
se af
lo mb
de e
de o</w>
de fe
de grad
con ferences</w>
con doms</w>
ma p</w>
ma th
ho t
ho ping</w>
ho arding</w>
ho ea</w>
pro ves</w>
pro duces</w>
pro jected</w>
sp u
ab use</w>
ab road</w>
po x</w>
po sts</w>
me ant</w>
me et
be gun</w>
so phi
so oner</w>
ri d
ri ses</w>
ri de</w>
ri gorous</w>
ex p</w>
ex hi
ex change</w>
bu yback</w>
mp ing</w>
ad s</w>
ad ic
ad ver
ad mission</w>
ta p</w>
sa w</w>
sa ving</w>
sa tis
sa vings</w>
ff in</w>
cor relation</w>
we i
we t</w>
we ll
sh a</w>
do or
mo d
mo tion</w>
mo ved</w>
mo bility</w>
mo thers</w>
ap s</w>
ap ps</w>
ap plic
ve ments</w>
he pati
per oxide</w>
pre jud
ag u
to k
to x
to ll</w>
au di
au stri
infec ts</w>
covi deo</w>
am mon
com b
com or
com pla
go p</w>
go fund
fe b</w>
fe mal
ter is
ren ce</w>
ren ces</w>
im al</w>
im plies</w>
lu c
lu me</w>
par tly</w>
pa ths</w>
bo ards</w>
fac t
ke pt</w>
gi g</w>
gen es</w>
ra tion
coun ted</w>
enti als</w>
sc ar
sti g
ol ymp
por ous</w>
out lets</w>
min imal</w>
wa ke</w>
for nia</w>
is ra
ju ice</w>
el s</w>
ste ve</w>
fin es</w>
fin ance</w>
fin land</w>
gr and
ge l</w>
mar kov</w>
ten ds</w>
ten sion</w>
comp re
comp are</w>
cur ves</w>
na mic</w>
dat ing</w>
ari ties</w>
ari fy</w>
sen ators</w>
inter face</w>
fun eral</w>
clo ture</w>
imp acts</w>
infor m</w>
lar gely</w>
hum anitarian</w>
off ices</w>
dis cour
bi as</w>
fo o
fo ld</w>
sto ch
sto mach</w>
ob ste
cu red</w>
cu tting</w>
fa ti
fa ir</w>
rela x</w>
rela tions</w>
pen alty</w>
tur ning</w>
poin ted</w>
under stand
sub stitu
sub mit</w>
ga in</w>
ga ther</w>
pas ses</w>
pas te</w>
pas sing</w>
posi tively</w>
sear ches</w>
restric t</w>
sec u
sec tions</w>
sec ure</w>
sec tor</w>
gre en</w>
mat ch</w>
direc tion</w>
sup pli
sup posed</w>
car ds</w>
inv asi
medi um</w>
work place</w>
vo lume</w>
sign ed</w>
gg les</w>
gro ws</w>
boo ks</w>
boo kings</w>
deci ding</w>
ca res</w>
vie ws</w>
every where</w>
00 000
cre w</w>
eu a</w>
eu kar
pur i
asi de</w>
retur ned</w>
prof it</w>
assu med</w>
den ly</w>
den cy</w>
inte st
comple ted</w>
ni covideo</w>
influ ence</w>
war m</w>
cla de</w>
thro ats</w>
shi eld</w>
200 2</w>
200 1</w>
cap ture</w>
clu ster</w>
fil tration</w>
stat ute</w>
medic ations</w>
bro ken</w>
trave led</w>
hu b</w>
appe ared</w>
appe arance</w>
predic tors</w>
bin ds</w>
intere sted</w>
ific ation</w>
las ting</w>
expo sing</w>
lan ded</w>
lan cet</w>
tran si
ful l
cro wn</w>
atten u
atten dance</w>
kore an</w>
inten tionally</w>
spo on</w>
spo ts</w>
spo ons</w>
oper ational</w>
dea u</w>
ed ings</w>
suff ered</w>
hand led</w>
excep tion</w>
cir cul
sk ills</w>
cas ual</w>
non frivolous</w>
ref erring</w>
remo val</w>
coll ect</w>
coll ecting</w>
stre t
stre et</w>
proce ed</w>
proce edings</w>
increas ingly</w>
appropri ately</w>
obser vations</w>
arri ved</w>
logi es</w>
tar gets</w>
pac ked</w>
sim pl
consu mer</w>
dri ver</w>
dra w</w>
dra wn</w>
ass essing</w>
syn cy
accur acy</w>
che aper</w>
buil t</w>
visit or</w>
separ ated</w>
trac ing</w>
form al</w>
sequen ced</w>
cal cu
thre at
tax able</w>
presen tation</w>
gene tically</w>
clas s
clas ses</w>
eli min
reser ved</w>
deli ver
dela ys</w>
bir ds</w>
hun g
corpor ation</w>
smo ke</w>
smo king</w>
smo oth</w>
occu p
ace tic</w>
dispo se</w>
quali fied</w>
epidemio logists</w>
epidemio logist</w>
expon entially</w>
pack aging</w>
fam ili
justi ce</w>
disrup ted</w>
obli ged</w>
vol un
constitu tion</w>
geno mic</w>
propor tion
chem icals</w>
wea k
molec ule</w>
advis ory</w>
recogni tion</w>
research er</w>
cl arify</w>
mes sage</w>
sal ary</w>
feel s</w>
charac teris
enfor ced</w>
leav es</w>
joh ns</w>
drin ks</w>
ct v</w>
ct vnews</w>
fas hi
mer son</w>
stri es</w>
attemp ts</w>
mean time</w>
adap ted</w>
stoc kp
sugges tions</w>
labor atories</w>
targe ting</w>
thous and</w>
monit oring</w>
dy nam
dy namic</w>
hote z</w>
hote ls</w>
sensi tive</w>
contribu ted</w>
contribu tions</w>
contribu te</w>
neighb or</w>
tren d</w>
asp ect</w>
opt 1</w>
impor tation</w>
fav or
prece ding</w>
auto matic</w>
ventilat or</w>
sor ry</w>
spr ay</w>
preci sely</w>
cancel lations</w>
challeng ing</w>
refl ects</w>
program ming</w>
radi o</w>
cab in</w>
insi ght</w>
replic ate</w>
disp er
economi es</w>
purch ased</w>
57 1</w>
visi ted</w>
divi ded</w>
que ens
organ ism</w>
rn as</w>
met abo
therap y</w>
dilu tion</w>
dilu ted</w>
ele ment</w>
conn ect</w>
modi fication</w>
compromi se</w>
compromi sed</w>
taxpay ers</w>
gradu ally</w>
classi fication</w>
foun dation</w>
sil ver</w>
concep t</w>
mix ing</w>
withdra w</w>
cali fornia</w>
vec tor</w>
time line</w>
sud denly</w>
top ics</w>
optim al</w>
forec ast</w>
scien ce
furl ough</w>
broadcas ter</w>
optimi zation</w>
competi tion</w>
nb sp</w>
confin ement</w>
expe lled</w>
irrit ation</w>
doz en</w>
surroun ding</w>
histor ical</w>
numer ous</w>
compon ents</w>
antici pate</w>
engine ering</w>
integr al</w>
chemi stry</w>
acade mia</w>
zi ka</w>
load ed</w>
conser vative</w>
holi day</w>
aggre ssive</w>
responsi bility</w>
cortico steroids</w>
concentra tions</w>
enjo y</w>
cong estion</w>
pow er
mob ile</w>
ingredi ents</w>
scrat ch</w>
figh ting</w>
accru e</w>
pheno men
bron cho
citizen ship</w>
discri mination</w>
postpon ing</w>
campa ign</w>
demonstra ted</w>
120 6</w>
barri er</w>
h1 n1</w>
nau sea</w>
alve olar</w>
poore r</w>
sau di</w>
vehic le</w>
pul mon
evap oration</w>
intermedi ate</w>
carbon ate</w>
disclaim er</w>
neighbor hood</w>
methodo logy</w>
exclusi vely</w>
inflam mation</w>
fare ast</w>
ire land</w>
psy cho
twe et</w>
strea m</w>
iclo vir</w>
diam ond</w>
plau sible</w>
liste n</w>
seaf ood</w>
lomb ar
meet ings</w>
prejud ice</w>
austri a</w>
ammon ia</w>
gofund me</w>
00000 000</w>
eukar yotic</w>
characteris tics</w>
queens land</w>
1 03</w>
1 50</w>
1 21</w>
2 4
2 m</w>
2 12</w>
2 29
3 7</w>
4 4
5 5
5 4</w>
5 1</w>
6 7</w>
7 1</w>
7 00</w>
7 37
8 7</w>
8 30</w>
9 9
9 2</w>
a i
a k
a e</w>
a ka</w>
a hu</w>
b ag
b low
b end</w>
b lack</w>
c s
c v</w>
c in
c it
c es
c li
c up</w>
d al</w>
d ens</w>
d ash
e ti
e os</w>
e ight</w>
f th
f en
f ies</w>
f est</w>
f illed</w>
g p</w>
g al
g as
g ments</w>
h ill</w>
h sa</w>
i o
i er</w>
i ded</w>
i fic</w>
j ama
j ump</w>
k a
k u
k al
k tor</w>
k ish</w>
l g</w>
l i</w>
l ent</w>
l man</w>
l lap</w>
m g</w>
m u</w>
m ate</w>
m est</w>
m ingly</w>
m aca
n r</w>
n p</w>
n pr</w>
o k
o x
o ti
o is</w>
p es
p un
p ter</w>
p ure</w>
p tical</w>
p ath</w>
p ages</w>
p ills</w>
p mc</w>
q s</w>
r r
r r</w>
r lap</w>
s l
s 7</w>
s i</w>
s es
s wi
s day</w>
s ali
s start</w>
s ession</w>
t i</w>
t on
t ab
t ent</w>
u mo
u ally</w>
u plo
v o</w>
v ated</w>
v ague</w>
w are</w>
w ages</w>
x x</w>
y i
z ers</w>
th ly</w>
th ur
th ri
th ail
in duc
in ations</w>
in evi
in accurate</w>
in definitely</w>
in nate</w>
an ten
re id</w>
re sc
re infor
re feren
re late</w>
re mind</w>
re son
re duces</w>
re purchase</w>
ti gh
er ce</w>
co des</w>
ar c
ar ti
ar ab
ar ies</w>
ar my</w>
en ter
en tally</w>
te dro
te lls</w>
on ally</w>
on ward</w>
al ism</w>
vi ri
vi ktor</w>
ro ch
ro les</w>
ro ber
ro mania</w>
it h</w>
as is</w>
as ts</w>
ac ce
ac iclovir</w>
st ation</w>
st ingly</w>
no ses</w>
ic a</w>
ic o</w>
at a</w>
at tr
at tle</w>
at eral</w>
at tracted</w>
il lin
di c</w>
di ties</w>
es hi
es cap
si mul
si zes</w>
un common</w>
un certain</w>
un win
li e</w>
li es</w>
su b</w>
su sta
se x
se y</w>
se z</w>
se ed</w>
se attle</w>
lo pin
de le
de dic
de emed</w>
con v
con cre
tr ine</w>
ma g</w>
ma tes</w>
ma gn
ma ils</w>
ho pes</w>
pro p</w>
pro ved</w>
pro gre
pro posed</w>
pro toco
sp ar
sp ouse</w>
sp orting</w>
ab sen
ab sent</w>
ur o</w>
ur ged</w>
po is
po sit
po ons</w>
po sted</w>
po lling</w>
me work</w>
me ters</w>
me ls</w>
be au
be aring</w>
be ij
ch en</w>
ch est</w>
ch ick
so l</w>
so le</w>
so ak</w>
ex pl
ex por
ex plo
la yo
la is
le ans</w>
bu t
bu st</w>
mi rr
ne j
ne ll</w>
ne ys</w>
inf e
inf o</w>
ad missi
ta ke
ta tional</w>
sa ved</w>
sa ges</w>
ff s</w>
ff p</w>
pe ter</w>
we b</w>
we red</w>
we igh
we lls</w>
we arer</w>
ir in</w>
ir ical</w>
do ts</w>
mo ves</w>
ap y</w>
ap ers</w>
ap pen
per acetic</w>
pre print</w>
to ber</w>
to ol</w>
to ward</w>
am a</w>
am pl
am pli
com a</w>
go t
go v
go ggles</w>
ci l</w>
wor sen
wor rying</w>
du tch</w>
fe l
fe ed
ter ri
20 21</w>
im plications</w>
lu x
lu fth
tic o</w>
par a
par alle
pa in
pa ir</w>
pa ins</w>
pa irs</w>
pu sh</w>
pu zz
bo iling</w>
ce l
fac e
sur ro
mu ta
gi bb
gi veness</w>
coun cil</w>
ing er</w>
wi der</w>
inc es</w>
inc ess</w>
gu il
sti mate</w>
comm ons</w>
ol ing</w>
fi l</w>
fi able</w>
fi elds</w>
ans a</w>
out put</w>
ser ves</w>
wa re
for mul
for giveness</w>
mon thly</w>
af ore
rec all</w>
ju ly</w>
el ected</w>
ste in</w>
gr ant</w>
gr ants</w>
gr ounds</w>
lin ed</w>
ge e</w>
ge ment</w>
ge top
mar keting</w>
ten ancy</w>
comp a
comp ound</w>
fir m</w>
fir ms</w>
na to</w>
na tionally</w>
na vig
ye ar
bec ame</w>
ph r
ph i</w>
ph ases</w>
pr one</w>
pr incess</w>
sen sible</w>
inter ior</w>
brea ks</w>
mil der</w>
loc ated</w>
sin d</w>
gener ate</w>
soci ally</w>
id al</w>
id ity</w>
uni code</w>
cle arer</w>
stu died</w>
dis infected</w>
dis abilities</w>
pri de</w>
bi a</w>
bi ased</w>
bi dities</w>
fo m
fo ot</w>
ici ans</w>
exam s</w>
pan ca
sto ol</w>
des cent</w>
des ired</w>
ob ama</w>
cd na</w>
ill ing</w>
ill ance</w>
hel ped</w>
pen n</w>
tur kish</w>
was ting</w>
plic ative</w>
see able</w>
fic ally</w>
ori al</w>
meas ure
tru sts</w>
tru deau</w>
probab ilities</w>
imm ing</w>
consi sts</w>
sho c
tri ed</w>
anti virals</w>
poin ting</w>
eng age</w>
eng aging</w>
develo ps</w>
sub stances</w>
ga ve</w>
pas sage</w>
dist ingu
hou ston</w>
mat s</w>
mat ches</w>
mat ern
popu lar</w>
sup pres
sup plement</w>
star ts</w>
emer ge</w>
accor d
car di
car lo</w>
sour ced</w>
dec ades</w>
inv o
inv en
any more</w>
ther ape
condi tioned</w>
tou ri
offici ally</w>
over come</w>
deci des</w>
ca mels</w>
contro ller</w>
cre dible</w>
vari ations</w>
vari ability</w>
har d
happ y</w>
prof ile</w>
assu mes</w>
doc s</w>
doc trine</w>
poli tico</w>
oc tober</w>
busin ess
19 75</w>
ili ze</w>
contrac tor</w>
univer sal</w>
cho o
ni o
ni e</w>
plan et</w>
susp en
recommen ding</w>
war mest</w>
br ought</w>
defin es</w>
defin ite</w>
confir ming</w>
bio safety</w>
pla in</w>
bro w
trave lled</w>
bor n</w>
bor is</w>
appe aling</w>
predic tive</w>
deter gent</w>
intere stingly</w>
resi du
jec tive</w>
las ts</w>
conta gi
ba h
ba yes
hal t</w>
lan d
ful fil</w>
organi zers</w>
lab our</w>
lab els</w>
inten d</w>
ki bb
us d</w>
regi stration</w>
ed u</w>
ed it
descri bes</w>
sha pe</w>
hand les</w>
10 th</w>
10 16</w>
excep tional</w>
sk y
sk i</w>
sk ill</w>
sk illed</w>
spe ed</w>
spe ech</w>
cul tural</w>
pne umo
web sites</w>
manufac ture</w>
emp irical</w>
non profits</w>
ref erred</w>
stre ets</w>
defini tions</w>
def ence</w>
mid night</w>
obser ve</w>
obser ving</w>
logi c</w>
nega tively</w>
cha pter</w>
pac ific</w>
consu lates</w>
14 3
ough ed</w>
mm atory</w>
argu es</w>
argu ed</w>
wom an</w>
indic ation</w>
survi v
survi ved</w>
survi val</w>
syn thesis</w>
len ses</w>
beli ev
mis sing</w>
detec tion</w>
trac e</w>
trac king</w>
exerci ses</w>
form ally</w>
hospitali zations</w>
fra mework</w>
bal lot</w>
bal lots</w>
nes ted</w>
agre ements</w>
dama ges</w>
dama ged</w>
pathogen ic</w>
pathogen icity</w>
fair e</w>
reser ve</w>
dela yed</w>
australi an</w>
encour aging</w>
proper ties</w>
50 5</w>
88 8</w>
addre ssed</w>
activ ate</w>
activ ated</w>
advan tage</w>
pat r
pack ages</w>
moder na</w>
continu ously</w>
sw imming</w>
recor ds</w>
justi fy</w>
justi fied</w>
phar yn
disrup tions</w>
thir ds</w>
att acks</w>
connec tions</w>
prov inces</w>
nucle oti
cru cial</w>
instruc ted</w>
conver ted</w>
nation wide</w>
contamin ation</w>
mechan ical</w>
mechan isms</w>
mc kibb
zer land</w>
simu lations</w>
exclu sive</w>
decre ases</w>
techn ically</w>
dest inations</w>
joh n</w>
exemp tions</w>
she ets</w>
interpre t</w>
invest ors</w>
care er</w>
care fully</w>
pic tures</w>
pris on</w>
wil d
surve illance</w>
earli est</w>
streng thening</w>
flo od</w>
tele phone</w>
tele vision</w>
27 44</w>
itali ans</w>
sig pr</w>
prohi bit</w>
camp ing</w>
electr on</w>
oblig ation</w>
introduc ing</w>
glas ses</w>
less ons</w>
conven tional</w>
auto matically</w>
experim ents</w>
experim entation</w>
calcul ator</w>
cb p</w>
lac king</w>
nar row</w>
evolu tionary</w>
compen s
statis tical</w>
objec tions</w>
characteri zed</w>
characteri stic</w>
aff ord</w>
hon or</w>
rhin oviruses</w>
russi an</w>
radi ation</w>
evol ve</w>
wai ved</w>
analy ze</w>
techno logies</w>
reservo irs</w>
success fully</w>
ama zon</w>
od d</w>
swit zerland</w>
insi der</w>
achi eved</w>
infla mmatory</w>
newsp apers</w>
my self</w>
inactiv ated</w>
represen tative</w>
construc ted</w>
interven tions</w>
critici sm</w>
11 th</w>
theore tically</w>
met res</w>
evacu ate</w>
focu sing</w>
therap ies</w>
physici ans</w>
gri ffin</w>
sun day</w>
sle ep</w>
won der</w>
reg im
deb ate</w>
prop y
miti g
correspon ding</w>
expan ding</w>
disinfect ant</w>
back ground</w>
electro ly
electro static</w>
circu lation</w>
nonimmigr ants</w>
zoono ses</w>
45 15</w>
fla vi
pho to</w>
pho to
ske ptical</w>
tas mania</w>
wan g</w>
envelo pe</w>
ash ing</w>
devi ce</w>
devi ces</w>
emph asis</w>
cali br
fru it</w>
mun ich</w>
vec tors</w>
ze era</w>
inhal ed</w>
remain ing</w>
arran gements</w>
sud den</w>
optim sstart</w>
aller gies</w>
distinc t</w>
scien ces</w>
furl oughed</w>
capit al</w>
disap pe
breast feeding</w>
fle et</w>
fran k
indu stry</w>
not ably</w>
soli d</w>
mista kes</w>
negli gence</w>
ja zeera</w>
kid ney</w>
replac ing</w>
destruc tion</w>
expres sed</w>
veri fy</w>
agricul ture</w>
relation ship</w>
strugg ling</w>
techni ques</w>
assem ble</w>
demonstr ate</w>
archi ves</w>
stro ke</w>
plat forms</w>
theat ers</w>
deri vative</w>
valu able</w>
colla pse</w>
specim en</w>
attribu ted</w>
eid l</w>
mh v</w>
pau l</w>
yel low</w>
accom mo
proxim ity</w>
genom es</w>
clean ed</w>
hyper tension</w>
influen ced</w>
shif ts</w>
specu lation</w>
128 7</w>
bad ly</w>
blan ket</w>
moun t</w>
retail ers</w>
degrad ed</w>
well being</w>
hepati tis</w>
comor bidities</w>
ration ale</w>
isra el</w>
fati gue</w>
intest inal</w>
attenu ated</w>
circul ating</w>
stockp ile</w>
dynam ics</w>
lombar dy</w>
229 e</w>
blow ing</w>
sali va</w>
thur sday</w>
thail and</w>
induc ed</w>
anten atal</w>
arab ia</w>
tedro s</w>
acce ler
illin ois</w>
escap e</w>
lopin avir</w>
concre te</w>
beij ing</w>
lais sez</w>
feed back</w>
lufth ansa</w>
gibb s</w>
afore mentioned</w>
getop tim</w>
navig ator</w>
matern ity</w>
therape u
bayes ian</w>
mckibb in</w>
0 6</w>
0 m</w>
1 20</w>
2 1
3 1
3 4</w>
3 20</w>
3 02</w>
3 001</w>
4 2</w>
5 2</w>
5 000</w>
5 39</w>
6 8</w>
6 9</w>
6 00</w>
7 3
7 7</w>
7 8</w>
8 6
8 7
8 9</w>
9 4
9 3</w>
9 69
a y
a z
a h</w>
a u</w>
a ids</w>
a tives</w>
a mid</w>
a aa</w>
b f
b n
b y
b d</w>
b n</w>
b ate</w>
b our
b ilities</w>
b 26
b quote</w>
c ents</w>
c ans
d or
d ness</w>
d end</w>
d ently</w>
d ged</w>
e e
e re
e ded</w>
e mails</w>
e uro</w>
f ate</w>
f our
f low
g ment</w>
g astro
g aps</w>
g b26
h vi
h es
h ate</w>
h ance</w>
h all
i to</w>
i on
i on</w>
i sa
i tive</w>
i ous</w>
i sture</w>
j ay</w>
k r</w>
k er
k age</w>
k rup
l f</w>
l le</w>
l ance</w>
l ty</w>
l pr
l ici
l ant
m i</w>
m o</w>
m ou
m ess</w>
m ing
m lun
m box</w>
m organ</w>
n t</w>
n i</w>
n gt
o es</w>
o li
o sc
o mission</w>
o ven</w>
o mitted</w>
o ils</w>
p y
p tions</w>
p one</w>
p ical</w>
p ta</w>
p mc
p raise</w>
p 0m</w>
r i</w>
r o</w>
r al</w>
r ad
r am
r aci
r bd</w>
s f
s in</w>
s an</w>
s can</w>
s als</w>
s wee
s lower</w>
s orts</w>
s light</w>
t c</w>
t w</w>
t ac
t at
t ted</w>
t ter</w>
t ari
t ons</w>
t ably</w>
u red</w>
u bi
u ters</w>
v 2</w>
v on</w>
v an</w>
v age</w>
w p</w>
w ns</w>
w rap
w ering</w>
x ico</w>
y a</w>
y o</w>
y ard</w>
y ale</w>
y lim</w>
z x
z i</w>
th y
th at
in no
in en</w>
in su
in sp
in he
in ter</w>
in ess</w>
in ated</w>
in anim
in ability</w>
in coming</w>
in sufficient</w>
in admissi
an e</w>
an ces</w>
an tim
an ship</w>
an gd
re ci
re lu
re sur
re act</w>
re open</w>
re produce</w>
re aching</w>
re lating</w>
re combination</w>
re productive</w>
re presents</w>
re posit
re bate</w>
re uters</w>
ti tion</w>
ti se</w>
ti redness</w>
co le</w>
co ef</w>
co cc
co variance</w>
co effici
co operation</w>
ar u</w>
ar ms</w>
ar range</w>
ar rest</w>
en tr
en do
en demic</w>
en ni
en dly</w>
en tary</w>
en hance</w>
ou tri
te e
te ll
te ach
te dly</w>
al er
al and</w>
al lo
al be
al ong
or f
or r
or ted</w>
or leans</w>
vi d</w>
vi n</w>
vi ct
ro lling</w>
ro man</w>
it ation</w>
as ks</w>
as ser
as sign
ac king</w>
ac he</w>
ac et
ac knowle
ac compani
st an</w>
st ently</w>
st ories</w>
no ve
no red</w>
ec tive</w>
at lant
il a</w>
wh oles
di v</w>
di ans</w>
di ure
ha mp
ha ble</w>
ha bit</w>
es tim
pl u
pl ate</w>
pl um
ru led</w>
ru ral</w>
si do
si des</w>
si gest</w>
un d</w>
un it</w>
un available</w>
un limited</w>
un approved</w>
un know
un necessarily</w>
un usual</w>
un realistic</w>
un predictable</w>
li g
li d</w>
li ve
li am</w>
li zed</w>
li tis</w>
li fer
su es</w>
su ed</w>
se t
se x</w>
se es</w>
se at</w>
se ment</w>
se em
se aled</w>
se inen</w>
lo d</w>
lo s</w>
lo ses</w>
de por
con sci
con sequence</w>
tr o</w>
tr ad
tr ap
the tical</w>
ma x</w>
ho c</w>
pro of
pro lon
pro jec
pro phy
pro secu
pro lifer
sp ra
ur i</w>
ur ine</w>
po sing</w>
me tal</w>
me xico</w>
be y</w>
be ars</w>
be lon
ch in</w>
ch an</w>
ch ats</w>
so le
so de</w>
so apy</w>
tion ing</w>
ex it</w>
la y</w>
la g</w>
la x</w>
la under</w>
le u
le y</w>
le ase</w>
bu rea
ne go
ne pal</w>
ver an
inf r
inf lation</w>
ad vo
ad mitted</w>
ad opt</w>
ad oles
ta min
ta ins</w>
sa ke</w>
sa fest</w>
ff p2</w>
pe w</w>
qu et
we al
we ap
we are
sh ar
sh ir
sh ed
sh ale</w>
ir responsible</w>
do ses</w>
do ws</w>
do main</w>
mo le</w>
mo dest</w>
mo isture</w>
ap ple</w>
he l</w>
he ating</w>
he dge</w>
per carbonate</w>
per lman</w>
pre existing</w>
ag e
to we
au to</w>
am ing</w>
am bul
com mu
peo ple
go ld</w>
go sti
ci pl
ci sc
wor n</w>
wor th
wor sen</w>
corona viru
du st</w>
fe ll</w>
fe lt</w>
fe line</w>
ter r
ren ko</w>
20 5</w>
20 12</w>
im f</w>
tic ity</w>
pa p</w>
pa ted</w>
bo on</w>
bo tt
bo dy
bo ston</w>
ssi ons</w>
oun ding</w>
sur ge
gi c</w>
gi ble</w>
gi tis</w>
gi eva</w>
ra i
ra id</w>
ra is
ra ising</w>
ra ab</w>
coun c
enti ves</w>
ing ness</w>
ing estion</w>
cont ents</w>
cont acting</w>
sc ru
sc are</w>
inc ur
inc entives</w>
gu t</w>
gu lar</w>
gu pta</w>
gu angd
da y
comm erce</w>
ris ki
fi f
ans wering</w>
tu de</w>
tho ld</w>
str and</w>
str act</w>
wa ves</w>
op hen</w>
for th</w>
for mation</w>
for given</w>
mon te</w>
af raid</w>
rec tan
is tically</w>
el as
el li
ste m</w>
pub lici
fin i
fin ds</w>
low ering</w>
mar ri
ten ing</w>
ten tion</w>
ten ant</w>
comp rises</w>
fir stly</w>
prote st</w>
ph d</w>
pp v</w>
ali gn
ali ze</w>
ali zed</w>
ali zation</w>
ali zing</w>
like wise</w>
sel ected</w>
pr an
pr on
sen ior</w>
trans ferred</w>
inter vals</w>
fun ded</w>
stan tly</w>
brea k
brea king</w>
mil dly</w>
read s</w>
read er</w>
air s</w>
imp re
imp er
exp ire</w>
exp ands</w>
gener ating</w>
hum oral</w>
cle ared</w>
dis mis
dis semin
dis cipl
pri ority</w>
plo ts</w>
plo tting</w>
respon dents</w>
ici ently</w>
dro w
dro ps</w>
fl at</w>
fl our</w>
exam ined</w>
pan icked</w>
des ire</w>
cd c
nee d
speci fied</w>
contr adic
fa m</w>
fa ke</w>
fa res</w>
fa qs</w>
rela tes</w>
rela pse</w>
hel ping</w>
pi gs</w>
tur key</w>
plic it</w>
hosp hate</w>
meas ured</w>
ques tioned</w>
mode ling</w>
consi ders</w>
consi stently</w>
stric tly</w>
sho ck</w>
tri age</w>
ga z
ga tive</w>
posi tions</w>
posi tives</w>
sear ching</w>
syste matic</w>
ty len
gre ase</w>
loo se</w>
mat ure</w>
sup press</w>
sup plemen
sup plied</w>
cri tically</w>
log ically</w>
emer ges</w>
dec lines</w>
sm an</w>
sm ith</w>
produc ing</w>
any ways</w>
ani me</w>
ban ning</w>
ban krup
vo tes</w>
vo ided</w>
sam mlun
stra ight</w>
tiz ed</w>
sign ing</w>
sign ature</w>
epi sode</w>
gg ed</w>
gro wn</w>
issu ing</w>
issu ance</w>
fur in</w>
main stream</w>
ca ke</w>
vie wing</w>
vie wed</w>
contro ls</w>
vari ed</w>
hy bri
chec k
proc essed</w>
pur sue</w>
har sh</w>
jo in</w>
den ying</w>
den tally</w>
tex ts</w>
poli tically</w>
19 1</w>
19 99</w>
19 60
contrac tors</w>
cho ices</w>
exper tise</w>
incre ments</w>
susp ici
elec tric</w>
war n</w>
war nings</w>
br ings</w>
shi pping</w>
shi pped</w>
char t</w>
cough ed</w>
clu es</w>
clu bs</w>
fil es</w>
fil ers</w>
fil tering</w>
ven ia</w>
bio informa
sing ing</w>
stat news</w>
pla yed</w>
concer ning</w>
func tional</w>
equ ations</w>
bro wn</w>
scienti fically</w>
hu bs</w>
predic ting</w>
seri ousness</w>
bin d</w>
col or
col or</w>
col our</w>
ig nored</w>
resi stant</w>
resi dential</w>
mini mi
jec tion</w>
tro pical</w>
suppor ted</w>
tis er</w>
tis sues</w>
fri dge</w>
fri endly</w>
infecti vity</w>
experi ment</w>
atten ding</w>
beg ins</w>
euro zone</w>
ki stan</w>
us er</w>
oper ations</w>
associ ate</w>
ed t</w>
suff iciently</w>
sha pe
sha ke</w>
gar dens</w>
public ly</w>
reli ably</w>
ber g</w>
cul tures</w>
ign oring</w>
differen ti
alcoho ls</w>
multi plicative</w>
def ine</w>
def end
dr ying</w>
dr astic</w>
cover ings</w>
fore seeable</w>
cha ins</w>
cha os</w>
san jay</w>
consu lt</w>
consu mers</w>
lead s</w>
14 9</w>
14 4</w>
prac tically</w>
environ ments</w>
argu ably</w>
bri ef</w>
cr ash</w>
gra ve</w>
indic ations</w>
indic ating</w>
institu tes</w>
err al</w>
expla ining</w>
survi ves</w>
ble aching</w>
leng ths</w>
nu clear</w>
beli ef</w>
inci al</w>
inci dence</w>
inci dents</w>
trac ker</w>
bal an
bal lo
immigr ants</w>
stimu late</w>
grad es</w>
lor d</w>
deli vered</w>
investi gative</w>
conclu de</w>
conclu sive</w>
claim ing</w>
wal es</w>
shu tdown</w>
expen se</w>
sani tiser</w>
end an
ace tamin
dispo sed</w>
quali fying</w>
impro ves</w>
impro ved</w>
activ ation</w>
advan ces</w>
advan tages</w>
don or</w>
wat er
sir mc</w>
conduc ting</w>
her pes
ner ship</w>
ow ned</w>
noti fication</w>
17 1</w>
cy to
sw ab
sw ine</w>
bol son
consider ations</w>
inve sting</w>
recor ded</w>
justi fiable</w>
compu ters</w>
compu tations</w>
phar macy</w>
crow ds</w>
att ached</w>
prov incial</w>
intro duce</w>
conver sation</w>
conver gence</w>
missi ons</w>
quo tes</w>
territ orial</w>
implemen ting</w>
opini ons</w>
advis ories</w>
cl er
squ are</w>
win ter</w>
win dow</w>
win dows</w>
thes ized</w>
exclu ding</w>
exclu ded</w>
feel ings</w>
design ing</w>
design ation</w>
sanitiz ing</w>
dan ger</w>
pool ing</w>
compar able</w>
princi ples</w>
princi pal</w>
15 5</w>
nas hvi
var phi</w>
stri ke</w>
attemp ting</w>
adap t</w>
interpre ted</w>
overwhel m</w>
overwhel mingly</w>
care ful</w>
grea test</w>
icon pdf</w>
mach iner
pic king</w>
pic ked</w>
presu me</w>
surve ys</w>
streng then</w>
rat ings</w>
refu sing</w>
refu sal</w>
extr action</w>
combin ed</w>
tradi tion</w>
vaccin ations</w>
mortg ages</w>
neighb our
spl ashing</w>
diver si
sig ma</w>
prohi bi
prohi bited</w>
neu ro
adju st
head ed</w>
toil ets</w>
antibio tic</w>
electr ical</w>
introduc tion</w>
alterna tively</w>
ric ane</w>
will ingness</w>
approxi mation</w>
hypo thetical</w>
calcul ating</w>
immuno logy</w>
stic ated</w>
home land</w>
home made</w>
preci se</w>
evalu ated</w>
aff airs</w>
hon our</w>
reti red</w>
refl ect</w>
roo ting</w>
acqu ire</w>
analy ses</w>
swit ch</w>
replic ating</w>
liqu idity</w>
depar ted</w>
mani pu
97 3</w>
ax le</w>
fall ing</w>
fall out</w>
my th</w>
ss ors</w>
inactiv ate</w>
represen ted</w>
divi dend</w>
lif ted</w>
partici p
outlin ing</w>
outlin ed</w>
primar ies</w>
critici zed</w>
discu ssion</w>
discu ssions</w>
discus ses</w>
rn ase</w>
rn ases</w>
aden ovirus</w>
wel come</w>
appoin tments</w>
far ms</w>
sun light</w>
won dering</w>
yu ki</w>
yu sha</w>
deb ts</w>
quanti le</w>
comfor t</w>
sero logical</w>
sero types</w>
expan ded</w>
recover ies</w>
circu lates</w>
gradu ate</w>
bra z
nur ses</w>
rou ting</w>
ske wed</w>
tas te</w>
ut c</w>
uti lity</w>
envelo ped</w>
diarr hoea</w>
exc ess</w>
exc use</w>
mix ture</w>
after wards</w>
withdra wn</w>
speciali sts</w>
fundam entally</w>
60 8
85 pt</w>
job less</w>
ze aland</w>
inhal ation</w>
datas et</w>
cana dians</w>
distinc tion</w>
capit a</w>
borro wer</w>
borro wers</w>
effici ently</w>
bat ch</w>
bat tle</w>
fran cisc
pha c</w>
sick est</w>
coo king</w>
mista ke</w>
doz ens</w>
histor ically</w>
compon ent</w>
antici pated</w>
consul tation</w>
acade my</w>
meaning less</w>
meaning ful</w>
cryst al</w>
110 1</w>
33 7</w>
crea tive</w>
kid neys</w>
smar ter</w>
wou l
wou ld
vio lation</w>
destruc tive</w>
agricul tural</w>
partis an</w>
partis anship</w>
geor gieva</w>
expec tations</w>
relation ships</w>
techni que</w>
collabor ation</w>
assem bly</w>
repatri ation</w>
59 pm</w>
gt ngt
hr v</w>
sou thern</w>
sme ll</w>
vac ation</w>
rep o</w>
enhan ced</w>
orm al</w>
illu stra
deduc tion</w>
licen sed</w>
colum bia</w>
liter ally</w>
liter ature</w>
graph y</w>
establish ment</w>
manife stations</w>
occasi onally</w>
algorith m</w>
macro economic</w>
pit ch</w>
indepen dently</w>
injur y</w>
acci dents</w>
succe eded</w>
propo sal</w>
mel tdown</w>
movi e</w>
mosqu ito</w>
surpri se</w>
respec tively</w>
enzy mes</w>
catastro ph
extinc tion</w>
tane ously</w>
bacteriopha ge</w>
guarante ed</w>
anesthes ia</w>
bil a
brit ain</w>
fing ers</w>
hur ricane</w>
ry an</w>
slo venia</w>
wri tes</w>
math sf</w>
spu tum</w>
sophi sticated</w>
wei gh</w>
door knobs</w>
mod infected</w>
tok yo</w>
femal e</w>
stig ma</w>
discour age</w>
foo thold</w>
stoch astic</w>
obste tr
substitu te</w>
suppli ers</w>
invasi on</w>
puri fi
transi tion</w>
famili ar</w>
weak ened</w>
disper sion</w>
phenomen on</w>
pulmon ary</w>
bag s</w>
cit ations</w>
cli ents</w>
dash board</w>
eti quet
jama ica</w>
maca ques</w>
ok ay</w>
ox ford</w>
resc ue</w>
arc gis</w>
rober t</w>
susta ined</w>
dedic ated</w>
magn itude</w>
mirr or</w>
infe rences</w>
got ten</w>
gov t</w>
fel low</w>
cel lular</w>
surro gate</w>
guil ty</w>
formul a</w>
compa tible</w>
fom ite</w>
panca kes</w>
distingu ish</w>
accord ingly</w>
cardi o
inven tory</w>
business insider</w>
nio sh</w>
suspen sion</w>
bah n</w>
sky pe</w>
pneumo cocc
believ es</w>
wild life</w>
compens ate</w>
calibr ation</w>
az ar</w>
bf gs</w>
cans ino</w>
four th</w>
gb26 26</w>
isa ac</w>
lpr s</w>
ubi qu
inanim ate</w>
relu ct
reposit ory</w>
coeffici ents</w>
outri ght</w>
teach ers</w>
albe it</w>
along side</w>
acet ate</w>
accompani ed</w>
nove mber</w>
atlant a</w>
wholes ale</w>
estim ating</w>
sido renko</w>
seem ingly</w>
prolon ged</w>
prolifer ate</w>
belon gs</w>
sole ly</w>
burea u</w>
nego ti
adoles cents</w>
weare rs</w>
shir t</w>
shed ding</w>
ambul ance</w>
gosti n</w>
body weight</w>
rais ers</w>
guangd ong</w>
riski er</w>
rectan gular</w>
tylen ol</w>
supplemen tal</w>
sammlun gen</w>
1960 s</w>
bioinforma tics</w>
acetamin ophen</w>
herpes virus</w>
bolson aro</w>
nashvi lle</w>
machiner y</w>
francisc o</w>
gtngt kr</w>
etiquet te</w>
pneumococc al</w>
0 8</w>
0 18</w>
0 25</w>
0 36</w>
0 99
1 19
1 80</w>
1 29
1 27</w>
1 17
1 200</w>
1 23</w>
2 2
2 co
2 22</w>
2 2nd</w>
3 8
3 19</w>
3 00
3 10
4 th</w>
4 00
4 01</w>
5 th</w>
5 ps</w>
5 97
6 3
6 6</w>
6 3</w>
7 b
7 9</w>
7 05
9 99</w>
9 75</w>
9 320</w>
a x</w>
a mo
a wa
a rent</w>
a tively</w>
a que
a 036</w>
b c</w>
b on</w>
b al</w>
b ic
b lin
b ated</w>
b last</w>
b son</w>
b tw</w>
c f</w>
c ation</w>
c am
c ge</w>
c ated</w>
d s
d t</w>
d ant</w>
d sec
d ani
d fr
d beta</w>
d trump</w>
d den</w>
d sight</w>
e 2</w>
e q</w>
e bo
e ar</w>
e able</w>
e ars</w>
e ties</w>
e bre
f s</w>
f at</w>
f ter</w>
f ili
f icial</w>
f illing</w>
g n</w>
g in
g ou
g lu
g ents</w>
g are
h r</w>
h i</w>
h exam
i p</w>
i x</w>
i ted</w>
i st</w>
i ze</w>
j enni
k n</w>
k es
k un
k lo
k le
k is
k irin</w>
l a</w>
l or</w>
l li
l est</w>
l ours</w>
l ump</w>
m al</w>
m all</w>
m its</w>
m nu
m son
n l
n p
n l</w>
n c</w>
n m</w>
n ine</w>
n wa
n pv</w>
n atal</w>
n sr</w>
o o</w>
o so
o sa
o gh</w>
o ms</w>
o vern
o tic</w>
o vere
p n
p 3</w>
p ru
p tive</w>
p tic</w>
p hic</w>
p hosphate</w>
r d</w>
r is</w>
r ac
r he
r ay</w>
r ally</w>
r ine</w>
r ating</w>
r amp</w>
r ics</w>
r xiv</w>
r binom</w>
r ace</w>
r hes
s g
s d</w>
s 2</w>
s as
s ac
s ad
s lu
s est</w>
s ically</w>
s ni
s ale</w>
s core</w>
s dashboard</w>
t s
t t</w>
t z</w>
t ate</w>
t tes</w>
t us</w>
t ance</w>
t ge
t ml</w>
t oral</w>
u r</w>
u ine</w>
u ber</w>
u cle
u tory</w>
v or
v es
v ap
v ably</w>
w re
w es</w>
w in</w>
w ly</w>
w ad
w ore</w>
w ine</w>
w ary</w>
w ong</w>
w ins</w>
w ire</w>
x ing</w>
x lim</w>
y c
y un
y en</w>
y right</w>
y ahu</w>
y lor</w>
z u
z ar
z en</w>
th 2</w>
th on</w>
th al
th es</w>
th read</w>
th ick</w>
in y</w>
in tly</w>
in tru
in duce</w>
in effective</w>
in comes</w>
in corporate</w>
in sically</w>
an g</w>
an ec
an ting</w>
an gerous</w>
an ces
re s
re f</w>
re se
re im
re sted</w>
re side</w>
re ject</w>
re apply</w>
re solution</w>
re sort</w>
re ward</w>
re aches</w>
re solve</w>
re finance</w>
re pair</w>
re tention</w>
re funded</w>
re jection</w>
ti e</w>
ti ll</w>
ti ght</w>
ti ary</w>
ti ful</w>
ti lity</w>
er als</w>
er ship</w>
co l</w>
co lo
co ding</w>
co very</w>
co ck</w>
co ord
co operating</w>
co vs</w>
co sme
co efficient</w>
ar med</w>
ar rested</w>
en a</w>
en ab
en th</w>
en ce
en coun
en em
en ces</w>
en 13
en orm
en coded</w>
en stein</w>
ou ter</w>
ou ses</w>
ou red</w>
te es</w>
te as
te ur
te ch</w>
te ds</w>
te ur</w>
on es
on ous</w>
on ics</w>
on tari
al y
al ar
al es</w>
al loc
al leg
al tun
al arial</w>
or ly</w>
or ney</w>
or dering</w>
vi er</w>
vi ate</w>
vi gi
vi tro</w>
ro of</w>
ro me</w>
ro dents</w>
ro gers</w>
ro lled</w>
ro bust</w>
it a</w>
it al</w>
it ting</w>
it ous</w>
it oes</w>
as s</w>
as i</w>
as sa
as ka</w>
as sign</w>
ac art</w>
ac knowledge</w>
ac counting</w>
st one</w>
st ating</w>
st ack</w>
st altun
no on</w>
no one</w>
no mination</w>
no lo</w>
ic al
ic he
ec ho
ec ht
at so
at ern
il st</w>
il way</w>
wh iche
wh atso
wh ilst</w>
di so
di stric
di re</w>
di rt</w>
di strict</w>
di zz
di vor
ha plo
ha emo
ha bits</w>
ha gel</w>
es o
pl in</w>
pl ed</w>
pl ague</w>
ru m
ru sh</w>
ru ns</w>
ru bb
si ded</w>
un il
un de
un used</w>
un paid</w>
un expected</w>
un law
un intended</w>
un dance</w>
un stable</w>
un constitutional</w>
un folding</w>
un controlled</w>
un authorized</w>
un consci
li st
li sting</w>
li ved</w>
li ghts</w>
li kes</w>
li ft</w>
li ability</w>
li echt
yo ga</w>
su ici
su stain
se ats</w>
se wing</w>
se dly</w>
se ller</w>
se wage</w>
se gments</w>
lo sis</w>
lo ops</w>
lo wered</w>
lo idal</w>
de x</w>
de al
de an</w>
de tr
de hy
de bit</w>
de pression</w>
de ut
de vas
con i
con ve
con stra
con feren
con cei
con jun
con soli
tr as
tr ies</w>
tr ash</w>
the li
the red</w>
ma iling</w>
ma gaz
ho ods</w>
pro pan
pro jects</w>
pro gression</w>
sp a
sp er
sp on
sp ur
sp here</w>
sp df</w>
sp ouses</w>
ab c</w>
ab ilize</w>
ab stract</w>
ab undance</w>
ur ing</w>
ur ging</w>
po p</w>
po ver
po sting</w>
po ols</w>
po cket</w>
po orly</w>
po sedly</w>
me al</w>
me ets</w>
be have</w>
be ach</w>
ch un
ch ur
ch ri
ch arities</w>
so a
tion 1</w>
ri d</w>
ri a</w>
ri gh
ri bon
ri ot</w>
ex cell
ex cre
ex pose</w>
ex trac
ex press</w>
ex pedi
la virus</w>
la tive</w>
la yer</w>
la tionary</w>
la vage</w>
bu sy</w>
bu tton</w>
bu yers</w>
bu cket</w>
mi tes</w>
mi ss</w>
mi xed</w>
ne al</w>
ne ten
ne ls</w>
ne war
ver sa</w>
ver tical</w>
inf er</w>
inf ty</w>
inf late</w>
inf eri
mp y</w>
mp as</w>
mp tive</w>
ad han
ad option</w>
sa har
sa tell
sa gents</w>
pe l</w>
pe tition</w>
cor ps</w>
cor ner</w>
cor rid
cor relations</w>
cor neal</w>
qu er
qu asi</w>
qu atern
gh ebre
we st
sh an
sh ou
sh es</w>
sh at
sh ore</w>
sh ment</w>
sh ire</w>
sh rou
sh rin
sh tml</w>
fro zen</w>
ir able</w>
do c</w>
do es
mo du
mo vements</w>
ap p</w>
ap preci
ap hr
ve l
he ar
per ately</w>
per cei
per mit</w>
pre ser
pre fer</w>
pre ferences</w>
pre fer
ag o
to ps</w>
to oth
to mer
to ff</w>
to wns</w>
au m</w>
au fen
infec teds</w>
am ong
com bat</w>
com plying</w>
go als</w>
ci ally</w>
ci tes</w>
ci dal</w>
ci gare
wor thy</w>
wor dsec
corona viri
du ke</w>
du ci
du ms</w>
fe ver
ter ns</w>
ter minal</w>
ter tiary</w>
ren s</w>
ren ess</w>
ren ters</w>
ren tal</w>
20 2</w>
20 200
20 degc</w>
20 440</w>
um bent</w>
im min
im provi
im ental</w>
im posing</w>
im plicit</w>
lu tion</w>
lu cent</w>
lu zon</w>
par is</w>
par asi
par tial</w>
par lours</w>
pa th
pa ys</w>
pa kistan</w>
bo t</w>
bo ss</w>
bo son</w>
bo dily</w>
ce le
ce ments</w>
fac ed</w>
oun ced</w>
ke holders</w>
ke vin</w>
ke ogh</w>
sur round</w>
sur fact
mu tual</w>
mu sic</w>
gi sh</w>
gen eva</w>
gen uine</w>
ra p</w>
ra in</w>
ra ilway</w>
hi de</w>
hi king</w>
hi sto
hi dden</w>
sy m
sy ria</w>
coun ties</w>
coun selling</w>
enti ties</w>
cont acted</w>
wi ped</w>
sc a
sc ary</w>
sc rap
sc ared</w>
sc aling</w>
sc ram
sc ales</w>
ev ening</w>
inc ap
inc lined</w>
inc umbent</w>
gu y</w>
gu ard</w>
da e</w>
da vid</w>
sti mated</w>
em a</w>
em as</w>
em bed
em bour
ht m</w>
comm it</w>
tra il</w>
tra ine
ris m</w>
ol ds</w>
fi dd
ans i</w>
out look</w>
out doors</w>
tu ber
min d
min ds</w>
min nes
str ay</w>
ul tras
ll a</w>
op ened</w>
op position</w>
op pon
op aci
op sdashboard</w>
for k</w>
for mu
for bid
for bid</w>
mon et
mon key</w>
diff ers</w>
af m</w>
af ai
acc u
acc um
acc essi
is bn</w>
ju an</w>
ju dge</w>
el lular</w>
ste red</w>
fin kel</w>
ess ence</w>
ess ors</w>
ess entials</w>
gr anting</w>
ge o</w>
ge al</w>
ge ar</w>
ge ous</w>
mar ke
mar ks</w>
mar ked</w>
ten ed</w>
ten tly</w>
ten nes
ten sions</w>
ten dency</w>
sta keholders</w>
cur tail
na i
na eco
na mely</w>
na 2co
ph y</w>
ph ali
ph ones</w>
med ary</w>
med ically</w>
med rxiv</w>
can ned</w>
ari se</w>
pr of</w>
pr ints</w>
sen ator</w>
trans lations</w>
trans lucent</w>
inter cep
inter mit
inter ference</w>
inter im</w>
inter acting</w>
stan ford</w>
mil l
bas ics</w>
publi sh</w>
tim ing</w>
ple as
reas suring</w>
han g</w>
han cock</w>
air plane</w>
with standing</w>
clo ses</w>
clo sure</w>
clo sest</w>
clo thes</w>
exp and</w>
exp ects</w>
exp ecting</w>
govern ance</w>
govern mental</w>
appro ves</w>
gener ation</w>
hum p</w>
off en
uni on</w>
cle av
dis h</w>
dis count</w>
dis solution</w>
dis charged</w>
dis playing</w>
dis charges</w>
dis proportion
dis covery</w>
respon ders</w>
bi o</w>
of covid</w>
chan nels</w>
fo ods</w>
dro mats</w>
dro medary</w>
exam ines</w>
exam ination</w>
pan go
pan ose</w>
vir gin
sto od</w>
des k</w>
des ic
des irable</w>
des perately</w>
speci fy</w>
repor ters</w>
cu e</w>
cu ts</w>
cu lar</w>
cu losis</w>
cu toff</w>
contr ary</w>
bac ks</w>
pi g</w>
pi ed</w>
protec ted</w>
protec ts</w>
was ted</w>
see ing</w>
fic tion</w>
fic ate</w>
ori c</w>
ori a</w>
ori st</w>
meas les</w>
tru m</w>
mode led</w>
mode lled</w>
all ing</w>
all ed</w>
imm uni
sho pped</w>
tri gge
eng aged</w>
under go</w>
under mine</w>
under stood</w>
sub mission</w>
sub set</w>
sub mitted</w>
sub jective</w>
ga p</w>
ga ins</w>
pas sive</w>
pas sages</w>
thin ks</w>
dist ur
dist orted</w>
sear ched</w>
emplo y</w>
cen tre
restric tive</w>
ran ges</w>
quar t</w>
fol ded</w>
gre g
gre w</w>
gre ece</w>
indi an</w>
indi rec
loo sen
loo sely</w>
mat t</w>
mat ched</w>
auth or
sup pression</w>
sup posedly</w>
high light</w>
econo m
car thy</w>
car bon</w>
regu lates</w>
dec ade</w>
inv ade</w>
temp ting</w>
medi an</w>
medi ated</w>
produc tivity</w>
ther mo
iso propy
iso propan
tain ing</w>
up hold</w>
up coming</w>
up shot</w>
vo id</w>
vo mit
sam ine</w>
individu ally</w>
sign al</w>
sign als</w>
epi theli
ger ing</w>
scho lar
scho oling</w>
tou rism</w>
mem ory</w>
mem ber
over ly</w>
over see</w>
over reacting</w>
contin ents</w>
ca red</w>
ca tho
mit che
vie w
sev enth</w>
affec ting</w>
glo be</w>
chec king</w>
evi ctions</w>
ach ment</w>
proc essor</w>
har dly</w>
har ris</w>
sch ni
jo se
jo intly</w>
org ans</w>
spread ers</w>
mic ron</w>
mic hel</w>
den o
den y</w>
den ed</w>
den se</w>
den gue</w>
inte lli
pot ato
19 22</w>
19 94</w>
19 48</w>
ili an</w>
ili ation</w>
health ier</w>
comple ting</w>
cho se</w>
ni aid</w>
plan ts</w>
elec tive</w>
elec toral</w>
war ded</w>
br ace</w>
fr am
ny u</w>
thro wing</w>
dru m</w>
lon g
char set</w>
preven ted</w>
cap s</w>
cap su
cap abilities</w>
distan ces</w>
difficul ties</w>
clu e</w>
clu sters</w>
ven d
ven ture</w>
bio medical</w>
bio cidal</w>
stat utory</w>
exi stence</w>
func tioning</w>
ef s</w>
snee zed</w>
exten ds</w>
exten ding</w>
exten sions</w>
glob ally</w>
scienti st</w>
bor row</w>
seri al</w>
col lar</w>
col loidal</w>
deter i
deter mini
ig g</w>
mini sters</w>
mini stries</w>
tro ops</w>
phys ics</w>
conta geous</w>
lan tic</w>
tail ored</w>
resul ted</w>
mul ti</w>
organi zed</w>
organi sations</w>
safe guar
kore ans</w>
inten se</w>
us da</w>
identi ty</w>
recei pt</w>
distribu ting</w>
distribu te</w>
oper ates</w>
regi ster</w>
initi atives</w>
ed ingly</w>
suff ice</w>
suff ere
descri ptive</w>
sha h</w>
sha w</w>
sha ped</w>
ster ile</w>
spec trum</w>
benef ici
anal o
announ cements</w>
youn gest</w>
ber lin</w>
ber nie</w>
cul tured</w>
ign s</w>
ign or
ign ore</w>
differen tial</w>
ref erral</w>
coll ateral</w>
stre p</w>
stre ssed</w>
pol lution</w>
def en
def lationary</w>
detail ing</w>
orig ins</w>
orig ination</w>
dr yer</w>
arri vals</w>
quick est</w>
fore most</w>
cha ired</w>
cha otic</w>
cha plin</w>
fat ty</w>
fat alities</w>
san d
san itary</w>
consu me</w>
consu late</w>
consu ming</w>
lead ership</w>
14 3</w>
14 th</w>
14 73</w>
malari al</w>
scre en
scre ens</w>
dri ven</w>
dri ft</w>
ep ic
argu ing</w>
argu able</w>
dra matic</w>
dra matically</w>
lat rine</w>
hin ts</w>
hin dsight</w>
survi ving</w>
ass essed</w>
carri es</w>
len e</w>
len der</w>
nu tri
rout ine
mis sed</w>
mis understanding</w>
mis informed</w>
mis fold</w>
new s
new sagents</w>
29 7</w>
separ ately</w>
detec ting</w>
detec table</w>
trac ked</w>
hospitali zation</w>
thre sho
grap hs</w>
secur ities</w>
agre es</w>
dama ging</w>
broad ly</w>
circ les</w>
presen ting</w>
presen tations</w>
immigr ant</w>
gene tics</w>
micro wave</w>
micro scope</w>
bit or</w>
exac er
claim spdf</w>
determin es</w>
bir d</w>
ima ges</w>
wal ks</w>
encour ages</w>
succ ession</w>
succ essive</w>
shu t
shu tting</w>
flu shing</w>
ite m</w>
law suit</w>
law rence</w>
occu pied</w>
50 7
50 7</w>
50 1</w>
sani tize</w>
dispo si
quali fications</w>
impro per</w>
impro vement</w>
investig ated</w>
bur i
bur n</w>
bur sement</w>
don ate</w>
pat terns</w>
13 2</w>
13 th</w>
her pes</w>
ow nership</w>
noti fy</w>
continu ed</w>
transp arent</w>
17 th</w>
17 205</w>
spi kes</w>
chlor ite</w>
contracep tives</w>
schedu ling</w>
recor dings</w>
asse mb
justi fication</w>
justi fications</w>
compu tation</w>
compu tational</w>
phar ma</w>
disrup ting</w>
bathro oms</w>
crow ding</w>
att orney</w>
manag er</w>
cru de</w>
instruc tion</w>
conver t</w>
may o</w>
propor tional</w>
nation ality</w>
advis er</w>
colle ges</w>
mc carthy</w>
squ ats</w>
squ ee
win ning</w>
thes es</w>
simu lated</w>
exclu des</w>
design ate</w>
sanitiz ers</w>
teg nell</w>
post pone</w>
post natal</w>
explan ations</w>
26 1</w>
attemp ted</w>
adap tations</w>
she er</w>
stoc king</w>
custo mer</w>
sugges tion</w>
care r</w>
fec v</w>
swe ating</w>
slow ed</w>
wil liam</w>
sett les</w>
presu med</w>
presu mptive</w>
monit ored</w>
where ver</w>
flo or</w>
flo at</w>
flo wn</w>
flo ors</w>
flo ating</w>
mac ro</w>
worri es</w>
tradi tionally</w>
preval ent</w>
categ ori
dil ator</w>
sco res</w>
vali dated</w>
vali dating</w>
revie wers</w>
asp x</w>
diver gence</w>
chr ono
chr onous</w>
adju sting</w>
head aches</w>
head ache</w>
opt mc</w>
small pox</w>
electr ons</w>
gor finkel</w>
less ly</w>
less ness</w>
red un
conven i
conven tion</w>
hypo x
hypo thesized</w>
hypo chlorite</w>
immuno compromised</w>
18 60</w>
lac tic</w>
tal ks</w>
home owners</w>
spr inger</w>
laun dromats</w>
evalu ates</w>
line age</w>
line ages</w>
travel er</w>
challeng ed</w>
16 1</w>
16 29</w>
hon est</w>
refl ected</w>
viro logical</w>
viro logist</w>
roo t</w>
acqu iring</w>
evol ved</w>
stran gers</w>
wai ve</w>
analy tical</w>
free ly</w>
30 99</w>
ama zing</w>
swit ches</w>
insi st</w>
assi st</w>
achi e
disp u
bul let</w>
persi stent</w>
mut ants</w>
economi sts</w>
90 7
ax is</w>
inactiv ation</w>
inactiv ating</w>
represen tation</w>
lif ting</w>
degre es</w>
que en</w>
prescri bed</w>
partici pate</w>
critici sed</w>
caffe inated</w>
discus sing</w>
11 500</w>
bla ming</w>
super market</w>
trou bling</w>
mathema tics</w>
journ ali
ele ments</w>
far mers</w>
gri m</w>
gri ef</w>
yu an</w>
homo gene
modi fy</w>
afric an</w>
phil lips</w>
phil oso
expan sion</w>
disas ters</w>
circu it</w>
down load</w>
23 46
bra in</w>
bra tions</w>
fla g</w>
ot t</w>
ot m</w>
sil ly</w>
envelo pes</w>
concep ts</w>
exc essive</w>
corti sol</w>
after noon</w>
speciali st</w>
speciali zed</w>
donal dtrump</w>
transpor ting</w>
cyc ling</w>
25 degc</w>
48 7
48 69
fru its</w>
fru stration</w>
gy m</w>
gy naeco
mun ici
sn ps</w>
remain ed</w>
coordin ate</w>
arran ged</w>
arran gement</w>
metr ics</w>
marg inal</w>
forec asts</w>
child care</w>
child hood</w>
child birth</w>
antiretro virals</w>
borro wing</w>
effici ency</w>
optimi stic</w>
breast feed</w>
breast milk</w>
12 th</w>
bid en</w>
eth ical</w>
eth ics</w>
nb k
nano particles</w>
sick en</w>
indu stries</w>
coo ked</w>
cop y</w>
cop ies</w>
cop yright</w>
alle viate</w>
not withstanding</w>
confin ed</w>
promp t</w>
promp ted</w>
expe l</w>
domin ic</w>
consul ting</w>
chemi sts</w>
negli gible</w>
cryst alli
77 11</w>
crea m</w>
ip c</w>
ip ca</w>
ja il</w>
jam es</w>
nsp 3</w>
smar t</w>
intr insically</w>
intu itive</w>
inser ted</w>
inser tions</w>
real istically</w>
real donaldtrump</w>
replac ement</w>
vio lations</w>
holi days</w>
toler ance</w>
counter tops</w>
geor ge</w>
expec tation</w>
responsi bilities</w>
transcri ption</w>
repatri ate</w>
concentra ted</w>
bail out</w>
puni tive</w>
puni shment</w>
sar sr</w>
yes us</w>
diplo matic</w>
plat form</w>
liber ty</w>
liber ties</w>
deduc tible</w>
congre g
promo te</w>
moti vated</w>
pric ing</w>
pric ed</w>
licen see</w>
frag ments</w>
colla p
colum n</w>
specim ens</w>
graph ics</w>
narro wer</w>
narro wly</w>
manife sts</w>
algorith ms</w>
100 k</w>
aim s</w>
rin se</w>
invi ted</w>
invi tation</w>
inst acart</w>
indepen dents</w>
injur ies</w>
life time</w>
sum mar
absor ption</w>
exce ed</w>
exce edingly</w>
leth al</w>
movi es</w>
mosqu itoes</w>
ambi gu
facilit ate</w>
surpri sed</w>
compani on</w>
certi ficate</w>
priori tize</w>
play ground</w>
catastro phic</w>
doub led</w>
extinc tions</w>
tane ous</w>
bacteriopha ges</w>
guarante es</w>
propag ate</w>
propag ation</w>
utili ties</w>
emphasi ze</w>
glyco samine</w>
anesthes io
avi ation</w>
bun des
boun dary</w>
hen sive</w>
ms ds</w>
pal m</w>
tum ours</w>
vas cular</w>
inhi bitor</w>
ance st
angel es</w>
reve al</w>
reve aled</w>
revo ke</w>
dee per</w>
hot line</w>
hot spots</w>
exhi bited</w>
applic able</w>
agu aaa</w>
audi o</w>
comb ine</w>
compla ining</w>
luc ky</w>
scar ce</w>
olymp ics</w>
grand parents</w>
compre hensive</w>
understand able</w>
full text</w>
stret ched</w>
simpl er</w>
syncy tial</w>
syncy tia</w>
calcu lation</w>
threat ens</w>
elimin ate</w>
deliver ies</w>
hung ary</w>
hung arian</w>
volun te
volun tary</w>
proportion ate</w>
fashi on</w>
fashi oned</w>
favor able</w>
metabo lic</w>
science mag</w>
power ful</w>
broncho alveolar</w>
broncho dilator</w>
psycho logy</w>
cs g</w>
cin emas</w>
kal man</w>
swi ss</w>
tab lets</w>
yi eld</w>
thri ve</w>
inevi tably</w>
referen dums</w>
reson ance</w>
tigh tening</w>
roch e</w>
attr action</w>
simul taneously</w>
sex ternal</w>
conv ince</w>
protoco ls</w>
spar se</w>
absen tee
pois son</w>
beau tiful</w>
chick en</w>
expl ore</w>
expor t</w>
explo red</w>
layo ver</w>
nej m</w>
take out</w>
appen ded</w>
ampl itude</w>
ampli fy</w>
terri ble</w>
lux embour
para influenza</w>
paralle l</w>
pain kill
face book</w>
muta ted</w>
phr ase</w>
measure ments</w>
invo ked</w>
touri sts</w>
hard ware</w>
choo sing</w>
residu als</w>
contagi ousness</w>
land lord</w>
edit or</w>
143 80</w>
patr ick</w>
pharyn gitis</w>
nucleoti des</w>
frank ly</w>
accommo dation</w>
therapeu tic</w>
969 2</w>
flow s</w>
mou ths</w>
osc il
sf o</w>
inhe rent</w>
inadmissi bility</w>
antim alarial</w>
reci pi
endo some</w>
aler t</w>
orr hea</w>
vict oria</w>
asser t</w>
assign ments</w>
acknowle d
unknow ns</w>
lig and</w>
live stock</w>
trap ped</w>
projec tions</w>
prophy lactic</w>
spra ying</w>
veran staltun
advo c
towe ls</w>
coronaviru se</w>
terr orist</w>
surge ons</w>
day light</w>
fif th</w>
elas tomer
elli ott</w>
marri ed</w>
bankrup t</w>
hybri d</w>
suspici on</w>
ballo on</w>
braz ilian</w>
would angerous</w>
catastroph e</w>
bila yer</w>
obstetr icians</w>
cardio vascular</w>
ubiqu itous</w>
reluct ance</w>
117 91</w>
597 4</w>
awa reness</w>
aque ous</w>
dfr lab</w>
ebo lavirus</w>
hexam er</w>
jenni fer</w>
klo mpas</w>
kle wes</w>
kis sing</w>
mnu chin</w>
mson ormal</w>
nwa a036</w>
osa ka</w>
overn ight</w>
rhes us</w>
tge v</w>
wre schni
anec do
ances ter</w>
reim bursement</w>
coord ination</w>
cosme tic</w>
enem y</w>
en13 6</w>
teas poons</w>
ontari o</w>
vigi l</w>
assa ul
whiche ver</w>
whatso ever</w>
distric ts</w>
dizz iness</w>
divor ced</w>
haplo type</w>
rubb ing</w>
unde re
unlaw fully</w>
liecht enstein</w>
suici de</w>
detr imental</w>
deut sch
concei vably</w>
magaz ine</w>
pover ty</w>
ribon ucle
expedi ted</w>
neten yahu</w>
newar k</w>
inferi or</w>
adhan om</w>
sahar an</w>
satell ite</w>
corrid or</w>
quatern ary</w>
ghebre yesus</w>
shrou ding</w>
appreci ate</w>
aufen thal
among st</w>
cigare ttes</w>
wordsec tion1</w>
coronaviri dae</w>
immin ent</w>
parasi tes</w>
surfact ant</w>
scram bling</w>
tuber culosis</w>
minnes ota</w>
opaci ties</w>
forbid den</w>
monet ary</w>
afai k</w>
curtail ed</w>
na2co 3</w>
disproportion ately</w>
virgin ia</w>
trigge red</w>
isopropy l</w>
isopropan ol</w>
vomit ing</w>
member ship</w>
mitche ll</w>
potato es</w>
determini stic</w>
safeguar ds</w>
routine ly</w>
philoso phy</w>
absentee ism</w>
luxembour g</w>
elastomer ic</w>
wreschni ok</w>
0 4
0 6
0 8
0 c
0 7</w>
0 20</w>
0 22</w>
0 13
0 45
0 60
1 t</w>
1 m</w>
1 k</w>
1 10</w>
1 100</w>
1 12</w>
1 11</w>
1 25</w>
1 pt</w>
1 88</w>
1 ab</w>
1 2002</w>
2 f</w>
2 20
2 13</w>
2 50</w>
2 40</w>
2 17
2 26
2 70</w>
2 23
2 pro</w>
3 9
3 e
3 d</w>
3 c</w>
3 a</w>
3 m</w>
3 000</w>
3 50</w>
3 24</w>
3 29
3 88</w>
3 90
3 45
3 82</w>
3 67</w>
3 21
3 rd</w>
4 2
4 000</w>
4 27</w>
4 13
4 21</w>
4 26
4 46
4 90
4 degc</w>
4 12002</w>
5 m</w>
5 5</w>
5 12</w>
6 19
6 01</w>
6 48</w>
6 56
7 9
7 85</w>
7 59
7 507</w>
8 4
8 49</w>
8 35</w>
8 310
9 ec
9 11</w>
9 50</w>
9 40</w>
9 57
9 53</w>
9 66
9 119
a e
a v</w>
a i</w>
a o</w>
a q</w>
a ic
a it</w>
a po
a mp
a ke</w>
a ys</w>
a ten</w>
a han</w>
a ise</w>
a 59</w>
a ide</w>
a waiting</w>
a tia</w>
a ahu</w>
a warded</w>
a 321
b s
b w
b and</w>
b in</w>
b en</w>
b ay</w>
b all</w>
b da
b ases</w>
b ance</w>
b acc
b lat
b mb
b sc</w>
b aum</w>
c f
c s</w>
c p</w>
c is</w>
c al</w>
c ad
c ms</w>
c able</w>
c tu
c ite</w>
c amp</w>
c ry</w>
c lor
c 45</w>
c pid</w>
c ams</w>
c pap</w>
d l
d as
d its</w>
d ss</w>
d ys
d ili
d 50</w>
d 40
d ash</w>
d binom</w>
d sey</w>
e g
e 6</w>
e e</w>
e b</w>
e c</w>
e ly</w>
e ic
e mi
e ase</w>
e ms</w>
e ases</w>
e fi
e sts</w>
e try</w>
e tics</w>
e da</w>
e bs</w>
e dily</w>
e lla</w>
e 619
e 9ec
f 6</w>
f n</w>
f l</w>
f k</w>
f w</w>
f an</w>
f wi
f tes</w>
f ty</w>
f te</w>
f ws</w>
f ant
f loo
f avo
f esti
f ass
f law
f co</w>
f erring</w>
f d40
g d</w>
g g</w>
g f</w>
g ha
g la
g ir
g ar</w>
g 20</w>
g ous</w>
g ors</w>
g all
g ically</w>
g lance</w>
g gish</w>
h h
h k
h s
h k</w>
h o</w>
h in</w>
h ren
h our
h iring</w>
h nd</w>
h erring</w>
h ku
h itting</w>
i v</w>
i o</w>
i ar
i at
i ers</w>
i ding</w>
i stan
i ons</w>
i ors</w>
i ber
i stic</w>
i special</w>
i simple</w>
i ow
i tis</w>
i she
i zing</w>
i vir</w>
i ata</w>
i fn</w>
j r</w>
j er
j air</w>
j ord
j ain</w>
j ha</w>
j fk</w>
j hin</w>
k v
k g</w>
k b</w>
k m</w>
k on
k in</w>
k it
k as
k at
k ho
k ne
k id</w>
k ick</w>
k ingly</w>
k top</w>
k lm</w>
k n95</w>
k icked</w>
l r</w>
l u</w>
l ou
l er</w>
l es
l as</w>
l ds</w>
l ings</w>
l ected</w>
l ysis</w>
m f
m n
m is</w>
m on</w>
m ere</w>
m so
m le</w>
m des
m da</w>
m sm</w>
m ouse</w>
n s
n h</w>
n k</w>
n j</w>
n an
n ou
n it
n ic
n an</w>
n at
n ul
n ber</w>
n ile</w>
n go</w>
n ic</w>
n ish</w>
n ine
n ancy</w>
n sim</w>
n sp</w>
n ago
o c</w>
o x</w>
o st
o ec
o ch
o le</w>
o ve
o we</w>
o ten
o vo
o logy</w>
o ie</w>
o kings</w>
o sha</w>
o bey</w>
p d
p w
p y</w>
p 1</w>
p il
p yo
p ab
p our</w>
p ill</w>
p ag
p all</w>
p ause</w>
p ence</w>
p ound</w>
p ile</w>
p ick
p fal
p toco
q u</w>
q st
q qu
q ing
r s
r an</w>
r ha
r you</w>
r ant</w>
r ile</w>
r ons</w>
r cc
r color
s u</w>
s j</w>
s and</w>
s as</w>
s ill</w>
s ds</w>
s ory</w>
s ong</w>
s sel
s ect</w>
s lot</w>
s ach
s tics</w>
s ought</w>
s essi
s sis</w>
s ils</w>
s rt</w>
s nar
s genom
s ads</w>
t r</w>
t 1</w>
t su
t ts</w>
t one</w>
t ci
t ine</w>
t rea
t ant</w>
t ough</w>
t ans</w>
t ence</w>
t te</w>
t less</w>
t ps</w>
t fl
t ating</w>
t place</w>
t ful</w>
t ability</w>
t fully</w>
t ingly</w>
t night</w>
u 6
u v</w>
u no
u ten
u sion</w>
v ate</w>
v ating</w>
v ine
v agu
v ak
v wp</w>
v ax</w>
w y</w>
w 2</w>
w i</w>
w on</w>
w ab
w ars</w>
w ound</w>
w ini
w ounds</w>
w oven</w>
w rap</w>
w sj</w>
x y</w>
x i</w>
x es</w>
y an
y ment</w>
y du
y ness</w>
y ingly</w>
y navigator</w>
z a</w>
z an
z able</w>
z ger
z ak</w>
z agre
z c45</w>
z ydu
th ou
th ed</w>
th qu
th ay</w>
th rea
th day</w>
th ord
th ecdc</w>
in k
in t
in f</w>
in ers</w>
in ity</w>
in line</w>
in sec
in land</w>
in put</w>
in active</w>
in spec
in san
in appropriate</w>
in correct</w>
in stant</w>
in bound</w>
in jected</w>
in cong
in correctly</w>
in definite</w>
in stantly</w>
in compatible</w>
an an</w>
an ch
an ers</w>
an ci
an gi
an ning</w>
an air</w>
an da</w>
an om
an cies</w>
an cers</w>
an nie</w>
an sammlungen</w>
re l</w>
re in
re vi
re un
re con
re bec
re med
re uni
re pri
re sting</w>
re my</w>
re dre
re medi
re pur
re fri
re form</w>
re considered</w>
re started</w>
re plied</w>
re combin
re sor
re agent</w>
re schedule</w>
re directed</w>
re jected</w>
re solved</w>
re iter
re agents</w>
re but
re elected</w>
re introduction</w>
re scheduling</w>
re mdes
ti p</w>
ti le</w>
ti ve
ti ter</w>
ti ous</w>
ti te</w>
ti sing</w>
ti um</w>
ti tis</w>
ti ghtly</w>
ti tude</w>
er ation</w>
er ous</w>
er work</w>
er adic
co ol
co op
co pe</w>
co br
co erci
co inci
co gni
co don</w>
co operate</w>
co worker</w>
co oling</w>
co v2</w>
ar g
ar ity</w>
ar ching</w>
ar land</w>
ar gy</w>
ar son</w>
ar xiv</w>
en er</w>
en si
en su
en ting</w>
en tive</w>
en ue</w>
en na</w>
en closed</w>
en tail</w>
en sures</w>
en acted</w>
en coding</w>
en orrhea</w>
ou p</w>
ou ts</w>
ou ds</w>
te d
te m
te l</w>
te p</w>
te m</w>
te ment</w>
te sti
te mp</w>
te aring</w>
te ams</w>
te sexternal</w>
on e
on ing</w>
on ers</w>
on avir</w>
on erous</w>
al e
al d</w>
al as</w>
al ter</w>
al um
al ties</w>
al velo
al distancing</w>
al ysis</w>
al giving</w>
al jazeera</w>
or ph
or id
vi ta
vi ra
vi sed</w>
vi sc
vi sible</w>
vi tis</w>
vi enna</w>
ro b</w>
ro ss</w>
ro pe</w>
ro bb
ro mani
ro yed</w>
ro ads</w>
ro bot</w>
it als</w>
it ty</w>
it ated</w>
it ative</w>
it ynavigator</w>
as e
as ht
as sure</w>
as sion</w>
as ite</w>
as say</w>
as says</w>
as ap</w>
as set</w>
as tically</w>
as ticity</w>
ac o</w>
ac ch
ac tional</w>
ac il</w>
st i</w>
st ac
st all</w>
st shelter</w>
st abilize</w>
st oric</w>
no v</w>
no tion</w>
no min
no is
no where</w>
no des</w>
no type</w>
no wad
ic ed</w>
ic an</w>
ic it</w>
ic air</w>
ec b</w>
ec k</w>
ec mo</w>
at t</w>
at z</w>
at ting</w>
at ra
at ric</w>
at rics</w>
il or</w>
il tra
il logical</w>
di p</w>
di x</w>
di er</w>
di al</w>
di ent</w>
di et</w>
di ssi
di str
di ous</w>
di men
di zed</w>
di bly</w>
di ff</w>
di ums</w>
di gging</w>
di aphr
ha u
ha y
ha ir</w>
es is</w>
es ter</w>
es stimate</w>
es ri</w>
pl ag
pl enti
pl ant</w>
pl ish</w>
pl 2pro</w>
ru c
ru g</w>
ru bri
ru ency</w>
ru tter</w>
si p</w>
si es</w>
si de
si err
si astic</w>
si pping</w>
si ena</w>
un wit
un ter
un infected</w>
un just</w>
un anim
un true</w>
un pack
un diagnosed</w>
un reasonable</w>
un changed</w>
un defined</w>
un informed</w>
un equal</w>
un reliable</w>
un comfortable</w>
un noticed</w>
un trained</w>
un insu
un hide</w>
un married</w>
li p
li er</w>
li an</w>
li ver</w>
li able</w>
li tes</w>
li eb</w>
yo ko
su n</w>
su to</w>
su pre
su ess</w>
su ant</w>
su its</w>
su ade</w>
su plement</w>
su ited</w>
se c</w>
se al</w>
se an</w>
se ap
se ques
se mit</w>
se mes
se lls</w>
se llers</w>
se emed</w>
se gment</w>
se mi</w>
se ptic</w>
lo b
lo ve</w>
lo sure</w>
lo si</w>
de m</w>
de er</w>
de als</w>
de ple
de ad</w>
de plo
de man
de part</w>
de parts</w>
de activate</w>
con test</w>
con fl
con stru
con den
con sequ
con sor
con ian</w>
con stantly</w>
con texts</w>
tr au
tr ick</w>
tr ick
the rea
the tic</w>
the guardian</w>
the lancet</w>
ma e</w>
ma ine</w>
ma tics</w>
ma kers</w>
ma tized</w>
ma titis</w>
ho e</w>
ho p</w>
ho sting</w>
ho les</w>
ho ped</w>
ho gue</w>
pro b</w>
pro val</w>
pro mis
pro poses</w>
sp y</w>
sp an</w>
sp ne
sp ill</w>
sp ag
sp aw
ab le
ab ate</w>
ab gr
ab ide</w>
ab users</w>
ur able</w>
ur ges</w>
ur ban</w>
ur acil</w>
po t</w>
po on</w>
po le</w>
po lation</w>
po op</w>
me e</w>
me ts</w>
be ts</w>
be ver
be ll</w>
be long</w>
be half</w>
be lls</w>
be arer</w>
be arance</w>
be rens</w>
ch y</w>
ch i</w>
ch o</w>
ch ase</w>
ch us</w>
so lit
so pran
tion s
tion er</w>
tion able</w>
tion ality</w>
tion chus</w>
ri ding</w>
ri bo
ri fl
ri fic
ri gors</w>
ex pre
ex cer
ex cu
ex tracted</w>
la u
la wn</w>
la ye
la yers</w>
la tin</w>
la tesexternal</w>
le i
le an</w>
le one</w>
le ment</w>
le tic</w>
le aning</w>
le tin</w>
le yen</w>
le aners</w>
bu b
bu l</w>
bu g</w>
bu ys</w>
bu sh</w>
bu ck</w>
bu ster</w>
bu yer</w>
bu mpy</w>
mi ke</w>
mi am
mi sc
mi mic</w>
ne g</w>
ne ts</w>
ne ment</w>
ne br
ver ge</w>
ver mon
ver sammlungen</w>
ver bal</w>
ver nement</w>
inf ir
inf requ
inf iltra
mp ps</w>
mp aro</w>
ad o</w>
ad ra
ad here</w>
ad jec
ad jective</w>
ad mits</w>
ad venture</w>
ta ed</w>
ta tes</w>
ta pe</w>
ta mp</w>
ta tives</w>
ta kers</w>
ta mparo</w>
sa y
sa tive</w>
sa ves</w>
sa gt</w>
sa vers</w>
sa arland</w>
ff icial</w>
pe a
pe g</w>
pe ll</w>
pe tro
pe ace</w>
pe gging</w>
pe losi</w>
cor ri
cor na
cor related</w>
cor rup
qu i
qu ir
qu adra
we t
we ars</w>
we bin
sh y</w>
sh ers</w>
sh ing
sh enz
sh ining</w>
sh eri
sh iny</w>
ir b</w>
ir re
ir is</w>
do s</w>
do sing</w>
do led</w>
do ha</w>
do bson</w>
mo tor</w>
mo tor
ap r</w>
ap ical</w>
ap ples</w>
ap shot</w>
ve g</w>
ve in</w>
ve ts</w>
ve tte</w>
he y</w>
he al</w>
he it</w>
he mi
he mor
he ight</w>
per u</w>
per tu
per mutations</w>
per mitting</w>
per tains</w>
per taining</w>
per suade</w>
pre p</w>
pre made</w>
pre tend</w>
pre ferred</w>
pre mature</w>
ag m</w>
ag gra
to c
to t
to ys</w>
to bacc
au tho
au ctions</w>
au sgenom
am ed</w>
am used</w>
am use
am enorrhea</w>
com plication</w>
com posed</w>
com missions</w>
coron al</w>
go ve</w>
go tt
go ld
ci se</w>
ci sa</w>
wor ding</w>
wor ded</w>
du al</w>
du mb
fe at</w>
fe tus</w>
fe dex</w>
ter y</w>
ter a</w>
ter ly</w>
ter med</w>
ter ry</w>
ren thu
ren tine</w>
20 c</w>
20 9</w>
20 67
20 78</w>
um b</w>
im pl
im plicitly</w>
lu p</w>
lu be</w>
tic k</w>
par scale</w>
par ole</w>
par asite</w>
pa o2</w>
pu pi
pu shed</w>
pu mps</w>
bo y
bo y</w>
bo at</w>
bo il
bo ld</w>
bo il</w>
bo ils</w>
bo eing</w>
bo xes</w>
ce ase</w>
ce lon
ce os</w>
fac em
fac eshi
ssi onal</w>
ssi vely</w>
oun dly</w>
oun dless</w>
ke en</w>
sur ger
mu co
mu late</w>
gi on</w>
gi ft</w>
gi vers</w>
gen tly</w>
gen itals</w>
ra mping</w>
cou s</w>
cou ll</w>
cou ver</w>
hi j
hi p</w>
hi o</w>
hi storic</w>
coun ty</w>
coun ters</w>
ing ent</w>
ing conditions</w>
ing ement</w>
cont ours</w>
wi red</w>
wi ves</w>
wi sely</w>
wi dow</w>
sc ali
sc arr
sc ab</w>
sc anning</w>
inc ite</w>
inc entive</w>
gu est</w>
gu esses</w>
gu lf</w>
gu esstimate</w>
da m</w>
da eg
sti e</w>
sti r</w>
em es</w>
em br
em bal
em powers</w>
comm and</w>
comm entary</w>
tra p</w>
tra k</w>
tra its</w>
ris on</w>
ris suto</w>
ol i</w>
ol ve</w>
ol ina</w>
por tu
resp ected</w>
resp ecting</w>
fi x</w>
fi de</w>
fi res</w>
fi bers</w>
fi o2</w>
ans wered</w>
out going</w>
out group</w>
out ward</w>
out bound</w>
out weigh</w>
tu be</w>
min a</w>
min i</w>
min or</w>
min ating</w>
min ority</w>
min ator</w>
min ster</w>
min eral</w>
str ate</w>
str aps</w>
str ingent</w>
ul ate</w>
ul timate</w>
ser um</w>
wa ve
ll i</w>
op en
op ting</w>
op ens</w>
op har
op ening</w>
op pel</w>
for t</w>
for ty</w>
for um</w>
for mal
for tnight</w>
for bearance</w>
mon o
mon y</w>
mon op
mon aco</w>
diff usion</w>
rec ru
rec ir
is er</w>
is la
is 1473</w>
is wab
der bil
der gardens</w>
der matitis</w>
ju gg
ju mping</w>
ju stshelter</w>
ju lian</w>
el f</w>
el ed</w>
el ders</w>
el astic</w>
el abor
el ancers</w>
ste pped</w>
pub med</w>
fin ish</w>
fin nish</w>
bet ting</w>
low ers</w>
low down</w>
av enue</w>
gr y</w>
gr ay</w>
gr oundless</w>
lin ing</w>
lin ens</w>
lin kage</w>
lin dsey</w>
ge ably</w>
ge town</w>
ge sture</w>
ten s</w>
ten ess</w>
ten der</w>
ten ance</w>
ten ure</w>
ten ded</w>
ten tative</w>
comp ari
comp et
comp ute</w>
comp iled</w>
comp ounding</w>
comp assion</w>
sta ining</w>
sta irs</w>
sta ffs</w>
sta diums</w>
cur b</w>
cur few</w>
na be</w>
na il</w>
na zi</w>
ye ah</w>
ye litis</w>
ph eral</w>
ph ras
some day</w>
ali a</w>
ali an</w>
ali sed</w>
ali gn</w>
med iter
ari de</w>
ari zation</w>
sel ective</w>
pr ou
fu ss</w>
fu sion</w>
sen tin
sen iors</w>
sen tence</w>
trans gre
trans late</w>
inter chan
inter state</w>
inter bank</w>
inter rup
inter views</w>
inter nationally</w>
fun erals</w>
stan ley</w>
ww w2</w>
mil len
mil dness</w>
mas k
mas ter</w>
mas sach
ple ased</w>
han ging</w>
han eda</w>
air way</w>
air bus</w>
air flow</w>
air planes</w>
air bn
loc ally</w>
loc king</w>
inclu sion</w>
with drew</w>
requ ests</w>
vern on</w>
imp ris
imp acted</w>
imp edi
govern ors</w>
sin ess</w>
effec ted</w>
appro ving</w>
appro aching</w>
appro xim
gener ous</w>
gener ously</w>
lar ity</w>
hum ani
soci eties</w>
soci aldistancing</w>
off s</w>
off ent
cle ans
cle arance</w>
tw o
tw enty</w>
stu di
dis es
dis allowing</w>
dis charge</w>
dis solved</w>
dis played</w>
dis advantages</w>
dis pleased</w>
plo s</w>
plo tted</w>
respon ded</w>
bi e</w>
bi ases</w>
bi gg
bi ol</w>
bi pap</w>
bi zar
chan cell
fo x</w>
fo et
fo ot
ici an</w>
dro ve</w>
dro pped</w>
fl out</w>
fl orid
exam ine</w>
exam iners</w>
pan try</w>
are ema</w>
sto po
sto red</w>
des ks</w>
des cen
des ktop</w>
des olve</w>
ob struc
cd 4</w>
cd 14
ill um
repor tedly</w>
cu o</w>
cu es</w>
cu res</w>
cu ps</w>
cu shi
cu lated</w>
cu vette</w>
contr actual</w>
fa red</w>
fa hren
rela tives</w>
rela xed</w>
man n</w>
man date</w>
man ages</w>
man ila</w>
hel per</w>
hel mets</w>
pi is1473</w>
pen e
pen n
pen g</w>
pen alties</w>
tur ally</w>
was tage</w>
was hable</w>
was hio</w>
see gene</w>
peri pheral</w>
ori e</w>
ori ties</w>
ori entation</w>
meas urable</w>
tru ly</w>
tru mp
tru th</w>
tru ck</w>
all s</w>
stric ter</w>
cau tioned</w>
cau dle</w>
cau sal</w>
cau sative</w>
sho pp
sho ot</w>
tri gg
tri phosphate</w>
anti bacterial</w>
anti py
eng ag
eng ine</w>
under going</w>
under water</w>
under valu
under reacting</w>
under brace</w>
sub si
sub type</w>
sub stance</w>
sub ordin
sub stack</w>
sub strate</w>
ga ined</w>
ga ining</w>
ga thered</w>
pas teur
dist orting</w>
fli es</w>
whe at</w>
emplo ying</w>
cen tric</w>
ail ing</w>
cour iers</w>
eco logy</w>
restric ts</w>
dic tat
dic tate</w>
sec tors</w>
ran k</w>
ran ks</w>
ran ee</w>
quar rentine</w>
fol ks</w>
gre en
loo p</w>
cep tion</w>
hou ses
popu lac
popu larity</w>
direc ts</w>
direc tive</w>
star ters</w>
cri ti
cri ses</w>
cri tics</w>
depen dence</w>
depen dents</w>
car ts</w>
car olina</w>
regu latesexternal</w>
dec e
dec el
dec reas
dec lining</w>
lic ence</w>
inv ad
temp 3</w>
reco gn
produc ers</w>
work out</w>
work ings</w>
work force</w>
servi cer</w>
servi cers</w>
servi ces
addi tive</w>
pres ses</w>
tain ed</w>
up held</w>
up dating</w>
ban g</w>
ban ds</w>
ban dan
ban kers</w>
vo l</w>
vo x</w>
vo la
vo ter</w>
vo mit</w>
ys acch
individu alized</w>
allow ance</w>
stra tive</w>
gro ss
resear ching</w>
ger ator</w>
fur t</w>
tou ches</w>
nec essi
boo ts</w>
boo sting</w>
nor m</w>
nor ovirus</w>
nor berg</w>
over dra
over booking</w>
over lap</w>
over sight</w>
over loaded</w>
over dispersion</w>
over crowding</w>
over arching</w>
contin ent</w>
contin ental</w>
men tally</w>
emergen ce</w>
main tenance</w>
ca ve
ca tes</w>
ca thay</w>
mit ories</w>
00 pm</w>
00 608
cre w
cre ation</w>
eu 261</w>
hy att</w>
hy letic</w>
evi den
proc essors</w>
pur ification</w>
pur suant</w>
struc tured</w>
struc turally</w>
har ve
har ms</w>
har dy</w>
har ry</w>
har rison</w>
sch emes</w>
leg s</w>
gam ing</w>
jo g</w>
jo ke</w>
prof oundly</w>
spread sheet</w>
mic ides</w>
mic rons</w>
doc si</w>
proble matic</w>
den ds</w>
den cies</w>
den sely</w>
den mark</w>
pay er</w>
rit a</w>
rit onavir</w>
simil arities</w>
pot entials</w>
commun al</w>
commun ism</w>
oc ation</w>
19 5</w>
19 80</w>
19 81</w>
19 68</w>
ili ter</w>
ili zation</w>
contrac tion</w>
comple ate</w>
comple ment</w>
comple teness</w>
univer se</w>
cho ir</w>
cho ler
ni ig
ni coni
incre dibly</w>
war fare</w>
br ic
fr on
fr actions</w>
fr actional</w>
ny c</w>
ny se</w>
thro po
dru nk</w>
200 m</w>
clin ically</w>
clin ics</w>
clin ical
lon gest</w>
char ity</w>
char les</w>
char ging</w>
char tered</w>
char itynavigator</w>
wash ers</w>
fil er</w>
ven ues</w>
bio technology</w>
authori zation</w>
pla ys</w>
medic are</w>
cat ches</w>
cat aly
glob algiving</w>
bro ke</w>
bro okings</w>
solu ble</w>
trave ls</w>
hu gely</w>
hu anan</w>
appe al</w>
appe tite</w>
lea f</w>
lea ked</w>
lear ns</w>
lear ners</w>
predic ts</w>
predic tability</w>
bin der</w>
ific us</w>
resi stance</w>
influenz ae</w>
las er</w>
suppor ters</w>
ba z
ba o</w>
ba it</w>
ba king</w>
ba yes</w>
ba ylor</w>
fri end
hal ting</w>
pap erwork</w>
expo sures</w>
lan ding</w>
lan inf</w>
infecti ousness</w>
ful fill</w>
om bud
mul ticity</w>
organi se</w>
blo wn</w>
cro ps</w>
cro ss
cro ssed</w>
cro atia</w>
lab e
euro pa</w>
ben ding</w>
ben jam
ben efi
inten tion</w>
inten tions</w>
ann ually</w>
parame teri
ki ly</w>
ki os</w>
us c</w>
us i</w>
us able</w>
spo ke</w>
spo kes
mal es</w>
mal aise</w>
maj orities</w>
distribu tions</w>
signific ance</w>
oper ators</w>
regi me</w>
regi stered</w>
dea f</w>
patho logy</w>
patho logical</w>
initi ate</w>
initi ation</w>
initi ated</w>
initi ative</w>
ed ge</w>
ed ges</w>
ed iting</w>
suff ix</w>
suff ocation</w>
disc ard</w>
disc lose</w>
descri ption</w>
sha me</w>
ster y</w>
ster ilize</w>
10 9</w>
10 4</w>
10 1</w>
10 56</w>
10 93</w>
10 4869
feder ally</w>
benef icial</w>
gar den
gar den</w>
gar lic</w>
manu al</w>
who ever</w>
stand point</w>
kin etics</w>
kin dergardens</w>
spe ll</w>
spe edily</w>
announ ce</w>
announ ces</w>
announ cing</w>
reli gion</w>
rele ases</w>
certain ties</w>
tici sts</w>
tici sm</w>
web cams</w>
web docsi</w>
bre ast</w>
bre wer</w>
ign ing</w>
cas hi
cas ey</w>
non stero
non resident</w>
non profit</w>
non filers</w>
ref val</w>
ref rain</w>
remo ving</w>
remo ves</w>
coll ate</w>
stre ss
stre tch</w>
stre aming</w>
stre ptoco
stre amed</w>
pol ating</w>
pol ite</w>
pol arization</w>
pol ysacch
multi ply</w>
multi tude</w>
def ended</w>
mid wife</w>
mid wives</w>
dr yers</w>
dr tedros</w>
dr yness</w>
dr astically</w>
logi stics</w>
est oppel</w>
fore ver</w>
fore head</w>
cha ir</w>
cha ff</w>
cha mber</w>
pac e</w>
pac ificus</w>
san ction</w>
san juan</w>
sim pli
consu med</w>
teri ous</w>
practi se</w>
14 5</w>
14 80</w>
14 28
14 74</w>
14 00000000</w>
scre ened</w>
dri ed</w>
ep stein</w>
mm n</w>
dra g</w>
dra wing</w>
dra conian</w>
easi est</w>
lat ent</w>
aw ard</w>
aw eso
bru ce</w>
cc us</w>
cr abgr
eas ter</w>
gra b</w>
gra vity</w>
gra dient</w>
hin t</w>
hin der</w>
hin shaw</w>
regar ds</w>
regar ded</w>
err rate</w>
scen e</w>
scen es</w>
syn chronous</w>
syn thetic</w>
ble eding</w>
leng thy</w>
leng thening</w>
nu ovo
contain ing</w>
contain ers</w>
contain ling</w>
beli efs</w>
che ating</w>
buil ds</w>
buil dings</w>
mis leading</w>
mis folding</w>
new by</w>
new ton</w>
new born</w>
asympto matics</w>
29 2</w>
29 3</w>
29 09</w>
29 94
29 957
inci dentally</w>
trac es</w>
trac ed</w>
correc tion</w>
form at</w>
specific s</w>
hospitali sed</w>
cal med</w>
ear ning</w>
ear nings</w>
ear thqu
admini str
admini strative</w>
shor ten</w>
shor tened</w>
agre sti</w>
capac ities</w>
circ le</w>
tax ing</w>
tax ono
gene ticists</w>
stimu lu
eli mination</w>
secre tions</w>
micro sco
micro organisms</w>
bit ing</w>
mor bid
mor tem</w>
dela ying</w>
conclu ded</w>
sol v
sol ver</w>
sol ves</w>
fig uring</w>
likeli hoods</w>
equi val
determin ation</w>
ordin ate</w>
australi ans</w>
bir ths</w>
bir thday</w>
succ esses</w>
ext ant</w>
particul ate</w>
strate gically</w>
flu sh</w>
smo king
plem ents</w>
law yer</w>
law suits</w>
occu pa
50 199
50 66
bon d</w>
bon a</w>
bon us</w>
end point</w>
addre ssing</w>
addre sses</w>
quali fies</w>
impro vements</w>
activ ator</w>
origin ate</w>
origin ates</w>
advan cement</w>
investig ating</w>
aero space</w>
bb b</w>
bur g</w>
bur ger</w>
bur ned</w>
don ed</w>
don ated</w>
don ors</w>
don ations</w>
don ating</w>
fre elancers</w>
pat ent</w>
wat ers</w>
occur ring</w>
occur rence</w>
occur rences</w>
13 43</w>
noti fied</w>
pedi atrics</w>
stron gest</w>
finan ces</w>
finan cing</w>
continu ation</w>
continu um</w>
docum entation</w>
17 3</w>
cy tes</w>
cy tok
fam ous</w>
sw ings</w>
tan k</w>
spi ky</w>
incu r</w>
schedu les</w>
vis or</w>
vis cous</w>
accep ting</w>
accep tance</w>
precau tion</w>
precau tionary</w>
justi n</w>
disrup ts</w>
disrup tive</w>
fit ted</w>
fit zger
att achment</w>
constitu te</w>
constitu tionality</w>
short fall</w>
short cut</w>
nucle ases</w>
instruc t</w>
instruc tor</w>
intro duces</w>
conver ging</w>
conver verge</w>
may or</w>
quo ting</w>
wea ken</w>
wea ker</w>
implemen tation</w>
nation alities</w>
nation alism</w>
recogni zed</w>
recogni zes</w>
contamin ating</w>
europe ans</w>
mechan istic</w>
cl ouds</w>
mes sages</w>
sal t</w>
squ at</w>
win d</w>
win dow
simu litis</w>
paren ting</w>
paren theses</w>
design s</w>
bacteri um</w>
decre es</w>
communic ate</w>
communic ating</w>
dan cy</w>
ano de</w>
rever t</w>
rever sed</w>
rever sible</w>
dest royed</w>
post al</w>
post ure</w>
post mates</w>
compar tment</w>
15 8</w>
15 1</w>
15 th</w>
15 64</w>
15 80
26 8</w>
26 3</w>
26 00</w>
26 973</w>
fer tility</w>
fas test</w>
mer ge</w>
mer kel</w>
stri p</w>
stri al</w>
stri kes</w>
unfortun ate</w>
dead lier</w>
exemp ted</w>
adap tation</w>
she eting</w>
interpre ting</w>
custo dial</w>
fail s</w>
fail ures</w>
hydro pho
hydro xide</w>
washing ton
langu ages</w>
spea ker</w>
poly propy
invest ments</w>
behavi ors</w>
bran ch</w>
bran ding</w>
care givers</w>
pris ons</w>
pris oners</w>
pris tionchus</w>
slow s</w>
use tts</w>
wil son</w>
sett led</w>
sett lement</w>
surve y
even ly</w>
even tual</w>
substan ti
sampl er</w>
sampl ers</w>
28 7
28 1</w>
28 018</w>
28 9119
dy k</w>
dy spne
than k</w>
recep tors</w>
appa rent</w>
combin ing</w>
sensi bly</w>
contribu ting</w>
27 th</w>
ate dly</w>
dil ute</w>
emo tionally</w>
sco tt</w>
spl its</w>
sli de</w>
sli des</w>
vali date</w>
yn dyk</w>
revie ws</w>
revie wer</w>
itali a</w>
asp irin</w>
diver t</w>
diver se</w>
chr is</w>
neu tering</w>
head s</w>
head ing</w>
head er</w>
small est</w>
camp s</w>
camp us</w>
camp uses</w>
electr onic</w>
electr icity</w>
electr onics</w>
dar ity</w>
dar ker</w>
dar wini
fau lt</w>
fau lty</w>
fav oring</w>
gor ously</w>
glas sman</w>
less on</w>
less er</w>
less en</w>
scep ticism</w>
red field</w>
repe atedly</w>
prece dence</w>
prece dents</w>
auto mation</w>
auto mated</w>
compe ting</w>
compe te</w>
compe lled</w>
immuno logical</w>
immuno suppression</w>
18 9</w>
18 00</w>
18 30</w>
bloc ked</w>
lac ked</w>
lac tational</w>
stic king</w>
home less</w>
home page</w>
hope ful</w>
shel f</w>
shel ves</w>
shel ters</w>
perman ently</w>
preci ous</w>
preci sion</w>
evalu ating</w>
phy si
objec tively</w>
characteri sed</w>
characteri zation</w>
16 7</w>
aff ir
aff iliation</w>
aff inity</w>
educ ated</w>
hon est
refl ection</w>
viro logists</w>
program mer</w>
perfor ming</w>
covid 19
radi ate</w>
stran ger</w>
stran gle</w>
declar ing</w>
declar ations</w>
membran es</w>
000 1pt</w>
000 29957
techno logically</w>
free doms</w>
30 s</w>
30 th</w>
40 s</w>
40 171</w>
40 1k</w>
40 fd40
ama teur</w>
cab ins</w>
ey al</w>
swit ching</w>
replic able</w>
replic ated</w>
replic ates</w>
habit ual</w>
execu tives</w>
bul let
bul letin</w>
infla tionary</w>
persi sts</w>
persi stence</w>
mut ant</w>
mut ating</w>
transmissi ons</w>
decla res</w>
defau l
46 907
46 940</w>
57 002</w>
90 s</w>
97 80
ax y</w>
ax les</w>
bab y
my stery</w>
represen tatives</w>
divi dends</w>
que ue</w>
prescri ptions</w>
jud ges</w>
jud gments</w>
jud gement</w>
jud gment</w>
interven e</w>
offic ers</w>
critici sms</w>
organ ic</w>
stero id</w>
brief ly</w>
comparis ons</w>
bla h</w>
bla med</w>
super ficial</w>
super nat
super visor</w>
extra polation</w>
extra polating</w>
neg lec
neg lected</w>
aden oviruses</w>
appoin ted</w>
commit tees</w>
phili ps</w>
focu ses</w>
help fully</w>
therap ist</w>
cn bc</w>
ele vated</w>
far ther</w>
roun ded</w>
sle y</w>
sle eve</w>
sle eved</w>
won ders</w>
repu table</w>
disa gre
deb ilit
beta coronavirus</w>
quanti ties</w>
quanti fy</w>
prepar ations</w>
key boards</w>
embas sies</w>
sero type</w>
sero prevalence</w>
back fire</w>
back bone</w>
subsequ ently</w>
electro chemical</w>
gradu ation</w>
classi c</w>
classi fy</w>
strong lifts</w>
legis lative</w>
down turn</w>
down playing</w>
neutr ality</w>
neutr alizing</w>
37 198</w>
47 72</w>
47 40fd40
bar re</w>
bar rel</w>
bar celon
foun der</w>
gau ss</w>
rou tes</w>
wan es</w>
wan der</w>
alber t</w>
alber tans</w>
notic es</w>
notic eable</w>
concep tual</w>
after ward</w>
withdra w
antigen s</w>
cyc les</w>
jurisdic tion</w>
phylo gen
phylo geneticists</w>
philipp ine</w>
25 1</w>
2f coronavirus</w>
2f www</w>
2f 2019</w>
48 e9ec
85 2</w>
85 8</w>
bc v</w>
bes ide</w>
blu e
kp mg</w>
sn acks</w>
sn apshot</w>
inhal er</w>
remain der</w>
reven ues</w>
time frame</w>
coordin ated</w>
coordin ating</w>
coordin ates</w>
coordin ator</w>
adop ting</w>
vege table</w>
compli ant</w>
else vier</w>
aller gic</w>
broadcas ting</w>
broadcas ters</w>
competi tive</w>
competi tors</w>
disap proval</w>
12 17</w>
bid i</w>
cti vitis</w>
eth nic</w>
fle a</w>
pha ge</w>
pha ges</w>
sick ness</w>
remin ds</w>
libr aries</w>
promp ting</w>
promp tly</w>
soli darity</w>
irrit ate</w>
domin ated</w>
domin ating</w>
apar tments</w>
veterin arian</w>
parliam entary</w>
surroun ded</w>
surroun dings</w>
geo metric</w>
week ly</w>
engine ers</w>
harm less</w>
text book</w>
discre tionary</w>
consul tations</w>
retire es</w>
negli gent</w>
cryst allo
110 46940</w>
77 79</w>
crea tes</w>
gel man</w>
jam a</w>
kar u
nsp 5</w>
yout u</w>
zi thro
intr a</w>
intu bation</w>
inser t</w>
real time</w>
alli es</w>
alli ed</w>
alli ance</w>
viol ate</w>
viol ence</w>
viol ating</w>
dig it</w>
dig its</w>
dig ital</w>
conser vation</w>
mamm alian</w>
expres ses</w>
expres sing</w>
veri fied</w>
veri kios</w>
toler ant</w>
counter act</w>
counter measures</w>
geor getown</w>
expec tant</w>
strugg le</w>
strugg led</w>
transcri p
transcri bed</w>
collabor ators</w>
demonstr ating</w>
demonstr ably</w>
cortico steroid</w>
repatri ated</w>
bail ed</w>
edi tion</w>
puni shed</w>
sar s2</w>
sou ps</w>
van couver</w>
van derbil
vac ant</w>
rep trak</w>
archi ve</w>
enhan cement</w>
iter ations</w>
illu sion</w>
illu stration</w>
diplo mats</w>
congre gate</w>
congre ssional</w>
theat lantic</w>
promo ting</w>
deri ved</w>
frag ment</w>
frag ile</w>
citizen ry</w>
discri min
establish es</w>
establish ments</w>
postpon ed</w>
occasi onal</w>
attribu tes</w>
100 46907
aim ed</w>
eid ls</w>
hor ses</w>
hor ses
je remy</w>
macro phages</w>
ski p</w>
ski ing</w>
ski pping</w>
accom plish</w>
acci dentally</w>
life long</w>
life style</w>
sum i</w>
succe ed</w>
semin ars</w>
propo sing</w>
absor b</w>
absor bed</w>
leth argy</w>
ambi ent</w>
termin ating</w>
termin ology</w>
facilit ates</w>
respec tive</w>
certi fied</w>
informa tive</w>
shif ted</w>
enzy me</w>
play grounds</w>
doub les</w>
utili zed</w>
avi an</w>
bun ch</w>
fing er
hen baum</w>
ry anair</w>
slo vak
tor ate</w>
tor onto</w>
anno tation</w>
anno yingly</w>
angel a</w>
revo cation</w>
visu al</w>
plas m</w>
plas ma</w>
dee ply</w>
defe at</w>
defe ated</w>
defe ating</w>
math cal</w>
spu r</w>
sophi e</w>
rid den</w>
exhi biting</w>
adver se</w>
satis fied</w>
satis factory</w>
wei ghts</w>
applic ant</w>
tox in</w>
tox ic</w>
audi ences</w>
comb o</w>
compla ints</w>
femal es</w>
luc kily</w>
olymp icair</w>
discour aged</w>
stoch asticity</w>
obste tric</w>
understand ably</w>
substitu tions</w>
suppli er</w>
invasi ve</w>
simpl ification</w>
calcu lated</w>
threat ening</w>
class ical</w>
class room</w>
elimin ated</w>
deliver ing</w>
occup ation</w>
famili arity</w>
favor ite</w>
metabo lites</w>
power lifts</w>
phenomen a</w>
psycho logical</w>
24 th</w>
24 324</w>
737 129
99 00</w>
ai mee</w>
gal lup</w>
gal axy</w>
gas tric</w>
ka iser</w>
sl ice</w>
sl tc</w>
tab les
uplo ad</w>
uplo ads</w>
yi elds</w>
inevi table</w>
reinfor ce</w>
tigh ten</w>
enter ovirus</w>
viri ons</w>
attr active</w>
eshi p</w>
unwin d</w>
unwin ding</w>
sex ually</w>
dele terious</w>
conv inc
progre ssing</w>
protoco l</w>
absen tee</w>
pois oning</w>
beau ty</w>
expl oring</w>
weigh ted</w>
appen dix</w>
ampl ification</w>
ampli fied</w>
worsen ing</w>
worsen ed</w>
puzz le</w>
face time</w>
ware housing</w>
year s
year book</w>
phr ases</w>
shoc ks</w>
shoc king</w>
suppres sing</w>
invo ke</w>
hard ship</w>
choo ses</w>
residu es</w>
edit ors</w>
surviv ors</w>
surviv ability</w>
nucleoti de</w>
regim en</w>
regim ens</w>
mitig ation</w>
mitig ating</w>
electroly tes</w>
electroly te</w>
flavi virus</w>
flavi viruses</w>
photo meter</w>
disappe ar</w>
frank furt</w>
accommo dations</w>
acceler ate</w>
therapeu tics</w>
31 161</w>
ay am</w>
dor mitories</w>
gastro intestinal</w>
hall s</w>
ker kho
ming ling</w>
oli ver</w>
py thon</w>
pmc 6
raci al</w>
raci st</w>
swee p</w>
tat too</w>
wrap p</w>
zx 21</w>
resur gence</w>
orf 8</w>
orf 1ab</w>
diure tic</w>
diure sis</w>
hamp shire</w>
plu sh</w>
plum bers</w>
set tle</w>
depor t</w>
trad ing</w>
proof ing</w>
proof reading</w>
infr inging</w>
infr ingement</w>
weal th</w>
weal thy</w>
weap on
commu ting</w>
commu te</w>
worth less</w>
worth while</w>
bott les</w>
bott len
rai ses</w>
rai sed</w>
counc ils</w>
counc ilor</w>
scru tiny</w>
incur red</w>
publici zing</w>
fini shed</w>
pran ayam</w>
pron ounced</w>
break down</w>
impre ssive</w>
imper fect</w>
dismis sal</w>
dismis sals</w>
dissemin ating</w>
discipl ine</w>
discipl ined</w>
drow siness</w>
cdc says</w>
need lessly</w>
contradic tory</w>
check point</w>
color ado</w>
minimi se</w>
shape 2</w>
shape 1</w>
defend ant</w>
defend ants</w>
balan cing</w>
balan ced</w>
water borne</w>
cyto plasm</w>
swab bed</w>
cler ical</w>
neighbour ing</w>
neighbour hood</w>
diversi fy</w>
prohibi tion</w>
prohibi tive</w>
neuro logic</w>
adjust ment</w>
adjust ments</w>
manipu late</w>
particip ation</w>
particip ant</w>
illustra tes</w>
purifi er</w>
purifi ers</w>
099 26973</w>
400 02</w>
7b 48e9ec
705 48</w>
amo y</w>
bic yc
blin d</w>
dani el</w>
fili buster</w>
gou vernement</w>
glu e</w>
nl 63</w>
np geo</w>
overe stimated</w>
pn rs</w>
pru dent</w>
rac ing</w>
rhe inland</w>
sas se</w>
sac rific
slu ggish</w>
yun a</w>
intru sive</w>
res ili
rese mb
enab ling</w>
ence phali
encoun tering</w>
enorm ous</w>
ones elf</w>
alloc ate</w>
alleg ed</w>
diso bey</w>
haemo phil
unil ateral</w>
unconsci ousness</w>
sustain able</w>
deal ers</w>
dehy dr
devas tating</w>
conve yan
constra ints</w>
conferen cing</w>
conjun ctivitis</w>
consoli dated</w>
spa tial</w>
sper micides</w>
spur ious</w>
chun k</w>
chur ches</w>
chri stie</w>
soa ked</w>
righ tfully</w>
excell ent</w>
excre ment</w>
extrac ellular</w>
quer y</w>
west minster</w>
shan gha
shat tering</w>
does n</w>
vel centre</w>
percei ved</w>
preser ving</w>
prefer able</w>
fever ish</w>
improvi se</w>
path ways</w>
cele brations</w>
sca aahu</w>
scrap ped</w>
incap ac
embed ded</w>
traine e</w>
fidd ling</w>
mind ful</w>
ultras ound</w>
oppon ents</w>
formu lated</w>
accu sations</w>
accum ulate</w>
accessi ble</w>
marke tplace</w>
tennes sean</w>
nai ve</w>
intercep t</w>
intermit tent</w>
mill iliter</w>
pleas ure</w>
offen sive</w>
cleav age</w>
pango lin</w>
distur bance</w>
greg ory</w>
indirec t</w>
author itative</w>
econom ically</w>
thermo meters</w>
epitheli al</w>
scholar ship</w>
view point</w>
jose ph</w>
deno minator</w>
intelli gence</w>
fram es</w>
long standing</w>
vend ors</w>
deteri oration</w>
suffere rs</w>
benefici aries</w>
analo gous</w>
ignor ant</w>
screen shot</w>
epic enter</w>
nutri ent</w>
thresho ld</w>
exacer bated</w>
shut tered</w>
disposi tions</w>
buri ed</w>
assemb lies</w>
chrono logy</w>
redun dancy</w>
conveni ence</w>
hypox emia</w>
achie vement</w>
dispu ted</w>
journali sts</w>
homogene ous</w>
2346 7b48e9ec
gynaeco logists</w>
munici p
crystalli sing</w>
collap ses</w>
summar ized</w>
ambigu ous</w>
anesthesio logists</w>
ancest or</w>
painkill ers</w>
oscil lation</w>
recipi ents</w>
acknowled ging</w>
veranstaltun gen</w>
advoc ate</w>
assaul t</w>
undere stimate</w>
deutsch e</w>
aufenthal t</w>
0c m</w>
045 512</w>
060 966
226 297</w>
223 88
345 46</w>
413 7507</w>
426 38</w>
446 53</w>
656 001</w>
759 4740fd40
8310 849</w>
aic pa</w>
amp hi
bda 7594740fd40
cf m</w>
cad ila</w>
clor ox</w>
das zak</w>
eic henbaum</w>
e619 337</w>
fwi w</w>
fant astic</w>
favo red</w>
festi val</w>
flaw ed</w>
gla d</w>
gir ls</w>
gall on</w>
hs v</w>
hku 1</w>
iar ism</w>
iat atra
istan bul</w>
iber ia</w>
iow a</w>
jord an</w>
kv r</w>
kon yndyk</w>
kit chen</w>
kne e</w>
ns w</w>
nit rile</w>
nine teen</w>
nago ya</w>
oec d</w>
ove renthu
oten sin</w>
pw c</w>
pyo genes</w>
pab p</w>
pag ination</w>
pfal z</w>
qst 7</w>
qqu ad</w>
qing yuan</w>
rcc l</w>
rcolor brewer</w>
sessi ons</w>
snar k</w>
tci d50</w>
trea ties</w>
tfl yer</w>
uno fficial</w>
uten sils</w>
vine gar</w>
vagu ely</w>
zagre b</w>
zydu s</w>
thou ghts</w>
threa ten</w>
thord arson</w>
insec tici
insan e</w>
incong ruency</w>
anci ent</w>
angi otensin</w>
revi se</w>
reun ite</w>
recon c
rebec ca</w>
remed y</w>
reuni fication</w>
redre ss</w>
remedi es</w>
repur posed</w>
refri gerator</w>
recombin ant</w>
resor ted</w>
rebut tal</w>
remdes ivir</w>
cool er</w>
cobr a</w>
coerci on</w>
coinci den
ensu red</w>
testi mony</w>
orph an</w>
vita min</w>
vira emia</w>
visc usi</w>
robb ins</w>
asht on</w>
nois y</w>
nowad ays</w>
diaphr agm</w>
plag iarism</w>
plenti ful</w>
rubri c</w>
sierr a</w>
unwit tingly</w>
unter sagt</w>
unpack aged</w>
uninsu red</w>
supre me</w>
semes ter</w>
deplo yment</w>
confl ic
constru ed</w>
conden sation</w>
consequ ently</w>
consor tium</w>
trick y</w>
therea fter</w>
promis sory</w>
spag nolo</w>
spaw ned</w>
bever age</w>
solit ary</w>
sopran os</w>
ribo some</w>
rifl es</w>
laye red</w>
miam i</w>
misc arri
nebr aska</w>
vermon t</w>
infir med</w>
infiltra tes</w>
adjec tives</w>
petro l</w>
corna viruses</w>
quir ks</w>
quadra tic</w>
webin ar</w>
shing les</w>
shenz hen</w>
sheri ff</w>
hemor rha
pertu ssis</w>
tobacc o</w>
autho red</w>
ausgenom men</w>
amuse ment</w>
gott lieb</w>
2067 9</w>
pupi l</w>
facem asks</w>
faceshi eld</w>
surger ies</w>
scali se</w>
scarr ing</w>
daeg u</w>
embal ming</w>
ophar yn
formal ism</w>
jugg le</w>
elabor ate</w>
compari sion</w>
compet ent</w>
phras ing</w>
mediter ranee</w>
sentin el</w>
transgre ssors</w>
interchan geably</w>
millen ni
massach usetts</w>
airbn b</w>
impedi ment</w>
approxim ate</w>
offent lic
bigg est</w>
bizar re</w>
chancell or</w>
florid a</w>
cd14 7</w>
fahren heit</w>
antipy re
undervalu ed</w>
populac e</w>
gross ly</w>
necessi ties</w>
overdra ft</w>
00608 69
eviden ced</w>
choler a</w>
niig ata</w>
clinical trials</w>
cataly tic</w>
friend ship</w>
ombud sman</w>
benjam in</w>
parameteri zation</w>
104869 57</w>
nonstero idal</w>
stress ful</w>
streptoco ccus</w>
polysacch aride</w>
aweso me</w>
crabgr ass</w>
nuovo coronavirus</w>
2994 23467b48e9ec
earthqu ake</w>
microsco py</w>
morbid ity</w>
50199 40002</w>
5066 412002</w>
fitzger ald</w>
window sill</w>
1580 226297</w>
polypropy lene</w>
289119 3001</w>
dyspne a</w>
darwini an</w>
00029957 32</w>
debilit ating</w>
barcelon a</w>
crystallo graphy</w>
vanderbil t</w>
10046907 91</w>
horses hoe</w>
slovak ia</w>
737129 4772</w>
tables poons</w>
kerkho ve</w>
bicyc le</w>
encephali tis</w>
conveyan cer</w>
shangha i</w>
060966 18</w>
bda7594740fd40 299423467b48e9ec
iatatra velcentre</w>
overenthu siastic</w>
bda7594740fd40299423467b48e9ec f6</w>
