{"<unk>":0,"\"":1,",":2,"-":3,".":4,"/":5,"0":6,"1":7,"2":8,"3":9,"4":10,"5":11,"6":12,"7":13,"8":14,"9":15,":":16,"a":17,"b":18,"c":19,"d":20,"e":21,"f":22,"g":23,"h":24,"i":25,"j":26,"k":27,"l":28,"m":29,"n":30,"o":31,"p":32,"q":33,"r":34,"s":35,"t":36,"u":37,"v":38,"w":39,"x":40,"y":41,"z":42,"d</w>":43,"6</w>":44,"e</w>":45,"n</w>":46,"s</w>":47,"t</w>":48,"l</w>":49,"y</w>":50,"g</w>":51,"h</w>":52,"r</w>":53,"0</w>":54,"b</w>":55,"c</w>":56,"7</w>":57,"a</w>":58,"p</w>":59,"m</w>":60,"2</w>":61,"k</w>":62,"8</w>":63,"z</w>":64,"x</w>":65,"9</w>":66,"4</w>":67,"1</w>":68,"v</w>":69,"i</w>":70,"u</w>":71,"f</w>":72,"o</w>":73,"q</w>":74,"w</w>":75,"3</w>":76,"j</w>":77,"5</w>":78,".</w>":79,"-</w>":80,":</w>":81,",</w>":82,"\"</w>":83,"/</w>":84,"th":85,"in":86,"an":87,"the</w>":88,"re":89,"ti":90,"er":91,"co":92,"ar":93,"en":94,"to</w>":95,"ou":96,"ing</w>":97,"is</w>":98,"te":99,"on":100,"on</w>":101,"al":102,"or":103,"of</w>":104,"and</w>":105,"es</w>":106,"vi":107,"or</w>":108,"at</w>":109,"in</w>":110,"ro":111,"it":112,"er</w>":113,"as":114,"ed</w>":115,"ly</w>":116,"ac":117,"st":118,"no":119,"al</w>":120,"ic":121,"ec":122,"an</w>":123,"at":124,"il":125,"tion</w>":126,"wh":127,"ve</w>":128,"di":129,"ha":130,"that</w>":131,"es":132,"pl":133,"ru":134,"are</w>":135,"si":136,"un":137,"for</w>":138,"li":139,"it</w>":140,"en</w>":141,"yo":142,"su":143,"se":144,"you</w>":145,"not</w>":146,"lo":147,"de":148,"se</w>":149,"con":150,"ted</w>":151,"as</w>":152,"tr":153,"the":154,"ma":155,"be</w>":156,"ho":157,"pro":158,"me</w>":159,"ts</w>":160,"ld</w>":161,"viru":162,"sp":163,"ab":164,"ur":165,"st</w>":166,"po":167,"me":168,"ent</w>":169,"ere</w>":170,"be":171,"ch":172,"so":173,"tion":174,"wit":175,"ce</w>":176,"with</w>":177,"ri":178,"have</w>":179,"virus</w>":180,"ex":181,"le</w>":182,"la":183,"le":184,"this</w>":185,"bu":186,"mi":187,"our</w>":188,"ne":189,"ver":190,"inf":191,"mp":192,"ad":193,"if</w>":194,"ta":195,"sa":196,"ple</w>":197,"ff":198,"pe":199,"your</w>":200,"cor":201,"ers</w>":202,"so</w>":203,"ate</w>":204,"qu":205,"tions</w>":206,"ill</w>":207,"gh":208,"ould</w>":209,"we":210,"can</w>":211,"sh":212,"fro":213,"ir":214,"from</w>":215,"do":216,"mo":217,"ap":218,"ther</w>":219,"th</w>":220,"ve":221,"19</w>":222,"he":223,"ore</w>":224,"per":225,"ter</w>":226,"pre":227,"ag":228,"out</w>":229,"but</w>":230,"they</w>":231,"ation</w>":232,"will</w>":233,"ay</w>":234,"ally</w>":235,"ch</w>":236,"ity</w>":237,"to":238,"au":239,"infec":240,"ke</w>":241,"by</w>":242,"covi":243,"am":244,"one</w>":245,"ment</w>":246,"et</w>":247,"com":248,"peo":249,"covid</w>":250,"people</w>":251,"coron":252,"go":253,"there</w>":254,"ci":255,"ds</w>":256,"wor":257,"corona":258,"du":259,"fe":260,"ase</w>":261,"ter":262,"ren":263,"20":264,"all</w>":265,"um":266,"do</w>":267,"im":268,"ine</w>":269,"who</w>":270,"gh</w>":271,"any</w>":272,"lu":273,"more</w>":274,"ess</w>":275,"ses</w>":276,"tic":277,"par":278,"ding</w>":279,"pa":280,"rea":281,"ll</w>":282,"pu":283,"ver</w>":284,"coronavirus</w>":285,"would</w>":286,"ents</w>":287,"has</w>":288,"bo":289,"ir</w>":290,"ght</w>":291,"heal":292,"other</w>":293,"ce":294,"fac":295,"ich</w>":296,"ms</w>":297,"ting</w>":298,"tive</w>":299,"we</w>":300,"which</w>":301,"ar</w>":302,"ssi":303,"oun":304,"able</w>":305,"ke":306,"id</w>":307,"some</w>":308,"sur":309,"de</w>":310,"mu":311,"ys</w>":312,"gi":313,"gen":314,"der</w>":315,"ra":316,"cou":317,"health</w>":318,"sed</w>":319,"hi":320,"sy":321,"coun":322,"also</w>":323,"their</w>":324,"enti":325,"no</w>":326,"ing":327,"red</w>":328,"cont":329,"ge</w>":330,"ies</w>":331,"wi":332,"sc":333,"ev":334,"od</w>":335,"inc":336,"may</w>":337,"gu":338,"wn</w>":339,"da":340,"sti":341,"was</w>":342,"ks</w>":343,"ant</w>":344,"ical</w>":345,"about</w>":346,"king</w>":347,"ases</w>":348,"tes</w>":349,"us</w>":350,"ough</w>":351,"em":352,"ht":353,"should</w>":354,"ance</w>":355,"comm":356,"tra":357,"time</w>":358,"ris":359,"ol":360,"por":361,"act</w>":362,"resp":363,"fi":364,"ans":365,"than</w>":366,"out":367,"ary</w>":368,"been</w>":369,"tu":370,"als</w>":371,"min":372,"ars</w>":373,"ast</w>":374,"how</w>":375,"ty</w>":376,"tho":377,"ause</w>":378,"now</w>":379,"dise":380,"ese</w>":381,"get</w>":382,"str":383,"tly</w>":384,"eci":385,"ure</w>":386,"ans</w>":387,"what</w>":388,"ble</w>":389,"when</w>":390,"ul":391,"ser":392,"wa":393,"very</w>":394,"20</w>":395,"infected</w>":396,"ll":397,"ded</w>":398,"op":399,"vel</w>":400,"pers":401,"for":402,"mon":403,"countr":404,"diff":405,"like</w>":406,"af":407,"res</w>":408,"our":409,"rec":410,"ous</w>":411,"acc":412,"ence</w>":413,"ory</w>":414,"is":415,"der":416,"ju":417,"ces</w>":418,"ffec":419,"el":420,"rent</w>":421,"ste":422,"00</w>":423,"mpto":424,"tp</w>":425,"only</w>":426,"viruses</w>":427,"pub":428,"then</w>":429,"ong</w>":430,"does</w>":431,"http</w>":432,"ber</w>":433,"day</w>":434,"fin":435,"bet":436,"most</w>":437,"ess":438,"low":439,"av":440,"up</w>":441,"use</w>":442,"cases</w>":443,"gr":444,"lin":445,"could</w>":446,"many</w>":447,"these</w>":448,"sts</w>":449,"chin":450,"ge":451,"mar":452,"te</w>":453,"mic</w>":454,"num":455,"tional</w>":456,"disease</w>":457,"ten":458,"comp":459,"ties</w>":460,"ound</w>":461,"new</w>":462,"its</w>":463,"sta":464,"est</w>":465,"read</w>":466,"risk</w>":467,"fir":468,"such</w>":469,"prote":470,"cur":471,"na":472,"them</w>":473,"ye":474,"sympto":475,"those</w>":476,"lation</w>":477,"bec":478,"ph":479,"prob":480,"pp":481,"sing</w>":482,"sit":483,"some":484,"dat":485,"ali":486,"low</w>":487,"med":488,"like":489,"possi":490,"because</w>":491,"can":492,"ari":493,"sel":494,"age</w>":495,"ss</w>":496,"ying</w>":497,"where</w>":498,"pr":499,"way</w>":500,"fu":501,"sen":502,"trans":503,"inter":504,"cov</w>":505,"were</w>":506,"duc":507,"after</w>":508,"fun":509,"stan":510,"ile</w>":511,"even</w>":512,"ww":513,"brea":514,"mil":515,"need</w>":516,"bas":517,"gn":518,"care</w>":519,"mas":520,"read":521,"www</w>":522,"spread</w>":523,"publi":524,"symptoms</w>":525,"dy</w>":526,"days</w>":527,"tim":528,"2020</w>":529,"person</w>":530,"fore</w>":531,"ort":532,"ple":533,"china</w>":534,"ings</w>":535,"thing</w>":536,"reas":537,"han":538,"diffe":539,"air":540,"less</w>":541,"said</w>":542,"loc":543,"mation</w>":544,"might</w>":545,"pati":546,"inclu":547,"with":548,"data</w>":549,"requ":550,"vern":551,"clo":552,"cer":553,"imp":554,"likely</w>":555,"infection</w>":556,"just</w>":557,"number</w>":558,"home</w>":559,"exp":560,"ated</w>":561,"infor":562,"govern":563,"sin":564,"sars</w>":565,"effec":566,"aga":567,"make</w>":568,"appro":569,"tic</w>":570,"gener":571,"lt</w>":572,"test</w>":573,"still</w>":574,"ps</w>":575,"ving</w>":576,"travel</w>":577,"vacc":578,"case</w>":579,"lar":580,"ility</w>":581,"hum":582,"ach</w>":583,"soci":584,"id":585,"off":586,"uni":587,"cle":588,"tw":589,"stu":590,"dis":591,"demic</w>":592,"ons</w>":593,"see</w>":594,"ors</w>":595,"being</w>":596,"ad</w>":597,"ws</w>":598,"pri":599,"ard</w>":600,"plo":601,"ations</w>":602,"while</w>":603,"ick</w>":604,"work</w>":605,"respon":606,"into</w>":607,"tre":608,"provi":609,"ssion</w>":610,"public</w>":611,"bi":612,"sting</w>":613,"of":614,"chan":615,"possible</w>":616,"fo":617,"ici":618,"dro":619,"fl":620,"howe":621,"exam":622,"however</w>":623,"line</w>":624,"pan":625,"ating</w>":626,"are":627,"vir":628,"sto":629,"before</w>":630,"des":631,"ob":632,"much</w>":633,"contact</w>":634,"cd":635,"ill":636,"ect</w>":637,"ves</w>":638,"had</w>":639,"nee":640,"information</w>":641,"atory</w>":642,"plac":643,"speci":644,"kno":645,"repor":646,"cu":647,"sure</w>":648,"com</w>":649,"contr":650,"bac":651,"ments</w>":652,"prev":653,"fa":654,"rela":655,"self</w>":656,"man":657,"hel":658,"patients</w>":659,"wee":660,"pi":661,"pen":662,"tur":663,"ved</w>":664,"state</w>":665,"two</w>":666,"my</w>":667,"tely</w>":668,"different</w>":669,"cdc</w>":670,"protec":671,"he</w>":672,"was":673,"plic":674,"take</w>":675,"first</w>":676,"sion</w>":677,"see":678,"chil":679,"peri":680,"respir":681,"stay</w>":682,"medical</w>":683,"fic":684,"les</w>":685,"thr":686,"oth":687,"ori":688,"outbrea":689,"times</w>":690,"hosp":691,"meas":692,"ques":693,"velo":694,"go</w>":695,"ger</w>":696,"tru":697,"mode":698,"pe</w>":699,"all":700,"mission</w>":701,"well</w>":702,"countries</w>":703,"probab":704,"down</w>":705,"imm":706,"consi":707,"stric":708,"hospit":709,"ness</w>":710,"come</w>":711,"ential</w>":712,"cau":713,"country</w>":714,"cy</w>":715,"dur":716,"here</w>":717,"over</w>":718,"sho":719,"10</w>":720,"tri":721,"face</w>":722,"anti":723,"government</w>":724,"ort</w>":725,"acti":726,"example</w>":727,"dre":728,"poin":729,"ths</w>":730,"eng":731,"under":732,"develo":733,"ween</w>":734,"know</w>":735,"ures</w>":736,"sub":737,"advi":738,"same</w>":739,"between</w>":740,"end</w>":741,"ice</w>":742,"respiratory</w>":743,"immun":744,"sick</w>":745,"wer</w>":746,"though</w>":747,"least</w>":748,"ga":749,"pas":750,"posi":751,"through</w>":752,"long</w>":753,"tor</w>":754,"used</w>":755,"thin":756,"dist":757,"2019</w>":758,"during</w>":759,"fli":760,"sear":761,"going</w>":762,"syste":763,"ning</w>":764,"whe":765,"body</w>":766,"good</w>":767,"emplo":768,"cen":769,"ze</w>":770,"tain</w>":771,"based</w>":772,"ail":773,"ked</w>":774,"sted</w>":775,"ite</w>":776,"partic":777,"rate</w>":778,"ins</w>":779,"inst</w>":780,"cour":781,"against</w>":782,"eco":783,"ty":784,"ters</w>":785,"ant":786,"restric":787,"dic":788,"sec":789,"ran":790,"quar":791,"fol":792,"gre":793,"il</w>":794,"indi":795,"loo":796,"cep":797,"situ":798,"import":799,"dent</w>":800,"hou":801,"mat":802,"under</w>":803,"lar</w>":804,"auth":805,"03</w>":806,"ket</w>":807,"popu":808,"outbreak</w>":809,"ia</w>":810,"direc":811,"sup":812,"water</w>":813,"pandemic</w>":814,"sa</w>":815,"arly</w>":816,"ten</w>":817,"star":818,"high":819,"help</w>":820,"econo":821,"ue</w>":822,"cri":823,"ture</w>":824,"using</w>":825,"side</w>":826,"world</w>":827,"someone</w>":828,"transmission</w>":829,"think</w>":830,"log":831,"depen":832,"emer":833,"000</w>":834,"accor":835,"say</w>":836,"high</w>":837,"car":838,"ic</w>":839,"sour":840,"ens</w>":841,"avail":842,"national</w>":843,"med</w>":844,"regu":845,"try</w>":846,"others</w>":847,"dec":848,"fic</w>":849,"human</w>":850,"lic":851,"inv":852,"tical</w>":853,"hands</w>":854,"social</w>":855,"ders</w>":856,"ls</w>":857,"ree</w>":858,"resu":859,"around</w>":860,"temp":861,"medi":862,"sm":863,"tting</w>":864,"order</w>":865,"march</w>":866,"states</w>":867,"measures</w>":868,"val":869,"testing</w>":870,"did</w>":871,"dence</w>":872,"ven</w>":873,"reco":874,"actu":875,"produc":876,"says</w>":877,"work":878,"whether</w>":879,"any":880,"servi":881,"without</w>":882,"since</w>":883,"vaccine</w>":884,"common</w>":885,"important</w>":886,"date</w>":887,"et":888,"fe</w>":889,"yes</w>":890,"ther":891,"addi":892,"including</w>":893,"per</w>":894,"pres":895,"requi":896,"situation</w>":897,"according</w>":898,"iso":899,"ality</w>":900,"due</w>":901,"local</w>":902,"flu</w>":903,"back</w>":904,"available</w>":905,"am</w>":906,"tain":907,"kee":908,"ready</w>":909,"tal</w>":910,"ected</w>":911,"place</w>":912,"known</w>":913,"quarant":914,"ats</w>":915,"few</w>":916,"question</w>":917,"up":918,"ani":919,"condi":920,"means</w>":921,"ghts</w>":922,"indivi":923,"ban":924,"vo":925,"ys":926,"outh</w>":927,"tests</w>":928,"sam":929,"individu":930,"na</w>":931,"allow":932,"avo":933,"system</w>":934,"stra":935,"current</w>":936,"cing</w>":937,"sci":938,"tiz":939,"sign":940,"probably</w>":941,"ced</w>":942,"epi":943,"gg":944,"gro":945,"ma</w>":946,"resear":947,"ically</w>":948,"ching</w>":949,"right</w>":950,"model</w>":951,"ger":952,"ines</w>":953,"another</w>":954,"scho":955,"issu":956,"fur":957,"tou":958,"ous":959,"stru":960,"ways</w>":961,"large</w>":962,"offici":963,"ey</w>":964,"nec":965,"why</w>":966,"mem":967,"rently</w>":968,"boo":969,"cell":970,"general</w>":971,"ide":972,"nor":973,"ol</w>":974,"over":975,"already</w>":976,"lot</w>":977,"response</w>":978,"viral</w>":979,"point</w>":980,"ml</w>":981,"recomm":982,"sever":983,"contin":984,"year</w>":985,"positive</w>":986,"ges</w>":987,"men":988,"artic":989,"develop":990,"emergen":991,"deci":992,"kes</w>":993,"anim":994,"main":995,"population</w>":996,"ca":997,"ever":998,"mit":999,"vie":1000,"news</w>":1001,"amp</w>":1002,"contro":1003,"money</w>":1004,"restrictions</w>":1005,"every":1006,"00":1007,"ap</w>":1008,"cre":1009,"ently</w>":1010,"sev":1011,"answer</w>":1012,"sh</w>":1013,"vari":1014,"coronaviruses</w>":1015,"duce</w>":1016,"affec":1017,"cause</w>":1018,"eu":1019,"glo":1020,"hy":1021,"chec":1022,"mily</w>":1023,"html</w>":1024,"masks</w>":1025,"family</w>":1026,"childre":1027,"children</w>":1028,"evi":1029,"hand</w>":1030,"onal</w>":1031,"ach":1032,"proc":1033,"given</w>":1034,"workers</w>":1035,"severe</w>":1036,"bers</w>":1037,"pur":1038,"yet</w>":1039,"enough</w>":1040,"law</w>":1041,"must</w>":1042,"struc":1043,"har":1044,"sch":1045,"leg":1046,"drople":1047,"protect</w>":1048,"small</w>":1049,"gam":1050,"jo":1051,"land</w>":1052,"last</w>":1053,"ned</w>":1054,"tested</w>":1055,"org":1056,"asi":1057,"find</w>":1058,"droplets</w>":1059,"14</w>":1060,"found</w>":1061,"retur":1062,"happ":1063,"prof":1064,"spread":1065,"mic":1066,"things</w>":1067,"assu":1068,"esti":1069,"doc":1070,"proble":1071,"mask</w>":1072,"keep</w>":1073,"air</w>":1074,"den":1075,"ore":1076,"want</w>":1077,"ini":1078,"inte":1079,"tex":1080,"poli":1081,"pay":1082,"both</w>":1083,"faces</w>":1084,"plication</w>":1085,"dents</w>":1086,"el</w>":1087,"non</w>":1088,"ry</w>":1089,"rit":1090,"dies</w>":1091,"simil":1092,"pot":1093,"infections</w>":1094,"put</w>":1095,"commun":1096,"grou":1097,"ful</w>":1098,"treat":1099,"area</w>":1100,"oc":1101,"main</w>":1102,"busin":1103,"cough</w>":1104,"off</w>":1105,"change</w>":1106,"specific</w>":1107,"19":1108,"om</w>":1109,"icul":1110,"ili":1111,"mean</w>":1112,"health":1113,"surfaces</w>":1114,"contrac":1115,"weeks</w>":1116,"higher</w>":1117,"far</w>":1118,"sity</w>":1119,"tle</w>":1120,"ath</w>":1121,"ature</w>":1122,"comple":1123,"univer":1124,"avoid</w>":1125,"article</w>":1126,"cho":1127,"ni":1128,"plan":1129,"exper":1130,"incre":1131,"best</w>":1132,"zed</w>":1133,"susp":1134,"influ":1135,"feren":1136,"elec":1137,"lines</w>":1138,"within</w>":1139,"period</w>":1140,"employ":1141,"actually</w>":1142,"quarantine</w>":1143,"every</w>":1144,"unti":1145,"sequ":1146,"too</w>":1147,"part</w>":1148,"ours</w>":1149,"illness</w>":1150,"related</w>":1151,"immune</w>":1152,"recommen":1153,"several</w>":1154,"emergency</w>":1155,"15</w>":1156,"war":1157,"vely</w>":1158,"often</w>":1159,"until</w>":1160,"100</w>":1161,"br":1162,"cla":1163,"each</w>":1164,"fr":1165,"ny":1166,"own</w>":1167,"thro":1168,"visa</w>":1169,"tation</w>":1170,"shi":1171,"she</w>":1172,"months</w>":1173,"years</w>":1174,"advice</w>":1175,"30</w>":1176,"dru":1177,"mp</w>":1178,"um</w>":1179,"really</w>":1180,"200":1181,"beta</w>":1182,"ck</w>":1183,"clin":1184,"lon":1185,"ncov</w>":1186,"val</w>":1187,"defin":1188,"matic</w>":1189,"char":1190,"citiz":1191,"term</w>":1192,"reported</w>":1193,"preven":1194,"services</w>":1195,"research</w>":1196,"cap":1197,"tors</w>":1198,"enz":1199,"distan":1200,"confir":1201,"later</w>":1202,"cough":1203,"difficul":1204,"wash":1205,"similar</w>":1206,"clu":1207,"des</w>":1208,"fil":1209,"led</w>":1210,"ven":1211,"soap</w>":1212,"short</w>":1213,"currently</w>":1214,"again</w>":1215,"bio":1216,"hospital</w>":1217,"authori":1218,"evidence</w>":1219,"legal</w>":1220,"late</w>":1221,"sing":1222,"stat":1223,"pla":1224,"sive</w>":1225,"secon":1226,"concer":1227,"exi":1228,"func":1229,"text</w>":1230,"ef":1231,"ither</w>":1232,"snee":1233,"exten":1234,"rather</w>":1235,"essential</w>":1236,"medic":1237,"effective</w>":1238,"seems</w>":1239,"necess":1240,"cat":1241,"equ":1242,"hours</w>":1243,"ns</w>":1244,"ply</w>":1245,"rna</w>":1246,"action</w>":1247,"comes</w>":1248,"lower</w>":1249,"glob":1250,"distancing</w>":1251,"ame":1252,"bro":1253,"done</w>":1254,"ft</w>":1255,"ta</w>":1256,"wing</w>":1257,"eric":1258,"solu":1259,"trave":1260,"getting</w>":1261,"market</w>":1262,"close</w>":1263,"follow":1264,"logy</w>":1265,"scienti":1266,"ously</w>":1267,"bor":1268,"gs</w>":1269,"hu":1270,"her</w>":1271,"ling</w>":1272,"mort":1273,"ants</w>":1274,"sugg":1275,"ability</w>":1276,"appe":1277,"application</w>":1278,"part":1279,"united</w>":1280,"prevent</w>":1281,"trump</w>":1282,"gamma</w>":1283,"ately</w>":1284,"call</w>":1285,"ged</w>":1286,"lea":1287,"lear":1288,"predic":1289,"tics</w>":1290,"stitu":1291,"seri":1292,"study</w>":1293,"wash</w>":1294,"control</w>":1295,"bin":1296,"col":1297,"deter":1298,"americ":1299,"diseases</w>":1300,"flight</w>":1301,"course</w>":1302,"further</w>":1303,"intere":1304,"treatment</w>":1305,"12</w>":1306,"ig":1307,"ific":1308,"resi":1309,"pose</w>":1310,"doing</w>":1311,"mini":1312,"fund</w>":1313,"activi":1314,"influenz":1315,"global</w>":1316,"dr</w>":1317,"jec":1318,"las":1319,"tro":1320,"aly</w>":1321,"novel</w>":1322,"ples</w>":1323,"shed</w>":1324,"phys":1325,"site</w>":1326,"consider</w>":1327,"flights</w>":1328,"suppor":1329,"etc</w>":1330,"check</w>":1331,"away</w>":1332,"bility</w>":1333,"call":1334,"ute</w>":1335,"tis":1336,"once</w>":1337,"although</w>":1338,"lion</w>":1339,"conta":1340,"lations</w>":1341,"full</w>":1342,"humans</w>":1343,"typ":1344,"source</w>":1345,"influenza</w>":1346,"ba":1347,"fri":1348,"hal":1349,"ject</w>":1350,"pap":1351,"usu":1352,"italy</w>":1353,"ask</w>":1354,"nose</w>":1355,"ick":1356,"set</w>":1357,"expo":1358,"cei":1359,"fact</w>":1360,"guid":1361,"immunity</w>":1362,"additional</w>":1363,"conditions</w>":1364,"lan":1365,"mers</w>":1366,"uk</w>":1367,"tively</w>":1368,"list</w>":1369,"tran":1370,"abo":1371,"tail":1372,"infecti":1373,"outside</w>":1374,"airline</w>":1375,"clear</w>":1376,"start</w>":1377,"resul":1378,"norm":1379,"leave</w>":1380,"11</w>":1381,"bly</w>":1382,"da</w>":1383,"early</w>":1384,"fy</w>":1385,"ful":1386,"om":1387,"experi":1388,"amoun":1389,"mul":1390,"better</w>":1391,"protein</w>":1392,"food</w>":1393,"look</w>":1394,"house</w>":1395,"temper":1396,"view</w>":1397,"organi":1398,"return</w>":1399,"nytimes</w>":1400,"guidance</w>":1401,"blo":1402,"cro":1403,"either</w>":1404,"gen</w>":1405,"lab":1406,"peci":1407,"atten":1408,"beg":1409,"let</w>":1410,"safe":1411,"apply</w>":1412,"vered</w>":1413,"count</w>":1414,"lling</w>":1415,"cannot</w>":1416,"mild</w>":1417,"certain</w>":1418,"generally</w>":1419,"euro":1420,"ben":1421,"kore":1422,"ner</w>":1423,"inten":1424,"ann":1425,"rely</w>":1426,"reduce</w>":1427,"especi":1428,"hold</w>":1429,"parame":1430,"international</w>":1431,"provide</w>":1432,"week</w>":1433,"child</w>":1434,"type</w>":1435,"economic</w>":1436,"especially</w>":1437,"ki":1438,"lit":1439,"us":1440,"active</w>":1441,"note</w>":1442,"made</w>":1443,"spo":1444,"fever</w>":1445,"surface</w>":1446,"entially</w>":1447,"effect</w>":1448,"identi":1449,"13</w>":1450,"his</w>":1451,"mal":1452,"ular</w>":1453,"recei":1454,"actions</w>":1455,"having</w>":1456,"unless</w>":1457,"maj":1458,"ribu":1459,"give</w>":1460,"reason</w>":1461,"distribu":1462,"individuals</w>":1463,"signific":1464,"community</w>":1465,"citizens</w>":1466,"authorities</w>":1467,"status</w>":1468,"oper":1469,"three</w>":1470,"regi":1471,"associ":1472,"sit</w>":1473,"dea":1474,"presi":1475,"patho":1476,"continue</w>":1477,"initi":1478,"clinical</w>":1479,"single</w>":1480,"ed":1481,"eff":1482,"erci":1483,"alk</w>":1484,"suff":1485,"taking</w>":1486,"cance":1487,"stop</w>":1488,"above</w>":1489,"infectious</w>":1490,"mit</w>":1491,"rap":1492,"your":1493,"cold</w>":1494,"aring</w>":1495,"disc":1496,"gov</w>":1497,"something</w>":1498,"descri":1499,"contract</w>":1500,"university</w>":1501,"increase</w>":1502,"confirmed</w>":1503,"function</w>":1504,"han</w>":1505,"ming</w>":1506,"pay</w>":1507,"re</w>":1508,"sha":1509,"ster":1510,"diag":1511,"spec":1512,"form</w>":1513,"recent</w>":1514,"hand":1515,"germany</w>":1516,"group</w>":1517,"10":1518,"show</w>":1519,"zation</w>":1520,"aning</w>":1521,"ening</w>":1522,"allow</w>":1523,"closed</w>":1524,"result</w>":1525,"media</w>":1526,"school</w>":1527,"affected</w>":1528,"results</w>":1529,"amount</w>":1530,"ken</w>":1531,"mouth</w>":1532,"ought</w>":1533,"ale</w>":1534,"makes</w>":1535,"polic":1536,"feder":1537,"necessary</w>":1538,"following</w>":1539,"benef":1540,"yourself</w>":1541,"diagno":1542,"18</w>":1543,"60</w>":1544,"gar":1545,"nex":1546,"south</w>":1547,"inste":1548,"ority</w>":1549,"become</w>":1550,"excep":1551,"chinese</w>":1552,"numbers</w>":1553,"manu":1554,"employe":1555,"epidemic</w>":1556,"touching</w>":1557,"cells</w>":1558,"business</w>":1559,"longer</w>":1560,"korea</w>":1561,"50</w>":1562,"cir":1563,"cris":1564,"hard</w>":1565,"sk":1566,"anal":1567,"entry</w>":1568,"ack</w>":1569,"who":1570,"live</w>":1571,"limi":1572,"dered</w>":1573,"making</w>":1574,"ols</w>":1575,"older</w>":1576,"public":1577,"stand":1578,"gather":1579,"passen":1580,"allowed</w>":1581,"federal</w>":1582,"next</w>":1583,"instead</w>":1584,"limited</w>":1585,"gy</w>":1586,"kin":1587,"art</w>":1588,"essi":1589,"death</w>":1590,"spe":1591,"safe</w>":1592,"ire</w>":1593,"infect</w>":1594,"among</w>":1595,"vaccines</w>":1596,"causes</w>":1597,"sources</w>":1598,"officials</w>":1599,"spreading</w>":1600,"ference</w>":1601,"mortality</w>":1602,"ign</w>":1603,"announ":1604,"deaths</w>":1605,"crisis</w>":1606,"16</w>":1607,"old</w>":1608,"wu":1609,"xi":1610,"youn":1611,"reli":1612,"rele":1613,"working</w>":1614,"sense</w>":1615,"include</w>":1616,"certain":1617,"centr":1618,"blood</w>":1619,"safety</w>":1620,"80</w>":1621,"ber":1622,"cul":1623,"ef</w>":1624,"lun":1625,"man</w>":1626,"pne":1627,"r0</w>":1628,"tici":1629,"online</w>":1630,"always</w>":1631,"org</w>":1632,"died</w>":1633,"life</w>":1634,"web":1635,"open</w>":1636,"areas</w>":1637,"present</w>":1638,"required</w>":1639,"isolation</w>":1640,"sneez":1641,"suggest</w>":1642,"paper</w>":1643,"little</w>":1644,"manufac":1645,"ared</w>":1646,"bre":1647,"bit</w>":1648,"ign":1649,"reduc":1650,"tech":1651,"esses</w>":1652,"pli":1653,"fied</w>":1654,"reasons</w>":1655,"differen":1656,"needs</w>":1657,"probability</w>":1658,"particular</w>":1659,"anyone</w>":1660,"animals</w>":1661,"problem</w>":1662,"fully</w>":1663,"president</w>":1664,"25</w>":1665,"cas":1666,"emp":1667,"frequ":1668,"ily</w>":1669,"non":1670,"ref":1671,"remo":1672,"coho":1673,"coll":1674,"alcoho":1675,"stre":1676,"plan</w>":1677,"pol":1678,"lated</w>":1679,"tail</w>":1680,"quite</w>":1681,"today</w>":1682,"pper</w>":1683,"expect</w>":1684,"bank</w>":1685,"member</w>":1686,"idea</w>":1687,"everyone</w>":1688,"potential</w>":1689,"defini":1690,"multi":1691,"temperature</w>":1692,"wuhan</w>":1693,"ak</w>":1694,"ging</w>":1695,"pi</w>":1696,"ton</w>":1697,"def":1698,"detail":1699,"proce":1700,"mid":1701,"increas":1702,"stic</w>":1703,"appropri":1704,"stock</w>":1705,"obser":1706,"orig":1707,"house":1708,"estima":1709,"drug</w>":1710,"usually</w>":1711,"bed</w>":1712,"dr":1713,"ined</w>":1714,"arri":1715,"ont</w>":1716,"story</w>":1717,"logi":1718,"quick":1719,"ticket</w>":1720,"hiv</w>":1721,"force</w>":1722,"access</w>":1723,"compan":1724,"true</w>":1725,"official</w>":1726,"washing</w>":1727,"den</w>":1728,"est":1729,"lying</w>":1730,"nal</w>":1731,"os</w>":1732,"tar":1733,"ination</w>":1734,"cover":1735,"nega":1736,"wear</w>":1737,"previ":1738,"umon":1739,"effects</w>":1740,"fore":1741,"hospitals</w>":1742,"engen</w>":1743,"develop</w>":1744,"process</w>":1745,"schengen</w>":1746,"experts</w>":1747,"prevention</w>":1748,"difficult</w>":1749,"pneumon":1750,"companies</w>":1751,"cha":1752,"fat":1753,"fit</w>":1754,"pac":1755,"san":1756,"cover</w>":1757,"stand</w>":1758,"dit</w>":1759,"rules</w>":1760,"sim":1761,"size</w>":1762,"seen</w>":1763,"consu":1764,"there":1765,"lead":1766,"level</w>":1767,"adv":1768,"adul":1769,"taken</w>":1770,"teri":1771,"cancell":1772,"practi":1773,"questions</w>":1774,"logical</w>":1775,"value</w>":1776,"issue</w>":1777,"animal</w>":1778,"mitted</w>":1779,"coughing</w>":1780,"alcohol</w>":1781,"14":1782,"bill</w>":1783,"im</w>":1784,"table</w>":1785,"ues</w>":1786,"refund</w>":1787,"ough":1788,"ages</w>":1789,"prac":1790,"future</w>":1791,"timate</w>":1792,"governments</w>":1793,"changes</w>":1794,"needed</w>":1795,"underlying</w>":1796,"distance</w>":1797,"follow</w>":1798,"invol":1799,"samples</w>":1800,"individual</w>":1801,"serious</w>":1802,"support</w>":1803,"malari":1804,"associated</w>":1805,"son</w>":1806,"wth</w>":1807,"ering</w>":1808,"envir":1809,"depart":1810,"paid</w>":1811,"bodies</w>":1812,"scre":1813,"event</w>":1814,"patient</w>":1815,"caused</w>":1816,"range</w>":1817,"economy</w>":1818,"growth</w>":1819,"quickly</w>":1820,"pneumonia</w>":1821,"therefore</w>":1822,"environ":1823,"ban</w>":1824,"bats</w>":1825,"cent</w>":1826,"city</w>":1827,"dri":1828,"ep":1829,"free</w>":1830,"gers</w>":1831,"mm":1832,"mso</w>":1833,"past</w>":1834,"ining</w>":1835,"insur":1836,"argu":1837,"tell</w>":1838,"orts</w>":1839,"unlikely</w>":1840,"hood</w>":1841,"dom</w>":1842,"coming</w>":1843,"immedi":1844,"tically</w>":1845,"stration</w>":1846,"recently</w>":1847,"lock":1848,"students</w>":1849,"seem</w>":1850,"dependent</w>":1851,"schools</w>":1852,"healthcare</w>":1853,"physical</w>":1854,"normal</w>":1855,"practice</w>":1856,"17</w>":1857,"dra":1858,"easi":1859,"lat":1860,"inde":1861,"remain</w>":1862,"ones</w>":1863,"simp":1864,"living</w>":1865,"lab</w>":1866,"tax</w>":1867,"tations</w>":1868,"pregn":1869,"total</w>":1870,"selves</w>":1871,"stances</w>":1872,"impact</w>":1873,"expected</w>":1874,"provider</w>":1875,"protection</w>":1876,"significant</w>":1877,"malaria</w>":1878,"insurance</w>":1879,"simply</w>":1880,"24</w>":1881,"95</w>":1882,"aw":1883,"bru":1884,"bri":1885,"cc":1886,"cr":1887,"eas":1888,"gra":1889,"hin":1890,"mine</w>":1891,"ping</w>":1892,"wers</w>":1893,"wom":1894,"thought</w>":1895,"indic":1896,"institu":1897,"regar":1898,"err":1899,"ency</w>":1900,"ord":1901,"asy":1902,"acro":1903,"light</w>":1904,"ably</w>":1905,"below</w>":1906,"expla":1907,"ada</w>":1908,"share</w>":1909,"ago</w>":1910,"feet</w>":1911,"factor</w>":1912,"survi":1913,"wise</w>":1914,"scen":1915,"else</w>":1916,"reason":1917,"studies</w>":1918,"direct</w>":1919,"ilities</w>":1920,"called</w>":1921,"gatherings</w>":1922,"appropriate</w>":1923,"eri":1924,"via</w>":1925,"ass":1926,"acy</w>":1927,"atur":1928,"seas":1929,"hol":1930,"tioned</w>":1931,"key</w>":1932,"syn":1933,"personal</w>":1934,"accur":1935,"company</w>":1936,"canada</w>":1937,"clean</w>":1938,"reports</w>":1939,"fication</w>":1940,"models</w>":1941,"understand</w>":1942,"subject</w>":1943,"carri":1944,"epide":1945,"ship</w>":1946,"interest</w>":1947,"parameters</w>":1948,"distribution</w>":1949,"negative</w>":1950,"ble":1951,"border</w>":1952,"eve</w>":1953,"jan":1954,"kill</w>":1955,"len":1956,"leng":1957,"nu":1958,"rout":1959,"tun":1960,"wr":1961,"int</w>":1962,"tec":1963,"ories</w>":1964,"contain":1965,"mely</w>":1966,"beli":1967,"che":1968,"buil":1969,"mis":1970,"new":1971,"feel</w>":1972,"breathing</w>":1973,"approach</w>":1974,"places</w>":1975,"report</w>":1976,"upda":1977,"ysis</w>":1978,"problems</w>":1979,"medicine</w>":1980,"experience</w>":1981,"website</w>":1982,"manufactu":1983,"asympto":1984,"29":1985,"dry</w>":1986,"eld</w>":1987,"ement</w>":1988,"ods</w>":1989,"uary</w>":1990,"inci":1991,"almost</w>":1992,"visit":1993,"ics</w>":1994,"separ":1995,"detec":1996,"trac":1997,"exerci":1998,"correc":1999,"form":2000,"approved</w>":2001,"prime</w>":2002,"special</w>":2003,"specific":2004,"considered</w>":2005,"hospitali":2006,"trials</w>":2007,"sample</w>":2008,"booking</w>":2009,"development</w>":2010,"decision</w>":2011,"healthy</w>":2012,"employment</w>":2013,"sequen":2014,"multiple</w>":2015,"january</w>":2016,"cal":2017,"ear":2018,"fra":2019,"rss</w>":2020,"thre":2021,"enter</w>":2022,"itself</w>":2023,"plies</w>":2024,"sible</w>":2025,"sue</w>":2026,"supp":2027,"host</w>":2028,"post</w>":2029,"posed</w>":2030,"admini":2031,"month</w>":2032,"grap":2033,"million</w>":2034,"mass</w>":2035,"airlines</w>":2036,"shows</w>":2037,"particles</w>":2038,"section</w>":2039,"secur":2040,"actual</w>":2041,"completely</w>":2042,"solution</w>":2043,"activity</w>":2044,"half</w>":2045,"kind</w>":2046,"announced</w>":2047,"household</w>":2048,"adults</w>":2049,"cancelled</w>":2050,"scenari":2051,"bal":2052,"dou":2053,"dly</w>":2054,"gge":2055,"nes":2056,"ok</w>":2057,"usa</w>":2058,"thus</w>":2059,"run":2060,"rup":2061,"sions</w>":2062,"poses</w>":2063,"meth":2064,"migr":2065,"shor":2066,"dog</w>":2067,"press</w>":2068,"agre":2069,"toge":2070,"febru":2071,"factors</w>":2072,"dama":2073,"daily</w>":2074,"possibly</w>":2075,"includes</w>":2076,"other":2077,"require":2078,"maintain</w>":2079,"sche":2080,"political</w>":2081,"capac":2082,"broad":2083,"jects</w>":2084,"circ":2085,"passengers</w>":2086,"simple</w>":2087,"women</w>":2088,"asymptomatic</w>":2089,"supply</w>":2090,"together</w>":2091,"february</w>":2092,"ates</w>":2093,"dge</w>":2094,"ise</w>":2095,"ped</w>":2096,"tary</w>":2097,"talk</w>":2098,"ensure</w>":2099,"vide":2100,"asking</w>":2101,"ator</w>":2102,"const</w>":2103,"trying</w>":2104,"rights</w>":2105,"left</w>":2106,"buy</w>":2107,"tax":2108,"presen":2109,"aged</w>":2110,"immigr":2111,"gene":2112,"scale</w>":2113,"stimu":2114,"minis":2115,"ism</w>":2116,"grad":2117,"compared</w>":2118,"basically</w>":2119,"airpor":2120,"prior</w>":2121,"relative</w>":2122,"recovered</w>":2123,"products</w>":2124,"second</w>":2125,"scientists</w>":2126,"pathogen":2127,"analysis</w>":2128,"lockdown</w>":2129,"method</w>":2130,"clas":2131,"eli":2132,"four</w>":2133,"fair":2134,"fda</w>":2135,"lor":2136,"mb":2137,"yle</w>":2138,"reser":2139,"ene</w>":2140,"limit</w>":2141,"deli":2142,"them":2143,"spac":2144,"chi":2145,"tionally</w>":2146,"extre":2147,"sation</w>":2148,"told</w>":2149,"corona</w>":2150,"cies</w>":2151,"giene</w>":2152,"wide</w>":2153,"published</w>":2154,"trip</w>":2155,"pass</w>":2156,"secre":2157,"looking</w>":2158,"authority</w>":2159,"investi":2160,"production</w>":2161,"service</w>":2162,"addition</w>":2163,"book</w>":2164,"mental</w>":2165,"developed</w>":2166,"hygiene</w>":2167,"micro":2168,"potentially</w>":2169,"americans</w>":2170,"department</w>":2171,"across</w>":2172,"capacity</w>":2173,"minister</w>":2174,"99</w>":2175,"bit":2176,"bad</w>":2177,"cat</w>":2178,"igh":2179,"mor":2180,"resources</w>":2181,"alph":2182,"visit</w>":2183,"acute</w>":2184,"stance</w>":2185,"sugge":2186,"dem":2187,"dela":2188,"conclu":2189,"abli":2190,"poly</w>":2191,"sol":2192,"exac":2193,"move</w>":2194,"austr":2195,"worse</w>":2196,"ingly</w>":2197,"guar":2198,"fig":2199,"link</w>":2200,"curve</w>":2201,"likeli":2202,"price</w>":2203,"funds</w>":2204,"approval</w>":2205,"outbreaks</w>":2206,"update</w>":2207,"allows</w>":2208,"members</w>":2209,"job</w>":2210,"mics</w>":2211,"claim":2212,"equi":2213,"determin":2214,"activities</w>":2215,"typically</w>":2216,"except</w>":2217,"establi":2218,"aware</w>":2219,"ordin":2220,"security</w>":2221,"otherwise</w>":2222,"themselves</w>":2223,"alpha</w>":2224,"australi":2225,"27</w>":2226,"40</w>":2227,"bir":2228,"df</w>":2229,"gt</w>":2230,"hun":2231,"ima":2232,"page</w>":2233,"wal":2234,"income</w>":2235,"real</w>":2236,"ero":2237,"encour":2238,"room</w>":2239,"account</w>":2240,"estimate</w>":2241,"succ":2242,"loan</w>":2243,"demo":2244,"proper":2245,"soon</w>":2246,"ext":2247,"corpor":2248,"wearing</w>":2249,"shu":2250,"lled</w>":2251,"arily</w>":2252,"cleaning</w>":2253,"plications</w>":2254,"seek</w>":2255,"particul":2256,"great</w>":2257,"materi":2258,"anything</w>":2259,"strate":2260,"purpose</w>":2261,"happen</w>":2262,"spreads</w>":2263,"payment</w>":2264,"throat</w>":2265,"existing</w>":2266,"catching</w>":2267,"described</w>":2268,"policy</w>":2269,"frequently</w>":2270,"estimates</w>":2271,"pregnant</w>":2272,"bleach</w>":2273,"administration</w>":2274,"22</w>":2275,"eu</w>":2276,"fal":2277,"flu":2278,"ite":2279,"ibu":2280,"ired</w>":2281,"jour":2282,"kill":2283,"nam":2284,"smo":2285,"tty</w>":2286,"upper</w>":2287,"writ":2288,"anted</w>":2289,"illion</w>":2290,"plem":2291,"run</w>":2292,"context</w>":2293,"becomes</w>":2294,"law":2295,"vement</w>":2296,"pretty</w>":2297,"terms</w>":2298,"lus</w>":2299,"board</w>":2300,"ish</w>":2301,"gets</w>":2302,"pre</w>":2303,"standing</w>":2304,"expen":2305,"big</w>":2306,"antibodies</w>":2307,"matter</w>":2308,"depending</w>":2309,"tempor":2310,"create</w>":2311,"professi":2312,"occu":2313,"sequence</w>":2314,"scientific</w>":2315,"exposure</w>":2316,"major</w>":2317,"benefits</w>":2318,"whole</w>":2319,"standard</w>":2320,"certainly</w>":2321,"manufacture":2322,"50":2323,"88":2324,"90</w>":2325,"bon":2326,"bat</w>":2327,"ets</w>":2328,"ids</w>":2329,"sent</w>":2330,"sort</w>":2331,"sani":2332,"yor":2333,"republic":2334,"code</w>":2335,"end":2336,"ace":2337,"acts</w>":2338,"dispo":2339,"sely</w>":2340,"mio":2341,"addre":2342,"quali":2343,"got</w>":2344,"impro":2345,"cement</w>":2346,"opti":2347,"larger</w>":2348,"antibody</w>":2349,"activ":2350,"systems</w>":2351,"director</w>":2352,"recover</w>":2353,"requires</w>":2354,"isolate</w>":2355,"condition</w>":2356,"doctor</w>":2357,"groups</w>":2358,"catch</w>":2359,"learning</w>":2360,"organization</w>":2361,"europe</w>":2362,"origin":2363,"advan":2364,"epidemio":2365,"length</w>":2366,"exercise</w>":2367,"circum":2368,"investig":2369,"figure</w>":2370,"likelihood</w>":2371,"particularly</w>":2372,"york</w>":2373,"aero":2374,"bb":2375,"bur":2376,"don":2377,"dation</w>":2378,"ety</w>":2379,"fre":2380,"font</w>":2381,"pat":2382,"tt":2383,"wat":2384,"ased</w>":2385,"astic</w>":2386,"play</w>":2387,"sir":2388,"unemployment</w>":2389,"conduc":2390,"chance</w>":2391,"never</w>":2392,"words</w>":2393,"essor</w>":2394,"expon":2395,"larly</w>":2396,"treat</w>":2397,"icient</w>":2398,"know":2399,"measure</w>":2400,"started</w>":2401,"critical</w>":2402,"depends</w>":2403,"regularly</w>":2404,"occur":2405,"claim</w>":2406,"difficulty</w>":2407,"learn</w>":2408,"tissue</w>":2409,"employees</w>":2410,"young</w>":2411,"sneezing</w>":2412,"pack":2413,"demand</w>":2414,"plemen":2415,"circumstances</w>":2416,"13":2417,"21</w>":2418,"aver":2419,"her":2420,"lec":2421,"ner":2422,"natur":2423,"ow":2424,"pt</w>":2425,"sis</w>":2426,"venti":2427,"antly</w>":2428,"ened</w>":2429,"tee</w>":2430,"noti":2431,"nothing</w>":2432,"limit":2433,"tage</w>":2434,"saying</w>":2435,"pedi":2436,"moder":2437,"agency</w>":2438,"infecting</w>":2439,"cial</w>":2440,"party</w>":2441,"reated</w>":2442,"tual</w>":2443,"stron":2444,"persons</w>":2445,"finan":2446,"state":2447,"transmitted</w>":2448,"idly</w>":2449,"provided</w>":2450,"showing</w>":2451,"highly</w>":2452,"regular</w>":2453,"regulations</w>":2454,"strain</w>":2455,"touch</w>":2456,"continu":2457,"various</w>":2458,"affect</w>":2459,"assume</w>":2460,"docum":2461,"businesses</w>":2462,"coughs</w>":2463,"borders</w>":2464,"exposed</w>":2465,"transp":2466,"rapidly</w>":2467,"immediately</w>":2468,"stimulus</w>":2469,"fairly</w>":2470,"exactly</w>":2471,"17":2472,"bation</w>":2473,"cy":2474,"eyes</w>":2475,"fam":2476,"ld":2477,"sw":2478,"sore</w>":2479,"tan":2480,"utes</w>":2481,"ward</w>":2482,"xy":2483,"reference</w>":2484,"aca":2485,"stop":2486,"style</w>":2487,"haps</w>":2488,"rule</w>":2489,"produce</w>":2490,"spi":2491,"ches</w>":2492,"chall":2493,"chlor":2494,"ril</w>":2495,"april</w>":2496,"perhaps</w>":2497,"prepa":2498,"tering</w>":2499,"impossible</w>":2500,"imum</w>":2501,"bol":2502,"incu":2503,"guide":2504,"field</w>":2505,"tually</w>":2506,"steps</w>":2507,"essing</w>":2508,"require</w>":2509,"consider":2510,"directly</w>":2511,"values</w>":2512,"issues</w>":2513,"developing</w>":2514,"aches</w>":2515,"purposes</w>":2516,"contracep":2517,"choice</w>":2518,"drugs</w>":2519,"concerns</w>":2520,"determine</w>":2521,"begin</w>":2522,"receive</w>":2523,"initial</w>":2524,"diagnosed</w>":2525,"lung</w>":2526,"breath</w>":2527,"fatality</w>":2528,"screening</w>":2529,"easily</w>":2530,"separate</w>":2531,"schedu":2532,"secretary</w>":2533,"items</w>":2534,"500</w>":2535,"fer</w>":2536,"gd":2537,"hit</w>":2538,"ight</w>":2539,"pdf</w>":2540,"wed</w>":2541,"inve":2542,"rest</w>":2543,"recor":2544,"reach</w>":2545,"vis":2546,"asse":2547,"accep":2548,"ices</w>":2549,"ators</w>":2550,"sus</w>":2551,"lots</w>":2552,"contain</w>":2553,"leve":2554,"neigh":2555,"door</w>":2556,"head</w>":2557,"precau":2558,"parts</w>":2559,"gious</w>":2560,"events</w>":2561,"tures</w>":2562,"minutes</w>":2563,"justi":2564,"compu":2565,"phar":2566,"possibility</w>":2567,"fund":2568,"gni":2569,"disrup":2570,"obli":2571,"gress</w>":2572,"starting</w>":2573,"valid</w>":2574,"issued</w>":2575,"mentioned</w>":2576,"professor</w>":2577,"payments</w>":2578,"suspected</w>":2579,"extension</w>":2580,"appear</w>":2581,"bathro":2582,"crow":2583,"cancel</w>":2584,"increased</w>":2585,"regarding</w>":2586,"seasonal</w>":2587,"correct</w>":2588,"hospitalized</w>":2589,"australia</w>":2590,"false</w>":2591,"guidelines</w>":2592,"levels</w>":2593,"26</w>":2594,"bt</w>":2595,"cra":2596,"fit":2597,"fine</w>":2598,"vol":2599,"thir":2600,"covered</w>":2601,"ended</w>":2602,"att":2603,"atures</w>":2604,"connec":2605,"constitu":2606,"theta</w>":2607,"prov":2608,"metho":2609,"ched</w>":2610,"takes</w>":2611,"ffe":2612,"short":2613,"moment</w>":2614,"movement</w>":2615,"goes</w>":2616,"ternal</w>":2617,"cell</w>":2618,"kets</w>":2619,"giving</w>":2620,"geno":2621,"him</w>":2622,"opt</w>":2623,"proteins</w>":2624,"please</w>":2625,"plot</w>":2626,"manag":2627,"search</w>":2628,"assump":2629,"contracting</w>":2630,"recommends</w>":2631,"concerned</w>":2632,"attention</w>":2633,"employee</w>":2634,"difference</w>":2635,"details</w>":2636,"previous</w>":2637,"index</w>":2638,"accurate</w>":2639,"nucle":2640,"updated</w>":2641,"sequences</w>":2642,"video</w>":2643,"average</w>":2644,"incubation</w>":2645,"1000</w>":2646,"28</w>":2647,"31</w>":2648,"cru":2649,"lack</w>":2650,"mec":2651,"pment</w>":2652,"vant</w>":2653,"walk</w>":2654,"zo":2655,"instruc":2656,"intro":2657,"review</w>":2658,"ergy</w>":2659,"arr":2660,"ards</w>":2661,"vity</w>":2662,"acting</w>":2663,"ato":2664,"summ":2665,"conver":2666,"may":2667,"propor":2668,"power</w>":2669,"chem":2670,"lead</w>":2671,"mia</w>":2672,"missi":2673,"quo":2674,"wea":2675,"irs</w>":2676,"molec":2677,"territ":2678,"implemen":2679,"mutations</w>":2680,"rates</w>":2681,"scri":2682,"wait</w>":2683,"opini":2684,"nation":2685,"relatively</w>":2686,"points</w>":2687,"advis":2688,"recogni":2689,"vote</w>":2690,"strains</w>":2691,"research":2692,"everything</w>":2693,"credit</w>":2694,"assuming</w>":2695,"recommended</w>":2696,"wards</w>":2697,"france</w>":2698,"colle":2699,"contamin":2700,"europe":2701,"region</w>":2702,"species</w>":2703,"skin</w>":2704,"plied</w>":2705,"definition</w>":2706,"observed</w>":2707,"practic":2708,"reasonable</w>":2709,"routine</w>":2710,"specifically</w>":2711,"pathogens</w>":2712,"eligi":2713,"knowle":2714,"mechan":2715,"cl":2716,"cats</w>":2717,"dnes":2718,"ever</w>":2719,"jap":2720,"mc":2721,"mes":2722,"pite</w>":2723,"sal":2724,"squ":2725,"win":2726,"zer":2727,"thes":2728,"cost</w>":2729,"ond</w>":2730,"stly</w>":2731,"die</w>":2732,"simu":2733,"loans</w>":2734,"hope</w>":2735,"exclu":2736,"bus</w>":2737,"top</w>":2738,"worth</w>":2739,"feel":2740,"paren":2741,"facilities</w>":2742,"person":2743,"fortun":2744,"elder":2745,"pping</w>":2746,"changed</w>":2747,"drome</w>":2748,"design":2749,"despite</w>":2750,"bacteri":2751,"understanding</w>":2752,"random</w>":2753,"decre":2754,"harm</w>":2755,"communic":2756,"election</w>":2757,"charac":2758,"appears</w>":2759,"american</w>":2760,"normally</w>":2761,"policies</w>":2762,"central</w>":2763,"techn":2764,"environment</w>":2765,"syndrome</w>":2766,"damage</w>":2767,"suggests</w>":2768,"equipment</w>":2769,"strategy</w>":2770,"manufacturer</w>":2771,"sanitiz":2772,"aeroso":2773,"exponential</w>":2774,"pedia</w>":2775,"financial</w>":2776,"bathroom</w>":2777,"88</w>":2778,"ative</w>":2779,"billion</w>":2780,"di</w>":2781,"dan":2782,"dings</w>":2783,"fall</w>":2784,"gest</w>":2785,"ny</w>":2786,"pr</w>":2787,"tally</w>":2788,"ano":2789,"rever":2790,"tis</w>":2791,"tible</w>":2792,"enfor":2793,"teg":2794,"staf":2795,"ession</w>":2796,"del":2797,"dest":2798,"conference</w>":2799,"mail</w>":2800,"abor":2801,"post":2802,"pool":2803,"beha":2804,"explan":2805,"external</w>":2806,"laws</w>":2807,"let":2808,"legi":2809,"leav":2810,"dow":2811,"2003</w>":2812,"ounds</w>":2813,"content</w>":2814,"wiki":2815,"minute</w>":2816,"lls</w>":2817,"compar":2818,"phone</w>":2819,"sometimes</w>":2820,"princi":2821,"basis</w>":2822,"basic</w>":2823,"priv":2824,"obvi":2825,"knows</w>":2826,"joh":2827,"happens</w>":2828,"deni":2829,"ferences</w>":2830,"filed</w>":2831,"residents</w>":2832,"transit</w>":2833,"efforts</w>":2834,"sufficient</w>":2835,"relevant</w>":2836,"drin":2837,"oughly</w>":2838,"easy</w>":2839,"requirements</w>":2840,"extent</w>":2841,"spike</w>":2842,"precautions</w>":2843,"european</w>":2844,"elderly</w>":2845,"staff</w>":2846,"wikipedia</w>":2847,"02</w>":2848,"15":2849,"26":2850,"70</w>":2851,"94</w>":2852,"ct":2853,"ebol":2854,"fer":2855,"fas":2856,"ki</w>":2857,"mer":2858,"nor</w>":2859,"nas":2860,"ners</w>":2861,"ose</w>":2862,"pes</w>":2863,"var":2864,"tives</w>":2865,"ongoing</w>":2866,"asked</w>":2867,"acid</w>":2868,"stri":2869,"attemp":2870,"whel":2871,"white</w>":2872,"plans</w>":2873,"unable</w>":2874,"unfortun":2875,"dead":2876,"absolu":2877,"mean":2878,"meaning</w>":2879,"exemp":2880,"mize</w>":2881,"add</w>":2882,"adap":2883,"added</w>":2884,"she":2885,"heart</w>":2886,"cities</w>":2887,"works</w>":2888,"200</w>":2889,"history</w>":2890,"outcome</w>":2891,"mind</w>":2892,"option</w>":2893,"options</w>":2894,"step</w>":2895,"essentially</w>":2896,"ground</w>":2897,"interpre":2898,"responsible</w>":2899,"stoc":2900,"placed</w>":2901,"cut</w>":2902,"custo":2903,"fail":2904,"protective</w>":2905,"center</w>":2906,"particle</w>":2907,"populations</w>":2908,"pressure</w>":2909,"upon</w>":2910,"banks</w>":2911,"overwhel":2912,"decided</w>":2913,"hydro":2914,"aching</w>":2915,"washing":2916,"sneeze</w>":2917,"sugges":2918,"predict</w>":2919,"langu":2920,"experien":2921,"labor":2922,"begin":2923,"pathogen</w>":2924,"spea":2925,"sneezes</w>":2926,"poly":2927,"targe":2928,"wrong</w>":2929,"frac</w>":2930,"threat</w>":2931,"genetic</w>":2932,"airports</w>":2933,"space</w>":2934,"chief</w>":2935,"extremely</w>":2936,"address</w>":2937,"natural</w>":2938,"invest":2939,"shortness</w>":2940,"behavi":2941,"ebola</w>":2942,"23</w>":2943,"bran":2944,"co</w>":2945,"care":2946,"eating</w>":2947,"fec":2948,"fast</w>":2949,"grea":2950,"hour</w>":2951,"icon":2952,"mes</w>":2953,"mer</w>":2954,"mach":2955,"pic":2956,"pris":2957,"swe":2958,"slow":2959,"use":2960,"wil":2961,"thous":2962,"ine":2963,"instance</w>":2964,"tial</w>":2965,"costs</w>":2966,"alone</w>":2967,"alter":2968,"orders</w>":2969,"iting</w>":2970,"stren":2971,"stant</w>":2972,"ech</w>":2973,"sir</w>":2974,"sities</w>":2975,"unknown</w>":2976,"sett":2977,"deal</w>":2978,"mately</w>":2979,"promi":2980,"ables</w>":2981,"presu":2982,"world":2983,"dures</w>":2984,"par</w>":2985,"surve":2986,"even":2987,"dations</w>":2988,"dates</w>":2989,"strong</w>":2990,"monit":2991,"phase</w>":2992,"office</w>":2993,"disinfect</w>":2994,"responses</w>":2995,"substan":2996,"where":2997,"invest</w>":2998,"isolated</w>":2999,"sampl":3000,"avoi":3001,"science</w>":3002,"mention</w>":3003,"structure</w>":3004,"seriously</w>":3005,"residence</w>":3006,"types</w>":3007,"parameter</w>":3008,"identified</w>":3009,"received</w>":3010,"operating</w>":3011,"initially</w>":3012,"cash</w>":3013,"procedures</w>":3014,"believe</w>":3015,"earli":3016,"running</w>":3017,"guaran":3018,"shut</w>":3019,"opinion</w>":3020,"knowledge</w>":3021,"delta</w>":3022,"beginning</w>":3023,"streng":3024,"28":3025,"75</w>":3026,"bs</w>":3027,"dy":3028,"fare</w>":3029,"flo":3030,"mac":3031,"none</w>":3032,"oxy":3033,"rat":3034,"went</w>":3035,"than":3036,"ince</w>":3037,"reali":3038,"refu":3039,"republic</w>":3040,"recep":3041,"ends</w>":3042,"tele":3043,"oral</w>":3044,"role</w>":3045,"ection</w>":3046,"lives</w>":3047,"sell</w>":3048,"loss</w>":3049,"theory</w>":3050,"hote":3051,"extr":3052,"vers</w>":3053,"sage</w>":3054,"iring</w>":3055,"appa":3056,"pression</w>":3057,"combin":3058,"worri":3059,"bot":3060,"entirely</w>":3061,"entire</w>":3062,"commerci":3063,"tradi":3064,"minimum</w>":3065,"stry</w>":3066,"llers</w>":3067,"linked</w>":3068,"candi":3069,"send</w>":3070,"sensi":3071,"funding</w>":3072,"cloth</w>":3073,"vaccin":3074,"student</w>":3075,"providing</w>":3076,"virtual</w>":3077,"ills</w>":3078,"contribu":3079,"preval":3080,"turn</w>":3081,"shown</w>":3082,"tric</w>":3083,"passed</w>":3084,"presence</w>":3085,"allowing</w>":3086,"signs</w>":3087,"grocer":3088,"recommend</w>":3089,"severity</w>":3090,"categ":3091,"universities</w>":3092,"defined</w>":3093,"humid":3094,"mortg":3095,"usato":3096,"younger</w>":3097,"reduced</w>":3098,"definitely</w>":3099,"detailed</w>":3100,"covering</w>":3101,"previously</w>":3102,"scenarios</w>":3103,"occur</w>":3104,"neighb":3105,"third</w>":3106,"genome</w>":3107,"maybe</w>":3108,"parents</w>":3109,"unfortunately</w>":3110,"washington</w>":3111,"language</w>":3112,"humidity</w>":3113,"usatoday</w>":3114,"01</w>":3115,"27":3116,"ate":3117,"ca</w>":3118,"ci</w>":3119,"dil":3120,"dle</w>":3121,"emo":3122,"edit</w>":3123,"ker</w>":3124,"kers</w>":3125,"nh":3126,"nd</w>":3127,"oil</w>":3128,"sco":3129,"spl":3130,"sli":3131,"sen</w>":3132,"sable</w>":3133,"tren":3134,"vary</w>":3135,"vali":3136,"yn":3137,"zing</w>":3138,"inside</w>":3139,"independent</w>":3140,"ands</w>":3141,"revie":3142,"remember</w>":3143,"itali":3144,"asp":3145,"ils</w>":3146,"diver":3147,"sig":3148,"sites</w>":3149,"lim":3150,"log</w>":3151,"concentr":3152,"prohi":3153,"chr":3154,"exam</w>":3155,"neu":3156,"net</w>":3157,"nel</w>":3158,"adju":3159,"shall</w>":3160,"mostly</w>":3161,"vet</w>":3162,"head":3163,"toil":3164,"took</w>":3165,"complications</w>":3166,"goal</w>":3167,"parties</w>":3168,"facility</w>":3169,"gives</w>":3170,"hic</w>":3171,"training</w>":3172,"opt":3173,"impor":3174,"vaccination</w>":3175,"offer</w>":3176,"disinfection</w>":3177,"design</w>":3178,"fail</w>":3179,"antibio":3180,"position</w>":3181,"centers</w>":3182,"carry</w>":3183,"small":3184,"eta</w>":3185,"thermore</w>":3186,"furthermore</w>":3187,"camp":3188,"processing</w>":3189,"doctors</w>":3190,"increases</w>":3191,"electr":3192,"elections</w>":3193,"recommendations</w>":3194,"medicines</w>":3195,"necessarily</w>":3196,"usual</w>":3197,"intended</w>":3198,"benefit</w>":3199,"certainty</w>":3200,"lungs</w>":3201,"foreign</w>":3202,"survive</w>":3203,"assess":3204,"carrier</w>":3205,"delay</w>":3206,"temporary</w>":3207,"ace2</w>":3208,"notice</w>":3209,"documents</w>":3210,"famil":3211,"prepared</w>":3212,"oblig":3213,"methods</w>":3214,"introduc":3215,"implemented</w>":3216,"researchers</w>":3217,"zero</w>":3218,"explanation</w>":3219,"speaking</w>":3220,"alterna":3221,"worldwide</w>":3222,"oxygen</w>":3223,"commercial</w>":3224,"72</w>":3225,"dar":3226,"fau":3227,"fav":3228,"gor":3229,"glas":3230,"hong</w>":3231,"jur":3232,"kong</w>":3233,"less":3234,"mrna</w>":3235,"nature</w>":3236,"olu":3237,"rs</w>":3238,"rt</w>":3239,"ric":3240,"sal</w>":3241,"ster</w>":3242,"slow</w>":3243,"scep":3244,"tory</w>":3245,"vation</w>":3246,"will":3247,"yond</w>":3248,"thor":3249,"red":3250,"rema":3251,"repe":3252,"tivity</w>":3253,"copper</w>":3254,"ental</w>":3255,"entering</w>":3256,"aling</w>":3257,"row</w>":3258,"conven":3259,"meet</w>":3260,"beyond</w>":3261,"near</w>":3262,"peak</w>":3263,"que</w>":3264,"iran</w>":3265,"mod</w>":3266,"applied</w>":3267,"prece":3268,"aging</w>":3269,"auto":3270,"2016</w>":3271,"immu":3272,"counts</w>":3273,"five</w>":3274,"compe":3275,"name</w>":3276,"interval</w>":3277,"included</w>":3278,"approxi":3279,"tree</w>":3280,"flexi":3281,"objects</w>":3282,"reporting</w>":3283,"court</w>":3284,"situations</w>":3285,"produced</w>":3286,"growing</w>":3287,"overall</w>":3288,"maintain":3289,"hypo":3290,"complex</w>":3291,"experim":3292,"employer</w>":3293,"seconds</w>":3294,"concern</w>":3295,"huge</w>":3296,"contains</w>":3297,"significantly</w>":3298,"handling</w>":3299,"whose</w>":3300,"passenger</w>":3301,"gram</w>":3302,"calcul":3303,"established</w>":3304,"imag":3305,"corporate</w>":3306,"ventilat":3307,"chemical</w>":3308,"pooled</w>":3309,"receptor</w>":3310,"apparently</w>":3311,"assessment</w>":3312,"families</w>":3313,"remains</w>":3314,"immuno":3315,"04</w>":3316,"18":3317,"29</w>":3318,"48</w>":3319,"45</w>":3320,"ain</w>":3321,"bits</w>":3322,"bloc":3323,"cb":3324,"cr</w>":3325,"ep</w>":3326,"etes</w>":3327,"ff</w>":3328,"fed</w>":3329,"gger</w>":3330,"ky</w>":3331,"ka</w>":3332,"lac":3333,"mc</w>":3334,"nar":3335,"o2</w>":3336,"ption</w>":3337,"sor":3338,"stic":3339,"tin":3340,"tal":3341,"tment</w>":3342,"wanted</w>":3343,"yer</w>":3344,"zations</w>":3345,"ancy</w>":3346,"ending</w>":3347,"ono":3348,"alu":3349,"roll</w>":3350,"ece</w>":3351,"ects</w>":3352,"diab":3353,"six</w>":3354,"listed</w>":3355,"lish</w>":3356,"setting</w>":3357,"lose</w>":3358,"demon":3359,"home":3360,"hope":3361,"spr":3362,"powers</w>":3363,"laun":3364,"lamb":3365,"ney</w>":3366,"ade</w>":3367,"save</w>":3368,"wester":3369,"shel":3370,"docu":3371,"applies</w>":3372,"perman":3373,"preci":3374,"civi":3375,"word</w>":3376,"facts</w>":3377,"keting</w>":3378,"couple</w>":3379,"contacts</w>":3380,"scha":3381,"evolu":3382,"evalu":3383,"answers</w>":3384,"gram":3385,"line":3386,"compen":3387,"statis":3388,"phy":3389,"senate</w>":3390,"effectively</w>":3391,"offering</w>":3392,"objec":3393,"through":3394,"emergencies</w>":3395,"mainly</w>":3396,"happened</w>":3397,"treatments</w>":3398,"complete</w>":3399,"choose</w>":3400,"suspended</w>":3401,"front</w>":3402,"veness</w>":3403,"biological</w>":3404,"travel":3405,"travellers</w>":3406,"partner</w>":3407,"contagious</w>":3408,"cancel":3409,"differences</w>":3410,"middle</w>":3411,"crats</w>":3412,"holders</w>":3413,"detected</w>":3414,"scenario</w>":3415,"solve</w>":3416,"ordinary</w>":3417,"birth</w>":3418,"properly</w>":3419,"material</w>":3420,"republicans</w>":3421,"disposable</w>":3422,"original</w>":3423,"investigation</w>":3424,"package</w>":3425,"challeng":3426,"crowded</w>":3427,"province</w>":3428,"japan</w>":3429,"characteri":3430,"enforcement</w>":3431,"leaving</w>":3432,"greater</w>":3433,"eventually</w>":3434,"concentration</w>":3435,"diabetes</w>":3436,"lambda</w>":3437,"western</w>":3438,"document</w>":3439,"16":3440,"59</w>":3441,"ade":3442,"aff":3443,"bans</w>":3444,"cz":3445,"cus</w>":3446,"card</w>":3447,"don</w>":3448,"dance</w>":3449,"dary</w>":3450,"educ":3451,"fr</w>":3452,"gc</w>":3453,"gent</w>":3454,"h2":3455,"hon":3456,"ior</w>":3457,"ide</w>":3458,"kit</w>":3459,"omi":3460,"pa</w>":3461,"rare</w>":3462,"rhin":3463,"vul":3464,"xed</w>":3465,"reti":3466,"refl":3467,"energy</w>":3468,"viro":3469,"viable</w>":3470,"roo":3471,"itary</w>":3472,"acqu":3473,"stent</w>":3474,"stable</w>":3475,"ecu":3476,"dily</w>":3477,"plet</w>":3478,"plastic</w>":3479,"russi":3480,"suscep":3481,"lost</w>":3482,"demics</w>":3483,"consequences</w>":3484,"program</w>":3485,"program":3486,"exact</w>":3487,"lates</w>":3488,"lets</w>":3489,"ffner</w>":3490,"moving</w>":3491,"aper</w>":3492,"perfor":3493,"perform":3494,"agent</w>":3495,"covid":3496,"goods</w>":3497,"fees</w>":3498,"parks</w>":3499,"bow</w>":3500,"radi":3501,"evol":3502,"commonly</w>":3503,"risks</w>":3504,"stran":3505,"wai":3506,"elbow</w>":3507,"symptomatic</w>":3508,"prices</w>":3509,"plement</w>":3510,"generated</w>":3511,"unities</w>":3512,"clearly</w>":3513,"droplet</w>":3514,"examples</w>":3515,"pandemics</w>":3516,"tural</w>":3517,"periods</w>":3518,"causing</w>":3519,"english</w>":3520,"india</w>":3521,"declar":3522,"recovery</w>":3523,"product</w>":3524,"membran":3525,"000":3526,"games</w>":3527,"politici":3528,"night</w>":3529,"expert</w>":3530,"suspect</w>":3531,"employed</w>":3532,"bring</w>":3533,"fraction</w>":3534,"equation</w>":3535,"frivol":3536,"temperatures</w>":3537,"rapid</w>":3538,"handle</w>":3539,"diagnosis</w>":3540,"analy":3541,"techno":3542,"increasing</w>":3543,"estimated</w>":3544,"target</w>":3545,"sanders</w>":3546,"practical</w>":3547,"containment</w>":3548,"build</w>":3549,"graphic</w>":3550,"immigration</w>":3551,"reservo":3552,"delivery</w>":3553,"conclusion</w>":3554,"determined</w>":3555,"success":3556,"fluid</w>":3557,"written</w>":3558,"free":3559,"nerable</w>":3560,"craft</w>":3561,"assumptions</w>":3562,"contaminated</w>":3563,"technical</w>":3564,"sanitizer</w>":3565,"nasal</w>":3566,"laboratory</w>":3567,"targeted</w>":3568,"iconexternal</w>":3569,"whereas</w>":3570,"sampling</w>":3571,"earlier</w>":3572,"worried</w>":3573,"prevalence</w>":3574,"imagine</w>":3575,"schaffner</w>":3576,"throughout</w>":3577,"czech</w>":3578,"vulnerable</w>":3579,"susceptible</w>":3580,"performance</w>":3581,"frivolous</w>":3582,"30":3583,"32</w>":3584,"40":3585,"96</w>":3586,"ama":3587,"cab":3588,"created</w>":3589,"ey":3590,"email</w>":3591,"file</w>":3592,"gate</w>":3593,"hessi":3594,"ly":3595,"ler":3596,"lating</w>":3597,"ne</w>":3598,"od":3599,"ovirus</w>":3600,"pare</w>":3601,"pcr</w>":3602,"rying</w>":3603,"ser</w>":3604,"swit":3605,"tv</w>":3606,"ual</w>":3607,"uses</w>":3608,"thma</w>":3609,"insi":3610,"replic":3611,"replication</w>":3612,"eral</w>":3613,"con</w>":3614,"tered</w>":3615,"onals</w>":3616,"assi":3617,"asthma</w>":3618,"achi":3619,"noted</w>":3620,"nobody</w>":3621,"whate":3622,"dian</w>":3623,"disp":3624,"habit":3625,"liqu":3626,"selling</w>":3627,"depar":3628,"confi":3629,"congress</w>":3630,"spend</w>":3631,"abs</w>":3632,"execu":3633,"bul":3634,"buying</w>":3635,"mio</w>":3636,"infla":3637,"pets</w>":3638,"ghtly</w>":3639,"wednes":3640,"persi":3641,"percent</w>":3642,"pread</w>":3643,"worst</w>":3644,"teria</w>":3645,"mut":3646,"gence</w>":3647,"counter</w>":3648,"wides":3649,"eved</w>":3650,"guess</w>":3651,"recession</w>":3652,"steel</w>":3653,"final</w>":3654,"findings</w>":3655,"stain":3656,"transmissi":3657,"break</w>":3658,"aircraft</w>":3659,"chances</w>":3660,"focus</w>":3661,"drop</w>":3662,"bacteria</w>":3663,"mani":3664,"strict</w>":3665,"advised</w>":3666,"economi":3667,"depend</w>":3668,"decla":3669,"decline</w>":3670,"anyway</w>":3671,"keeping</w>":3672,"gerous</w>":3673,"decide</w>":3674,"variance</w>":3675,"gloves</w>":3676,"purch":3677,"politics</w>":3678,"plane</w>":3679,"planning</w>":3680,"2009</w>":3681,"preventing</w>":3682,"biology</w>":3683,"extend</w>":3684,"broad</w>":3685,"binomi":3686,"identify</w>":3687,"identification</w>":3688,"majority</w>":3689,"regions</w>":3690,"relief</w>":3691,"police</w>":3692,"defau":3693,"leader</w>":3694,"advance</w>":3695,"environmental</w>":3696,"indeed</w>":3697,"institutions</w>":3698,"explain</w>":3699,"newsp":3700,"balance</w>":3701,"encourage</w>":3702,"democrats</w>":3703,"lawful</w>":3704,"professional</w>":3705,"professionals</w>":3706,"advanced</w>":3707,"conducted</w>":3708,"statement</w>":3709,"record</w>":3710,"assets</w>":3711,"proportion</w>":3712,"eligible</w>":3713,"decrease</w>":3714,"aerosols</w>":3715,"reverse</w>":3716,"obviously</w>":3717,"sweden</w>":3718,"thousands</w>":3719,"extra</w>":3720,"mortgage</w>":3721,"antibiotics</w>":3722,"hopefully</w>":3723,"hessian</w>":3724,"whatever</w>":3725,"confidence</w>":3726,"wednesday</w>":3727,"widespread</w>":3728,"binomial</w>":3729,"38</w>":3730,"46":3731,"57":3732,"65</w>":3733,"85</w>":3734,"90":3735,"97":3736,"ax":3737,"bes</w>":3738,"bab":3739,"ct</w>":3740,"cu</w>":3741,"dying</w>":3742,"ered</w>":3743,"fly</w>":3744,"fill</w>":3745,"fying</w>":3746,"fall":3747,"gical</w>":3748,"hat</w>":3749,"my":3750,"mary</w>":3751,"nice</w>":3752,"pon":3753,"pick</w>":3754,"ss":3755,"sound</w>":3756,"usc":3757,"vs</w>":3758,"inactiv":3759,"reactions</w>":3760,"represen":3761,"references</w>":3762,"coh":3763,"onto</w>":3764,"along</w>":3765,"oring</w>":3766,"vir</w>":3767,"visi":3768,"acu":3769,"divi":3770,"plying</w>":3771,"sim</w>":3772,"lif":3773,"dep":3774,"degre":3775,"degc</w>":3776,"construc":3777,"constant</w>":3778,"sports</w>":3779,"poor</w>":3780,"bei</w>":3781,"beds</w>":3782,"tionary</w>":3783,"que":3784,"doi</w>":3785,"heard</w>":3786,"percen":3787,"prescri":3788,"prepare</w>":3789,"tom</w>":3790,"fewer</w>":3791,"partici":3792,"pain</w>":3793,"wiki</w>":3794,"communities</w>":3795,"outlin":3796,"jud":3797,"finally</w>":3798,"granted</w>":3799,"markets</w>":3800,"symptom</w>":3801,"ppe</w>":3802,"somebody</w>":3803,"interven":3804,"internet</w>":3805,"reading</w>":3806,"request</w>":3807,"closing</w>":3808,"closely</w>":3809,"informed</w>":3810,"offic":3811,"twice</w>":3812,"primar":3813,"respond</w>":3814,"helps</w>":3815,"antiviral</w>":3816,"advise</w>":3817,"thinking</w>":3818,"anti</w>":3819,"supplies</w>":3820,"critici":3821,"regulation</w>":3822,"thern</w>":3823,"additionally</w>":3824,"booked</w>":3825,"articles</w>":3826,"caffe":3827,"ached</w>":3828,"organ":3829,"happening</w>":3830,"suspend</w>":3831,"charge</w>":3832,"traveling</w>":3833,"calling</w>":3834,"cross</w>":3835,"labs</w>":3836,"discu":3837,"discus":3838,"stero":3839,"standards</w>":3840,"speak</w>":3841,"remote</w>":3842,"collected</w>":3843,"stress</w>":3844,"logists</w>":3845,"chain</w>":3846,"leading</w>":3847,"immediate</w>":3848,"brief":3849,"explained</w>":3850,"write</w>":3851,"claimed</w>":3852,"walking</w>":3853,"writing</w>":3854,"expenses</w>":3855,"qualify</w>":3856,"improve</w>":3857,"watch</w>":3858,"herd</w>":3859,"stronger</w>":3860,"schedule</w>":3861,"visas</w>":3862,"constitutional</w>":3863,"management</w>":3864,"territory</w>":3865,"college</w>":3866,"simulation</w>":3867,"feeling</w>":3868,"bacterial</w>":3869,"destination</w>":3870,"comparis":3871,"principle</w>":3872,"absolutely</w>":3873,"investment</w>":3874,"useful</w>":3875,"settings</w>":3876,"guarantee</w>":3877,"vaccinated</w>":3878,"toilet</w>":3879,"smaller</w>":3880,"alternative</w>":3881,"talking</w>":3882,"permanent</w>":3883,"travelers</w>":3884,"adequ":3885,"performed</w>":3886,"covid19</w>":3887,"membrane</w>":3888,"11":3889,"1st</w>":3890,"36</w>":3891,"49</w>":3892,"ba</w>":3893,"bla":3894,"bling</w>":3895,"cer</w>":3896,"cast</w>":3897,"crit":3898,"cfr</w>":3899,"dure</w>":3900,"dless</w>":3901,"eding</w>":3902,"eure</w>":3903,"fect</w>":3904,"lm</w>":3905,"n95</w>":3906,"op</w>":3907,"pm</w>":3908,"rn":3909,"ron</w>":3910,"rty</w>":3911,"sy</w>":3912,"ssing</w>":3913,"treated</w>":3914,"tables</w>":3915,"un</w>":3916,"war</w>":3917,"yed</w>":3918,"iner":3919,"resta":3920,"timely</w>":3921,"arding</w>":3922,"onic</w>":3923,"ordered</w>":3924,"stability</w>":3925,"illegal</w>":3926,"dirty</w>":3927,"sum</w>":3928,"super":3929,"sures</w>":3930,"debt</w>":3931,"trou":3932,"thema":3933,"theore":3934,"mathema":3935,"met":3936,"meter</w>":3937,"sof":3938,"extra":3939,"expression</w>":3940,"neg":3941,"nearly</w>":3942,"aden":3943,"ffic</w>":3944,"wel":3945,"iration</w>":3946,"dose</w>":3947,"domes":3948,"appoin":3949,"vere":3950,"held</w>":3951,"premi":3952,"infect":3953,"worry</w>":3954,"fear</w>":3955,"tern</w>":3956,"park</w>":3957,"surgical</w>":3958,"wife</w>":3959,"evacu":3960,"commit":3961,"traffic</w>":3962,"figu":3963,"outcomes</w>":3964,"minal</w>":3965,"monday</w>":3966,"tend</w>":3967,"nations</w>":3968,"phili":3969,"somewhere</w>":3970,"arian</w>":3971,"transfer</w>":3972,"military</w>":3973,"effecti":3974,"society</w>":3975,"disinfecting</w>":3976,"treating</w>":3977,"provides</w>":3978,"focu":3979,"panic</w>":3980,"obtain</w>":3981,"help":3982,"pic</w>":3983,"trips</w>":3984,"dreds</w>":3985,"subjects</w>":3986,"looks</w>":3987,"therap":3988,"came</w>":3989,"creating</w>":3990,"procla":3991,"structures</w>":3992,"secondary</w>":3993,"extensive</w>":3994,"solutions</w>":3995,"travelling</w>":3996,"hubei</w>":3997,"binding</w>":3998,"interesting</w>":3999,"physici":4000,"friends</w>":4001,"intensive</w>":4002,"majeure</w>":4003,"canceled</w>":4004,"release</w>":4005,"released</w>":4006,"procedure</w>":4007,"involve</w>":4008,"argue</w>":4009,"institute</w>":4010,"season</w>":4011,"cheap</w>":4012,"building</w>":4013,"updates</w>":4014,"runny</w>":4015,"requirement</w>":4016,"taxes</w>":4017,"airport</w>":4018,"hundreds</w>":4019,"materials</w>":4020,"journ":4021,"expensive</w>":4022,"republican</w>":4023,"occurred</w>":4024,"modern</w>":4025,"statements</w>":4026,"transport</w>":4027,"academic</w>":4028,"pharmac":4029,"practices</w>":4030,"letter</w>":4031,"stocks</w>":4032,"suggested</w>":4033,"dilu":4034,"emotional</w>":4035,"split</w>":4036,"obligations</w>":4037,"fauci</w>":4038,"willing</w>":4039,"approximately</w>":4040,"civil</w>":4041,"eye</w>":4042,"declared</w>":4043,"uscis</w>":4044,"depth</w>":4045,"percentage</w>":4046,"restaur":4047,"44</w>":4048,"400</w>":4049,"aid</w>":4050,"cn":4051,"ction</w>":4052,"ctions</w>":4053,"car</w>":4054,"clim":4055,"dest</w>":4056,"dential</w>":4057,"dna</w>":4058,"dboard</w>":4059,"ex</w>":4060,"ele":4061,"far":4062,"flow</w>":4063,"gri":4064,"hence</w>":4065,"ii</w>":4066,"jan</w>":4067,"nson</w>":4068,"ot</w>":4069,"pid</w>":4070,"ras":4071,"roun":4072,"son":4073,"sun":4074,"sle":4075,"sses</w>":4076,"ssed</w>":4077,"twee":4078,"won":4079,"yu":4080,"zes</w>":4081,"init</w>":4082,"inhabit":4083,"reg":4084,"repu":4085,"reality</w>":4086,"reproduction</w>":4087,"eria</w>":4088,"stor":4089,"store</w>":4090,"stage</w>":4091,"disa":4092,"rub</w>":4093,"unnecessary</w>":4094,"lists</w>":4095,"load</w>":4096,"deb":4097,"detail</w>":4098,"conn":4099,"homo":4100,"prop":4101,"proper</w>":4102,"project</w>":4103,"virul":4104,"span":4105,"spending</w>":4106,"beta":4107,"sold</w>":4108,"latest</w>":4109,"bud":4110,"mid</w>":4111,"miti":4112,"tages</w>":4113,"core</w>":4114,"correspon":4115,"quick</w>":4116,"quanti":4117,"quality</w>":4118,"weight</w>":4119,"doors</w>":4120,"modi":4121,"perspec":4122,"prepar":4123,"agen":4124,"topic</w>":4125,"comfor":4126,"compromi":4127,"goch</w>":4128,"duty</w>":4129,"duces</w>":4130,"2013</w>":4131,"imposed</w>":4132,"paying</w>":4133,"bogoch</w>":4134,"key":4135,"wipe</w>":4136,"wish</w>":4137,"ements</w>":4138,"ember</w>":4139,"embas":4140,"comments</w>":4141,"port":4142,"fight</w>":4143,"fish</w>":4144,"sero":4145,"monton</w>":4146,"afric":4147,"fire</w>":4148,"phil":4149,"closer</w>":4150,"expan":4151,"approx</w>":4152,"approaches</w>":4153,"tware</w>":4154,"disas":4155,"discovered</w>":4156,"disinfect":4157,"primary</w>":4158,"providers</w>":4159,"back":4160,"manage</w>":4161,"consistent</w>":4162,"shopping</w>":4163,"subsequ":4164,"restriction</w>":4165,"folding</w>":4166,"author</w>":4167,"emerging</w>":4168,"cardboard</w>":4169,"regul":4170,"december</w>":4171,"recover":4172,"anywhere</w>":4173,"voting</w>":4174,"german</w>":4175,"touched</w>":4176,"decisions</w>":4177,"mainland</w>":4178,"variable</w>":4179,"polio</w>":4180,"payroll</w>":4181,"contracts</w>":4182,"chosen</w>":4183,"nih</w>":4184,"planes</w>":4185,"electro":4186,"employers</w>":4187,"warning</w>":4188,"charged</w>":4189,"filters</w>":4190,"extended</w>":4191,"borne</w>":4192,"america</w>":4193,"intensity</w>":4194,"distributed</w>":4195,"operate</w>":4196,"edmonton</w>":4197,"circu":4198,"gathering</w>":4199,"culture</w>":4200,"reducing</w>":4201,"nonimmigr":4202,"refer</w>":4203,"origin</w>":4204,"involved</w>":4205,"latter</w>":4206,"error</w>":4207,"holds</w>":4208,"agreed</w>":4209,"taxpay":4210,"gradu":4211,"classi":4212,"extreme</w>":4213,"killed</w>":4214,"bonds</w>":4215,"epidemiology</w>":4216,"strong":4217,"stopped</w>":4218,"chloro":4219,"considering</w>":4220,"contraception</w>":4221,"contraceptive</w>":4222,"gdp</w>":4223,"fitting</w>":4224,"cruise</w>":4225,"zoono":4226,"instructions</w>":4227,"summary</w>":4228,"weather</w>":4229,"mechanism</w>":4230,"dangerous</w>":4231,"legis":4232,"down":4233,"private</w>":4234,"johnson</w>":4235,"denied</w>":4236,"faster</w>":4237,"behavior</w>":4238,"monitor</w>":4239,"avoiding</w>":4240,"traditional</w>":4241,"sensitivity</w>":4242,"grocery</w>":4243,"slightly</w>":4244,"neutr":4245,"imported</w>":4246,"redness</w>":4247,"ventilators</w>":4248,"laundry</w>":4249,"evolution</w>":4250,"compensation</w>":4251,"declaration</w>":4252,"stainless</w>":4253,"default</w>":4254,"officer</w>":4255,"comparison</w>":4256,"adequate</w>":4257,"criteria</w>":4258,"software</w>":4259,"domestic</w>":4260,"effectiveness</w>":4261,"restaurants</w>":4262,"23":4263,"37":4264,"45":4265,"47":4266,"64</w>":4267,"aa</w>":4268,"ahead</w>":4269,"bar":4270,"bra":4271,"bound</w>":4272,"eat</w>":4273,"eting</w>":4274,"fla":4275,"foun":4276,"gle</w>":4277,"gau":4278,"icon</w>":4279,"mr</w>":4280,"mm</w>":4281,"nur":4282,"nation</w>":4283,"ncb":4284,"ot":4285,"pv</w>":4286,"pho":4287,"rou":4288,"roughly</w>":4289,"sp</w>":4290,"sil":4291,"ske":4292,"tas":4293,"ut":4294,"uti":4295,"ups</w>":4296,"vative</w>":4297,"wan":4298,"west</w>":4299,"zz":4300,"thy</w>":4301,"ino</w>":4302,"relation</w>":4303,"ress</w>":4304,"reover</w>":4305,"retro":4306,"tially</w>":4307,"tish</w>":4308,"title</w>":4309,"coffe":4310,"envelo":4311,"onset</w>":4312,"alber":4313,"itly</w>":4314,"ash":4315,"ash</w>":4316,"asia</w>":4317,"aci":4318,"notic":4319,"ecting</w>":4320,"diarr":4321,"unclear</w>":4322,"uncertainty</w>":4323,"lio</w>":4324,"lions</w>":4325,"seq</w>":4326,"devi":4327,"deposi":4328,"deep</w>":4329,"concep":4330,"tract</w>":4331,"progress</w>":4332,"sport</w>":4333,"ury</w>":4334,"ric</w>":4335,"rix</w>":4336,"exc":4337,"lap</w>":4338,"mix":4339,"neither</w>":4340,"adjust</w>":4341,"corti":4342,"quine</w>":4343,"dogs</w>":4344,"moreover</w>":4345,"apore</w>":4346,"heat</w>":4347,"perform</w>":4348,"perfect</w>":4349,"towards</w>":4350,"totally</w>":4351,"2018</w>":4352,"tickets</w>":4353,"ticketing</w>":4354,"box</w>":4355,"facul":4356,"suring</w>":4357,"gies</w>":4358,"outdoor</w>":4359,"mination</w>":4360,"wave</w>":4361,"after":4362,"isms</w>":4363,"isdic":4364,"staying</w>":4365,"nam</w>":4366,"ppp</w>":4367,"pped</w>":4368,"alien</w>":4369,"print</w>":4370,"airways</w>":4371,"withdra":4372,"requiring</w>":4373,"expiration</w>":4374,"generic</w>":4375,"largest</w>":4376,"changing</w>":4377,"arer</w>":4378,"stores</w>":4379,"object</w>":4380,"illed</w>":4381,"speciali":4382,"manner</w>":4383,"pending</w>":4384,"caution</w>":4385,"shops</w>":4386,"antigen":4387,"matrix</w>":4388,"directed</w>":4389,"directions</w>":4390,"highest</w>":4391,"availability</w>":4392,"quarantines</w>":4393,"quarantined</w>":4394,"banned</w>":4395,"ousness</w>":4396,"north</w>":4397,"controlled</w>":4398,"everybody</w>":4399,"002</w>":4400,"001</w>":4401,"variation</w>":4402,"checks</w>":4403,"asian</w>":4404,"returning</w>":4405,"profen</w>":4406,"199":4407,"contracted</w>":4408,"clause</w>":4409,"preventive</w>":4410,"filter</w>":4411,"singapore</w>":4412,"playing</w>":4413,"exists</w>":4414,"equal</w>":4415,"calls</w>":4416,"papers</w>":4417,"organizations</w>":4418,"began</w>":4419,"kids</w>":4420,"share":4421,"diagnostic</w>":4422,"xiv</w>":4423,"breach</w>":4424,"emph":4425,"refers</w>":4426,"arrival</w>":4427,"logist</w>":4428,"covers</w>":4429,"foreign":4430,"easier</w>":4431,"british</w>":4432,"cry":4433,"indicates</w>":4434,"visitors</w>":4435,"doubt</w>":4436,"agreement</w>":4437,"broadcast</w>":4438,"grade</w>":4439,"spaces</w>":4440,"morning</w>":4441,"claims</w>":4442,"ibuprofen</w>":4443,"temporarily</w>":4444,"optimize</w>":4445,"donal":4446,"limiting</w>":4447,"transpor":4448,"cyc":4449,"chlorine</w>":4450,"computer</w>":4451,"fundam":4452,"connection</w>":4453,"summer</w>":4454,"nationals</w>":4455,"recognize</w>":4456,"designed</w>":4457,"experiencing</w>":4458,"combination</w>":4459,"bottom</w>":4460,"candidate</w>":4461,"trends</w>":4462,"validation</w>":4463,"gorous</w>":4464,"glass</w>":4465,"jurisdic":4466,"thoroughly</w>":4467,"maintaining</w>":4468,"stick</w>":4469,"statistics</w>":4470,"phylo":4471,"cancellation</w>":4472,"education</w>":4473,"russia</w>":4474,"reservoir</w>":4475,"successful</w>":4476,"executive</w>":4477,"baby</w>":4478,"degree</w>":4479,"caffeine</w>":4480,"briefing</w>":4481,"committee</w>":4482,"figures</w>":4483,"philipp":4484,"helpful</w>":4485,"proclamation</w>":4486,"inhabitants</w>":4487,"virulence</w>":4488,"perspective</w>":4489,"agencies</w>":4490,"regulatory</w>":4491,"chloroquine</w>":4492,"ncbi</w>":4493,"coffee</w>":4494,"deposit</w>":4495,"faculty</w>":4496,"25":4497,"2f":4498,"39</w>":4499,"300</w>":4500,"48":4501,"60":4502,"69":4503,"62</w>":4504,"85":4505,"aim</w>":4506,"bc":4507,"bing</w>":4508,"bes":4509,"blu":4510,"breas":4511,"cure</w>":4512,"cali":4513,"east</w>":4514,"fru":4515,"fab":4516,"gy":4517,"gon":4518,"gun":4519,"hs</w>":4520,"jun":4521,"job":4522,"jected</w>":4523,"ko":4524,"kp":4525,"lo</w>":4526,"mun":4527,"round</w>":4528,"sn":4529,"sm</w>":4530,"sence</w>":4531,"smia</w>":4532,"treas":4533,"tled</w>":4534,"vec":4535,"xlab</w>":4536,"ze":4537,"inhal":4538,"and":4539,"anxi":4540,"remain":4541,"reven":4542,"reaction</w>":4543,"time":4544,"coordin":4545,"arran":4546,"arbit":4547,"ense</w>":4548,"enge</w>":4549,"teaching</w>":4550,"astro":4551,"notes</w>":4552,"iled</w>":4553,"whom</w>":4554,"hael</w>":4555,"plus</w>":4556,"lipi":4557,"sud":4558,"seven</w>":4559,"dely</w>":4560,"track</w>":4561,"mably</w>":4562,"matically</w>":4563,"homes</w>":4564,"spin</w>":4565,"spir":4566,"spain</w>":4567,"absence</w>":4568,"metr":4569,"metric</w>":4570,"sovere":4571,"rise</w>":4572,"leg</w>":4573,"mped</w>":4574,"adop":4575,"peer</w>":4576,"dot</w>":4577,"mother</w>":4578,"apart</w>":4579,"applying</w>":4580,"vege":4581,"heav":4582,"agree</w>":4583,"top":4584,"tomor":4585,"compli":4586,"fee</w>":4587,"terin":4588,"2010</w>":4589,"2011</w>":4590,"readily</w>":4591,"pull</w>":4592,"ssive</w>":4593,"surpris":4594,"musc":4595,"inging</w>":4596,"widely</w>":4597,"guide</w>":4598,"fip</w>":4599,"fixed</w>":4600,"series</w>":4601,"waiting</w>":4602,"optim":4603,"else":4604,"links</w>":4605,"marg":4606,"stays</w>":4607,"sitting</w>":4608,"datas":4609,"cana":4610,"translation</w>":4611,"transmit</w>":4612,"millions</w>":4613,"location</w>":4614,"expired</w>":4615,"ides</w>":4616,"provision</w>":4617,"forec":4618,"folio</w>":4619,"plicitly</w>":4620,"child":4621,"respirators</w>":4622,"aller":4623,"antiretro":4624,"passport</w>":4625,"distinc":4626,"quarter</w>":4627,"carrying</w>":4628,"valent</w>":4629,"worker</w>":4630,"scien":4631,"furl":4632,"ideas</w>":4633,"northern</w>":4634,"harv":4635,"harder</w>":4636,"joint</w>":4637,"michael</w>":4638,"planned</w>":4639,"shift</w>":4640,"2006</w>":4641,"clinic</w>":4642,"citizen</w>":4643,"capit":4644,"filing</w>":4645,"authorized</w>":4646,"exist</w>":4647,"functions</w>":4648,"followed</w>":4649,"borro":4650,"partners</w>":4651,"predictions</w>":4652,"physically</w>":4653,"typical</w>":4654,"blog</w>":4655,"association</w>":4656,"effici":4657,"effort</w>":4658,"shared</w>":4659,"reduction</w>":4660,"empty</w>":4661,"arriving</w>":4662,"coverage</w>":4663,"fatal</w>":4664,"involving</w>":4665,"drive</w>":4666,"argument</w>":4667,"regardless</w>":4668,"erring</w>":4669,"assess</w>":4670,"route</w>":4671,"contained</w>":4672,"visiting</w>":4673,"frame</w>":4674,"shorter</w>":4675,"broader</w>":4676,"broadcas":4677,"determining</w>":4678,"image</w>":4679,"property</w>":4680,"journal</w>":4681,"names</w>":4682,"optimi":4683,"bbc</w>":4684,"sir2</w>":4685,"occurs</w>":4686,"owner</w>":4687,"ventilation</w>":4688,"swabs</w>":4689,"challenge</w>":4690,"consideration</w>":4691,"gdpr</w>":4692,"abortion</w>":4693,"deadly</w>":4694,"interpretation</w>":4695,"failure</w>":4696,"machine</w>":4697,"presumably</w>":4698,"strength</w>":4699,"realistic</w>":4700,"nh3</w>":4701,"reviewed</w>":4702,"italian</w>":4703,"sign</w>":4704,"chronic</w>":4705,"opt2</w>":4706,"introduced</w>":4707,"competi":4708,"freedom</w>":4709,"liquid</w>":4710,"newspaper</w>":4711,"cohort</w>":4712,"primarily</w>":4713,"steroids</w>":4714,"trouble</w>":4715,"climate</w>":4716,"tweeted</w>":4717,"reputation</w>":4718,"disap":4719,"spanish</w>":4720,"betacoronaviruses</w>":4721,"preparing</w>":4722,"portfolio</w>":4723,"subsequent</w>":4724,"strongly</w>":4725,"shareholders</w>":4726,"breast":4727,"gonna</w>":4728,"treasury</w>":4729,"arbitr":4730,"lipids</w>":4731,"tomorrow</w>":4732,"0pt</w>":4733,"12":4734,"440</w>":4735,"61</w>":4736,"bat":4737,"bid":4738,"cti":4739,"dc</w>":4740,"eg</w>":4741,"eth":4742,"estate</w>":4743,"fle":4744,"fren":4745,"fran":4746,"him":4747,"ie</w>":4748,"kits</w>":4749,"llar</w>":4750,"mly</w>":4751,"nb":4752,"nano":4753,"ode</w>":4754,"pha":4755,"swa":4756,"sick":4757,"satur":4758,"tton</w>":4759,"vals</w>":4760,"yers</w>":4761,"ylab</w>":4762,"thu":4763,"ina</w>":4764,"inal</w>":4765,"indu":4766,"rep</w>":4767,"remin":4768,"reinfected</w>":4769,"refund":4770,"reached</w>":4771,"coo":4772,"cop":4773,"arance</w>":4774,"ented</w>":4775,"aled</w>":4776,"alle":4777,"road</w>":4778,"ston</w>":4779,"not":4780,"icity</w>":4781,"diame":4782,"estion</w>":4783,"unlike</w>":4784,"unrelated</w>":4785,"liam":4786,"libr":4787,"lipid</w>":4788,"sea</w>":4789,"seve":4790,"dealing</w>":4791,"confin":4792,"consent</w>":4793,"max":4794,"proof</w>":4795,"prove</w>":4796,"promp":4797,"pool</w>":4798,"poland</w>":4799,"meals</w>":4800,"meeting</w>":4801,"soli":4802,"expe":4803,"buses</w>":4804,"mista":4805,"net":4806,"mps</w>":4807,"adding</w>":4808,"pet</w>":4809,"ques</w>":4810,"irrit":4811,"doz":4812,"domin":4813,"dollar</w>":4814,"apar":4815,"veterin":4816,"hea</w>":4817,"augu":4818,"amend":4819,"comment</w>":4820,"feed</w>":4821,"feature</w>":4822,"feeding</w>":4823,"2015</w>":4824,"impose</w>":4825,"implement</w>":4826,"parliam":4827,"putting</w>":4828,"surroun":4829,"gene</w>":4830,"raise</w>":4831,"histor":4832,"entitled</w>":4833,"gue</w>":4834,"dated</w>":4835,"respect</w>":4836,"tues":4837,"ules</w>":4838,"forced</w>":4839,"ising</w>":4840,"dering</w>":4841,"geo":4842,"mark</w>":4843,"numer":4844,"compon":4845,"somewhat</w>":4846,"aliens</w>":4847,"selection</w>":4848,"pro</w>":4849,"interactions</w>":4850,"internal</w>":4851,"milk</w>":4852,"lock</w>":4853,"governor</w>":4854,"unique</w>":4855,"bigger</w>":4856,"flatten":4857,"needing</w>":4858,"cuom":4859,"mania</w>":4860,"week":4861,"turing</w>":4862,"turned</w>":4863,"truc":4864,"shot</w>":4865,"antici":4866,"engine":4867,"distress</w>":4868,"cent":4869,"census</w>":4870,"courts</w>":4871,"restricted</w>":4872,"rando":4873,"looked</w>":4874,"importance</w>":4875,"matters</w>":4876,"banking</w>":4877,"mitting</w>":4878,"eur</w>":4879,"harm":4880,"organ</w>":4881,"returns</w>":4882,"integr":4883,"text":4884,"198</w>":4885,"warned</w>":4886,"2004</w>":4887,"charges</w>":4888,"medication</w>":4889,"supportive</w>":4890,"organisation</w>":4891,"attend</w>":4892,"receiving</w>":4893,"operation</w>":4894,"regional</w>":4895,"discre":4896,"10000</w>":4897,"exceptions</w>":4898,"publications</w>":4899,"reliable</w>":4900,"religious</w>":4901,"centre</w>":4902,"frequent</w>":4903,"households</w>":4904,"logistic</w>":4905,"consul":4906,"departments</w>":4907,"eased</w>":4908,"carried</w>":4909,"chemi":4910,"visitation</w>":4911,"detect</w>":4912,"specificity</w>":4913,"class</w>":4914,"encouraged</w>":4915,"democra":4916,"kills</w>":4917,"smokers</w>":4918,"conduct</w>":4919,"acade":4920,"fitness</w>":4921,"assumption</w>":4922,"nuclei</w>":4923,"nucleic</w>":4924,"quoted</w>":4925,"molecular</w>":4926,"molecules</w>":4927,"advisor</w>":4928,"eligibility</w>":4929,"click</w>":4930,"thesis</w>":4931,"personnel</w>":4932,"anosmia</w>":4933,"legitimate</w>":4934,"privacy</w>":4935,"denial</w>":4936,"varies</w>":4937,"attempt</w>":4938,"meaning":4939,"experienced</w>":4940,"survey</w>":4941,"category</w>":4942,"neighbors</w>":4943,"scope</w>":4944,"adjusted</w>":4945,"flexible</w>":4946,"calculate</w>":4947,"linear</w>":4948,"retire":4949,"acquired</w>":4950,"politicians</w>":4951,"extraordinary</w>":4952,"negli":4953,"premium</w>":4954,"embassy</w>":4955,"africa</w>":4956,"disaster</w>":4957,"legislation</w>":4958,"foreigners</w>":4959,"cryst":4960,"jurisdictions</w>":4961,"philippines</w>":4962,"fabric</w>":4963,"anxiety</w>":4964,"sovereign</w>":4965,"heavy</w>":4966,"surprising</w>":4967,"harvard</w>":4968,"arbitrary</w>":4969,"french</w>":4970,"himself</w>":4971,"swab</w>":4972,"refundable</w>":4973,"diameter</w>":4974,"severely</w>":4975,"august</w>":4976,"amendment</w>":4977,"cuomo</w>":4978,"democratic</w>":4979,"05":4980,"110":4981,"33":4982,"46</w>":4983,"43</w>":4984,"56</w>":4985,"67":4986,"77":4987,"bills</w>":4988,"crea":4989,"fc":4990,"gel":4991,"g13</w>":4992,"ip":4993,"ires</w>":4994,"ized</w>":4995,"ja":4996,"jam":4997,"ko</w>":4998,"kar":4999,"king":5000,"knew</w>":5001,"kings</w>":5002,"kid":5003,"lin</w>":5004,"lpv</w>":5005,"nsp":5006,"nesses</w>":5007,"nlm</w>":5008,"oviruses</w>":5009,"ph</w>":5010,"pal</w>":5011,"pse</w>":5012,"pate</w>":5013,"rab":5014,"ricul":5015,"smar":5016,"sba</w>":5017,"task</w>":5018,"ure":5019,"wou":5020,"xim":5021,"yout":5022,"zi":5023,"intr":5024,"intu":5025,"inser":5026,"anth":5027,"real":5028,"replac":5029,"repat":5030,"tin</w>":5031,"tim</w>":5032,"era</w>":5033,"enty</w>":5034,"entation</w>":5035,"enever</w>":5036,"teen</w>":5037,"teach</w>":5038,"team</w>":5039,"telling</w>":5040,"ong":5041,"alli":5042,"alty</w>":5043,"vio":5044,"viol":5045,"itu":5046,"itiner":5047,"acted</w>":5048,"icu</w>":5049,"icel":5050,"atly</w>":5051,"iling</w>":5052,"ilit":5053,"whenever</w>":5054,"dig":5055,"ham</w>":5056,"essed</w>":5057,"unwell</w>":5058,"unlawful</w>":5059,"limin":5060,"seas</w>":5061,"load":5062,"loved</w>":5063,"destruc":5064,"conser":5065,"confu":5066,"consen":5067,"concen":5068,"conspir":5069,"trade</w>":5070,"mamm":5071,"hop":5072,"holi":5073,"hosts</w>":5074,"spent</w>":5075,"abilities</w>":5076,"pos</w>":5077,"poll</w>":5078,"bet</w>":5079,"becoming</w>":5080,"behin":5081,"expres":5082,"exhal":5083,"explicitly</w>":5084,"letting</w>":5085,"nether":5086,"veri":5087,"version</w>":5088,"versus</w>":5089,"tai":5090,"tag</w>":5091,"tative</w>":5092,"weak</w>":5093,"shing</w>":5094,"sharing</w>":5095,"dow</w>":5096,"doll":5097,"modnes":5098,"applications</w>":5099,"prelimin":5100,"aggre":5101,"ague</w>":5102,"agricul":5103,"town</w>":5104,"tools</w>":5105,"toler":5106,"commission</w>":5107,"feasi":5108,"feyn":5109,"2017</w>":5110,"luck</w>":5111,"partis":5112,"parent</w>":5113,"factory</w>":5114,"ssian</w>":5115,"counter":5116,"train</w>":5117,"risky</w>":5118,"portion</w>":5119,"portun":5120,"ller</w>":5121,"ops</w>":5122,"oppo":5123,"opportun":5124,"forward</w>":5125,"differ</w>":5126,"linen</w>":5127,"geor":5128,"comply</w>":5129,"stated</w>":5130,"stations</w>":5131,"curren":5132,"probable</w>":5133,"datab":5134,"datory</w>":5135,"cancer</w>":5136,"interact</w>":5137,"interaction</w>":5138,"differently</w>":5139,"locations</w>":5140,"locked</w>":5141,"closures</w>":5142,"expec":5143,"expires</w>":5144,"responsi":5145,"virals</w>":5146,"virtually</w>":5147,"desig":5148,"knowing</w>":5149,"faq</w>":5150,"relation":5151,"mandatory</w>":5152,"piec":5153,"trust</w>":5154,"modelling</w>":5155,"allergy</w>":5156,"duration</w>":5157,"advises</w>":5158,"game</w>":5159,"gression</w>":5160,"greatly</w>":5161,"math</w>":5162,"authors</w>":5163,"criminal</w>":5164,"decree</w>":5165,"deceased</w>":5166,"productive</w>":5167,"presents</w>":5168,"isolating</w>":5169,"voted</w>":5170,"gross</w>":5171,"strugg":5172,"overseas</w>":5173,"checked</w>":5174,"processes</w>":5175,"legally</w>":5176,"occ":5177,"recommendation</w>":5178,"throw</w>":5179,"secondly</w>":5180,"binom</w>":5181,"colds</w>":5182,"minimize</w>":5183,"ministry</w>":5184,"transcri":5185,"amounts</w>":5186,"crossing</w>":5187,"label</w>":5188,"safely</w>":5189,"spot</w>":5190,"presidential</w>":5191,"effic":5192,"suffer</w>":5193,"suffering</w>":5194,"describe</w>":5195,"shares</w>":5196,"kinds</w>":5197,"techni":5198,"remove</w>":5199,"removed</w>":5200,"collabor":5201,"collection</w>":5202,"leaders</w>":5203,"cancelling</w>":5204,"drivers</w>":5205,"pregnancy</w>":5206,"indicate</w>":5207,"errors</w>":5208,"reasonably</w>":5209,"epidemics</w>":5210,"lending</w>":5211,"lenders</w>":5212,"former</w>":5213,"graph</w>":5214,"suggesting</w>":5215,"solved</w>":5216,"guardian</w>":5217,"named</w>":5218,"8888</w>":5219,"fresh</w>":5220,"owners</w>":5221,"limitation</w>":5222,"limitations</w>":5223,"assem":5224,"attack</w>":5225,"zoom</w>":5226,"array</w>":5227,"quote</w>":5228,"sales</w>":5229,"personally</w>":5230,"downs</w>":5231,"drink</w>":5232,"merase</w>":5233,"sheet</w>":5234,"polymerase</w>":5235,"feces</w>":5236,"substantial</w>":5237,"substantially</w>":5238,"avoided</w>":5239,"ratg13</w>":5240,"thanks</w>":5241,"refused</w>":5242,"hotel</w>":5243,"candidates</w>":5244,"repeat</w>":5245,"flexibility</w>":5246,"tiny</w>":5247,"demonstr":5248,"spring</w>":5249,"shelter</w>":5250,"objective</w>":5251,"challenges</w>":5252,"h2o</w>":5253,"stranded</w>":5254,"waiver</w>":5255,"mutate</w>":5256,"visibly</w>":5257,"prescription</w>":5258,"mathematical</w>":5259,"welfare</w>":5260,"physician</w>":5261,"cnn</w>":5262,"budget</w>":5263,"recovering</w>":5264,"gaussian</w>":5265,"cortico":5266,"antigenic</w>":5267,"donald</w>":5268,"transportation</w>":5269,"besides</w>":5270,"revenue</w>":5271,"vegetables</w>":5272,"compliance</w>":5273,"muscle</w>":5274,"elsewhere</w>":5275,"tuesday</w>":5276,"randomly</w>":5277,"repatri":5278,"iceland</w>":5279,"consensus</w>":5280,"concentra":5281,"conspiracy</w>":5282,"behind</w>":5283,"netherlan":5284,"dollars</w>":5285,"modnested</w>":5286,"preliminary</w>":5287,"opportunity</w>":5288,"09</w>":5289,"05</w>":5290,"2nd</w>":5291,"21st</w>":5292,"33</w>":5293,"41</w>":5294,"59":5295,"53</w>":5296,"80":5297,"91</w>":5298,"ab</w>":5299,"ational</w>":5300,"base</w>":5301,"bail":5302,"ea</w>":5303,"edi":5304,"ethan":5305,"gt":5306,"gas</w>":5307,"gori":5308,"hr":5309,"hic":5310,"hen</w>":5311,"ian</w>":5312,"jones</w>":5313,"kins</w>":5314,"lend</w>":5315,"lens</w>":5316,"md</w>":5317,"men</w>":5318,"oh</w>":5319,"pin":5320,"phi":5321,"puni":5322,"qat":5323,"rich</w>":5324,"sc</w>":5325,"sar":5326,"sou":5327,"sme":5328,"sounds</w>":5329,"twit":5330,"tch</w>":5331,"tdown</w>":5332,"ule</w>":5333,"usel":5334,"van":5335,"vou":5336,"vac":5337,"wan</w>":5338,"wage</w>":5339,"wants</w>":5340,"yes":5341,"zon</w>":5342,"inet</w>":5343,"indoor</w>":5344,"rep":5345,"redi":5346,"resource</w>":5347,"represent</w>":5348,"retail</w>":5349,"tips</w>":5350,"timately</w>":5351,"ern":5352,"cool</w>":5353,"archi":5354,"eno":5355,"enhan":5356,"enjo":5357,"enforce</w>":5358,"ensuring</w>":5359,"ouse</w>":5360,"ony</w>":5361,"algori":5362,"orm":5363,"oration</w>":5364,"orting</w>":5365,"orban</w>":5366,"victi":5367,"rote</w>":5368,"iter":5369,"itable</w>":5370,"ace</w>":5371,"acks</w>":5372,"accounts</w>":5373,"stro":5374,"stages</w>":5375,"atal</w>":5376,"attri":5377,"illu":5378,"diplo":5379,"plat":5380,"units</w>":5381,"lic</w>":5382,"lim</w>":5383,"liber":5384,"losses</w>":5385,"deduc":5386,"cong":5387,"congre":5388,"trillion</w>":5389,"theat":5390,"theories</w>":5391,"mar</w>":5392,"mated</w>":5393,"hot</w>":5394,"promo":5395,"urgent</w>":5396,"pow":5397,"poster":5398,"merely</w>":5399,"bel":5400,"chic":5401,"soiled</w>":5402,"infants</w>":5403,"infras":5404,"tau</w>":5405,"sations</w>":5406,"doms</w>":5407,"mob":5408,"moti":5409,"mode</w>":5410,"permission</w>":5411,"perfec":5412,"agents</w>":5413,"complic":5414,"goo":5415,"civet</w>":5416,"worked</w>":5417,"fears</w>":5418,"features</w>":5419,"ump</w>":5420,"parms</w>":5421,"purely</w>":5422,"cex</w>":5423,"mutation</w>":5424,"rati":5425,"rarely</w>":5426,"counting</w>":5427,"ingredi":5428,"wipes</w>":5429,"scans</w>":5430,"scrat":5431,"trains</w>":5432,"oles":5433,"figh":5434,"outline</w>":5435,"ultimately</w>":5436,"opha":5437,"opposed</w>":5438,"ford</w>":5439,"forms</w>":5440,"ourselves</w>":5441,"accru":5442,"deri":5443,"jumped</w>":5444,"elds</w>":5445,"gely</w>":5446,"comparing</w>":5447,"static</w>":5448,"protease</w>":5449,"naoc":5450,"pheno":5451,"somehow</w>":5452,"alive</w>":5453,"alities</w>":5454,"arial</w>":5455,"pric":5456,"fun</w>":5457,"transmitting</w>":5458,"interf":5459,"interview</w>":5460,"func</w>":5461,"breathe</w>":5462,"massive</w>":5463,"airborne</w>":5464,"offers</w>":5465,"offered</w>":5466,"stuff</w>":5467,"responding</w>":5468,"trees</w>":5469,"bited</w>":5470,"illnesses</w>":5471,"backed</w>":5472,"piece</w>":5473,"turns</w>":5474,"protecting</w>":5475,"seeking</w>":5476,"fications</w>":5477,"showed</w>":5478,"trial</w>":5479,"trigger</w>":5480,"antigen</w>":5481,"actively</w>":5482,"drew</w>":5483,"england</w>":5484,"subsection</w>":5485,"advising</w>":5486,"importantly</w>":5487,"houses</w>":5488,"housing</w>":5489,"suppose</w>":5490,"economics</w>":5491,"crime</w>":5492,"regulated</w>":5493,"licen":5494,"valu":5495,"keeps</w>":5496,"quarantining</w>":5497,"conditional</w>":5498,"ideal</w>":5499,"ideally</w>":5500,"norway</w>":5501,"everyday</w>":5502,"variables</w>":5503,"affects</w>":5504,"eviction</w>":5505,"profits</w>":5506,"density</w>":5507,"warmer</w>":5508,"bron":5509,"bringing</w>":5510,"frag":5511,"2008</w>":5512,"2005</w>":5513,"london</w>":5514,"citizen":5515,"capable</w>":5516,"confirm</w>":5517,"follows</w>":5518,"learned</w>":5519,"predicted</w>":5520,"colla":5521,"colum":5522,"interests</w>":5523,"resident</w>":5524,"bates</w>":5525,"friday</w>":5526,"friend</w>":5527,"fried":5528,"liter":5529,"users</w>":5530,"discri":5531,"describing</w>":5532,"specim":5533,"publication</w>":5534,"announcement</w>":5535,"xide</w>":5536,"manufacturing</w>":5537,"frequency</w>":5538,"remotely</w>":5539,"defense</w>":5540,"arrive</w>":5541,"sanctions</w>":5542,"adult</w>":5543,"involves</w>":5544,"screen</w>":5545,"lockdowns</w>":5546,"indicated</w>":5547,"institution</w>":5548,"explains</w>":5549,"holding</w>":5550,"accurately</w>":5551,"carriers</w>":5552,"believed</w>":5553,"manufactured</w>":5554,"tracted</w>":5555,"graph":5556,"double</w>":5557,"shortly</w>":5558,"shortages</w>":5559,"scheme</w>":5560,"videos</w>":5561,"presented</w>":5562,"reservation</w>":5563,"conclusions</w>":5564,"establish":5565,"wald</w>":5566,"corporations</w>":5567,"fluids</w>":5568,"manufacturers</w>":5569,"optim</w>":5570,"originated</w>":5571,"investigations</w>":5572,"burden</w>":5573,"watching</w>":5574,"sird</w>":5575,"sirmc":5576,"moderate</w>":5577,"continuing</w>":5578,"continuous</w>":5579,"xychloroquine</w>":5580,"stops</w>":5581,"preparedness</w>":5582,"scheduled</w>":5583,"visits</w>":5584,"accept</w>":5585,"acceptable</w>":5586,"disruption</w>":5587,"connecting</w>":5588,"practicing</w>":5589,"postpon":5590,"obvious</w>":5591,"absolute</w>":5592,"exempt</w>":5593,"custody</w>":5594,"customers</w>":5595,"overwhelmed</w>":5596,"hydrogen</w>":5597,"hydroxychloroquine</w>":5598,"polyaden":5599,"slowing</w>":5600,"wild</w>":5601,"realize</w>":5602,"bottle</w>":5603,"groceries</w>":5604,"nhs</w>":5605,"campa":5606,"favor</w>":5607,"block</w>":5608,"narro":5609,"demonstra":5610,"h2o2</w>":5611,"rooms</w>":5612,"evolving</w>":5613,"technology</w>":5614,"cabinet</w>":5615,"achieve</w>":5616,"departure</w>":5617,"manife":5618,"purchase</w>":5619,"lifts</w>":5620,"discussed</w>":5621,"theoretical</w>":5622,"appointment</w>":5623,"journals</w>":5624,"homology</w>":5625,"mitigate</w>":5626,"comfortable</w>":5627,"disinfectants</w>":5628,"nonimmigrant</w>":5629,"nursing</w>":5630,"alberta</w>":5631,"noticed</w>":5632,"bcg</w>":5633,"blue</w>":5634,"guns</w>":5635,"adopted</w>":5636,"antiretroviral</w>":5637,"saturday</w>":5638,"maximum</w>":5639,"network</w>":5640,"veterinary</w>":5641,"parliament</w>":5642,"flattening</w>":5643,"tructure</w>":5644,"centres</w>":5645,"harmful</w>":5646,"textoutline</w>":5647,"retirement</w>":5648,"anthony</w>":5649,"itinerary</w>":5650,"hopkins</w>":5651,"taiwan</w>":5652,"feasible</w>":5653,"feynman</w>":5654,"opposite</w>":5655,"currency</w>":5656,"database</w>":5657,"designa":5658,"pieces</w>":5659,"occasi":5660,"efficacy</w>":5661,"netherlands</w>":5662,"ethanol</w>":5663,"useless</w>":5664,"vouch":5665,"algorith":5666,"attribu":5667,"posterior</w>":5668,"infrastructure</w>":5669,"perfectly</w>":5670,"naocl</w>":5671,"frieden</w>":5672,"sirmc2</w>":5673,"polyadeny":5674,"120":5675,"100":5676,"35</w>":5677,"56":5678,"57</w>":5679,"73</w>":5680,"82</w>":5681,"81</w>":5682,"97</w>":5683,"ac</w>":5684,"aim":5685,"avir</w>":5686,"bent</w>":5687,"bars</w>":5688,"bought</w>":5689,"barri":5690,"cce":5691,"cket</w>":5692,"cdot</w>":5693,"dd":5694,"dred</w>":5695,"dpa</w>":5696,"dhs</w>":5697,"ethe":5698,"eid":5699,"fits</w>":5700,"ga</w>":5701,"gly":5702,"h1":5703,"ha</w>":5704,"hu</w>":5705,"hor":5706,"hits</w>":5707,"hcov</w>":5708,"je":5709,"jp</w>":5710,"lity</w>":5711,"mh":5712,"min</w>":5713,"mber</w>":5714,"macro":5715,"n1</w>":5716,"nau":5717,"num</w>":5718,"ope":5719,"oth</w>":5720,"olar</w>":5721,"ps":5722,"pit":5723,"pau":5724,"qrt</w>":5725,"rin":5726,"ring</w>":5727,"sr</w>":5728,"ski":5729,"sqrt</w>":5730,"tour</w>":5731,"ube</w>":5732,"usage</w>":5733,"vi</w>":5734,"vast</w>":5735,"vous</w>":5736,"vings</w>":5737,"vations</w>":5738,"wa</w>":5739,"wrote</w>":5740,"yal</w>":5741,"yel":5742,"thening</w>":5743,"invi":5744,"inst":5745,"ints</w>":5746,"indepen":5747,"injur":5748,"indoors</w>":5749,"anes":5750,"anese</w>":5751,"replace</w>":5752,"reconsider</w>":5753,"rebook</w>":5754,"refunds</w>":5755,"replaced</w>":5756,"timatic</w>":5757,"coded</w>":5758,"cook</w>":5759,"arby</w>":5760,"ens":5761,"ent":5762,"enable</w>":5763,"encounter</w>":5764,"alve":5765,"altogether</w>":5766,"alex</w>":5767,"orxiv</w>":5768,"viet":5769,"viability</w>":5770,"itarian</w>":5771,"accom":5772,"acci":5773,"sters</w>":5774,"noting</w>":5775,"noise</w>":5776,"ictv</w>":5777,"atten</w>":5778,"atories</w>":5779,"dium</w>":5780,"plenty</w>":5781,"unprece":5782,"life":5783,"sum":5784,"succe":5785,"sets</w>":5786,"semin":5787,"losing</w>":5788,"tration</w>":5789,"propo":5790,"proven</w>":5791,"propose</w>":5792,"proxim":5793,"absor":5794,"poore":5795,"polls</w>":5796,"mel":5797,"met</w>":5798,"meat</w>":5799,"bed":5800,"bear</w>":5801,"sodium</w>":5802,"exce":5803,"laim":5804,"laid</w>":5805,"leth":5806,"mix</w>":5807,"nearby</w>":5808,"vert</w>":5809,"infant</w>":5810,"ades</w>":5811,"adds</w>":5812,"sau":5813,"safer</w>":5814,"movi":5815,"mosqu":5816,"vehic":5817,"hear</w>":5818,"permitted</w>":5819,"agrap":5820,"agues</w>":5821,"toco":5822,"ams</w>":5823,"ambi":5824,"amino</w>":5825,"gown</w>":5826,"cited</w>":5827,"coronaviral</w>":5828,"duties</w>":5829,"termin":5830,"20th</w>":5831,"2000</w>":5832,"2014</w>":5833,"ums</w>":5834,"lular</w>":5835,"paragrap":5836,"paa</w>":5837,"pul":5838,"puts</w>":5839,"boarding</w>":5840,"facepi":5841,"facilit":5842,"kel</w>":5843,"surpri":5844,"gium</w>":5845,"githu":5846,"genom":5847,"raw</w>":5848,"rational</w>":5849,"ingu":5850,"eva</w>":5851,"evap":5852,"gun</w>":5853,"emed</w>":5854,"trained</w>":5855,"rising</w>":5856,"respec":5857,"tum</w>":5858,"tured</w>":5859,"serve</w>":5860,"forget</w>":5861,"forces</w>":5862,"aft</w>":5863,"island</w>":5864,"pubs</w>":5865,"fined</w>":5866,"finding</w>":5867,"compani":5868,"compounds</w>":5869,"yeast</w>":5870,"yester":5871,"ppm</w>":5872,"select</w>":5873,"fur</w>":5874,"sending</w>":5875,"transactions</w>":5876,"transiting</w>":5877,"intermedi":5878,"interactive</w>":5879,"stands</w>":5880,"readers</w>":5881,"clothing</w>":5882,"certi":5883,"informa":5884,"approve</w>":5885,"clean":5886,"stuck</w>":5887,"studying</w>":5888,"priori":5889,"provisions</w>":5890,"bike</w>":5891,"biorxiv</w>":5892,"ofcom</w>":5893,"channel</w>":5894,"icial</w>":5895,"flying</w>":5896,"flatten</w>":5897,"pants</w>":5898,"knobs</w>":5899,"contrast</w>":5900,"prevents</w>":5901,"managed</w>":5902,"waste</w>":5903,"respirator</w>":5904,"shop</w>":5905,"underway</w>":5906,"subway</w>":5907,"distant</w>":5908,"restricting</w>":5909,"ranging</w>":5910,"quarters</w>":5911,"emerged</w>":5912,"accordance</w>":5913,"caring</w>":5914,"carbon":5915,"voters</w>":5916,"gging</w>":5917,"grow</w>":5918,"germs</w>":5919,"overview</w>":5920,"continues</w>":5921,"mentions</w>":5922,"controlling</w>":5923,"variety</w>":5924,"eutical</w>":5925,"hyper":5926,"structural</w>":5927,"hardest</w>":5928,"estimation</w>":5929,"dented</w>":5930,"similarly</w>":5931,"1918</w>":5932,"influen":5933,"brn</w>":5934,"nyt</w>":5935,"shif":5936,"ships</w>":5937,"2007</w>":5938,"enzy":5939,"confirmation</w>":5940,"washed</w>":5941,"play":5942,"catastro":5943,"equally</w>":5944,"prediction</w>":5945,"predictable</w>":5946,"supporting</w>":5947,"bag</w>":5948,"tails</w>":5949,"resulting</w>":5950,"labor</w>":5951,"annual</w>":5952,"identifying</w>":5953,"efficient</w>":5954,"disclaim":5955,"specu":5956,"handwashing</w>":5957,"relieve</w>":5958,"reductions</w>":5959,"nonethe":5960,"refuse</w>":5961,"observation</w>":5962,"estyle</w>":5963,"consular</w>":5964,"140</w>":5965,"driving</w>":5966,"epa</w>":5967,"eastern</w>":5968,"graham</w>":5969,"reasoning</w>":5970,"container</w>":5971,"misinformation</w>":5972,"newly</w>":5973,"291</w>":5974,"correctly</w>":5975,"sequencing</w>":5976,"calend":5977,"earn</w>":5978,"threats</w>":5979,"doub":5980,"doubling</w>":5981,"shortage</w>":5982,"deliver</w>":5983,"microbiology</w>":5984,"microbes</w>":5985,"equivalent</w>":5986,"establish</w>":5987,"hundred</w>":5988,"success</w>":5989,"demographic</w>":5990,"extinc":5991,"strategies</w>":5992,"journey</w>":5993,"killing</w>":5994,"naming</w>":5995,"epidemiological</w>":5996,"pattern</w>":5997,"nervous</w>":5998,"naturally</w>":5999,"documented</w>":6000,"tane":6001,"tang</w>":6002,"stopping</w>":6003,"accepted</w>":6004,"neighbor":6005,"methodo":6006,"managing</w>":6007,"territories</w>":6008,"colleagues</w>":6009,"japanese</w>":6010,"exclusi":6011,"bacteriopha":6012,"communication</w>":6013,"communicable</w>":6014,"communications</w>":6015,"aerosol</w>":6016,"letters</w>":6017,"drinking</w>":6018,"ferred</w>":6019,"varying</w>":6020,"deadline</w>":6021,"meanwhile</w>":6022,"exemption</w>":6023,"adaptive</w>":6024,"failed</w>":6025,"overwhelming</w>":6026,"behaviour</w>":6027,"machines</w>":6028,"picture</w>":6029,"slowly</w>":6030,"promise</w>":6031,"guarante":6032,"categories</w>":6033,"aspects</w>":6034,"diversity</w>":6035,"limits</w>":6036,"prohibits</w>":6037,"dark</w>":6038,"thorough</w>":6039,"repeated</w>":6040,"conventions</w>":6041,"maintained</w>":6042,"experimental</w>":6043,"blocks</w>":6044,"evaluate</w>":6045,"rhinovirus</w>":6046,"virology</w>":6047,"programs</w>":6048,"politician</w>":6049,"odds</w>":6050,"assistance</w>":6051,"inflam":6052,"persist</w>":6053,"transmissible</w>":6054,"transmissibility</w>":6055,"economist</w>":6056,"falls</w>":6057,"construction</w>":6058,"participants</w>":6059,"outlinestyle</w>":6060,"intervention</w>":6061,"organisms</w>":6062,"discuss</w>":6063,"blame</w>":6064,"evacuation</w>":6065,"focused</w>":6066,"pharmacies</w>":6067,"pharmaceutical</w>":6068,"regard</w>":6069,"connected</w>":6070,"propag":6071,"correspondent</w>":6072,"keyword</w>":6073,"taxpayer</w>":6074,"zoonotic</w>":6075,"neutral</w>":6076,"utili":6077,"diarrhea</w>":6078,"1998</w>":6079,"emphasi":6080,"cycle</w>":6081,"fundamental</w>":6082,"phylogenetic</w>":6083,"june</w>":6084,"jobs</w>":6085,"kov</w>":6086,"metre</w>":6087,"margin</w>":6088,"datasets</w>":6089,"canadian</w>":6090,"nanoparticle</w>":6091,"reminder</w>":6092,"library</w>":6093,"apartment</w>":6094,"geographic</w>":6095,"weekend</w>":6096,"discretion</w>":6097,"fcc</w>":6098,"kingdom</w>":6099,"rabies</w>":6100,"youtube</w>":6101,"itude</w>":6102,"confusion</w>":6103,"mammals</w>":6104,"exhales</w>":6105,"qatar</w>":6106,"twitter</w>":6107,"victims</w>":6108,"belgium</w>":6109,"chicago</w>":6110,"complicated</w>":6111,"google</w>":6112,"ratio</w>":6113,"interfere</w>":6114,"designated</w>":6115,"voucher</w>":6116,"polyadenylation</w>":6117,"glyco":6118,"opec</w>":6119,"anesthes":6120,"vietnam</w>":6121,"unprecedented</w>":6122,"paragraph</w>":6123,"facepiece</w>":6124,"github</w>":6125,"yesterday</w>":6126,"nonetheless</w>":6127,"calendar</w>":6128,"128":6129,"328</w>":6130,"47</w>":6131,"58":6132,"66":6133,"76</w>":6134,"74</w>":6135,"84</w>":6136,"800</w>":6137,"avi":6138,"ame</w>":6139,"ape":6140,"bil":6141,"bun":6142,"bad":6143,"bone</w>":6144,"bar</w>":6145,"boun":6146,"bid</w>":6147,"brit":6148,"blan":6149,"bmatrix</w>":6150,"cers</w>":6151,"cet</w>":6152,"cars</w>":6153,"eing</w>":6154,"eds</w>":6155,"emia</w>":6156,"fing":6157,"fare":6158,"gm</w>":6159,"gis</w>":6160,"gone</w>":6161,"gements</w>":6162,"hen":6163,"hur":6164,"hire</w>":6165,"ij":6166,"ire":6167,"ities</w>":6168,"khan</w>":6169,"ms":6170,"moun":6171,"mach</w>":6172,"macy</w>":6173,"nate</w>":6174,"nings</w>":6175,"nia</w>":6176,"nls</w>":6177,"ored</w>":6178,"ood</w>":6179,"ota</w>":6180,"oxide</w>":6181,"p2</w>":6182,"pal":6183,"psy":6184,"pack</w>":6185,"ry":6186,"rh</w>":6187,"sf</w>":6188,"slo":6189,"sms</w>":6190,"tl</w>":6191,"tor":6192,"twe":6193,"tum":6194,"tments</w>":6195,"va</w>":6196,"vas":6197,"vnews</w>":6198,"wu</w>":6199,"wri":6200,"ymp":6201,"yback</w>":6202,"zone</w>":6203,"thin</w>":6204,"thers</w>":6205,"inhi":6206,"instances</w>":6207,"ana</w>":6208,"anno":6209,"ance":6210,"angel":6211,"andrew</w>":6212,"anitarian</w>":6213,"reve":6214,"reinfection</w>":6215,"revo":6216,"reply</w>":6217,"retail":6218,"rebooking</w>":6219,"reacting</w>":6220,"regression</w>":6221,"rebates</w>":6222,"tia</w>":6223,"tize</w>":6224,"erred</w>":6225,"cos</w>":6226,"cotton</w>":6227,"aro</w>":6228,"enact</w>":6229,"entered</w>":6230,"tea</w>":6231,"oner</w>":6232,"oned</w>":6233,"ord</w>":6234,"vig":6235,"visu":6236,"vice</w>":6237,"viet</w>":6238,"vision</w>":6239,"vital</w>":6240,"vigorous</w>":6241,"royal</w>":6242,"acids</w>":6243,"strea":6244,"sture</w>":6245,"stence</w>":6246,"iclo":6247,"icals</w>":6248,"icked</w>":6249,"ecdc</w>":6250,"diam":6251,"dible</w>":6252,"ested</w>":6253,"essive</w>":6254,"plas":6255,"plau":6256,"sic</w>":6257,"sight</w>":6258,"unemployed</w>":6259,"liste":6260,"lips</w>":6261,"yotic</w>":6262,"suit</w>":6263,"suitable</w>":6264,"seaf":6265,"lomb":6266,"dee":6267,"deo</w>":6268,"defe":6269,"degrad":6270,"conferences</w>":6271,"condoms</w>":6272,"map</w>":6273,"math":6274,"hot":6275,"hoping</w>":6276,"hoarding</w>":6277,"hoea</w>":6278,"proves</w>":6279,"produces</w>":6280,"projected</w>":6281,"spu":6282,"abuse</w>":6283,"abroad</w>":6284,"pox</w>":6285,"posts</w>":6286,"meant</w>":6287,"meet":6288,"begun</w>":6289,"sophi":6290,"sooner</w>":6291,"rid":6292,"rises</w>":6293,"ride</w>":6294,"rigorous</w>":6295,"exp</w>":6296,"exhi":6297,"exchange</w>":6298,"buyback</w>":6299,"mping</w>":6300,"ads</w>":6301,"adic":6302,"adver":6303,"admission</w>":6304,"tap</w>":6305,"saw</w>":6306,"saving</w>":6307,"satis":6308,"savings</w>":6309,"ffin</w>":6310,"correlation</w>":6311,"wei":6312,"wet</w>":6313,"well":6314,"sha</w>":6315,"door":6316,"mod":6317,"motion</w>":6318,"moved</w>":6319,"mobility</w>":6320,"mothers</w>":6321,"aps</w>":6322,"apps</w>":6323,"applic":6324,"vements</w>":6325,"hepati":6326,"peroxide</w>":6327,"prejud":6328,"agu":6329,"tok":6330,"tox":6331,"toll</w>":6332,"audi":6333,"austri":6334,"infects</w>":6335,"covideo</w>":6336,"ammon":6337,"comb":6338,"comor":6339,"compla":6340,"gop</w>":6341,"gofund":6342,"feb</w>":6343,"femal":6344,"teris":6345,"rence</w>":6346,"rences</w>":6347,"imal</w>":6348,"implies</w>":6349,"luc":6350,"lume</w>":6351,"partly</w>":6352,"paths</w>":6353,"boards</w>":6354,"fact":6355,"kept</w>":6356,"gig</w>":6357,"genes</w>":6358,"ration":6359,"counted</w>":6360,"entials</w>":6361,"scar":6362,"stig":6363,"olymp":6364,"porous</w>":6365,"outlets</w>":6366,"minimal</w>":6367,"wake</w>":6368,"fornia</w>":6369,"isra":6370,"juice</w>":6371,"els</w>":6372,"steve</w>":6373,"fines</w>":6374,"finance</w>":6375,"finland</w>":6376,"grand":6377,"gel</w>":6378,"markov</w>":6379,"tends</w>":6380,"tension</w>":6381,"compre":6382,"compare</w>":6383,"curves</w>":6384,"namic</w>":6385,"dating</w>":6386,"arities</w>":6387,"arify</w>":6388,"senators</w>":6389,"interface</w>":6390,"funeral</w>":6391,"cloture</w>":6392,"impacts</w>":6393,"inform</w>":6394,"largely</w>":6395,"humanitarian</w>":6396,"offices</w>":6397,"discour":6398,"bias</w>":6399,"foo":6400,"fold</w>":6401,"stoch":6402,"stomach</w>":6403,"obste":6404,"cured</w>":6405,"cutting</w>":6406,"fati":6407,"fair</w>":6408,"relax</w>":6409,"relations</w>":6410,"penalty</w>":6411,"turning</w>":6412,"pointed</w>":6413,"understand":6414,"substitu":6415,"submit</w>":6416,"gain</w>":6417,"gather</w>":6418,"passes</w>":6419,"paste</w>":6420,"passing</w>":6421,"positively</w>":6422,"searches</w>":6423,"restrict</w>":6424,"secu":6425,"sections</w>":6426,"secure</w>":6427,"sector</w>":6428,"green</w>":6429,"match</w>":6430,"direction</w>":6431,"suppli":6432,"supposed</w>":6433,"cards</w>":6434,"invasi":6435,"medium</w>":6436,"workplace</w>":6437,"volume</w>":6438,"signed</w>":6439,"ggles</w>":6440,"grows</w>":6441,"books</w>":6442,"bookings</w>":6443,"deciding</w>":6444,"cares</w>":6445,"views</w>":6446,"everywhere</w>":6447,"00000":6448,"crew</w>":6449,"eua</w>":6450,"eukar":6451,"puri":6452,"aside</w>":6453,"returned</w>":6454,"profit</w>":6455,"assumed</w>":6456,"denly</w>":6457,"dency</w>":6458,"intest":6459,"completed</w>":6460,"nicovideo</w>":6461,"influence</w>":6462,"warm</w>":6463,"clade</w>":6464,"throats</w>":6465,"shield</w>":6466,"2002</w>":6467,"2001</w>":6468,"capture</w>":6469,"cluster</w>":6470,"filtration</w>":6471,"statute</w>":6472,"medications</w>":6473,"broken</w>":6474,"traveled</w>":6475,"hub</w>":6476,"appeared</w>":6477,"appearance</w>":6478,"predictors</w>":6479,"binds</w>":6480,"interested</w>":6481,"ification</w>":6482,"lasting</w>":6483,"exposing</w>":6484,"landed</w>":6485,"lancet</w>":6486,"transi":6487,"full":6488,"crown</w>":6489,"attenu":6490,"attendance</w>":6491,"korean</w>":6492,"intentionally</w>":6493,"spoon</w>":6494,"spots</w>":6495,"spoons</w>":6496,"operational</w>":6497,"deau</w>":6498,"edings</w>":6499,"suffered</w>":6500,"handled</w>":6501,"exception</w>":6502,"circul":6503,"skills</w>":6504,"casual</w>":6505,"nonfrivolous</w>":6506,"referring</w>":6507,"removal</w>":6508,"collect</w>":6509,"collecting</w>":6510,"stret":6511,"street</w>":6512,"proceed</w>":6513,"proceedings</w>":6514,"increasingly</w>":6515,"appropriately</w>":6516,"observations</w>":6517,"arrived</w>":6518,"logies</w>":6519,"targets</w>":6520,"packed</w>":6521,"simpl":6522,"consumer</w>":6523,"driver</w>":6524,"draw</w>":6525,"drawn</w>":6526,"assessing</w>":6527,"syncy":6528,"accuracy</w>":6529,"cheaper</w>":6530,"built</w>":6531,"visitor</w>":6532,"separated</w>":6533,"tracing</w>":6534,"formal</w>":6535,"sequenced</w>":6536,"calcu":6537,"threat":6538,"taxable</w>":6539,"presentation</w>":6540,"genetically</w>":6541,"class":6542,"classes</w>":6543,"elimin":6544,"reserved</w>":6545,"deliver":6546,"delays</w>":6547,"birds</w>":6548,"hung":6549,"corporation</w>":6550,"smoke</w>":6551,"smoking</w>":6552,"smooth</w>":6553,"occup":6554,"acetic</w>":6555,"dispose</w>":6556,"qualified</w>":6557,"epidemiologists</w>":6558,"epidemiologist</w>":6559,"exponentially</w>":6560,"packaging</w>":6561,"famili":6562,"justice</w>":6563,"disrupted</w>":6564,"obliged</w>":6565,"volun":6566,"constitution</w>":6567,"genomic</w>":6568,"proportion":6569,"chemicals</w>":6570,"weak":6571,"molecule</w>":6572,"advisory</w>":6573,"recognition</w>":6574,"researcher</w>":6575,"clarify</w>":6576,"message</w>":6577,"salary</w>":6578,"feels</w>":6579,"characteris":6580,"enforced</w>":6581,"leaves</w>":6582,"johns</w>":6583,"drinks</w>":6584,"ctv</w>":6585,"ctvnews</w>":6586,"fashi":6587,"merson</w>":6588,"stries</w>":6589,"attempts</w>":6590,"meantime</w>":6591,"adapted</w>":6592,"stockp":6593,"suggestions</w>":6594,"laboratories</w>":6595,"targeting</w>":6596,"thousand</w>":6597,"monitoring</w>":6598,"dynam":6599,"dynamic</w>":6600,"hotez</w>":6601,"hotels</w>":6602,"sensitive</w>":6603,"contributed</w>":6604,"contributions</w>":6605,"contribute</w>":6606,"neighbor</w>":6607,"trend</w>":6608,"aspect</w>":6609,"opt1</w>":6610,"importation</w>":6611,"favor":6612,"preceding</w>":6613,"automatic</w>":6614,"ventilator</w>":6615,"sorry</w>":6616,"spray</w>":6617,"precisely</w>":6618,"cancellations</w>":6619,"challenging</w>":6620,"reflects</w>":6621,"programming</w>":6622,"radio</w>":6623,"cabin</w>":6624,"insight</w>":6625,"replicate</w>":6626,"disper":6627,"economies</w>":6628,"purchased</w>":6629,"571</w>":6630,"visited</w>":6631,"divided</w>":6632,"queens":6633,"organism</w>":6634,"rnas</w>":6635,"metabo":6636,"therapy</w>":6637,"dilution</w>":6638,"diluted</w>":6639,"element</w>":6640,"connect</w>":6641,"modification</w>":6642,"compromise</w>":6643,"compromised</w>":6644,"taxpayers</w>":6645,"gradually</w>":6646,"classification</w>":6647,"foundation</w>":6648,"silver</w>":6649,"concept</w>":6650,"mixing</w>":6651,"withdraw</w>":6652,"california</w>":6653,"vector</w>":6654,"timeline</w>":6655,"suddenly</w>":6656,"topics</w>":6657,"optimal</w>":6658,"forecast</w>":6659,"science":6660,"furlough</w>":6661,"broadcaster</w>":6662,"optimization</w>":6663,"competition</w>":6664,"nbsp</w>":6665,"confinement</w>":6666,"expelled</w>":6667,"irritation</w>":6668,"dozen</w>":6669,"surrounding</w>":6670,"historical</w>":6671,"numerous</w>":6672,"components</w>":6673,"anticipate</w>":6674,"engineering</w>":6675,"integral</w>":6676,"chemistry</w>":6677,"academia</w>":6678,"zika</w>":6679,"loaded</w>":6680,"conservative</w>":6681,"holiday</w>":6682,"aggressive</w>":6683,"responsibility</w>":6684,"corticosteroids</w>":6685,"concentrations</w>":6686,"enjoy</w>":6687,"congestion</w>":6688,"power":6689,"mobile</w>":6690,"ingredients</w>":6691,"scratch</w>":6692,"fighting</w>":6693,"accrue</w>":6694,"phenomen":6695,"broncho":6696,"citizenship</w>":6697,"discrimination</w>":6698,"postponing</w>":6699,"campaign</w>":6700,"demonstrated</w>":6701,"1206</w>":6702,"barrier</w>":6703,"h1n1</w>":6704,"nausea</w>":6705,"alveolar</w>":6706,"poorer</w>":6707,"saudi</w>":6708,"vehicle</w>":6709,"pulmon":6710,"evaporation</w>":6711,"intermediate</w>":6712,"carbonate</w>":6713,"disclaimer</w>":6714,"neighborhood</w>":6715,"methodology</w>":6716,"exclusively</w>":6717,"inflammation</w>":6718,"fareast</w>":6719,"ireland</w>":6720,"psycho":6721,"tweet</w>":6722,"stream</w>":6723,"iclovir</w>":6724,"diamond</w>":6725,"plausible</w>":6726,"listen</w>":6727,"seafood</w>":6728,"lombar":6729,"meetings</w>":6730,"prejudice</w>":6731,"austria</w>":6732,"ammonia</w>":6733,"gofundme</w>":6734,"00000000</w>":6735,"eukaryotic</w>":6736,"characteristics</w>":6737,"queensland</w>":6738,"103</w>":6739,"150</w>":6740,"121</w>":6741,"24":6742,"2m</w>":6743,"212</w>":6744,"229":6745,"37</w>":6746,"44":6747,"55":6748,"54</w>":6749,"51</w>":6750,"67</w>":6751,"71</w>":6752,"700</w>":6753,"737":6754,"87</w>":6755,"830</w>":6756,"99":6757,"92</w>":6758,"ai":6759,"ak":6760,"ae</w>":6761,"aka</w>":6762,"ahu</w>":6763,"bag":6764,"blow":6765,"bend</w>":6766,"black</w>":6767,"cs":6768,"cv</w>":6769,"cin":6770,"cit":6771,"ces":6772,"cli":6773,"cup</w>":6774,"dal</w>":6775,"dens</w>":6776,"dash":6777,"eti":6778,"eos</w>":6779,"eight</w>":6780,"fth":6781,"fen":6782,"fies</w>":6783,"fest</w>":6784,"filled</w>":6785,"gp</w>":6786,"gal":6787,"gas":6788,"gments</w>":6789,"hill</w>":6790,"hsa</w>":6791,"io":6792,"ier</w>":6793,"ided</w>":6794,"ific</w>":6795,"jama":6796,"jump</w>":6797,"ka":6798,"ku":6799,"kal":6800,"ktor</w>":6801,"kish</w>":6802,"lg</w>":6803,"li</w>":6804,"lent</w>":6805,"lman</w>":6806,"llap</w>":6807,"mg</w>":6808,"mu</w>":6809,"mate</w>":6810,"mest</w>":6811,"mingly</w>":6812,"maca":6813,"nr</w>":6814,"np</w>":6815,"npr</w>":6816,"ok":6817,"ox":6818,"oti":6819,"ois</w>":6820,"pes":6821,"pun":6822,"pter</w>":6823,"pure</w>":6824,"ptical</w>":6825,"path</w>":6826,"pages</w>":6827,"pills</w>":6828,"pmc</w>":6829,"qs</w>":6830,"rr":6831,"rr</w>":6832,"rlap</w>":6833,"sl":6834,"s7</w>":6835,"si</w>":6836,"ses":6837,"swi":6838,"sday</w>":6839,"sali":6840,"sstart</w>":6841,"session</w>":6842,"ti</w>":6843,"ton":6844,"tab":6845,"tent</w>":6846,"umo":6847,"ually</w>":6848,"uplo":6849,"vo</w>":6850,"vated</w>":6851,"vague</w>":6852,"ware</w>":6853,"wages</w>":6854,"xx</w>":6855,"yi":6856,"zers</w>":6857,"thly</w>":6858,"thur":6859,"thri":6860,"thail":6861,"induc":6862,"inations</w>":6863,"inevi":6864,"inaccurate</w>":6865,"indefinitely</w>":6866,"innate</w>":6867,"anten":6868,"reid</w>":6869,"resc":6870,"reinfor":6871,"referen":6872,"relate</w>":6873,"remind</w>":6874,"reson":6875,"reduces</w>":6876,"repurchase</w>":6877,"tigh":6878,"erce</w>":6879,"codes</w>":6880,"arc":6881,"arti":6882,"arab":6883,"aries</w>":6884,"army</w>":6885,"enter":6886,"entally</w>":6887,"tedro":6888,"tells</w>":6889,"onally</w>":6890,"onward</w>":6891,"alism</w>":6892,"viri":6893,"viktor</w>":6894,"roch":6895,"roles</w>":6896,"rober":6897,"romania</w>":6898,"ith</w>":6899,"asis</w>":6900,"asts</w>":6901,"acce":6902,"aciclovir</w>":6903,"station</w>":6904,"stingly</w>":6905,"noses</w>":6906,"ica</w>":6907,"ico</w>":6908,"ata</w>":6909,"attr":6910,"attle</w>":6911,"ateral</w>":6912,"attracted</w>":6913,"illin":6914,"dic</w>":6915,"dities</w>":6916,"eshi":6917,"escap":6918,"simul":6919,"sizes</w>":6920,"uncommon</w>":6921,"uncertain</w>":6922,"unwin":6923,"lie</w>":6924,"lies</w>":6925,"sub</w>":6926,"susta":6927,"sex":6928,"sey</w>":6929,"sez</w>":6930,"seed</w>":6931,"seattle</w>":6932,"lopin":6933,"dele":6934,"dedic":6935,"deemed</w>":6936,"conv":6937,"concre":6938,"trine</w>":6939,"mag</w>":6940,"mates</w>":6941,"magn":6942,"mails</w>":6943,"hopes</w>":6944,"prop</w>":6945,"proved</w>":6946,"progre":6947,"proposed</w>":6948,"protoco":6949,"spar":6950,"spouse</w>":6951,"sporting</w>":6952,"absen":6953,"absent</w>":6954,"uro</w>":6955,"urged</w>":6956,"pois":6957,"posit":6958,"poons</w>":6959,"posted</w>":6960,"polling</w>":6961,"mework</w>":6962,"meters</w>":6963,"mels</w>":6964,"beau":6965,"bearing</w>":6966,"beij":6967,"chen</w>":6968,"chest</w>":6969,"chick":6970,"sol</w>":6971,"sole</w>":6972,"soak</w>":6973,"expl":6974,"expor":6975,"explo":6976,"layo":6977,"lais":6978,"leans</w>":6979,"but":6980,"bust</w>":6981,"mirr":6982,"nej":6983,"nell</w>":6984,"neys</w>":6985,"infe":6986,"info</w>":6987,"admissi":6988,"take":6989,"tational</w>":6990,"saved</w>":6991,"sages</w>":6992,"ffs</w>":6993,"ffp</w>":6994,"peter</w>":6995,"web</w>":6996,"wered</w>":6997,"weigh":6998,"wells</w>":6999,"wearer</w>":7000,"irin</w>":7001,"irical</w>":7002,"dots</w>":7003,"moves</w>":7004,"apy</w>":7005,"apers</w>":7006,"appen":7007,"peracetic</w>":7008,"preprint</w>":7009,"tober</w>":7010,"tool</w>":7011,"toward</w>":7012,"ama</w>":7013,"ampl":7014,"ampli":7015,"coma</w>":7016,"got":7017,"gov":7018,"goggles</w>":7019,"cil</w>":7020,"worsen":7021,"worrying</w>":7022,"dutch</w>":7023,"fel":7024,"feed":7025,"terri":7026,"2021</w>":7027,"implications</w>":7028,"lux":7029,"lufth":7030,"tico</w>":7031,"para":7032,"paralle":7033,"pain":7034,"pair</w>":7035,"pains</w>":7036,"pairs</w>":7037,"push</w>":7038,"puzz":7039,"boiling</w>":7040,"cel":7041,"face":7042,"surro":7043,"muta":7044,"gibb":7045,"giveness</w>":7046,"council</w>":7047,"inger</w>":7048,"wider</w>":7049,"inces</w>":7050,"incess</w>":7051,"guil":7052,"stimate</w>":7053,"commons</w>":7054,"oling</w>":7055,"fil</w>":7056,"fiable</w>":7057,"fields</w>":7058,"ansa</w>":7059,"output</w>":7060,"serves</w>":7061,"ware":7062,"formul":7063,"forgiveness</w>":7064,"monthly</w>":7065,"afore":7066,"recall</w>":7067,"july</w>":7068,"elected</w>":7069,"stein</w>":7070,"grant</w>":7071,"grants</w>":7072,"grounds</w>":7073,"lined</w>":7074,"gee</w>":7075,"gement</w>":7076,"getop":7077,"marketing</w>":7078,"tenancy</w>":7079,"compa":7080,"compound</w>":7081,"firm</w>":7082,"firms</w>":7083,"nato</w>":7084,"nationally</w>":7085,"navig":7086,"year":7087,"became</w>":7088,"phr":7089,"phi</w>":7090,"phases</w>":7091,"prone</w>":7092,"princess</w>":7093,"sensible</w>":7094,"interior</w>":7095,"breaks</w>":7096,"milder</w>":7097,"located</w>":7098,"sind</w>":7099,"generate</w>":7100,"socially</w>":7101,"idal</w>":7102,"idity</w>":7103,"unicode</w>":7104,"clearer</w>":7105,"studied</w>":7106,"disinfected</w>":7107,"disabilities</w>":7108,"pride</w>":7109,"bia</w>":7110,"biased</w>":7111,"bidities</w>":7112,"fom":7113,"foot</w>":7114,"icians</w>":7115,"exams</w>":7116,"panca":7117,"stool</w>":7118,"descent</w>":7119,"desired</w>":7120,"obama</w>":7121,"cdna</w>":7122,"illing</w>":7123,"illance</w>":7124,"helped</w>":7125,"penn</w>":7126,"turkish</w>":7127,"wasting</w>":7128,"plicative</w>":7129,"seeable</w>":7130,"fically</w>":7131,"orial</w>":7132,"measure":7133,"trusts</w>":7134,"trudeau</w>":7135,"probabilities</w>":7136,"imming</w>":7137,"consists</w>":7138,"shoc":7139,"tried</w>":7140,"antivirals</w>":7141,"pointing</w>":7142,"engage</w>":7143,"engaging</w>":7144,"develops</w>":7145,"substances</w>":7146,"gave</w>":7147,"passage</w>":7148,"distingu":7149,"houston</w>":7150,"mats</w>":7151,"matches</w>":7152,"matern":7153,"popular</w>":7154,"suppres":7155,"supplement</w>":7156,"starts</w>":7157,"emerge</w>":7158,"accord":7159,"cardi":7160,"carlo</w>":7161,"sourced</w>":7162,"decades</w>":7163,"invo":7164,"inven":7165,"anymore</w>":7166,"therape":7167,"conditioned</w>":7168,"touri":7169,"officially</w>":7170,"overcome</w>":7171,"decides</w>":7172,"camels</w>":7173,"controller</w>":7174,"credible</w>":7175,"variations</w>":7176,"variability</w>":7177,"hard":7178,"happy</w>":7179,"profile</w>":7180,"assumes</w>":7181,"docs</w>":7182,"doctrine</w>":7183,"politico</w>":7184,"october</w>":7185,"business":7186,"1975</w>":7187,"ilize</w>":7188,"contractor</w>":7189,"universal</w>":7190,"choo":7191,"nio":7192,"nie</w>":7193,"planet</w>":7194,"suspen":7195,"recommending</w>":7196,"warmest</w>":7197,"brought</w>":7198,"defines</w>":7199,"definite</w>":7200,"confirming</w>":7201,"biosafety</w>":7202,"plain</w>":7203,"brow":7204,"travelled</w>":7205,"born</w>":7206,"boris</w>":7207,"appealing</w>":7208,"predictive</w>":7209,"detergent</w>":7210,"interestingly</w>":7211,"residu":7212,"jective</w>":7213,"lasts</w>":7214,"contagi":7215,"bah":7216,"bayes":7217,"halt</w>":7218,"land":7219,"fulfil</w>":7220,"organizers</w>":7221,"labour</w>":7222,"labels</w>":7223,"intend</w>":7224,"kibb":7225,"usd</w>":7226,"registration</w>":7227,"edu</w>":7228,"edit":7229,"describes</w>":7230,"shape</w>":7231,"handles</w>":7232,"10th</w>":7233,"1016</w>":7234,"exceptional</w>":7235,"sky":7236,"ski</w>":7237,"skill</w>":7238,"skilled</w>":7239,"speed</w>":7240,"speech</w>":7241,"cultural</w>":7242,"pneumo":7243,"websites</w>":7244,"manufacture</w>":7245,"empirical</w>":7246,"nonprofits</w>":7247,"referred</w>":7248,"streets</w>":7249,"definitions</w>":7250,"defence</w>":7251,"midnight</w>":7252,"observe</w>":7253,"observing</w>":7254,"logic</w>":7255,"negatively</w>":7256,"chapter</w>":7257,"pacific</w>":7258,"consulates</w>":7259,"143":7260,"oughed</w>":7261,"mmatory</w>":7262,"argues</w>":7263,"argued</w>":7264,"woman</w>":7265,"indication</w>":7266,"surviv":7267,"survived</w>":7268,"survival</w>":7269,"synthesis</w>":7270,"lenses</w>":7271,"believ":7272,"missing</w>":7273,"detection</w>":7274,"trace</w>":7275,"tracking</w>":7276,"exercises</w>":7277,"formally</w>":7278,"hospitalizations</w>":7279,"framework</w>":7280,"ballot</w>":7281,"ballots</w>":7282,"nested</w>":7283,"agreements</w>":7284,"damages</w>":7285,"damaged</w>":7286,"pathogenic</w>":7287,"pathogenicity</w>":7288,"faire</w>":7289,"reserve</w>":7290,"delayed</w>":7291,"australian</w>":7292,"encouraging</w>":7293,"properties</w>":7294,"505</w>":7295,"888</w>":7296,"addressed</w>":7297,"activate</w>":7298,"activated</w>":7299,"advantage</w>":7300,"patr":7301,"packages</w>":7302,"moderna</w>":7303,"continuously</w>":7304,"swimming</w>":7305,"records</w>":7306,"justify</w>":7307,"justified</w>":7308,"pharyn":7309,"disruptions</w>":7310,"thirds</w>":7311,"attacks</w>":7312,"connections</w>":7313,"provinces</w>":7314,"nucleoti":7315,"crucial</w>":7316,"instructed</w>":7317,"converted</w>":7318,"nationwide</w>":7319,"contamination</w>":7320,"mechanical</w>":7321,"mechanisms</w>":7322,"mckibb":7323,"zerland</w>":7324,"simulations</w>":7325,"exclusive</w>":7326,"decreases</w>":7327,"technically</w>":7328,"destinations</w>":7329,"john</w>":7330,"exemptions</w>":7331,"sheets</w>":7332,"interpret</w>":7333,"investors</w>":7334,"career</w>":7335,"carefully</w>":7336,"pictures</w>":7337,"prison</w>":7338,"wild":7339,"surveillance</w>":7340,"earliest</w>":7341,"strengthening</w>":7342,"flood</w>":7343,"telephone</w>":7344,"television</w>":7345,"2744</w>":7346,"italians</w>":7347,"sigpr</w>":7348,"prohibit</w>":7349,"camping</w>":7350,"electron</w>":7351,"obligation</w>":7352,"introducing</w>":7353,"glasses</w>":7354,"lessons</w>":7355,"conventional</w>":7356,"automatically</w>":7357,"experiments</w>":7358,"experimentation</w>":7359,"calculator</w>":7360,"cbp</w>":7361,"lacking</w>":7362,"narrow</w>":7363,"evolutionary</w>":7364,"compens":7365,"statistical</w>":7366,"objections</w>":7367,"characterized</w>":7368,"characteristic</w>":7369,"afford</w>":7370,"honor</w>":7371,"rhinoviruses</w>":7372,"russian</w>":7373,"radiation</w>":7374,"evolve</w>":7375,"waived</w>":7376,"analyze</w>":7377,"technologies</w>":7378,"reservoirs</w>":7379,"successfully</w>":7380,"amazon</w>":7381,"odd</w>":7382,"switzerland</w>":7383,"insider</w>":7384,"achieved</w>":7385,"inflammatory</w>":7386,"newspapers</w>":7387,"myself</w>":7388,"inactivated</w>":7389,"representative</w>":7390,"constructed</w>":7391,"interventions</w>":7392,"criticism</w>":7393,"11th</w>":7394,"theoretically</w>":7395,"metres</w>":7396,"evacuate</w>":7397,"focusing</w>":7398,"therapies</w>":7399,"physicians</w>":7400,"griffin</w>":7401,"sunday</w>":7402,"sleep</w>":7403,"wonder</w>":7404,"regim":7405,"debate</w>":7406,"propy":7407,"mitig":7408,"corresponding</w>":7409,"expanding</w>":7410,"disinfectant</w>":7411,"background</w>":7412,"electroly":7413,"electrostatic</w>":7414,"circulation</w>":7415,"nonimmigrants</w>":7416,"zoonoses</w>":7417,"4515</w>":7418,"flavi":7419,"photo</w>":7420,"photo":7421,"skeptical</w>":7422,"tasmania</w>":7423,"wang</w>":7424,"envelope</w>":7425,"ashing</w>":7426,"device</w>":7427,"devices</w>":7428,"emphasis</w>":7429,"calibr":7430,"fruit</w>":7431,"munich</w>":7432,"vectors</w>":7433,"zeera</w>":7434,"inhaled</w>":7435,"remaining</w>":7436,"arrangements</w>":7437,"sudden</w>":7438,"optimsstart</w>":7439,"allergies</w>":7440,"distinct</w>":7441,"sciences</w>":7442,"furloughed</w>":7443,"capital</w>":7444,"disappe":7445,"breastfeeding</w>":7446,"fleet</w>":7447,"frank":7448,"industry</w>":7449,"notably</w>":7450,"solid</w>":7451,"mistakes</w>":7452,"negligence</w>":7453,"jazeera</w>":7454,"kidney</w>":7455,"replacing</w>":7456,"destruction</w>":7457,"expressed</w>":7458,"verify</w>":7459,"agriculture</w>":7460,"relationship</w>":7461,"struggling</w>":7462,"techniques</w>":7463,"assemble</w>":7464,"demonstrate</w>":7465,"archives</w>":7466,"stroke</w>":7467,"platforms</w>":7468,"theaters</w>":7469,"derivative</w>":7470,"valuable</w>":7471,"collapse</w>":7472,"specimen</w>":7473,"attributed</w>":7474,"eidl</w>":7475,"mhv</w>":7476,"paul</w>":7477,"yellow</w>":7478,"accommo":7479,"proximity</w>":7480,"genomes</w>":7481,"cleaned</w>":7482,"hypertension</w>":7483,"influenced</w>":7484,"shifts</w>":7485,"speculation</w>":7486,"1287</w>":7487,"badly</w>":7488,"blanket</w>":7489,"mount</w>":7490,"retailers</w>":7491,"degraded</w>":7492,"wellbeing</w>":7493,"hepatitis</w>":7494,"comorbidities</w>":7495,"rationale</w>":7496,"israel</w>":7497,"fatigue</w>":7498,"intestinal</w>":7499,"attenuated</w>":7500,"circulating</w>":7501,"stockpile</w>":7502,"dynamics</w>":7503,"lombardy</w>":7504,"229e</w>":7505,"blowing</w>":7506,"saliva</w>":7507,"thursday</w>":7508,"thailand</w>":7509,"induced</w>":7510,"antenatal</w>":7511,"arabia</w>":7512,"tedros</w>":7513,"acceler":7514,"illinois</w>":7515,"escape</w>":7516,"lopinavir</w>":7517,"concrete</w>":7518,"beijing</w>":7519,"laissez</w>":7520,"feedback</w>":7521,"lufthansa</w>":7522,"gibbs</w>":7523,"aforementioned</w>":7524,"getoptim</w>":7525,"navigator</w>":7526,"maternity</w>":7527,"therapeu":7528,"bayesian</w>":7529,"mckibbin</w>":7530,"06</w>":7531,"0m</w>":7532,"120</w>":7533,"21":7534,"31":7535,"34</w>":7536,"320</w>":7537,"302</w>":7538,"3001</w>":7539,"42</w>":7540,"52</w>":7541,"5000</w>":7542,"539</w>":7543,"68</w>":7544,"69</w>":7545,"600</w>":7546,"73":7547,"77</w>":7548,"78</w>":7549,"86":7550,"87":7551,"89</w>":7552,"94":7553,"93</w>":7554,"969":7555,"ay":7556,"az":7557,"ah</w>":7558,"au</w>":7559,"aids</w>":7560,"atives</w>":7561,"amid</w>":7562,"aaa</w>":7563,"bf":7564,"bn":7565,"by":7566,"bd</w>":7567,"bn</w>":7568,"bate</w>":7569,"bour":7570,"bilities</w>":7571,"b26":7572,"bquote</w>":7573,"cents</w>":7574,"cans":7575,"dor":7576,"dness</w>":7577,"dend</w>":7578,"dently</w>":7579,"dged</w>":7580,"ee":7581,"ere":7582,"eded</w>":7583,"emails</w>":7584,"euro</w>":7585,"fate</w>":7586,"four":7587,"flow":7588,"gment</w>":7589,"gastro":7590,"gaps</w>":7591,"gb26":7592,"hvi":7593,"hes":7594,"hate</w>":7595,"hance</w>":7596,"hall":7597,"ito</w>":7598,"ion":7599,"ion</w>":7600,"isa":7601,"itive</w>":7602,"ious</w>":7603,"isture</w>":7604,"jay</w>":7605,"kr</w>":7606,"ker":7607,"kage</w>":7608,"krup":7609,"lf</w>":7610,"lle</w>":7611,"lance</w>":7612,"lty</w>":7613,"lpr":7614,"lici":7615,"lant":7616,"mi</w>":7617,"mo</w>":7618,"mou":7619,"mess</w>":7620,"ming":7621,"mlun":7622,"mbox</w>":7623,"morgan</w>":7624,"nt</w>":7625,"ni</w>":7626,"ngt":7627,"oes</w>":7628,"oli":7629,"osc":7630,"omission</w>":7631,"oven</w>":7632,"omitted</w>":7633,"oils</w>":7634,"py":7635,"ptions</w>":7636,"pone</w>":7637,"pical</w>":7638,"pta</w>":7639,"pmc":7640,"praise</w>":7641,"p0m</w>":7642,"ri</w>":7643,"ro</w>":7644,"ral</w>":7645,"rad":7646,"ram":7647,"raci":7648,"rbd</w>":7649,"sf":7650,"sin</w>":7651,"san</w>":7652,"scan</w>":7653,"sals</w>":7654,"swee":7655,"slower</w>":7656,"sorts</w>":7657,"slight</w>":7658,"tc</w>":7659,"tw</w>":7660,"tac":7661,"tat":7662,"tted</w>":7663,"tter</w>":7664,"tari":7665,"tons</w>":7666,"tably</w>":7667,"ured</w>":7668,"ubi":7669,"uters</w>":7670,"v2</w>":7671,"von</w>":7672,"van</w>":7673,"vage</w>":7674,"wp</w>":7675,"wns</w>":7676,"wrap":7677,"wering</w>":7678,"xico</w>":7679,"ya</w>":7680,"yo</w>":7681,"yard</w>":7682,"yale</w>":7683,"ylim</w>":7684,"zx":7685,"zi</w>":7686,"thy":7687,"that":7688,"inno":7689,"inen</w>":7690,"insu":7691,"insp":7692,"inhe":7693,"inter</w>":7694,"iness</w>":7695,"inated</w>":7696,"inanim":7697,"inability</w>":7698,"incoming</w>":7699,"insufficient</w>":7700,"inadmissi":7701,"ane</w>":7702,"ances</w>":7703,"antim":7704,"anship</w>":7705,"angd":7706,"reci":7707,"relu":7708,"resur":7709,"react</w>":7710,"reopen</w>":7711,"reproduce</w>":7712,"reaching</w>":7713,"relating</w>":7714,"recombination</w>":7715,"reproductive</w>":7716,"represents</w>":7717,"reposit":7718,"rebate</w>":7719,"reuters</w>":7720,"tition</w>":7721,"tise</w>":7722,"tiredness</w>":7723,"cole</w>":7724,"coef</w>":7725,"cocc":7726,"covariance</w>":7727,"coeffici":7728,"cooperation</w>":7729,"aru</w>":7730,"arms</w>":7731,"arrange</w>":7732,"arrest</w>":7733,"entr":7734,"endo":7735,"endemic</w>":7736,"enni":7737,"endly</w>":7738,"entary</w>":7739,"enhance</w>":7740,"outri":7741,"tee":7742,"tell":7743,"teach":7744,"tedly</w>":7745,"aler":7746,"aland</w>":7747,"allo":7748,"albe":7749,"along":7750,"orf":7751,"orr":7752,"orted</w>":7753,"orleans</w>":7754,"vid</w>":7755,"vin</w>":7756,"vict":7757,"rolling</w>":7758,"roman</w>":7759,"itation</w>":7760,"asks</w>":7761,"asser":7762,"assign":7763,"acking</w>":7764,"ache</w>":7765,"acet":7766,"acknowle":7767,"accompani":7768,"stan</w>":7769,"stently</w>":7770,"stories</w>":7771,"nove":7772,"nored</w>":7773,"ective</w>":7774,"atlant":7775,"ila</w>":7776,"wholes":7777,"div</w>":7778,"dians</w>":7779,"diure":7780,"hamp":7781,"hable</w>":7782,"habit</w>":7783,"estim":7784,"plu":7785,"plate</w>":7786,"plum":7787,"ruled</w>":7788,"rural</w>":7789,"sido":7790,"sides</w>":7791,"sigest</w>":7792,"und</w>":7793,"unit</w>":7794,"unavailable</w>":7795,"unlimited</w>":7796,"unapproved</w>":7797,"unknow":7798,"unnecessarily</w>":7799,"unusual</w>":7800,"unrealistic</w>":7801,"unpredictable</w>":7802,"lig":7803,"lid</w>":7804,"live":7805,"liam</w>":7806,"lized</w>":7807,"litis</w>":7808,"lifer":7809,"sues</w>":7810,"sued</w>":7811,"set":7812,"sex</w>":7813,"sees</w>":7814,"seat</w>":7815,"sement</w>":7816,"seem":7817,"sealed</w>":7818,"seinen</w>":7819,"lod</w>":7820,"los</w>":7821,"loses</w>":7822,"depor":7823,"consci":7824,"consequence</w>":7825,"tro</w>":7826,"trad":7827,"trap":7828,"thetical</w>":7829,"max</w>":7830,"hoc</w>":7831,"proof":7832,"prolon":7833,"projec":7834,"prophy":7835,"prosecu":7836,"prolifer":7837,"spra":7838,"uri</w>":7839,"urine</w>":7840,"posing</w>":7841,"metal</w>":7842,"mexico</w>":7843,"bey</w>":7844,"bears</w>":7845,"belon":7846,"chin</w>":7847,"chan</w>":7848,"chats</w>":7849,"sole":7850,"sode</w>":7851,"soapy</w>":7852,"tioning</w>":7853,"exit</w>":7854,"lay</w>":7855,"lag</w>":7856,"lax</w>":7857,"launder</w>":7858,"leu":7859,"ley</w>":7860,"lease</w>":7861,"burea":7862,"nego":7863,"nepal</w>":7864,"veran":7865,"infr":7866,"inflation</w>":7867,"advo":7868,"admitted</w>":7869,"adopt</w>":7870,"adoles":7871,"tamin":7872,"tains</w>":7873,"sake</w>":7874,"safest</w>":7875,"ffp2</w>":7876,"pew</w>":7877,"quet":7878,"weal":7879,"weap":7880,"weare":7881,"shar":7882,"shir":7883,"shed":7884,"shale</w>":7885,"irresponsible</w>":7886,"doses</w>":7887,"dows</w>":7888,"domain</w>":7889,"mole</w>":7890,"modest</w>":7891,"moisture</w>":7892,"apple</w>":7893,"hel</w>":7894,"heating</w>":7895,"hedge</w>":7896,"percarbonate</w>":7897,"perlman</w>":7898,"preexisting</w>":7899,"age":7900,"towe":7901,"auto</w>":7902,"aming</w>":7903,"ambul":7904,"commu":7905,"people":7906,"gold</w>":7907,"gosti":7908,"cipl":7909,"cisc":7910,"worn</w>":7911,"worth":7912,"worsen</w>":7913,"coronaviru":7914,"dust</w>":7915,"fell</w>":7916,"felt</w>":7917,"feline</w>":7918,"terr":7919,"renko</w>":7920,"205</w>":7921,"2012</w>":7922,"imf</w>":7923,"ticity</w>":7924,"pap</w>":7925,"pated</w>":7926,"boon</w>":7927,"bott":7928,"body":7929,"boston</w>":7930,"ssions</w>":7931,"ounding</w>":7932,"surge":7933,"gic</w>":7934,"gible</w>":7935,"gitis</w>":7936,"gieva</w>":7937,"rai":7938,"raid</w>":7939,"rais":7940,"raising</w>":7941,"raab</w>":7942,"counc":7943,"entives</w>":7944,"ingness</w>":7945,"ingestion</w>":7946,"contents</w>":7947,"contacting</w>":7948,"scru":7949,"scare</w>":7950,"incur":7951,"incentives</w>":7952,"gut</w>":7953,"gular</w>":7954,"gupta</w>":7955,"guangd":7956,"day":7957,"commerce</w>":7958,"riski":7959,"fif":7960,"answering</w>":7961,"tude</w>":7962,"thold</w>":7963,"strand</w>":7964,"stract</w>":7965,"waves</w>":7966,"ophen</w>":7967,"forth</w>":7968,"formation</w>":7969,"forgiven</w>":7970,"monte</w>":7971,"afraid</w>":7972,"rectan":7973,"istically</w>":7974,"elas":7975,"elli":7976,"stem</w>":7977,"publici":7978,"fini":7979,"finds</w>":7980,"lowering</w>":7981,"marri":7982,"tening</w>":7983,"tention</w>":7984,"tenant</w>":7985,"comprises</w>":7986,"firstly</w>":7987,"protest</w>":7988,"phd</w>":7989,"ppv</w>":7990,"align":7991,"alize</w>":7992,"alized</w>":7993,"alization</w>":7994,"alizing</w>":7995,"likewise</w>":7996,"selected</w>":7997,"pran":7998,"pron":7999,"senior</w>":8000,"transferred</w>":8001,"intervals</w>":8002,"funded</w>":8003,"stantly</w>":8004,"break":8005,"breaking</w>":8006,"mildly</w>":8007,"reads</w>":8008,"reader</w>":8009,"airs</w>":8010,"impre":8011,"imper":8012,"expire</w>":8013,"expands</w>":8014,"generating</w>":8015,"humoral</w>":8016,"cleared</w>":8017,"dismis":8018,"dissemin":8019,"discipl":8020,"priority</w>":8021,"plots</w>":8022,"plotting</w>":8023,"respondents</w>":8024,"iciently</w>":8025,"drow":8026,"drops</w>":8027,"flat</w>":8028,"flour</w>":8029,"examined</w>":8030,"panicked</w>":8031,"desire</w>":8032,"cdc":8033,"need":8034,"specified</w>":8035,"contradic":8036,"fam</w>":8037,"fake</w>":8038,"fares</w>":8039,"faqs</w>":8040,"relates</w>":8041,"relapse</w>":8042,"helping</w>":8043,"pigs</w>":8044,"turkey</w>":8045,"plicit</w>":8046,"hosphate</w>":8047,"measured</w>":8048,"questioned</w>":8049,"modeling</w>":8050,"considers</w>":8051,"consistently</w>":8052,"strictly</w>":8053,"shock</w>":8054,"triage</w>":8055,"gaz":8056,"gative</w>":8057,"positions</w>":8058,"positives</w>":8059,"searching</w>":8060,"systematic</w>":8061,"tylen":8062,"grease</w>":8063,"loose</w>":8064,"mature</w>":8065,"suppress</w>":8066,"supplemen":8067,"supplied</w>":8068,"critically</w>":8069,"logically</w>":8070,"emerges</w>":8071,"declines</w>":8072,"sman</w>":8073,"smith</w>":8074,"producing</w>":8075,"anyways</w>":8076,"anime</w>":8077,"banning</w>":8078,"bankrup":8079,"votes</w>":8080,"voided</w>":8081,"sammlun":8082,"straight</w>":8083,"tized</w>":8084,"signing</w>":8085,"signature</w>":8086,"episode</w>":8087,"gged</w>":8088,"grown</w>":8089,"issuing</w>":8090,"issuance</w>":8091,"furin</w>":8092,"mainstream</w>":8093,"cake</w>":8094,"viewing</w>":8095,"viewed</w>":8096,"controls</w>":8097,"varied</w>":8098,"hybri":8099,"check":8100,"processed</w>":8101,"pursue</w>":8102,"harsh</w>":8103,"join</w>":8104,"denying</w>":8105,"dentally</w>":8106,"texts</w>":8107,"politically</w>":8108,"191</w>":8109,"1999</w>":8110,"1960":8111,"contractors</w>":8112,"choices</w>":8113,"expertise</w>":8114,"increments</w>":8115,"suspici":8116,"electric</w>":8117,"warn</w>":8118,"warnings</w>":8119,"brings</w>":8120,"shipping</w>":8121,"shipped</w>":8122,"chart</w>":8123,"coughed</w>":8124,"clues</w>":8125,"clubs</w>":8126,"files</w>":8127,"filers</w>":8128,"filtering</w>":8129,"venia</w>":8130,"bioinforma":8131,"singing</w>":8132,"statnews</w>":8133,"played</w>":8134,"concerning</w>":8135,"functional</w>":8136,"equations</w>":8137,"brown</w>":8138,"scientifically</w>":8139,"hubs</w>":8140,"predicting</w>":8141,"seriousness</w>":8142,"bind</w>":8143,"color":8144,"color</w>":8145,"colour</w>":8146,"ignored</w>":8147,"resistant</w>":8148,"residential</w>":8149,"minimi":8150,"jection</w>":8151,"tropical</w>":8152,"supported</w>":8153,"tiser</w>":8154,"tissues</w>":8155,"fridge</w>":8156,"friendly</w>":8157,"infectivity</w>":8158,"experiment</w>":8159,"attending</w>":8160,"begins</w>":8161,"eurozone</w>":8162,"kistan</w>":8163,"user</w>":8164,"operations</w>":8165,"associate</w>":8166,"edt</w>":8167,"sufficiently</w>":8168,"shape":8169,"shake</w>":8170,"gardens</w>":8171,"publicly</w>":8172,"reliably</w>":8173,"berg</w>":8174,"cultures</w>":8175,"ignoring</w>":8176,"differenti":8177,"alcohols</w>":8178,"multiplicative</w>":8179,"define</w>":8180,"defend":8181,"drying</w>":8182,"drastic</w>":8183,"coverings</w>":8184,"foreseeable</w>":8185,"chains</w>":8186,"chaos</w>":8187,"sanjay</w>":8188,"consult</w>":8189,"consumers</w>":8190,"leads</w>":8191,"149</w>":8192,"144</w>":8193,"practically</w>":8194,"environments</w>":8195,"arguably</w>":8196,"brief</w>":8197,"crash</w>":8198,"grave</w>":8199,"indications</w>":8200,"indicating</w>":8201,"institutes</w>":8202,"erral</w>":8203,"explaining</w>":8204,"survives</w>":8205,"bleaching</w>":8206,"lengths</w>":8207,"nuclear</w>":8208,"belief</w>":8209,"incial</w>":8210,"incidence</w>":8211,"incidents</w>":8212,"tracker</w>":8213,"balan":8214,"ballo":8215,"immigrants</w>":8216,"stimulate</w>":8217,"grades</w>":8218,"lord</w>":8219,"delivered</w>":8220,"investigative</w>":8221,"conclude</w>":8222,"conclusive</w>":8223,"claiming</w>":8224,"wales</w>":8225,"shutdown</w>":8226,"expense</w>":8227,"sanitiser</w>":8228,"endan":8229,"acetamin":8230,"disposed</w>":8231,"qualifying</w>":8232,"improves</w>":8233,"improved</w>":8234,"activation</w>":8235,"advances</w>":8236,"advantages</w>":8237,"donor</w>":8238,"water":8239,"sirmc</w>":8240,"conducting</w>":8241,"herpes":8242,"nership</w>":8243,"owned</w>":8244,"notification</w>":8245,"171</w>":8246,"cyto":8247,"swab":8248,"swine</w>":8249,"bolson":8250,"considerations</w>":8251,"investing</w>":8252,"recorded</w>":8253,"justifiable</w>":8254,"computers</w>":8255,"computations</w>":8256,"pharmacy</w>":8257,"crowds</w>":8258,"attached</w>":8259,"provincial</w>":8260,"introduce</w>":8261,"conversation</w>":8262,"convergence</w>":8263,"missions</w>":8264,"quotes</w>":8265,"territorial</w>":8266,"implementing</w>":8267,"opinions</w>":8268,"advisories</w>":8269,"cler":8270,"square</w>":8271,"winter</w>":8272,"window</w>":8273,"windows</w>":8274,"thesized</w>":8275,"excluding</w>":8276,"excluded</w>":8277,"feelings</w>":8278,"designing</w>":8279,"designation</w>":8280,"sanitizing</w>":8281,"danger</w>":8282,"pooling</w>":8283,"comparable</w>":8284,"principles</w>":8285,"principal</w>":8286,"155</w>":8287,"nashvi":8288,"varphi</w>":8289,"strike</w>":8290,"attempting</w>":8291,"adapt</w>":8292,"interpreted</w>":8293,"overwhelm</w>":8294,"overwhelmingly</w>":8295,"careful</w>":8296,"greatest</w>":8297,"iconpdf</w>":8298,"machiner":8299,"picking</w>":8300,"picked</w>":8301,"presume</w>":8302,"surveys</w>":8303,"strengthen</w>":8304,"ratings</w>":8305,"refusing</w>":8306,"refusal</w>":8307,"extraction</w>":8308,"combined</w>":8309,"tradition</w>":8310,"vaccinations</w>":8311,"mortgages</w>":8312,"neighbour":8313,"splashing</w>":8314,"diversi":8315,"sigma</w>":8316,"prohibi":8317,"prohibited</w>":8318,"neuro":8319,"adjust":8320,"headed</w>":8321,"toilets</w>":8322,"antibiotic</w>":8323,"electrical</w>":8324,"introduction</w>":8325,"alternatively</w>":8326,"ricane</w>":8327,"willingness</w>":8328,"approximation</w>":8329,"hypothetical</w>":8330,"calculating</w>":8331,"immunology</w>":8332,"sticated</w>":8333,"homeland</w>":8334,"homemade</w>":8335,"precise</w>":8336,"evaluated</w>":8337,"affairs</w>":8338,"honour</w>":8339,"retired</w>":8340,"reflect</w>":8341,"rooting</w>":8342,"acquire</w>":8343,"analyses</w>":8344,"switch</w>":8345,"replicating</w>":8346,"liquidity</w>":8347,"departed</w>":8348,"manipu":8349,"973</w>":8350,"axle</w>":8351,"falling</w>":8352,"fallout</w>":8353,"myth</w>":8354,"ssors</w>":8355,"inactivate</w>":8356,"represented</w>":8357,"dividend</w>":8358,"lifted</w>":8359,"particip":8360,"outlining</w>":8361,"outlined</w>":8362,"primaries</w>":8363,"criticized</w>":8364,"discussion</w>":8365,"discussions</w>":8366,"discusses</w>":8367,"rnase</w>":8368,"rnases</w>":8369,"adenovirus</w>":8370,"welcome</w>":8371,"appointments</w>":8372,"farms</w>":8373,"sunlight</w>":8374,"wondering</w>":8375,"yuki</w>":8376,"yusha</w>":8377,"debts</w>":8378,"quantile</w>":8379,"comfort</w>":8380,"serological</w>":8381,"serotypes</w>":8382,"expanded</w>":8383,"recoveries</w>":8384,"circulates</w>":8385,"graduate</w>":8386,"braz":8387,"nurses</w>":8388,"routing</w>":8389,"skewed</w>":8390,"taste</w>":8391,"utc</w>":8392,"utility</w>":8393,"enveloped</w>":8394,"diarrhoea</w>":8395,"excess</w>":8396,"excuse</w>":8397,"mixture</w>":8398,"afterwards</w>":8399,"withdrawn</w>":8400,"specialists</w>":8401,"fundamentally</w>":8402,"608":8403,"85pt</w>":8404,"jobless</w>":8405,"zealand</w>":8406,"inhalation</w>":8407,"dataset</w>":8408,"canadians</w>":8409,"distinction</w>":8410,"capita</w>":8411,"borrower</w>":8412,"borrowers</w>":8413,"efficiently</w>":8414,"batch</w>":8415,"battle</w>":8416,"francisc":8417,"phac</w>":8418,"sickest</w>":8419,"cooking</w>":8420,"mistake</w>":8421,"dozens</w>":8422,"historically</w>":8423,"component</w>":8424,"anticipated</w>":8425,"consultation</w>":8426,"academy</w>":8427,"meaningless</w>":8428,"meaningful</w>":8429,"crystal</w>":8430,"1101</w>":8431,"337</w>":8432,"creative</w>":8433,"kidneys</w>":8434,"smarter</w>":8435,"woul":8436,"would":8437,"violation</w>":8438,"destructive</w>":8439,"agricultural</w>":8440,"partisan</w>":8441,"partisanship</w>":8442,"georgieva</w>":8443,"expectations</w>":8444,"relationships</w>":8445,"technique</w>":8446,"collaboration</w>":8447,"assembly</w>":8448,"repatriation</w>":8449,"59pm</w>":8450,"gtngt":8451,"hrv</w>":8452,"southern</w>":8453,"smell</w>":8454,"vacation</w>":8455,"repo</w>":8456,"enhanced</w>":8457,"ormal</w>":8458,"illustra":8459,"deduction</w>":8460,"licensed</w>":8461,"columbia</w>":8462,"literally</w>":8463,"literature</w>":8464,"graphy</w>":8465,"establishment</w>":8466,"manifestations</w>":8467,"occasionally</w>":8468,"algorithm</w>":8469,"macroeconomic</w>":8470,"pitch</w>":8471,"independently</w>":8472,"injury</w>":8473,"accidents</w>":8474,"succeeded</w>":8475,"proposal</w>":8476,"meltdown</w>":8477,"movie</w>":8478,"mosquito</w>":8479,"surprise</w>":8480,"respectively</w>":8481,"enzymes</w>":8482,"catastroph":8483,"extinction</w>":8484,"taneously</w>":8485,"bacteriophage</w>":8486,"guaranteed</w>":8487,"anesthesia</w>":8488,"bila":8489,"britain</w>":8490,"fingers</w>":8491,"hurricane</w>":8492,"ryan</w>":8493,"slovenia</w>":8494,"writes</w>":8495,"mathsf</w>":8496,"sputum</w>":8497,"sophisticated</w>":8498,"weigh</w>":8499,"doorknobs</w>":8500,"modinfected</w>":8501,"tokyo</w>":8502,"female</w>":8503,"stigma</w>":8504,"discourage</w>":8505,"foothold</w>":8506,"stochastic</w>":8507,"obstetr":8508,"substitute</w>":8509,"suppliers</w>":8510,"invasion</w>":8511,"purifi":8512,"transition</w>":8513,"familiar</w>":8514,"weakened</w>":8515,"dispersion</w>":8516,"phenomenon</w>":8517,"pulmonary</w>":8518,"bags</w>":8519,"citations</w>":8520,"clients</w>":8521,"dashboard</w>":8522,"etiquet":8523,"jamaica</w>":8524,"macaques</w>":8525,"okay</w>":8526,"oxford</w>":8527,"rescue</w>":8528,"arcgis</w>":8529,"robert</w>":8530,"sustained</w>":8531,"dedicated</w>":8532,"magnitude</w>":8533,"mirror</w>":8534,"inferences</w>":8535,"gotten</w>":8536,"govt</w>":8537,"fellow</w>":8538,"cellular</w>":8539,"surrogate</w>":8540,"guilty</w>":8541,"formula</w>":8542,"compatible</w>":8543,"fomite</w>":8544,"pancakes</w>":8545,"distinguish</w>":8546,"accordingly</w>":8547,"cardio":8548,"inventory</w>":8549,"businessinsider</w>":8550,"niosh</w>":8551,"suspension</w>":8552,"bahn</w>":8553,"skype</w>":8554,"pneumococc":8555,"believes</w>":8556,"wildlife</w>":8557,"compensate</w>":8558,"calibration</w>":8559,"azar</w>":8560,"bfgs</w>":8561,"cansino</w>":8562,"fourth</w>":8563,"gb2626</w>":8564,"isaac</w>":8565,"lprs</w>":8566,"ubiqu":8567,"inanimate</w>":8568,"reluct":8569,"repository</w>":8570,"coefficients</w>":8571,"outright</w>":8572,"teachers</w>":8573,"albeit</w>":8574,"alongside</w>":8575,"acetate</w>":8576,"accompanied</w>":8577,"november</w>":8578,"atlanta</w>":8579,"wholesale</w>":8580,"estimating</w>":8581,"sidorenko</w>":8582,"seemingly</w>":8583,"prolonged</w>":8584,"proliferate</w>":8585,"belongs</w>":8586,"solely</w>":8587,"bureau</w>":8588,"negoti":8589,"adolescents</w>":8590,"wearers</w>":8591,"shirt</w>":8592,"shedding</w>":8593,"ambulance</w>":8594,"gostin</w>":8595,"bodyweight</w>":8596,"raisers</w>":8597,"guangdong</w>":8598,"riskier</w>":8599,"rectangular</w>":8600,"tylenol</w>":8601,"supplemental</w>":8602,"sammlungen</w>":8603,"1960s</w>":8604,"bioinformatics</w>":8605,"acetaminophen</w>":8606,"herpesvirus</w>":8607,"bolsonaro</w>":8608,"nashville</w>":8609,"machinery</w>":8610,"francisco</w>":8611,"gtngtkr</w>":8612,"etiquette</w>":8613,"pneumococcal</w>":8614,"08</w>":8615,"018</w>":8616,"025</w>":8617,"036</w>":8618,"099":8619,"119":8620,"180</w>":8621,"129":8622,"127</w>":8623,"117":8624,"1200</w>":8625,"123</w>":8626,"22":8627,"2co":8628,"222</w>":8629,"22nd</w>":8630,"38":8631,"319</w>":8632,"300":8633,"310":8634,"4th</w>":8635,"400":8636,"401</w>":8637,"5th</w>":8638,"5ps</w>":8639,"597":8640,"63":8641,"66</w>":8642,"63</w>":8643,"7b":8644,"79</w>":8645,"705":8646,"999</w>":8647,"975</w>":8648,"9320</w>":8649,"ax</w>":8650,"amo":8651,"awa":8652,"arent</w>":8653,"atively</w>":8654,"aque":8655,"a036</w>":8656,"bc</w>":8657,"bon</w>":8658,"bal</w>":8659,"bic":8660,"blin":8661,"bated</w>":8662,"blast</w>":8663,"bson</w>":8664,"btw</w>":8665,"cf</w>":8666,"cation</w>":8667,"cam":8668,"cge</w>":8669,"cated</w>":8670,"ds":8671,"dt</w>":8672,"dant</w>":8673,"dsec":8674,"dani":8675,"dfr":8676,"dbeta</w>":8677,"dtrump</w>":8678,"dden</w>":8679,"dsight</w>":8680,"e2</w>":8681,"eq</w>":8682,"ebo":8683,"ear</w>":8684,"eable</w>":8685,"ears</w>":8686,"eties</w>":8687,"ebre":8688,"fs</w>":8689,"fat</w>":8690,"fter</w>":8691,"fili":8692,"ficial</w>":8693,"filling</w>":8694,"gn</w>":8695,"gin":8696,"gou":8697,"glu":8698,"gents</w>":8699,"gare":8700,"hr</w>":8701,"hi</w>":8702,"hexam":8703,"ip</w>":8704,"ix</w>":8705,"ited</w>":8706,"ist</w>":8707,"ize</w>":8708,"jenni":8709,"kn</w>":8710,"kes":8711,"kun":8712,"klo":8713,"kle":8714,"kis":8715,"kirin</w>":8716,"la</w>":8717,"lor</w>":8718,"lli":8719,"lest</w>":8720,"lours</w>":8721,"lump</w>":8722,"mal</w>":8723,"mall</w>":8724,"mits</w>":8725,"mnu":8726,"mson":8727,"nl":8728,"np":8729,"nl</w>":8730,"nc</w>":8731,"nm</w>":8732,"nine</w>":8733,"nwa":8734,"npv</w>":8735,"natal</w>":8736,"nsr</w>":8737,"oo</w>":8738,"oso":8739,"osa":8740,"ogh</w>":8741,"oms</w>":8742,"overn":8743,"otic</w>":8744,"overe":8745,"pn":8746,"p3</w>":8747,"pru":8748,"ptive</w>":8749,"ptic</w>":8750,"phic</w>":8751,"phosphate</w>":8752,"rd</w>":8753,"ris</w>":8754,"rac":8755,"rhe":8756,"ray</w>":8757,"rally</w>":8758,"rine</w>":8759,"rating</w>":8760,"ramp</w>":8761,"rics</w>":8762,"rxiv</w>":8763,"rbinom</w>":8764,"race</w>":8765,"rhes":8766,"sg":8767,"sd</w>":8768,"s2</w>":8769,"sas":8770,"sac":8771,"sad":8772,"slu":8773,"sest</w>":8774,"sically</w>":8775,"sni":8776,"sale</w>":8777,"score</w>":8778,"sdashboard</w>":8779,"ts":8780,"tt</w>":8781,"tz</w>":8782,"tate</w>":8783,"ttes</w>":8784,"tus</w>":8785,"tance</w>":8786,"tge":8787,"tml</w>":8788,"toral</w>":8789,"ur</w>":8790,"uine</w>":8791,"uber</w>":8792,"ucle":8793,"utory</w>":8794,"vor":8795,"ves":8796,"vap":8797,"vably</w>":8798,"wre":8799,"wes</w>":8800,"win</w>":8801,"wly</w>":8802,"wad":8803,"wore</w>":8804,"wine</w>":8805,"wary</w>":8806,"wong</w>":8807,"wins</w>":8808,"wire</w>":8809,"xing</w>":8810,"xlim</w>":8811,"yc":8812,"yun":8813,"yen</w>":8814,"yright</w>":8815,"yahu</w>":8816,"ylor</w>":8817,"zu":8818,"zar":8819,"zen</w>":8820,"th2</w>":8821,"thon</w>":8822,"thal":8823,"thes</w>":8824,"thread</w>":8825,"thick</w>":8826,"iny</w>":8827,"intly</w>":8828,"intru":8829,"induce</w>":8830,"ineffective</w>":8831,"incomes</w>":8832,"incorporate</w>":8833,"insically</w>":8834,"ang</w>":8835,"anec":8836,"anting</w>":8837,"angerous</w>":8838,"ances":8839,"res":8840,"ref</w>":8841,"rese":8842,"reim":8843,"rested</w>":8844,"reside</w>":8845,"reject</w>":8846,"reapply</w>":8847,"resolution</w>":8848,"resort</w>":8849,"reward</w>":8850,"reaches</w>":8851,"resolve</w>":8852,"refinance</w>":8853,"repair</w>":8854,"retention</w>":8855,"refunded</w>":8856,"rejection</w>":8857,"tie</w>":8858,"till</w>":8859,"tight</w>":8860,"tiary</w>":8861,"tiful</w>":8862,"tility</w>":8863,"erals</w>":8864,"ership</w>":8865,"col</w>":8866,"colo":8867,"coding</w>":8868,"covery</w>":8869,"cock</w>":8870,"coord":8871,"cooperating</w>":8872,"covs</w>":8873,"cosme":8874,"coefficient</w>":8875,"armed</w>":8876,"arrested</w>":8877,"ena</w>":8878,"enab":8879,"enth</w>":8880,"ence":8881,"encoun":8882,"enem":8883,"ences</w>":8884,"en13":8885,"enorm":8886,"encoded</w>":8887,"enstein</w>":8888,"outer</w>":8889,"ouses</w>":8890,"oured</w>":8891,"tees</w>":8892,"teas":8893,"teur":8894,"tech</w>":8895,"teds</w>":8896,"teur</w>":8897,"ones":8898,"onous</w>":8899,"onics</w>":8900,"ontari":8901,"aly":8902,"alar":8903,"ales</w>":8904,"alloc":8905,"alleg":8906,"altun":8907,"alarial</w>":8908,"orly</w>":8909,"orney</w>":8910,"ordering</w>":8911,"vier</w>":8912,"viate</w>":8913,"vigi":8914,"vitro</w>":8915,"roof</w>":8916,"rome</w>":8917,"rodents</w>":8918,"rogers</w>":8919,"rolled</w>":8920,"robust</w>":8921,"ita</w>":8922,"ital</w>":8923,"itting</w>":8924,"itous</w>":8925,"itoes</w>":8926,"ass</w>":8927,"asi</w>":8928,"assa":8929,"aska</w>":8930,"assign</w>":8931,"acart</w>":8932,"acknowledge</w>":8933,"accounting</w>":8934,"stone</w>":8935,"stating</w>":8936,"stack</w>":8937,"staltun":8938,"noon</w>":8939,"noone</w>":8940,"nomination</w>":8941,"nolo</w>":8942,"ical":8943,"iche":8944,"echo":8945,"echt":8946,"atso":8947,"atern":8948,"ilst</w>":8949,"ilway</w>":8950,"whiche":8951,"whatso":8952,"whilst</w>":8953,"diso":8954,"distric":8955,"dire</w>":8956,"dirt</w>":8957,"district</w>":8958,"dizz":8959,"divor":8960,"haplo":8961,"haemo":8962,"habits</w>":8963,"hagel</w>":8964,"eso":8965,"plin</w>":8966,"pled</w>":8967,"plague</w>":8968,"rum":8969,"rush</w>":8970,"runs</w>":8971,"rubb":8972,"sided</w>":8973,"unil":8974,"unde":8975,"unused</w>":8976,"unpaid</w>":8977,"unexpected</w>":8978,"unlaw":8979,"unintended</w>":8980,"undance</w>":8981,"unstable</w>":8982,"unconstitutional</w>":8983,"unfolding</w>":8984,"uncontrolled</w>":8985,"unauthorized</w>":8986,"unconsci":8987,"list":8988,"listing</w>":8989,"lived</w>":8990,"lights</w>":8991,"likes</w>":8992,"lift</w>":8993,"liability</w>":8994,"liecht":8995,"yoga</w>":8996,"suici":8997,"sustain":8998,"seats</w>":8999,"sewing</w>":9000,"sedly</w>":9001,"seller</w>":9002,"sewage</w>":9003,"segments</w>":9004,"losis</w>":9005,"loops</w>":9006,"lowered</w>":9007,"loidal</w>":9008,"dex</w>":9009,"deal":9010,"dean</w>":9011,"detr":9012,"dehy":9013,"debit</w>":9014,"depression</w>":9015,"deut":9016,"devas":9017,"coni":9018,"conve":9019,"constra":9020,"conferen":9021,"concei":9022,"conjun":9023,"consoli":9024,"tras":9025,"tries</w>":9026,"trash</w>":9027,"theli":9028,"thered</w>":9029,"mailing</w>":9030,"magaz":9031,"hoods</w>":9032,"propan":9033,"projects</w>":9034,"progression</w>":9035,"spa":9036,"sper":9037,"spon":9038,"spur":9039,"sphere</w>":9040,"spdf</w>":9041,"spouses</w>":9042,"abc</w>":9043,"abilize</w>":9044,"abstract</w>":9045,"abundance</w>":9046,"uring</w>":9047,"urging</w>":9048,"pop</w>":9049,"pover":9050,"posting</w>":9051,"pools</w>":9052,"pocket</w>":9053,"poorly</w>":9054,"posedly</w>":9055,"meal</w>":9056,"meets</w>":9057,"behave</w>":9058,"beach</w>":9059,"chun":9060,"chur":9061,"chri":9062,"charities</w>":9063,"soa":9064,"tion1</w>":9065,"rid</w>":9066,"ria</w>":9067,"righ":9068,"ribon":9069,"riot</w>":9070,"excell":9071,"excre":9072,"expose</w>":9073,"extrac":9074,"express</w>":9075,"expedi":9076,"lavirus</w>":9077,"lative</w>":9078,"layer</w>":9079,"lationary</w>":9080,"lavage</w>":9081,"busy</w>":9082,"button</w>":9083,"buyers</w>":9084,"bucket</w>":9085,"mites</w>":9086,"miss</w>":9087,"mixed</w>":9088,"neal</w>":9089,"neten":9090,"nels</w>":9091,"newar":9092,"versa</w>":9093,"vertical</w>":9094,"infer</w>":9095,"infty</w>":9096,"inflate</w>":9097,"inferi":9098,"mpy</w>":9099,"mpas</w>":9100,"mptive</w>":9101,"adhan":9102,"adoption</w>":9103,"sahar":9104,"satell":9105,"sagents</w>":9106,"pel</w>":9107,"petition</w>":9108,"corps</w>":9109,"corner</w>":9110,"corrid":9111,"correlations</w>":9112,"corneal</w>":9113,"quer":9114,"quasi</w>":9115,"quatern":9116,"ghebre":9117,"west":9118,"shan":9119,"shou":9120,"shes</w>":9121,"shat":9122,"shore</w>":9123,"shment</w>":9124,"shire</w>":9125,"shrou":9126,"shrin":9127,"shtml</w>":9128,"frozen</w>":9129,"irable</w>":9130,"doc</w>":9131,"does":9132,"modu":9133,"movements</w>":9134,"app</w>":9135,"appreci":9136,"aphr":9137,"vel":9138,"hear":9139,"perately</w>":9140,"percei":9141,"permit</w>":9142,"preser":9143,"prefer</w>":9144,"preferences</w>":9145,"prefer":9146,"ago":9147,"tops</w>":9148,"tooth":9149,"tomer":9150,"toff</w>":9151,"towns</w>":9152,"aum</w>":9153,"aufen":9154,"infecteds</w>":9155,"among":9156,"combat</w>":9157,"complying</w>":9158,"goals</w>":9159,"cially</w>":9160,"cites</w>":9161,"cidal</w>":9162,"cigare":9163,"worthy</w>":9164,"wordsec":9165,"coronaviri":9166,"duke</w>":9167,"duci":9168,"dums</w>":9169,"fever":9170,"terns</w>":9171,"terminal</w>":9172,"tertiary</w>":9173,"rens</w>":9174,"reness</w>":9175,"renters</w>":9176,"rental</w>":9177,"202</w>":9178,"20200":9179,"20degc</w>":9180,"20440</w>":9181,"umbent</w>":9182,"immin":9183,"improvi":9184,"imental</w>":9185,"imposing</w>":9186,"implicit</w>":9187,"lution</w>":9188,"lucent</w>":9189,"luzon</w>":9190,"paris</w>":9191,"parasi":9192,"partial</w>":9193,"parlours</w>":9194,"path":9195,"pays</w>":9196,"pakistan</w>":9197,"bot</w>":9198,"boss</w>":9199,"boson</w>":9200,"bodily</w>":9201,"cele":9202,"cements</w>":9203,"faced</w>":9204,"ounced</w>":9205,"keholders</w>":9206,"kevin</w>":9207,"keogh</w>":9208,"surround</w>":9209,"surfact":9210,"mutual</w>":9211,"music</w>":9212,"gish</w>":9213,"geneva</w>":9214,"genuine</w>":9215,"rap</w>":9216,"rain</w>":9217,"railway</w>":9218,"hide</w>":9219,"hiking</w>":9220,"histo":9221,"hidden</w>":9222,"sym":9223,"syria</w>":9224,"counties</w>":9225,"counselling</w>":9226,"entities</w>":9227,"contacted</w>":9228,"wiped</w>":9229,"sca":9230,"scary</w>":9231,"scrap":9232,"scared</w>":9233,"scaling</w>":9234,"scram":9235,"scales</w>":9236,"evening</w>":9237,"incap":9238,"inclined</w>":9239,"incumbent</w>":9240,"guy</w>":9241,"guard</w>":9242,"dae</w>":9243,"david</w>":9244,"stimated</w>":9245,"ema</w>":9246,"emas</w>":9247,"embed":9248,"embour":9249,"htm</w>":9250,"commit</w>":9251,"trail</w>":9252,"traine":9253,"rism</w>":9254,"olds</w>":9255,"fidd":9256,"ansi</w>":9257,"outlook</w>":9258,"outdoors</w>":9259,"tuber":9260,"mind":9261,"minds</w>":9262,"minnes":9263,"stray</w>":9264,"ultras":9265,"lla</w>":9266,"opened</w>":9267,"opposition</w>":9268,"oppon":9269,"opaci":9270,"opsdashboard</w>":9271,"fork</w>":9272,"formu":9273,"forbid":9274,"forbid</w>":9275,"monet":9276,"monkey</w>":9277,"differs</w>":9278,"afm</w>":9279,"afai":9280,"accu":9281,"accum":9282,"accessi":9283,"isbn</w>":9284,"juan</w>":9285,"judge</w>":9286,"ellular</w>":9287,"stered</w>":9288,"finkel</w>":9289,"essence</w>":9290,"essors</w>":9291,"essentials</w>":9292,"granting</w>":9293,"geo</w>":9294,"geal</w>":9295,"gear</w>":9296,"geous</w>":9297,"marke":9298,"marks</w>":9299,"marked</w>":9300,"tened</w>":9301,"tently</w>":9302,"tennes":9303,"tensions</w>":9304,"tendency</w>":9305,"stakeholders</w>":9306,"curtail":9307,"nai":9308,"naeco":9309,"namely</w>":9310,"na2co":9311,"phy</w>":9312,"phali":9313,"phones</w>":9314,"medary</w>":9315,"medically</w>":9316,"medrxiv</w>":9317,"canned</w>":9318,"arise</w>":9319,"prof</w>":9320,"prints</w>":9321,"senator</w>":9322,"translations</w>":9323,"translucent</w>":9324,"intercep":9325,"intermit":9326,"interference</w>":9327,"interim</w>":9328,"interacting</w>":9329,"stanford</w>":9330,"mill":9331,"basics</w>":9332,"publish</w>":9333,"timing</w>":9334,"pleas":9335,"reassuring</w>":9336,"hang</w>":9337,"hancock</w>":9338,"airplane</w>":9339,"withstanding</w>":9340,"closes</w>":9341,"closure</w>":9342,"closest</w>":9343,"clothes</w>":9344,"expand</w>":9345,"expects</w>":9346,"expecting</w>":9347,"governance</w>":9348,"governmental</w>":9349,"approves</w>":9350,"generation</w>":9351,"hump</w>":9352,"offen":9353,"union</w>":9354,"cleav":9355,"dish</w>":9356,"discount</w>":9357,"dissolution</w>":9358,"discharged</w>":9359,"displaying</w>":9360,"discharges</w>":9361,"disproportion":9362,"discovery</w>":9363,"responders</w>":9364,"bio</w>":9365,"ofcovid</w>":9366,"channels</w>":9367,"foods</w>":9368,"dromats</w>":9369,"dromedary</w>":9370,"examines</w>":9371,"examination</w>":9372,"pango":9373,"panose</w>":9374,"virgin":9375,"stood</w>":9376,"desk</w>":9377,"desic":9378,"desirable</w>":9379,"desperately</w>":9380,"specify</w>":9381,"reporters</w>":9382,"cue</w>":9383,"cuts</w>":9384,"cular</w>":9385,"culosis</w>":9386,"cutoff</w>":9387,"contrary</w>":9388,"backs</w>":9389,"pig</w>":9390,"pied</w>":9391,"protected</w>":9392,"protects</w>":9393,"wasted</w>":9394,"seeing</w>":9395,"fiction</w>":9396,"ficate</w>":9397,"oric</w>":9398,"oria</w>":9399,"orist</w>":9400,"measles</w>":9401,"trum</w>":9402,"modeled</w>":9403,"modelled</w>":9404,"alling</w>":9405,"alled</w>":9406,"immuni":9407,"shopped</w>":9408,"trigge":9409,"engaged</w>":9410,"undergo</w>":9411,"undermine</w>":9412,"understood</w>":9413,"submission</w>":9414,"subset</w>":9415,"submitted</w>":9416,"subjective</w>":9417,"gap</w>":9418,"gains</w>":9419,"passive</w>":9420,"passages</w>":9421,"thinks</w>":9422,"distur":9423,"distorted</w>":9424,"searched</w>":9425,"employ</w>":9426,"centre":9427,"restrictive</w>":9428,"ranges</w>":9429,"quart</w>":9430,"folded</w>":9431,"greg":9432,"grew</w>":9433,"greece</w>":9434,"indian</w>":9435,"indirec":9436,"loosen":9437,"loosely</w>":9438,"matt</w>":9439,"matched</w>":9440,"author":9441,"suppression</w>":9442,"supposedly</w>":9443,"highlight</w>":9444,"econom":9445,"carthy</w>":9446,"carbon</w>":9447,"regulates</w>":9448,"decade</w>":9449,"invade</w>":9450,"tempting</w>":9451,"median</w>":9452,"mediated</w>":9453,"productivity</w>":9454,"thermo":9455,"isopropy":9456,"isopropan":9457,"taining</w>":9458,"uphold</w>":9459,"upcoming</w>":9460,"upshot</w>":9461,"void</w>":9462,"vomit":9463,"samine</w>":9464,"individually</w>":9465,"signal</w>":9466,"signals</w>":9467,"epitheli":9468,"gering</w>":9469,"scholar":9470,"schooling</w>":9471,"tourism</w>":9472,"memory</w>":9473,"member":9474,"overly</w>":9475,"oversee</w>":9476,"overreacting</w>":9477,"continents</w>":9478,"cared</w>":9479,"catho":9480,"mitche":9481,"view":9482,"seventh</w>":9483,"affecting</w>":9484,"globe</w>":9485,"checking</w>":9486,"evictions</w>":9487,"achment</w>":9488,"processor</w>":9489,"hardly</w>":9490,"harris</w>":9491,"schni":9492,"jose":9493,"jointly</w>":9494,"organs</w>":9495,"spreaders</w>":9496,"micron</w>":9497,"michel</w>":9498,"deno":9499,"deny</w>":9500,"dened</w>":9501,"dense</w>":9502,"dengue</w>":9503,"intelli":9504,"potato":9505,"1922</w>":9506,"1994</w>":9507,"1948</w>":9508,"ilian</w>":9509,"iliation</w>":9510,"healthier</w>":9511,"completing</w>":9512,"chose</w>":9513,"niaid</w>":9514,"plants</w>":9515,"elective</w>":9516,"electoral</w>":9517,"warded</w>":9518,"brace</w>":9519,"fram":9520,"nyu</w>":9521,"throwing</w>":9522,"drum</w>":9523,"long":9524,"charset</w>":9525,"prevented</w>":9526,"caps</w>":9527,"capsu":9528,"capabilities</w>":9529,"distances</w>":9530,"difficulties</w>":9531,"clue</w>":9532,"clusters</w>":9533,"vend":9534,"venture</w>":9535,"biomedical</w>":9536,"biocidal</w>":9537,"statutory</w>":9538,"existence</w>":9539,"functioning</w>":9540,"efs</w>":9541,"sneezed</w>":9542,"extends</w>":9543,"extending</w>":9544,"extensions</w>":9545,"globally</w>":9546,"scientist</w>":9547,"borrow</w>":9548,"serial</w>":9549,"collar</w>":9550,"colloidal</w>":9551,"deteri":9552,"determini":9553,"igg</w>":9554,"ministers</w>":9555,"ministries</w>":9556,"troops</w>":9557,"physics</w>":9558,"contageous</w>":9559,"lantic</w>":9560,"tailored</w>":9561,"resulted</w>":9562,"multi</w>":9563,"organized</w>":9564,"organisations</w>":9565,"safeguar":9566,"koreans</w>":9567,"intense</w>":9568,"usda</w>":9569,"identity</w>":9570,"receipt</w>":9571,"distributing</w>":9572,"distribute</w>":9573,"operates</w>":9574,"register</w>":9575,"initiatives</w>":9576,"edingly</w>":9577,"suffice</w>":9578,"suffere":9579,"descriptive</w>":9580,"shah</w>":9581,"shaw</w>":9582,"shaped</w>":9583,"sterile</w>":9584,"spectrum</w>":9585,"benefici":9586,"analo":9587,"announcements</w>":9588,"youngest</w>":9589,"berlin</w>":9590,"bernie</w>":9591,"cultured</w>":9592,"igns</w>":9593,"ignor":9594,"ignore</w>":9595,"differential</w>":9596,"referral</w>":9597,"collateral</w>":9598,"strep</w>":9599,"stressed</w>":9600,"pollution</w>":9601,"defen":9602,"deflationary</w>":9603,"detailing</w>":9604,"origins</w>":9605,"origination</w>":9606,"dryer</w>":9607,"arrivals</w>":9608,"quickest</w>":9609,"foremost</w>":9610,"chaired</w>":9611,"chaotic</w>":9612,"chaplin</w>":9613,"fatty</w>":9614,"fatalities</w>":9615,"sand":9616,"sanitary</w>":9617,"consume</w>":9618,"consulate</w>":9619,"consuming</w>":9620,"leadership</w>":9621,"143</w>":9622,"14th</w>":9623,"1473</w>":9624,"malarial</w>":9625,"screen":9626,"screens</w>":9627,"driven</w>":9628,"drift</w>":9629,"epic":9630,"arguing</w>":9631,"arguable</w>":9632,"dramatic</w>":9633,"dramatically</w>":9634,"latrine</w>":9635,"hints</w>":9636,"hindsight</w>":9637,"surviving</w>":9638,"assessed</w>":9639,"carries</w>":9640,"lene</w>":9641,"lender</w>":9642,"nutri":9643,"routine":9644,"missed</w>":9645,"misunderstanding</w>":9646,"misinformed</w>":9647,"misfold</w>":9648,"news":9649,"newsagents</w>":9650,"297</w>":9651,"separately</w>":9652,"detecting</w>":9653,"detectable</w>":9654,"tracked</w>":9655,"hospitalization</w>":9656,"thresho":9657,"graphs</w>":9658,"securities</w>":9659,"agrees</w>":9660,"damaging</w>":9661,"broadly</w>":9662,"circles</w>":9663,"presenting</w>":9664,"presentations</w>":9665,"immigrant</w>":9666,"genetics</w>":9667,"microwave</w>":9668,"microscope</w>":9669,"bitor</w>":9670,"exacer":9671,"claimspdf</w>":9672,"determines</w>":9673,"bird</w>":9674,"images</w>":9675,"walks</w>":9676,"encourages</w>":9677,"succession</w>":9678,"successive</w>":9679,"shut":9680,"shutting</w>":9681,"flushing</w>":9682,"item</w>":9683,"lawsuit</w>":9684,"lawrence</w>":9685,"occupied</w>":9686,"507":9687,"507</w>":9688,"501</w>":9689,"sanitize</w>":9690,"disposi":9691,"qualifications</w>":9692,"improper</w>":9693,"improvement</w>":9694,"investigated</w>":9695,"buri":9696,"burn</w>":9697,"bursement</w>":9698,"donate</w>":9699,"patterns</w>":9700,"132</w>":9701,"13th</w>":9702,"herpes</w>":9703,"ownership</w>":9704,"notify</w>":9705,"continued</w>":9706,"transparent</w>":9707,"17th</w>":9708,"17205</w>":9709,"spikes</w>":9710,"chlorite</w>":9711,"contraceptives</w>":9712,"scheduling</w>":9713,"recordings</w>":9714,"assemb":9715,"justification</w>":9716,"justifications</w>":9717,"computation</w>":9718,"computational</w>":9719,"pharma</w>":9720,"disrupting</w>":9721,"bathrooms</w>":9722,"crowding</w>":9723,"attorney</w>":9724,"manager</w>":9725,"crude</w>":9726,"instruction</w>":9727,"convert</w>":9728,"mayo</w>":9729,"proportional</w>":9730,"nationality</w>":9731,"adviser</w>":9732,"colleges</w>":9733,"mccarthy</w>":9734,"squats</w>":9735,"squee":9736,"winning</w>":9737,"theses</w>":9738,"simulated</w>":9739,"excludes</w>":9740,"designate</w>":9741,"sanitizers</w>":9742,"tegnell</w>":9743,"postpone</w>":9744,"postnatal</w>":9745,"explanations</w>":9746,"261</w>":9747,"attempted</w>":9748,"adaptations</w>":9749,"sheer</w>":9750,"stocking</w>":9751,"customer</w>":9752,"suggestion</w>":9753,"carer</w>":9754,"fecv</w>":9755,"sweating</w>":9756,"slowed</w>":9757,"william</w>":9758,"settles</w>":9759,"presumed</w>":9760,"presumptive</w>":9761,"monitored</w>":9762,"wherever</w>":9763,"floor</w>":9764,"float</w>":9765,"flown</w>":9766,"floors</w>":9767,"floating</w>":9768,"macro</w>":9769,"worries</w>":9770,"traditionally</w>":9771,"prevalent</w>":9772,"categori":9773,"dilator</w>":9774,"scores</w>":9775,"validated</w>":9776,"validating</w>":9777,"reviewers</w>":9778,"aspx</w>":9779,"divergence</w>":9780,"chrono":9781,"chronous</w>":9782,"adjusting</w>":9783,"headaches</w>":9784,"headache</w>":9785,"optmc</w>":9786,"smallpox</w>":9787,"electrons</w>":9788,"gorfinkel</w>":9789,"lessly</w>":9790,"lessness</w>":9791,"redun":9792,"conveni":9793,"convention</w>":9794,"hypox":9795,"hypothesized</w>":9796,"hypochlorite</w>":9797,"immunocompromised</w>":9798,"1860</w>":9799,"lactic</w>":9800,"talks</w>":9801,"homeowners</w>":9802,"springer</w>":9803,"laundromats</w>":9804,"evaluates</w>":9805,"lineage</w>":9806,"lineages</w>":9807,"traveler</w>":9808,"challenged</w>":9809,"161</w>":9810,"1629</w>":9811,"honest</w>":9812,"reflected</w>":9813,"virological</w>":9814,"virologist</w>":9815,"root</w>":9816,"acquiring</w>":9817,"evolved</w>":9818,"strangers</w>":9819,"waive</w>":9820,"analytical</w>":9821,"freely</w>":9822,"3099</w>":9823,"amazing</w>":9824,"switches</w>":9825,"insist</w>":9826,"assist</w>":9827,"achie":9828,"dispu":9829,"bullet</w>":9830,"persistent</w>":9831,"mutants</w>":9832,"economists</w>":9833,"907":9834,"axis</w>":9835,"inactivation</w>":9836,"inactivating</w>":9837,"representation</w>":9838,"lifting</w>":9839,"degrees</w>":9840,"queen</w>":9841,"prescribed</w>":9842,"participate</w>":9843,"criticised</w>":9844,"caffeinated</w>":9845,"discussing</w>":9846,"11500</w>":9847,"blaming</w>":9848,"supermarket</w>":9849,"troubling</w>":9850,"mathematics</w>":9851,"journali":9852,"elements</w>":9853,"farmers</w>":9854,"grim</w>":9855,"grief</w>":9856,"yuan</w>":9857,"homogene":9858,"modify</w>":9859,"african</w>":9860,"phillips</w>":9861,"philoso":9862,"expansion</w>":9863,"disasters</w>":9864,"circuit</w>":9865,"download</w>":9866,"2346":9867,"brain</w>":9868,"brations</w>":9869,"flag</w>":9870,"ott</w>":9871,"otm</w>":9872,"silly</w>":9873,"envelopes</w>":9874,"concepts</w>":9875,"excessive</w>":9876,"cortisol</w>":9877,"afternoon</w>":9878,"specialist</w>":9879,"specialized</w>":9880,"donaldtrump</w>":9881,"transporting</w>":9882,"cycling</w>":9883,"25degc</w>":9884,"487":9885,"4869":9886,"fruits</w>":9887,"frustration</w>":9888,"gym</w>":9889,"gynaeco":9890,"munici":9891,"snps</w>":9892,"remained</w>":9893,"coordinate</w>":9894,"arranged</w>":9895,"arrangement</w>":9896,"metrics</w>":9897,"marginal</w>":9898,"forecasts</w>":9899,"childcare</w>":9900,"childhood</w>":9901,"childbirth</w>":9902,"antiretrovirals</w>":9903,"borrowing</w>":9904,"efficiency</w>":9905,"optimistic</w>":9906,"breastfeed</w>":9907,"breastmilk</w>":9908,"12th</w>":9909,"biden</w>":9910,"ethical</w>":9911,"ethics</w>":9912,"nbk":9913,"nanoparticles</w>":9914,"sicken</w>":9915,"industries</w>":9916,"cooked</w>":9917,"copy</w>":9918,"copies</w>":9919,"copyright</w>":9920,"alleviate</w>":9921,"notwithstanding</w>":9922,"confined</w>":9923,"prompt</w>":9924,"prompted</w>":9925,"expel</w>":9926,"dominic</w>":9927,"consulting</w>":9928,"chemists</w>":9929,"negligible</w>":9930,"crystalli":9931,"7711</w>":9932,"cream</w>":9933,"ipc</w>":9934,"ipca</w>":9935,"jail</w>":9936,"james</w>":9937,"nsp3</w>":9938,"smart</w>":9939,"intrinsically</w>":9940,"intuitive</w>":9941,"inserted</w>":9942,"insertions</w>":9943,"realistically</w>":9944,"realdonaldtrump</w>":9945,"replacement</w>":9946,"violations</w>":9947,"holidays</w>":9948,"tolerance</w>":9949,"countertops</w>":9950,"george</w>":9951,"expectation</w>":9952,"responsibilities</w>":9953,"transcription</w>":9954,"repatriate</w>":9955,"concentrated</w>":9956,"bailout</w>":9957,"punitive</w>":9958,"punishment</w>":9959,"sarsr</w>":9960,"yesus</w>":9961,"diplomatic</w>":9962,"platform</w>":9963,"liberty</w>":9964,"liberties</w>":9965,"deductible</w>":9966,"congreg":9967,"promote</w>":9968,"motivated</w>":9969,"pricing</w>":9970,"priced</w>":9971,"licensee</w>":9972,"fragments</w>":9973,"collap":9974,"column</w>":9975,"specimens</w>":9976,"graphics</w>":9977,"narrower</w>":9978,"narrowly</w>":9979,"manifests</w>":9980,"algorithms</w>":9981,"100k</w>":9982,"aims</w>":9983,"rinse</w>":9984,"invited</w>":9985,"invitation</w>":9986,"instacart</w>":9987,"independents</w>":9988,"injuries</w>":9989,"lifetime</w>":9990,"summar":9991,"absorption</w>":9992,"exceed</w>":9993,"exceedingly</w>":9994,"lethal</w>":9995,"movies</w>":9996,"mosquitoes</w>":9997,"ambigu":9998,"facilitate</w>":9999,"surprised</w>":10000,"companion</w>":10001,"certificate</w>":10002,"prioritize</w>":10003,"playground</w>":10004,"catastrophic</w>":10005,"doubled</w>":10006,"extinctions</w>":10007,"taneous</w>":10008,"bacteriophages</w>":10009,"guarantees</w>":10010,"propagate</w>":10011,"propagation</w>":10012,"utilities</w>":10013,"emphasize</w>":10014,"glycosamine</w>":10015,"anesthesio":10016,"aviation</w>":10017,"bundes":10018,"boundary</w>":10019,"hensive</w>":10020,"msds</w>":10021,"palm</w>":10022,"tumours</w>":10023,"vascular</w>":10024,"inhibitor</w>":10025,"ancest":10026,"angeles</w>":10027,"reveal</w>":10028,"revealed</w>":10029,"revoke</w>":10030,"deeper</w>":10031,"hotline</w>":10032,"hotspots</w>":10033,"exhibited</w>":10034,"applicable</w>":10035,"aguaaa</w>":10036,"audio</w>":10037,"combine</w>":10038,"complaining</w>":10039,"lucky</w>":10040,"scarce</w>":10041,"olympics</w>":10042,"grandparents</w>":10043,"comprehensive</w>":10044,"understandable</w>":10045,"fulltext</w>":10046,"stretched</w>":10047,"simpler</w>":10048,"syncytial</w>":10049,"syncytia</w>":10050,"calculation</w>":10051,"threatens</w>":10052,"eliminate</w>":10053,"deliveries</w>":10054,"hungary</w>":10055,"hungarian</w>":10056,"volunte":10057,"voluntary</w>":10058,"proportionate</w>":10059,"fashion</w>":10060,"fashioned</w>":10061,"favorable</w>":10062,"metabolic</w>":10063,"sciencemag</w>":10064,"powerful</w>":10065,"bronchoalveolar</w>":10066,"bronchodilator</w>":10067,"psychology</w>":10068,"csg</w>":10069,"cinemas</w>":10070,"kalman</w>":10071,"swiss</w>":10072,"tablets</w>":10073,"yield</w>":10074,"thrive</w>":10075,"inevitably</w>":10076,"referendums</w>":10077,"resonance</w>":10078,"tightening</w>":10079,"roche</w>":10080,"attraction</w>":10081,"simultaneously</w>":10082,"sexternal</w>":10083,"convince</w>":10084,"protocols</w>":10085,"sparse</w>":10086,"absentee":10087,"poisson</w>":10088,"beautiful</w>":10089,"chicken</w>":10090,"explore</w>":10091,"export</w>":10092,"explored</w>":10093,"layover</w>":10094,"nejm</w>":10095,"takeout</w>":10096,"appended</w>":10097,"amplitude</w>":10098,"amplify</w>":10099,"terrible</w>":10100,"luxembour":10101,"parainfluenza</w>":10102,"parallel</w>":10103,"painkill":10104,"facebook</w>":10105,"mutated</w>":10106,"phrase</w>":10107,"measurements</w>":10108,"invoked</w>":10109,"tourists</w>":10110,"hardware</w>":10111,"choosing</w>":10112,"residuals</w>":10113,"contagiousness</w>":10114,"landlord</w>":10115,"editor</w>":10116,"14380</w>":10117,"patrick</w>":10118,"pharyngitis</w>":10119,"nucleotides</w>":10120,"frankly</w>":10121,"accommodation</w>":10122,"therapeutic</w>":10123,"9692</w>":10124,"flows</w>":10125,"mouths</w>":10126,"oscil":10127,"sfo</w>":10128,"inherent</w>":10129,"inadmissibility</w>":10130,"antimalarial</w>":10131,"recipi":10132,"endosome</w>":10133,"alert</w>":10134,"orrhea</w>":10135,"victoria</w>":10136,"assert</w>":10137,"assignments</w>":10138,"acknowled":10139,"unknowns</w>":10140,"ligand</w>":10141,"livestock</w>":10142,"trapped</w>":10143,"projections</w>":10144,"prophylactic</w>":10145,"spraying</w>":10146,"veranstaltun":10147,"advoc":10148,"towels</w>":10149,"coronaviruse</w>":10150,"terrorist</w>":10151,"surgeons</w>":10152,"daylight</w>":10153,"fifth</w>":10154,"elastomer":10155,"elliott</w>":10156,"married</w>":10157,"bankrupt</w>":10158,"hybrid</w>":10159,"suspicion</w>":10160,"balloon</w>":10161,"brazilian</w>":10162,"wouldangerous</w>":10163,"catastrophe</w>":10164,"bilayer</w>":10165,"obstetricians</w>":10166,"cardiovascular</w>":10167,"ubiquitous</w>":10168,"reluctance</w>":10169,"11791</w>":10170,"5974</w>":10171,"awareness</w>":10172,"aqueous</w>":10173,"dfrlab</w>":10174,"ebolavirus</w>":10175,"hexamer</w>":10176,"jennifer</w>":10177,"klompas</w>":10178,"klewes</w>":10179,"kissing</w>":10180,"mnuchin</w>":10181,"msonormal</w>":10182,"nwaa036</w>":10183,"osaka</w>":10184,"overnight</w>":10185,"rhesus</w>":10186,"tgev</w>":10187,"wreschni":10188,"anecdo":10189,"ancester</w>":10190,"reimbursement</w>":10191,"coordination</w>":10192,"cosmetic</w>":10193,"enemy</w>":10194,"en136</w>":10195,"teaspoons</w>":10196,"ontario</w>":10197,"vigil</w>":10198,"assaul":10199,"whichever</w>":10200,"whatsoever</w>":10201,"districts</w>":10202,"dizziness</w>":10203,"divorced</w>":10204,"haplotype</w>":10205,"rubbing</w>":10206,"undere":10207,"unlawfully</w>":10208,"liechtenstein</w>":10209,"suicide</w>":10210,"detrimental</w>":10211,"deutsch":10212,"conceivably</w>":10213,"magazine</w>":10214,"poverty</w>":10215,"ribonucle":10216,"expedited</w>":10217,"netenyahu</w>":10218,"newark</w>":10219,"inferior</w>":10220,"adhanom</w>":10221,"saharan</w>":10222,"satellite</w>":10223,"corridor</w>":10224,"quaternary</w>":10225,"ghebreyesus</w>":10226,"shrouding</w>":10227,"appreciate</w>":10228,"aufenthal":10229,"amongst</w>":10230,"cigarettes</w>":10231,"wordsection1</w>":10232,"coronaviridae</w>":10233,"imminent</w>":10234,"parasites</w>":10235,"surfactant</w>":10236,"scrambling</w>":10237,"tuberculosis</w>":10238,"minnesota</w>":10239,"opacities</w>":10240,"forbidden</w>":10241,"monetary</w>":10242,"afaik</w>":10243,"curtailed</w>":10244,"na2co3</w>":10245,"disproportionately</w>":10246,"virginia</w>":10247,"triggered</w>":10248,"isopropyl</w>":10249,"isopropanol</w>":10250,"vomiting</w>":10251,"membership</w>":10252,"mitchell</w>":10253,"potatoes</w>":10254,"deterministic</w>":10255,"safeguards</w>":10256,"routinely</w>":10257,"philosophy</w>":10258,"absenteeism</w>":10259,"luxembourg</w>":10260,"elastomeric</w>":10261,"wreschniok</w>":10262,"04":10263,"06":10264,"08":10265,"0c":10266,"07</w>":10267,"020</w>":10268,"022</w>":10269,"013":10270,"045":10271,"060":10272,"1t</w>":10273,"1m</w>":10274,"1k</w>":10275,"110</w>":10276,"1100</w>":10277,"112</w>":10278,"111</w>":10279,"125</w>":10280,"1pt</w>":10281,"188</w>":10282,"1ab</w>":10283,"12002</w>":10284,"2f</w>":10285,"220":10286,"213</w>":10287,"250</w>":10288,"240</w>":10289,"217":10290,"226":10291,"270</w>":10292,"223":10293,"2pro</w>":10294,"39":10295,"3e":10296,"3d</w>":10297,"3c</w>":10298,"3a</w>":10299,"3m</w>":10300,"3000</w>":10301,"350</w>":10302,"324</w>":10303,"329":10304,"388</w>":10305,"390":10306,"345":10307,"382</w>":10308,"367</w>":10309,"321":10310,"3rd</w>":10311,"42":10312,"4000</w>":10313,"427</w>":10314,"413":10315,"421</w>":10316,"426":10317,"446":10318,"490":10319,"4degc</w>":10320,"412002</w>":10321,"5m</w>":10322,"55</w>":10323,"512</w>":10324,"619":10325,"601</w>":10326,"648</w>":10327,"656":10328,"79":10329,"785</w>":10330,"759":10331,"7507</w>":10332,"84":10333,"849</w>":10334,"835</w>":10335,"8310":10336,"9ec":10337,"911</w>":10338,"950</w>":10339,"940</w>":10340,"957":10341,"953</w>":10342,"966":10343,"9119":10344,"ae":10345,"av</w>":10346,"ai</w>":10347,"ao</w>":10348,"aq</w>":10349,"aic":10350,"ait</w>":10351,"apo":10352,"amp":10353,"ake</w>":10354,"ays</w>":10355,"aten</w>":10356,"ahan</w>":10357,"aise</w>":10358,"a59</w>":10359,"aide</w>":10360,"awaiting</w>":10361,"atia</w>":10362,"aahu</w>":10363,"awarded</w>":10364,"a321":10365,"bs":10366,"bw":10367,"band</w>":10368,"bin</w>":10369,"ben</w>":10370,"bay</w>":10371,"ball</w>":10372,"bda":10373,"bases</w>":10374,"bance</w>":10375,"bacc":10376,"blat":10377,"bmb":10378,"bsc</w>":10379,"baum</w>":10380,"cf":10381,"cs</w>":10382,"cp</w>":10383,"cis</w>":10384,"cal</w>":10385,"cad":10386,"cms</w>":10387,"cable</w>":10388,"ctu":10389,"cite</w>":10390,"camp</w>":10391,"cry</w>":10392,"clor":10393,"c45</w>":10394,"cpid</w>":10395,"cams</w>":10396,"cpap</w>":10397,"dl":10398,"das":10399,"dits</w>":10400,"dss</w>":10401,"dys":10402,"dili":10403,"d50</w>":10404,"d40":10405,"dash</w>":10406,"dbinom</w>":10407,"dsey</w>":10408,"eg":10409,"e6</w>":10410,"ee</w>":10411,"eb</w>":10412,"ec</w>":10413,"ely</w>":10414,"eic":10415,"emi":10416,"ease</w>":10417,"ems</w>":10418,"eases</w>":10419,"efi":10420,"ests</w>":10421,"etry</w>":10422,"etics</w>":10423,"eda</w>":10424,"ebs</w>":10425,"edily</w>":10426,"ella</w>":10427,"e619":10428,"e9ec":10429,"f6</w>":10430,"fn</w>":10431,"fl</w>":10432,"fk</w>":10433,"fw</w>":10434,"fan</w>":10435,"fwi":10436,"ftes</w>":10437,"fty</w>":10438,"fte</w>":10439,"fws</w>":10440,"fant":10441,"floo":10442,"favo":10443,"festi":10444,"fass":10445,"flaw":10446,"fco</w>":10447,"ferring</w>":10448,"fd40":10449,"gd</w>":10450,"gg</w>":10451,"gf</w>":10452,"gha":10453,"gla":10454,"gir":10455,"gar</w>":10456,"g20</w>":10457,"gous</w>":10458,"gors</w>":10459,"gall":10460,"gically</w>":10461,"glance</w>":10462,"ggish</w>":10463,"hh":10464,"hk":10465,"hs":10466,"hk</w>":10467,"ho</w>":10468,"hin</w>":10469,"hren":10470,"hour":10471,"hiring</w>":10472,"hnd</w>":10473,"herring</w>":10474,"hku":10475,"hitting</w>":10476,"iv</w>":10477,"io</w>":10478,"iar":10479,"iat":10480,"iers</w>":10481,"iding</w>":10482,"istan":10483,"ions</w>":10484,"iors</w>":10485,"iber":10486,"istic</w>":10487,"ispecial</w>":10488,"isimple</w>":10489,"iow":10490,"itis</w>":10491,"ishe":10492,"izing</w>":10493,"ivir</w>":10494,"iata</w>":10495,"ifn</w>":10496,"jr</w>":10497,"jer":10498,"jair</w>":10499,"jord":10500,"jain</w>":10501,"jha</w>":10502,"jfk</w>":10503,"jhin</w>":10504,"kv":10505,"kg</w>":10506,"kb</w>":10507,"km</w>":10508,"kon":10509,"kin</w>":10510,"kit":10511,"kas":10512,"kat":10513,"kho":10514,"kne":10515,"kid</w>":10516,"kick</w>":10517,"kingly</w>":10518,"ktop</w>":10519,"klm</w>":10520,"kn95</w>":10521,"kicked</w>":10522,"lr</w>":10523,"lu</w>":10524,"lou":10525,"ler</w>":10526,"les":10527,"las</w>":10528,"lds</w>":10529,"lings</w>":10530,"lected</w>":10531,"lysis</w>":10532,"mf":10533,"mn":10534,"mis</w>":10535,"mon</w>":10536,"mere</w>":10537,"mso":10538,"mle</w>":10539,"mdes":10540,"mda</w>":10541,"msm</w>":10542,"mouse</w>":10543,"ns":10544,"nh</w>":10545,"nk</w>":10546,"nj</w>":10547,"nan":10548,"nou":10549,"nit":10550,"nic":10551,"nan</w>":10552,"nat":10553,"nul":10554,"nber</w>":10555,"nile</w>":10556,"ngo</w>":10557,"nic</w>":10558,"nish</w>":10559,"nine":10560,"nancy</w>":10561,"nsim</w>":10562,"nsp</w>":10563,"nago":10564,"oc</w>":10565,"ox</w>":10566,"ost":10567,"oec":10568,"och":10569,"ole</w>":10570,"ove":10571,"owe</w>":10572,"oten":10573,"ovo":10574,"ology</w>":10575,"oie</w>":10576,"okings</w>":10577,"osha</w>":10578,"obey</w>":10579,"pd":10580,"pw":10581,"py</w>":10582,"p1</w>":10583,"pil":10584,"pyo":10585,"pab":10586,"pour</w>":10587,"pill</w>":10588,"pag":10589,"pall</w>":10590,"pause</w>":10591,"pence</w>":10592,"pound</w>":10593,"pile</w>":10594,"pick":10595,"pfal":10596,"ptoco":10597,"qu</w>":10598,"qst":10599,"qqu":10600,"qing":10601,"rs":10602,"ran</w>":10603,"rha":10604,"ryou</w>":10605,"rant</w>":10606,"rile</w>":10607,"rons</w>":10608,"rcc":10609,"rcolor":10610,"su</w>":10611,"sj</w>":10612,"sand</w>":10613,"sas</w>":10614,"sill</w>":10615,"sds</w>":10616,"sory</w>":10617,"song</w>":10618,"ssel":10619,"sect</w>":10620,"slot</w>":10621,"sach":10622,"stics</w>":10623,"sought</w>":10624,"sessi":10625,"ssis</w>":10626,"sils</w>":10627,"srt</w>":10628,"snar":10629,"sgenom":10630,"sads</w>":10631,"tr</w>":10632,"t1</w>":10633,"tsu":10634,"tts</w>":10635,"tone</w>":10636,"tci":10637,"tine</w>":10638,"trea":10639,"tant</w>":10640,"tough</w>":10641,"tans</w>":10642,"tence</w>":10643,"tte</w>":10644,"tless</w>":10645,"tps</w>":10646,"tfl":10647,"tating</w>":10648,"tplace</w>":10649,"tful</w>":10650,"tability</w>":10651,"tfully</w>":10652,"tingly</w>":10653,"tnight</w>":10654,"u6":10655,"uv</w>":10656,"uno":10657,"uten":10658,"usion</w>":10659,"vate</w>":10660,"vating</w>":10661,"vine":10662,"vagu":10663,"vak":10664,"vwp</w>":10665,"vax</w>":10666,"wy</w>":10667,"w2</w>":10668,"wi</w>":10669,"won</w>":10670,"wab":10671,"wars</w>":10672,"wound</w>":10673,"wini":10674,"wounds</w>":10675,"woven</w>":10676,"wrap</w>":10677,"wsj</w>":10678,"xy</w>":10679,"xi</w>":10680,"xes</w>":10681,"yan":10682,"yment</w>":10683,"ydu":10684,"yness</w>":10685,"yingly</w>":10686,"ynavigator</w>":10687,"za</w>":10688,"zan":10689,"zable</w>":10690,"zger":10691,"zak</w>":10692,"zagre":10693,"zc45</w>":10694,"zydu":10695,"thou":10696,"thed</w>":10697,"thqu":10698,"thay</w>":10699,"threa":10700,"thday</w>":10701,"thord":10702,"thecdc</w>":10703,"ink":10704,"int":10705,"inf</w>":10706,"iners</w>":10707,"inity</w>":10708,"inline</w>":10709,"insec":10710,"inland</w>":10711,"input</w>":10712,"inactive</w>":10713,"inspec":10714,"insan":10715,"inappropriate</w>":10716,"incorrect</w>":10717,"instant</w>":10718,"inbound</w>":10719,"injected</w>":10720,"incong":10721,"incorrectly</w>":10722,"indefinite</w>":10723,"instantly</w>":10724,"incompatible</w>":10725,"anan</w>":10726,"anch":10727,"aners</w>":10728,"anci":10729,"angi":10730,"anning</w>":10731,"anair</w>":10732,"anda</w>":10733,"anom":10734,"ancies</w>":10735,"ancers</w>":10736,"annie</w>":10737,"ansammlungen</w>":10738,"rel</w>":10739,"rein":10740,"revi":10741,"reun":10742,"recon":10743,"rebec":10744,"remed":10745,"reuni":10746,"repri":10747,"resting</w>":10748,"remy</w>":10749,"redre":10750,"remedi":10751,"repur":10752,"refri":10753,"reform</w>":10754,"reconsidered</w>":10755,"restarted</w>":10756,"replied</w>":10757,"recombin":10758,"resor":10759,"reagent</w>":10760,"reschedule</w>":10761,"redirected</w>":10762,"rejected</w>":10763,"resolved</w>":10764,"reiter":10765,"reagents</w>":10766,"rebut":10767,"reelected</w>":10768,"reintroduction</w>":10769,"rescheduling</w>":10770,"remdes":10771,"tip</w>":10772,"tile</w>":10773,"tive":10774,"titer</w>":10775,"tious</w>":10776,"tite</w>":10777,"tising</w>":10778,"tium</w>":10779,"titis</w>":10780,"tightly</w>":10781,"titude</w>":10782,"eration</w>":10783,"erous</w>":10784,"erwork</w>":10785,"eradic":10786,"cool":10787,"coop":10788,"cope</w>":10789,"cobr":10790,"coerci":10791,"coinci":10792,"cogni":10793,"codon</w>":10794,"cooperate</w>":10795,"coworker</w>":10796,"cooling</w>":10797,"cov2</w>":10798,"arg":10799,"arity</w>":10800,"arching</w>":10801,"arland</w>":10802,"argy</w>":10803,"arson</w>":10804,"arxiv</w>":10805,"ener</w>":10806,"ensi":10807,"ensu":10808,"enting</w>":10809,"entive</w>":10810,"enue</w>":10811,"enna</w>":10812,"enclosed</w>":10813,"entail</w>":10814,"ensures</w>":10815,"enacted</w>":10816,"encoding</w>":10817,"enorrhea</w>":10818,"oup</w>":10819,"outs</w>":10820,"ouds</w>":10821,"ted":10822,"tem":10823,"tel</w>":10824,"tep</w>":10825,"tem</w>":10826,"tement</w>":10827,"testi":10828,"temp</w>":10829,"tearing</w>":10830,"teams</w>":10831,"tesexternal</w>":10832,"one":10833,"oning</w>":10834,"oners</w>":10835,"onavir</w>":10836,"onerous</w>":10837,"ale":10838,"ald</w>":10839,"alas</w>":10840,"alter</w>":10841,"alum":10842,"alties</w>":10843,"alvelo":10844,"aldistancing</w>":10845,"alysis</w>":10846,"algiving</w>":10847,"aljazeera</w>":10848,"orph":10849,"orid":10850,"vita":10851,"vira":10852,"vised</w>":10853,"visc":10854,"visible</w>":10855,"vitis</w>":10856,"vienna</w>":10857,"rob</w>":10858,"ross</w>":10859,"rope</w>":10860,"robb":10861,"romani":10862,"royed</w>":10863,"roads</w>":10864,"robot</w>":10865,"itals</w>":10866,"itty</w>":10867,"itated</w>":10868,"itative</w>":10869,"itynavigator</w>":10870,"ase":10871,"asht":10872,"assure</w>":10873,"assion</w>":10874,"asite</w>":10875,"assay</w>":10876,"assays</w>":10877,"asap</w>":10878,"asset</w>":10879,"astically</w>":10880,"asticity</w>":10881,"aco</w>":10882,"acch":10883,"actional</w>":10884,"acil</w>":10885,"sti</w>":10886,"stac":10887,"stall</w>":10888,"stshelter</w>":10889,"stabilize</w>":10890,"storic</w>":10891,"nov</w>":10892,"notion</w>":10893,"nomin":10894,"nois":10895,"nowhere</w>":10896,"nodes</w>":10897,"notype</w>":10898,"nowad":10899,"iced</w>":10900,"ican</w>":10901,"icit</w>":10902,"icair</w>":10903,"ecb</w>":10904,"eck</w>":10905,"ecmo</w>":10906,"att</w>":10907,"atz</w>":10908,"atting</w>":10909,"atra":10910,"atric</w>":10911,"atrics</w>":10912,"ilor</w>":10913,"iltra":10914,"illogical</w>":10915,"dip</w>":10916,"dix</w>":10917,"dier</w>":10918,"dial</w>":10919,"dient</w>":10920,"diet</w>":10921,"dissi":10922,"distr":10923,"dious</w>":10924,"dimen":10925,"dized</w>":10926,"dibly</w>":10927,"diff</w>":10928,"diums</w>":10929,"digging</w>":10930,"diaphr":10931,"hau":10932,"hay":10933,"hair</w>":10934,"esis</w>":10935,"ester</w>":10936,"esstimate</w>":10937,"esri</w>":10938,"plag":10939,"plenti":10940,"plant</w>":10941,"plish</w>":10942,"pl2pro</w>":10943,"ruc":10944,"rug</w>":10945,"rubri":10946,"ruency</w>":10947,"rutter</w>":10948,"sip</w>":10949,"sies</w>":10950,"side":10951,"sierr":10952,"siastic</w>":10953,"sipping</w>":10954,"siena</w>":10955,"unwit":10956,"unter":10957,"uninfected</w>":10958,"unjust</w>":10959,"unanim":10960,"untrue</w>":10961,"unpack":10962,"undiagnosed</w>":10963,"unreasonable</w>":10964,"unchanged</w>":10965,"undefined</w>":10966,"uninformed</w>":10967,"unequal</w>":10968,"unreliable</w>":10969,"uncomfortable</w>":10970,"unnoticed</w>":10971,"untrained</w>":10972,"uninsu":10973,"unhide</w>":10974,"unmarried</w>":10975,"lip":10976,"lier</w>":10977,"lian</w>":10978,"liver</w>":10979,"liable</w>":10980,"lites</w>":10981,"lieb</w>":10982,"yoko":10983,"sun</w>":10984,"suto</w>":10985,"supre":10986,"suess</w>":10987,"suant</w>":10988,"suits</w>":10989,"suade</w>":10990,"suplement</w>":10991,"suited</w>":10992,"sec</w>":10993,"seal</w>":10994,"sean</w>":10995,"seap":10996,"seques":10997,"semit</w>":10998,"semes":10999,"sells</w>":11000,"sellers</w>":11001,"seemed</w>":11002,"segment</w>":11003,"semi</w>":11004,"septic</w>":11005,"lob":11006,"love</w>":11007,"losure</w>":11008,"losi</w>":11009,"dem</w>":11010,"deer</w>":11011,"deals</w>":11012,"deple":11013,"dead</w>":11014,"deplo":11015,"deman":11016,"depart</w>":11017,"departs</w>":11018,"deactivate</w>":11019,"contest</w>":11020,"confl":11021,"constru":11022,"conden":11023,"consequ":11024,"consor":11025,"conian</w>":11026,"constantly</w>":11027,"contexts</w>":11028,"trau":11029,"trick</w>":11030,"trick":11031,"therea":11032,"thetic</w>":11033,"theguardian</w>":11034,"thelancet</w>":11035,"mae</w>":11036,"maine</w>":11037,"matics</w>":11038,"makers</w>":11039,"matized</w>":11040,"matitis</w>":11041,"hoe</w>":11042,"hop</w>":11043,"hosting</w>":11044,"holes</w>":11045,"hoped</w>":11046,"hogue</w>":11047,"prob</w>":11048,"proval</w>":11049,"promis":11050,"proposes</w>":11051,"spy</w>":11052,"span</w>":11053,"spne":11054,"spill</w>":11055,"spag":11056,"spaw":11057,"able":11058,"abate</w>":11059,"abgr":11060,"abide</w>":11061,"abusers</w>":11062,"urable</w>":11063,"urges</w>":11064,"urban</w>":11065,"uracil</w>":11066,"pot</w>":11067,"poon</w>":11068,"pole</w>":11069,"polation</w>":11070,"poop</w>":11071,"mee</w>":11072,"mets</w>":11073,"bets</w>":11074,"bever":11075,"bell</w>":11076,"belong</w>":11077,"behalf</w>":11078,"bells</w>":11079,"bearer</w>":11080,"bearance</w>":11081,"berens</w>":11082,"chy</w>":11083,"chi</w>":11084,"cho</w>":11085,"chase</w>":11086,"chus</w>":11087,"solit":11088,"sopran":11089,"tions":11090,"tioner</w>":11091,"tionable</w>":11092,"tionality</w>":11093,"tionchus</w>":11094,"riding</w>":11095,"ribo":11096,"rifl":11097,"rific":11098,"rigors</w>":11099,"expre":11100,"excer":11101,"excu":11102,"extracted</w>":11103,"lau":11104,"lawn</w>":11105,"laye":11106,"layers</w>":11107,"latin</w>":11108,"latesexternal</w>":11109,"lei":11110,"lean</w>":11111,"leone</w>":11112,"lement</w>":11113,"letic</w>":11114,"leaning</w>":11115,"letin</w>":11116,"leyen</w>":11117,"leaners</w>":11118,"bub":11119,"bul</w>":11120,"bug</w>":11121,"buys</w>":11122,"bush</w>":11123,"buck</w>":11124,"buster</w>":11125,"buyer</w>":11126,"bumpy</w>":11127,"mike</w>":11128,"miam":11129,"misc":11130,"mimic</w>":11131,"neg</w>":11132,"nets</w>":11133,"nement</w>":11134,"nebr":11135,"verge</w>":11136,"vermon":11137,"versammlungen</w>":11138,"verbal</w>":11139,"vernement</w>":11140,"infir":11141,"infrequ":11142,"infiltra":11143,"mpps</w>":11144,"mparo</w>":11145,"ado</w>":11146,"adra":11147,"adhere</w>":11148,"adjec":11149,"adjective</w>":11150,"admits</w>":11151,"adventure</w>":11152,"taed</w>":11153,"tates</w>":11154,"tape</w>":11155,"tamp</w>":11156,"tatives</w>":11157,"takers</w>":11158,"tamparo</w>":11159,"say":11160,"sative</w>":11161,"saves</w>":11162,"sagt</w>":11163,"savers</w>":11164,"saarland</w>":11165,"fficial</w>":11166,"pea":11167,"peg</w>":11168,"pell</w>":11169,"petro":11170,"peace</w>":11171,"pegging</w>":11172,"pelosi</w>":11173,"corri":11174,"corna":11175,"correlated</w>":11176,"corrup":11177,"qui":11178,"quir":11179,"quadra":11180,"wet":11181,"wears</w>":11182,"webin":11183,"shy</w>":11184,"shers</w>":11185,"shing":11186,"shenz":11187,"shining</w>":11188,"sheri":11189,"shiny</w>":11190,"irb</w>":11191,"irre":11192,"iris</w>":11193,"dos</w>":11194,"dosing</w>":11195,"doled</w>":11196,"doha</w>":11197,"dobson</w>":11198,"motor</w>":11199,"motor":11200,"apr</w>":11201,"apical</w>":11202,"apples</w>":11203,"apshot</w>":11204,"veg</w>":11205,"vein</w>":11206,"vets</w>":11207,"vette</w>":11208,"hey</w>":11209,"heal</w>":11210,"heit</w>":11211,"hemi":11212,"hemor":11213,"height</w>":11214,"peru</w>":11215,"pertu":11216,"permutations</w>":11217,"permitting</w>":11218,"pertains</w>":11219,"pertaining</w>":11220,"persuade</w>":11221,"prep</w>":11222,"premade</w>":11223,"pretend</w>":11224,"preferred</w>":11225,"premature</w>":11226,"agm</w>":11227,"aggra":11228,"toc":11229,"tot":11230,"toys</w>":11231,"tobacc":11232,"autho":11233,"auctions</w>":11234,"ausgenom":11235,"amed</w>":11236,"amused</w>":11237,"amuse":11238,"amenorrhea</w>":11239,"complication</w>":11240,"composed</w>":11241,"commissions</w>":11242,"coronal</w>":11243,"gove</w>":11244,"gott":11245,"gold":11246,"cise</w>":11247,"cisa</w>":11248,"wording</w>":11249,"worded</w>":11250,"dual</w>":11251,"dumb":11252,"feat</w>":11253,"fetus</w>":11254,"fedex</w>":11255,"tery</w>":11256,"tera</w>":11257,"terly</w>":11258,"termed</w>":11259,"terry</w>":11260,"renthu":11261,"rentine</w>":11262,"20c</w>":11263,"209</w>":11264,"2067":11265,"2078</w>":11266,"umb</w>":11267,"impl":11268,"implicitly</w>":11269,"lup</w>":11270,"lube</w>":11271,"tick</w>":11272,"parscale</w>":11273,"parole</w>":11274,"parasite</w>":11275,"pao2</w>":11276,"pupi":11277,"pushed</w>":11278,"pumps</w>":11279,"boy":11280,"boy</w>":11281,"boat</w>":11282,"boil":11283,"bold</w>":11284,"boil</w>":11285,"boils</w>":11286,"boeing</w>":11287,"boxes</w>":11288,"cease</w>":11289,"celon":11290,"ceos</w>":11291,"facem":11292,"faceshi":11293,"ssional</w>":11294,"ssively</w>":11295,"oundly</w>":11296,"oundless</w>":11297,"keen</w>":11298,"surger":11299,"muco":11300,"mulate</w>":11301,"gion</w>":11302,"gift</w>":11303,"givers</w>":11304,"gently</w>":11305,"genitals</w>":11306,"ramping</w>":11307,"cous</w>":11308,"coull</w>":11309,"couver</w>":11310,"hij":11311,"hip</w>":11312,"hio</w>":11313,"historic</w>":11314,"county</w>":11315,"counters</w>":11316,"ingent</w>":11317,"ingconditions</w>":11318,"ingement</w>":11319,"contours</w>":11320,"wired</w>":11321,"wives</w>":11322,"wisely</w>":11323,"widow</w>":11324,"scali":11325,"scarr":11326,"scab</w>":11327,"scanning</w>":11328,"incite</w>":11329,"incentive</w>":11330,"guest</w>":11331,"guesses</w>":11332,"gulf</w>":11333,"guesstimate</w>":11334,"dam</w>":11335,"daeg":11336,"stie</w>":11337,"stir</w>":11338,"emes</w>":11339,"embr":11340,"embal":11341,"empowers</w>":11342,"command</w>":11343,"commentary</w>":11344,"trap</w>":11345,"trak</w>":11346,"traits</w>":11347,"rison</w>":11348,"rissuto</w>":11349,"oli</w>":11350,"olve</w>":11351,"olina</w>":11352,"portu":11353,"respected</w>":11354,"respecting</w>":11355,"fix</w>":11356,"fide</w>":11357,"fires</w>":11358,"fibers</w>":11359,"fio2</w>":11360,"answered</w>":11361,"outgoing</w>":11362,"outgroup</w>":11363,"outward</w>":11364,"outbound</w>":11365,"outweigh</w>":11366,"tube</w>":11367,"mina</w>":11368,"mini</w>":11369,"minor</w>":11370,"minating</w>":11371,"minority</w>":11372,"minator</w>":11373,"minster</w>":11374,"mineral</w>":11375,"strate</w>":11376,"straps</w>":11377,"stringent</w>":11378,"ulate</w>":11379,"ultimate</w>":11380,"serum</w>":11381,"wave":11382,"lli</w>":11383,"open":11384,"opting</w>":11385,"opens</w>":11386,"ophar":11387,"opening</w>":11388,"oppel</w>":11389,"fort</w>":11390,"forty</w>":11391,"forum</w>":11392,"formal":11393,"fortnight</w>":11394,"forbearance</w>":11395,"mono":11396,"mony</w>":11397,"monop":11398,"monaco</w>":11399,"diffusion</w>":11400,"recru":11401,"recir":11402,"iser</w>":11403,"isla":11404,"is1473</w>":11405,"iswab":11406,"derbil":11407,"dergardens</w>":11408,"dermatitis</w>":11409,"jugg":11410,"jumping</w>":11411,"justshelter</w>":11412,"julian</w>":11413,"elf</w>":11414,"eled</w>":11415,"elders</w>":11416,"elastic</w>":11417,"elabor":11418,"elancers</w>":11419,"stepped</w>":11420,"pubmed</w>":11421,"finish</w>":11422,"finnish</w>":11423,"betting</w>":11424,"lowers</w>":11425,"lowdown</w>":11426,"avenue</w>":11427,"gry</w>":11428,"gray</w>":11429,"groundless</w>":11430,"lining</w>":11431,"linens</w>":11432,"linkage</w>":11433,"lindsey</w>":11434,"geably</w>":11435,"getown</w>":11436,"gesture</w>":11437,"tens</w>":11438,"teness</w>":11439,"tender</w>":11440,"tenance</w>":11441,"tenure</w>":11442,"tended</w>":11443,"tentative</w>":11444,"compari":11445,"compet":11446,"compute</w>":11447,"compiled</w>":11448,"compounding</w>":11449,"compassion</w>":11450,"staining</w>":11451,"stairs</w>":11452,"staffs</w>":11453,"stadiums</w>":11454,"curb</w>":11455,"curfew</w>":11456,"nabe</w>":11457,"nail</w>":11458,"nazi</w>":11459,"yeah</w>":11460,"yelitis</w>":11461,"pheral</w>":11462,"phras":11463,"someday</w>":11464,"alia</w>":11465,"alian</w>":11466,"alised</w>":11467,"align</w>":11468,"mediter":11469,"aride</w>":11470,"arization</w>":11471,"selective</w>":11472,"prou":11473,"fuss</w>":11474,"fusion</w>":11475,"sentin":11476,"seniors</w>":11477,"sentence</w>":11478,"transgre":11479,"translate</w>":11480,"interchan":11481,"interstate</w>":11482,"interbank</w>":11483,"interrup":11484,"interviews</w>":11485,"internationally</w>":11486,"funerals</w>":11487,"stanley</w>":11488,"www2</w>":11489,"millen":11490,"mildness</w>":11491,"mask":11492,"master</w>":11493,"massach":11494,"pleased</w>":11495,"hanging</w>":11496,"haneda</w>":11497,"airway</w>":11498,"airbus</w>":11499,"airflow</w>":11500,"airplanes</w>":11501,"airbn":11502,"locally</w>":11503,"locking</w>":11504,"inclusion</w>":11505,"withdrew</w>":11506,"requests</w>":11507,"vernon</w>":11508,"impris":11509,"impacted</w>":11510,"impedi":11511,"governors</w>":11512,"siness</w>":11513,"effected</w>":11514,"approving</w>":11515,"approaching</w>":11516,"approxim":11517,"generous</w>":11518,"generously</w>":11519,"larity</w>":11520,"humani":11521,"societies</w>":11522,"socialdistancing</w>":11523,"offs</w>":11524,"offent":11525,"cleans":11526,"clearance</w>":11527,"two":11528,"twenty</w>":11529,"studi":11530,"dises":11531,"disallowing</w>":11532,"discharge</w>":11533,"dissolved</w>":11534,"displayed</w>":11535,"disadvantages</w>":11536,"displeased</w>":11537,"plos</w>":11538,"plotted</w>":11539,"responded</w>":11540,"bie</w>":11541,"biases</w>":11542,"bigg":11543,"biol</w>":11544,"bipap</w>":11545,"bizar":11546,"chancell":11547,"fox</w>":11548,"foet":11549,"foot":11550,"ician</w>":11551,"drove</w>":11552,"dropped</w>":11553,"flout</w>":11554,"florid":11555,"examine</w>":11556,"examiners</w>":11557,"pantry</w>":11558,"areema</w>":11559,"stopo":11560,"stored</w>":11561,"desks</w>":11562,"descen":11563,"desktop</w>":11564,"desolve</w>":11565,"obstruc":11566,"cd4</w>":11567,"cd14":11568,"illum":11569,"reportedly</w>":11570,"cuo</w>":11571,"cues</w>":11572,"cures</w>":11573,"cups</w>":11574,"cushi":11575,"culated</w>":11576,"cuvette</w>":11577,"contractual</w>":11578,"fared</w>":11579,"fahren":11580,"relatives</w>":11581,"relaxed</w>":11582,"mann</w>":11583,"mandate</w>":11584,"manages</w>":11585,"manila</w>":11586,"helper</w>":11587,"helmets</w>":11588,"piis1473</w>":11589,"pene":11590,"penn":11591,"peng</w>":11592,"penalties</w>":11593,"turally</w>":11594,"wastage</w>":11595,"washable</w>":11596,"washio</w>":11597,"seegene</w>":11598,"peripheral</w>":11599,"orie</w>":11600,"orities</w>":11601,"orientation</w>":11602,"measurable</w>":11603,"truly</w>":11604,"trump":11605,"truth</w>":11606,"truck</w>":11607,"alls</w>":11608,"stricter</w>":11609,"cautioned</w>":11610,"caudle</w>":11611,"causal</w>":11612,"causative</w>":11613,"shopp":11614,"shoot</w>":11615,"trigg":11616,"triphosphate</w>":11617,"antibacterial</w>":11618,"antipy":11619,"engag":11620,"engine</w>":11621,"undergoing</w>":11622,"underwater</w>":11623,"undervalu":11624,"underreacting</w>":11625,"underbrace</w>":11626,"subsi":11627,"subtype</w>":11628,"substance</w>":11629,"subordin":11630,"substack</w>":11631,"substrate</w>":11632,"gained</w>":11633,"gaining</w>":11634,"gathered</w>":11635,"pasteur":11636,"distorting</w>":11637,"flies</w>":11638,"wheat</w>":11639,"employing</w>":11640,"centric</w>":11641,"ailing</w>":11642,"couriers</w>":11643,"ecology</w>":11644,"restricts</w>":11645,"dictat":11646,"dictate</w>":11647,"sectors</w>":11648,"rank</w>":11649,"ranks</w>":11650,"ranee</w>":11651,"quarrentine</w>":11652,"folks</w>":11653,"green":11654,"loop</w>":11655,"ception</w>":11656,"houses":11657,"populac":11658,"popularity</w>":11659,"directs</w>":11660,"directive</w>":11661,"starters</w>":11662,"criti":11663,"crises</w>":11664,"critics</w>":11665,"dependence</w>":11666,"dependents</w>":11667,"carts</w>":11668,"carolina</w>":11669,"regulatesexternal</w>":11670,"dece":11671,"decel":11672,"decreas":11673,"declining</w>":11674,"licence</w>":11675,"invad":11676,"temp3</w>":11677,"recogn":11678,"producers</w>":11679,"workout</w>":11680,"workings</w>":11681,"workforce</w>":11682,"servicer</w>":11683,"servicers</w>":11684,"services":11685,"additive</w>":11686,"presses</w>":11687,"tained</w>":11688,"upheld</w>":11689,"updating</w>":11690,"bang</w>":11691,"bands</w>":11692,"bandan":11693,"bankers</w>":11694,"vol</w>":11695,"vox</w>":11696,"vola":11697,"voter</w>":11698,"vomit</w>":11699,"ysacch":11700,"individualized</w>":11701,"allowance</w>":11702,"strative</w>":11703,"gross":11704,"researching</w>":11705,"gerator</w>":11706,"furt</w>":11707,"touches</w>":11708,"necessi":11709,"boots</w>":11710,"boosting</w>":11711,"norm</w>":11712,"norovirus</w>":11713,"norberg</w>":11714,"overdra":11715,"overbooking</w>":11716,"overlap</w>":11717,"oversight</w>":11718,"overloaded</w>":11719,"overdispersion</w>":11720,"overcrowding</w>":11721,"overarching</w>":11722,"continent</w>":11723,"continental</w>":11724,"mentally</w>":11725,"emergence</w>":11726,"maintenance</w>":11727,"cave":11728,"cates</w>":11729,"cathay</w>":11730,"mitories</w>":11731,"00pm</w>":11732,"00608":11733,"crew":11734,"creation</w>":11735,"eu261</w>":11736,"hyatt</w>":11737,"hyletic</w>":11738,"eviden":11739,"processors</w>":11740,"purification</w>":11741,"pursuant</w>":11742,"structured</w>":11743,"structurally</w>":11744,"harve":11745,"harms</w>":11746,"hardy</w>":11747,"harry</w>":11748,"harrison</w>":11749,"schemes</w>":11750,"legs</w>":11751,"gaming</w>":11752,"jog</w>":11753,"joke</w>":11754,"profoundly</w>":11755,"spreadsheet</w>":11756,"micides</w>":11757,"microns</w>":11758,"docsi</w>":11759,"problematic</w>":11760,"dends</w>":11761,"dencies</w>":11762,"densely</w>":11763,"denmark</w>":11764,"payer</w>":11765,"rita</w>":11766,"ritonavir</w>":11767,"similarities</w>":11768,"potentials</w>":11769,"communal</w>":11770,"communism</w>":11771,"ocation</w>":11772,"195</w>":11773,"1980</w>":11774,"1981</w>":11775,"1968</w>":11776,"iliter</w>":11777,"ilization</w>":11778,"contraction</w>":11779,"compleate</w>":11780,"complement</w>":11781,"completeness</w>":11782,"universe</w>":11783,"choir</w>":11784,"choler":11785,"niig":11786,"niconi":11787,"incredibly</w>":11788,"warfare</w>":11789,"bric":11790,"fron":11791,"fractions</w>":11792,"fractional</w>":11793,"nyc</w>":11794,"nyse</w>":11795,"thropo":11796,"drunk</w>":11797,"200m</w>":11798,"clinically</w>":11799,"clinics</w>":11800,"clinical":11801,"longest</w>":11802,"charity</w>":11803,"charles</w>":11804,"charging</w>":11805,"chartered</w>":11806,"charitynavigator</w>":11807,"washers</w>":11808,"filer</w>":11809,"venues</w>":11810,"biotechnology</w>":11811,"authorization</w>":11812,"plays</w>":11813,"medicare</w>":11814,"catches</w>":11815,"cataly":11816,"globalgiving</w>":11817,"broke</w>":11818,"brookings</w>":11819,"soluble</w>":11820,"travels</w>":11821,"hugely</w>":11822,"huanan</w>":11823,"appeal</w>":11824,"appetite</w>":11825,"leaf</w>":11826,"leaked</w>":11827,"learns</w>":11828,"learners</w>":11829,"predicts</w>":11830,"predictability</w>":11831,"binder</w>":11832,"ificus</w>":11833,"resistance</w>":11834,"influenzae</w>":11835,"laser</w>":11836,"supporters</w>":11837,"baz":11838,"bao</w>":11839,"bait</w>":11840,"baking</w>":11841,"bayes</w>":11842,"baylor</w>":11843,"friend":11844,"halting</w>":11845,"paperwork</w>":11846,"exposures</w>":11847,"landing</w>":11848,"laninf</w>":11849,"infectiousness</w>":11850,"fulfill</w>":11851,"ombud":11852,"multicity</w>":11853,"organise</w>":11854,"blown</w>":11855,"crops</w>":11856,"cross":11857,"crossed</w>":11858,"croatia</w>":11859,"labe":11860,"europa</w>":11861,"bending</w>":11862,"benjam":11863,"benefi":11864,"intention</w>":11865,"intentions</w>":11866,"annually</w>":11867,"parameteri":11868,"kily</w>":11869,"kios</w>":11870,"usc</w>":11871,"usi</w>":11872,"usable</w>":11873,"spoke</w>":11874,"spokes":11875,"males</w>":11876,"malaise</w>":11877,"majorities</w>":11878,"distributions</w>":11879,"significance</w>":11880,"operators</w>":11881,"regime</w>":11882,"registered</w>":11883,"deaf</w>":11884,"pathology</w>":11885,"pathological</w>":11886,"initiate</w>":11887,"initiation</w>":11888,"initiated</w>":11889,"initiative</w>":11890,"edge</w>":11891,"edges</w>":11892,"editing</w>":11893,"suffix</w>":11894,"suffocation</w>":11895,"discard</w>":11896,"disclose</w>":11897,"description</w>":11898,"shame</w>":11899,"stery</w>":11900,"sterilize</w>":11901,"109</w>":11902,"104</w>":11903,"101</w>":11904,"1056</w>":11905,"1093</w>":11906,"104869":11907,"federally</w>":11908,"beneficial</w>":11909,"garden":11910,"garden</w>":11911,"garlic</w>":11912,"manual</w>":11913,"whoever</w>":11914,"standpoint</w>":11915,"kinetics</w>":11916,"kindergardens</w>":11917,"spell</w>":11918,"speedily</w>":11919,"announce</w>":11920,"announces</w>":11921,"announcing</w>":11922,"religion</w>":11923,"releases</w>":11924,"certainties</w>":11925,"ticists</w>":11926,"ticism</w>":11927,"webcams</w>":11928,"webdocsi</w>":11929,"breast</w>":11930,"brewer</w>":11931,"igning</w>":11932,"cashi":11933,"casey</w>":11934,"nonstero":11935,"nonresident</w>":11936,"nonprofit</w>":11937,"nonfilers</w>":11938,"refval</w>":11939,"refrain</w>":11940,"removing</w>":11941,"removes</w>":11942,"collate</w>":11943,"stress":11944,"stretch</w>":11945,"streaming</w>":11946,"streptoco":11947,"streamed</w>":11948,"polating</w>":11949,"polite</w>":11950,"polarization</w>":11951,"polysacch":11952,"multiply</w>":11953,"multitude</w>":11954,"defended</w>":11955,"midwife</w>":11956,"midwives</w>":11957,"dryers</w>":11958,"drtedros</w>":11959,"dryness</w>":11960,"drastically</w>":11961,"logistics</w>":11962,"estoppel</w>":11963,"forever</w>":11964,"forehead</w>":11965,"chair</w>":11966,"chaff</w>":11967,"chamber</w>":11968,"pace</w>":11969,"pacificus</w>":11970,"sanction</w>":11971,"sanjuan</w>":11972,"simpli":11973,"consumed</w>":11974,"terious</w>":11975,"practise</w>":11976,"145</w>":11977,"1480</w>":11978,"1428":11979,"1474</w>":11980,"1400000000</w>":11981,"screened</w>":11982,"dried</w>":11983,
[...]
