{"<unk>":0,"!":1,"\"":2,"#":3,"$":4,"%":5,"&":6,"'":7,"(":8,")":9,"*":10,"+":11,",":12,"-":13,".":14,"/":15,"0":16,"1":17,"2":18,"3":19,"4":20,"5":21,"6":22,"7":23,"8":24,"9":25,":":26,";":27,"=":28,">":29,"?":30,"@":31,"A":32,"B":33,"C":34,"D":35,"E":36,"F":37,"G":38,"H":39,"I":40,"J":41,"K":42,"L":43,"M":44,"N":45,"O":46,"P":47,"Q":48,"R":49,"S":50,"T":51,"U":52,"V":53,"W":54,"X":55,"Y":56,"Z":57,"[":58,"\\":59,"]":60,"^":61,"_":62,"a":63,"b":64,"c":65,"d":66,"e":67,"f":68,"g":69,"h":70,"i":71,"j":72,"k":73,"l":74,"m":75,"n":76,"o":77,"p":78,"q":79,"r":80,"s":81,"t":82,"u":83,"v":84,"w":85,"x":86,"y":87,"z":88,"{":89,"|":90,"}":91,"~":92,"£":93,"°":94,"±":95,"Î":96,"á":97,"ä":98,"é":99,"ò":100,"ö":101,"ü":102,"‍":103,"–":104,"—":105,"‘":106,"’":107,"“":108,"”":109,"„":110,"…":111,"′":112,"€":113,"™":114,"←":115,"→":116,"≈":117,"♂":118,"あ":119,"い":120,"え":121,"️":122,"👮":123,"😁":124,"e</w>":125,"c</w>":126,"y</w>":127,"d</w>":128,"n</w>":129,"r</w>":130,"g</w>":131,"s</w>":132,"b</w>":133,"0</w>":134,"l</w>":135,"t</w>":136,"a</w>":137,"m</w>":138,"h</w>":139,"3</w>":140,"p</w>":141,"o</w>":142,"6</w>":143,"k</w>":144,"8</w>":145,"w</w>":146,"A</w>":147,"U</w>":148,"u</w>":149,"2</w>":150,"i</w>":151,"x</w>":152,"q</w>":153,"9</w>":154,"1</w>":155,"4</w>":156,"5</w>":157,"7</w>":158,"E</w>":159,"f</w>":160,"v</w>":161,"R</w>":162,"F</w>":163,"T</w>":164,"O</w>":165,"\\</w>":166,"S</w>":167,"z</w>":168,"B</w>":169,"K</w>":170,"I</w>":171,"G</w>":172,"ò</w>":173,"D</w>":174,"€</w>":175,"^</w>":176,"M</w>":177,"™</w>":178,"H</w>":179,"_</w>":180,"j</w>":181,"W</w>":182,"V</w>":183,"—</w>":184,"C</w>":185,"Y</w>":186,"L</w>":187,"]</w>":188,"P</w>":189,"&</w>":190,"%</w>":191,"~</w>":192,"Q</w>":193,"N</w>":194,"X</w>":195,"え</w>":196,"’</w>":197,"Z</w>":198,"é</w>":199,"😁</w>":200,"=</w>":201,"'</w>":202,"️</w>":203,"[</w>":204,"≈</w>":205,"£</w>":206,"„</w>":207,"‘</w>":208,"?</w>":209,"“</w>":210,"+</w>":211,"–</w>":212,"}</w>":213,"あ</w>":214,".</w>":215,"…</w>":216,"←</w>":217,"{</w>":218,"></w>":219,"-</w>":220,"/</w>":221,"|</w>":222,"′</w>":223,"い</w>":224,"±</w>":225,"@</w>":226,"*</w>":227,";</w>":228,":</w>":229,"”</w>":230,")</w>":231,"J</w>":232,",</w>":233,"#</w>":234,"$</w>":235,"(</w>":236,"\"</w>":237,"!</w>":238,"th":239,"in":240,"an":241,"the</w>":242,"re":243,"ti":244,"er":245,"on":246,"ou":247,"ar":248,"en":249,"to</w>":250,"ing</w>":251,"or":252,"is</w>":253,"ed</w>":254,"on</w>":255,"es</w>":256,"al":257,"of</w>":258,"er</w>":259,"and</w>":260,"at</w>":261,"or</w>":262,"st":263,"in</w>":264,"at":265,"vi":266,"it":267,"ro":268,"ly</w>":269,"as":270,"ec":271,"ac":272,"an</w>":273,"ic":274,"om":275,"al</w>":276,"no":277,"tion</w>":278,"ve</w>":279,"ha":280,"es":281,"le</w>":282,"wh":283,"that</w>":284,"di":285,"ru":286,"li":287,"il":288,"en</w>":289,"lo":290,"it</w>":291,"for</w>":292,"are</w>":293,"si":294,"su":295,"de":296,"tr":297,"se":298,"as</w>":299,"ld</w>":300,"not</w>":301,"se</w>":302,"the":303,"un":304,"viru":305,"be</w>":306,"co":307,"ab":308,"con":309,"pro":310,"yo":311,"ts</w>":312,"you</w>":313,"sp":314,"le":315,"ma":316,"ere</w>":317,"po":318,"ur":319,"ex":320,"ch":321,"ent</w>":322,"ce</w>":323,"be":324,"am":325,"ri":326,"virus</w>":327,"wit":328,"ould</w>":329,"have</w>":330,"tion":331,"with</w>":332,"st</w>":333,"this</w>":334,"op":335,"ation</w>":336,"bu":337,"ver":338,"sh":339,"el":340,"ad":341,"ne":342,"qu":343,"19</w>":344,"inf":345,"com":346,"me":347,"oun":348,"gh":349,"ff":350,"ate</w>":351,"our</w>":352,"if</w>":353,"rom</w>":354,"ay</w>":355,"ap":356,"ted</w>":357,"cor":358,"from</w>":359,"ag":360,"mp":361,"can</w>":362,"so</w>":363,"tions</w>":364,"ers</w>":365,"ho":366,"ther</w>":367,"ill</w>":368,"mi":369,"do":370,"pe":371,"ir":372,"out</w>":373,"ul":374,"th</w>":375,"pre":376,"mo":377,"te":378,"ore</w>":379,"ch</w>":380,"ta":381,"but</w>":382,"ve":383,"per":384,"we":385,"ally</w>":386,"they</w>":387,"ke</w>":388,"your</w>":389,"ome</w>":390,"by</w>":391,"will</w>":392,"ity</w>":393,"au":394,"pl":395,"et</w>":396,"one</w>":397,"ona":398,"there</w>":399,"go":400,"ar</w>":401,"wor":402,"tim":403,"ment</w>":404,"ol":405,"infec":406,"ren":407,"ople</w>":408,"ci":409,"any</w>":410,"ay":411,"people</w>":412,"he":413,"corona":414,"ds</w>":415,"du":416,"ine</w>":417,"um":418,"ter":419,"ase</w>":420,"would</w>":421,"all</w>":422,"do</w>":423,"ght</w>":424,"tic":425,"vid</w>":426,"20":427,"ter</w>":428,"ver</w>":429,"fe":430,"par":431,"has</w>":432,"ai":433,"coronavirus</w>":434,"gh</w>":435,"ding</w>":436,"ses</w>":437,"rea":438,"covid</w>":439,"more</w>":440,"ess</w>":441,"other</w>":442,"we</w>":443,"ents</w>":444,"bo":445,"able</w>":446,"who</w>":447,"ting</w>":448,"ich</w>":449,"im":450,"cl":451,"is":452,"which</w>":453,"coun":454,"ssi":455,"de</w>":456,"tive</w>":457,"sed</w>":458,"some</w>":459,"fac":460,"was</w>":461,"king</w>":462,"pu":463,"sur":464,"hi":465,"ke":466,"cont":467,"str":468,"ays</w>":469,"est</w>":470,"to":471,"about</w>":472,"ated</w>":473,"der</w>":474,"ough</w>":475,"heal":476,"ir</w>":477,"gi":478,"gen":479,"our":480,"enti":481,"ks</w>":482,"red</w>":483,"their</w>":484,"sy":485,"od</w>":486,"wn</w>":487,"my</w>":488,"tra":489,"ies</w>":490,"pa":491,"rec":492,"also</w>":493,"ance</w>":494,"ant</w>":495,"wi":496,"been</w>":497,"no</w>":498,"ans":499,"now</w>":500,"af":501,"ev":502,"time</w>":503,"em":504,"ge</w>":505,"us</w>":506,"ases</w>":507,"ing":508,"fi":509,"so":510,"comm":511,"por":512,"anc":513,"should</w>":514,"health</w>":515,"out":516,"tly</w>":517,"get</w>":518,"ese</w>":519,"gr":520,"dic":521,"countr":522,"mu":523,"ary</w>":524,"ep":525,"ast</w>":526,"ris":527,"ause</w>":528,"der":529,"la":530,"tt":531,"ect</w>":532,"what</w>":533,"acc":534,"bec":535,"act</w>":536,"may</w>":537,"than</w>":538,"he</w>":539,"als</w>":540,"for":541,"tu":542,"ure</w>":543,"resp":544,"like</w>":545,"vel</w>":546,"sti":547,"mon":548,"eci":549,"ble</w>":550,"how</w>":551,"rent</w>":552,"20</w>":553,"very</w>":554,"ous</w>":555,"tho":556,"ars</w>":557,"ded</w>":558,"res</w>":559,"test":560,"ans</w>":561,"sc":562,"fin":563,"when</w>":564,"diff":565,"ong</w>":566,"am</w>":567,"ser":568,"could</w>":569,"ju":570,"ence</w>":571,"sing</w>":572,"dise":573,"sit":574,"does</w>":575,"et":576,"av":577,"ations</w>":578,"00</w>":579,"ound</w>":580,"pers":581,"bet":582,"min":583,"day</w>":584,"cur":585,"only</w>":586,"low":587,"these</w>":588,"age</w>":589,"read</w>":590,"ates</w>":591,"infected</w>":592,"ber</w>":593,"tom":594,"sel":595,"cases</w>":596,"ome":597,"gu":598,"pub":599,"many</w>":600,"me</w>":601,"aid</w>":602,"fir":603,"ye":604,"ty</w>":605,"num":606,"clu":607,"viruses</w>":608,"ten":609,"up</w>":610,"pp":611,"ory</w>":612,"use</w>":613,"CO":614,"ari":615,"such</w>":616,"demi":617,"pan":618,"sam":619,"ess":620,"ple</w>":621,"way</w>":622,"thing</w>":623,"them</w>":624,"most</w>":625,"then</w>":626,"some":627,"VI":628,"tional</w>":629,"eff":630,"fun":631,"ll</w>":632,"low</w>":633,"dat":634,"mptom":635,"COVI":636,"imp":637,"ell</w>":638,"because</w>":639,"ali":640,"trans":641,"htt":642,"te</w>":643,"ties</w>":644,"arch</w>":645,"where</w>":646,"COVID</w>":647,"possi":648,"ra":649,"brea":650,"ph":651,"new</w>":652,"read":653,"its</w>":654,"duc":655,"sen":656,"disease</w>":657,"prob":658,"Wh":659,"days</w>":660,"pr":661,"after</w>":662,"ad</w>":663,"cre":664,"gn":665,"were</w>":666,"inter":667,"spread</w>":668,"fore</w>":669,"ina</w>":670,"travel</w>":671,"demic</w>":672,"ste":673,"those</w>":674,"ss</w>":675,"mation</w>":676,"diffe":677,"risk</w>":678,"just</w>":679,"ic</w>":680,"like":681,"ain":682,"mil":683,"pri":684,"symptom":685,"tic</w>":686,"vern":687,"with":688,"ces</w>":689,"2020</w>":690,"publi":691,"dy</w>":692,"ort":693,"stu":694,"even</w>":695,"data</w>":696,"econ":697,"ques":698,"http</w>":699,"clo":700,"sin":701,"ical</w>":702,"person</w>":703,"mas":704,"ater</w>":705,"loc":706,"need</w>":707,"infor":708,"ving</w>":709,"exp":710,"being</w>":711,"appro":712,"had</w>":713,"govern":714,"said</w>":715,"ach</w>":716,"off":717,"tre":718,"requ":719,"cer":720,"ell":721,"symptoms</w>":722,"home</w>":723,"make</w>":724,"han":725,"lin":726,"medic":727,"ings</w>":728,"bas":729,"fu":730,"tw":731,"number</w>":732,"air":733,"bi":734,"ws</w>":735,"ple":736,"ard</w>":737,"still</w>":738,"dis":739,"less</w>":740,"into</w>":741,"might</w>":742,"ate":743,"care</w>":744,"ge":745,"ors</w>":746,"inclu":747,"vacc":748,"work</w>":749,"wever</w>":750,"na":751,"hum":752,"oc":753,"fl":754,"ob":755,"vis":756,"dist":757,"exam":758,"pati":759,"ww":760,"bac":761,"ying</w>":762,"possible</w>":763,"ps</w>":764,"www</w>":765,"tri":766,"ici":767,"before</w>":768,"fli":769,"line</w>":770,"countries</w>":771,"ected</w>":772,"likely</w>":773,"sch":774,"ons</w>":775,"ile</w>":776,"reg":777,"ility</w>":778,"gener":779,"case</w>":780,"sts</w>":781,"cle":782,"respon":783,"wee":784,"here</w>":785,"end</w>":786,"much</w>":787,"hel":788,"know</w>":789,"des":790,"id</w>":791,"ow</w>":792,"ill":793,"cov</w>":794,"infection</w>":795,"mode":796,"ating</w>":797,"ssion</w>":798,"public</w>":799,"tur":800,"down</w>":801,"country</w>":802,"dro":803,"while</w>":804,"see</w>":805,"sure</w>":806,"test</w>":807,"information</w>":808,"id":809,"lt</w>":810,"speci":811,"soci":812,"are":813,"of":814,"ved</w>":815,"ves</w>":816,"chan":817,"emp":818,"repor":819,"different</w>":820,"outbrea":821,"two</w>":822,"kno":823,"ths</w>":824,"provi":825,"self</w>":826,"The</w>":827,"state</w>":828,"ext</w>":829,"first</w>":830,"ick</w>":831,"china</w>":832,"com</w>":833,"prev":834,"man":835,"under":836,"peri":837,"10</w>":838,"ori":839,"les</w>":840,"thr":841,"meas":842,"question</w>":843,"ning</w>":844,"all":845,"sion</w>":846,"take</w>":847,"over</w>":848,"velo":849,"same</w>":850,"well</w>":851,"thin":852,"reas":853,"cu":854,"plac":855,"fic":856,"ked</w>":857,"mar":858,"ail":859,"dur":860,"fo":861,"ant":862,"anti":863,"arly</w>":864,"contact</w>":865,"canc":866,"go</w>":867,"prot":868,"vir":869,"loo":870,"lic":871,"sars</w>":872,"consi":873,"spit":874,"ain</w>":875,"lar":876,"long</w>":877,"stay</w>":878,"stric":879,"mun":880,"pul":881,"used</w>":882,"government</w>":883,"ments</w>":884,"develo":885,"however</w>":886,"ms</w>":887,"pen":888,"hospit":889,"ential</w>":890,"cau":891,"any":892,"example</w>":893,"ther":894,"ger</w>":895,"nee":896,"plic":897,"ems</w>":898,"patients</w>":899,"eng":900,"going</w>":901,"pandemic</w>":902,"through</w>":903,"atory</w>":904,"situ":905,"What</w>":906,"his</w>":907,"ran":908,"during</w>":909,"ei":910,"pas":911,"ures</w>":912,"ven</w>":913,"times</w>":914,"ort</w>":915,"ited</w>":916,"outbreak</w>":917,"wer</w>":918,"star":919,"contr":920,"2019</w>":921,"immun":922,"ue</w>":923,"medical</w>":924,"gre":925,"med</w>":926,"ite</w>":927,"least</w>":928,"amp</w>":929,"mission</w>":930,"effec":931,"tor</w>":932,"ween</w>":933,"ainst</w>":934,"ze</w>":935,"poin":936,"chil":937,"against</w>":938,"between</w>":939,"though</w>":940,"cy</w>":941,"whe":942,"using</w>":943,"ent":944,"uni":945,"think</w>":946,"ably</w>":947,"quar":948,"help</w>":949,"dent</w>":950,"fol":951,"mat":952,"cd":953,"restric":954,"respir":955,"ket</w>":956,"pe</w>":957,"tru":958,"ia</w>":959,"ection</w>":960,"good</w>":961,"body</w>":962,"face</w>":963,"econom":964,"dre":965,"due</w>":966,"log":967,"popul":968,"did</w>":969,"lot</w>":970,"cri":971,"can":972,"ness</w>":973,"posi":974,"back</w>":975,"000</w>":976,"ll":977,"acti":978,"temp":979,"sub":980,"order</w>":981,"boo":982,"hou":983,"was":984,"ice</w>":985,"since</w>":986,"emplo":987,"situation</w>":988,"sol":989,"direc":990,"ready</w>":991,"say</w>":992,"sick</w>":993,"water</w>":994,"try</w>":995,"tain</w>":996,"ful":997,"ga":998,"lu":999,"artic":1000,"without</w>":1001,"re</w>":1002,"incre":1003,"vaccine</w>":1004,"cdc</w>":1005,"dec":1006,"sour":1007,"tain":1008,"Is</w>":1009,"aff":1010,"cour":1011,"oo":1012,"rese":1013,"partic":1014,"model</w>":1015,"date</w>":1016,"rate</w>":1017,"ture</w>":1018,"resu":1019,"human</w>":1020,"el</w>":1021,"avail":1022,"ce":1023,"ily</w>":1024,"around</w>":1025,"ghts</w>":1026,"someone</w>":1027,"ty":1028,"lim":1029,"based</w>":1030,"why</w>":1031,"under</w>":1032,"world</w>":1033,"emer":1034,"measures</w>":1035,"whether</w>":1036,"Co":1037,"advi":1038,"quarant":1039,"produc":1040,"high</w>":1041,"respiratory</w>":1042,"dence</w>":1043,"rel":1044,"side</w>":1045,"pres":1046,"tical</w>":1047,"sm":1048,"issu":1049,"national</w>":1050,"sho":1051,"medi":1052,"fic</w>":1053,"ree</w>":1054,"ens</w>":1055,"high":1056,"current</w>":1057,"ban":1058,"app":1059,"rently</w>":1060,"transmission</w>":1061,"fam":1062,"ey</w>":1063,"ten</w>":1064,"want</w>":1065,"03</w>":1066,"auth":1067,"few</w>":1068,"year</w>":1069,"ats</w>":1070,"right</w>":1071,"import":1072,"available</w>":1073,"How</w>":1074,"il</w>":1075,"stan":1076,"main":1077,"testing</w>":1078,"14</w>":1079,"ide":1080,"inv":1081,"indi":1082,"outh</w>":1083,"sign":1084,"syste":1085,"flu</w>":1086,"flight</w>":1087,"says</w>":1088,"tiz":1089,"ently</w>":1090,"car":1091,"states</w>":1092,"ability</w>":1093,"reco":1094,"already</w>":1095,"money</w>":1096,"tests</w>":1097,"find</w>":1098,"thers</w>":1099,"ders</w>":1100,"vari":1101,"actu":1102,"news</w>":1103,"regul":1104,"up":1105,"another</w>":1106,"stru":1107,"system</w>":1108,"ality</w>":1109,"sug":1110,"common</w>":1111,"visa</w>":1112,"social</w>":1113,"develop":1114,"article</w>":1115,"ave</w>":1116,"ned</w>":1117,"population</w>":1118,"per</w>":1119,"work":1120,"place</w>":1121,"others</w>":1122,"recomm":1123,"requi":1124,"known</w>":1125,"ous":1126,"ough":1127,"leg":1128,"retur":1129,"comp":1130,"cording</w>":1131,"fur":1132,"ma</w>":1133,"ta</w>":1134,"allow":1135,"come</w>":1136,"over":1137,"happ":1138,"including</w>":1139,"sci":1140,"sto":1141,"her</w>":1142,"ani":1143,"sted</w>":1144,"row":1145,"ically</w>":1146,"proble":1147,"response</w>":1148,"emergen":1149,"pur":1150,"ys":1151,"ini":1152,"ines</w>":1153,"vie":1154,"sup":1155,"chec":1156,"answer</w>":1157,"deci":1158,"ore":1159,"rit":1160,"anim":1161,"isol":1162,"contin":1163,"given</w>":1164,"hands</w>":1165,"assu":1166,"ach":1167,"condi":1168,"she</w>":1169,"means</w>":1170,"offici":1171,"point</w>":1172,"Ch":1173,"pay":1174,"large</w>":1175,"univer":1176,"dr":1177,"ger":1178,"get":1179,"last</w>":1180,"ways</w>":1181,"resi":1182,"indivi":1183,"struc":1184,"dents</w>":1185,"kes</w>":1186,"sity</w>":1187,"very":1188,"addi":1189,"local</w>":1190,"ately</w>":1191,"found</w>":1192,"nor":1193,"sever":1194,"servi":1195,"restrictions</w>":1196,"individu":1197,"ep</w>":1198,"jo":1199,"really</w>":1200,"ching</w>":1201,"put</w>":1202,"fr":1203,"mul":1204,"inte":1205,"ster</w>":1206,"mean</w>":1207,"air</w>":1208,"epi":1209,"avo":1210,"weeks</w>":1211,"far</w>":1212,"us":1213,"ful</w>":1214,"change</w>":1215,"don</w>":1216,"every":1217,"non</w>":1218,"vo":1219,"seems</w>":1220,"months</w>":1221,"family</w>":1222,"important</w>":1223,"10":1224,"val":1225,"according</w>":1226,"mem":1227,"mini":1228,"gam":1229,"tou":1230,"yes</w>":1231,"depen":1232,"unti":1233,"both</w>":1234,"tested</w>":1235,"positive</w>":1236,"ced</w>":1237,"cause</w>":1238,"sa":1239,"org":1240,"prof":1241,"applic":1242,"duce</w>":1243,"must</w>":1244,"drople":1245,"period</w>":1246,"until</w>":1247,"march</w>":1248,"uro":1249,"enough</w>":1250,"simil":1251,"years</w>":1252,"bers</w>":1253,"plan":1254,"too</w>":1255,"general</w>":1256,"men":1257,"sting</w>":1258,"vely</w>":1259,"quarantine</w>":1260,"hand</w>":1261,"sec":1262,"see":1263,"mask</w>":1264,"protect</w>":1265,"15</w>":1266,"cen":1267,"hy":1268,"nec":1269,"doc":1270,"probably</w>":1271,"lines</w>":1272,"evi":1273,"prote":1274,"contro":1275,"off</w>":1276,"12</w>":1277,"If</w>":1278,"glo":1279,"ature</w>":1280,"dies</w>":1281,"spread":1282,"feren":1283,"research</w>":1284,"gt</w>":1285,"tis":1286,"onal</w>":1287,"sequ":1288,"commun":1289,"emergency</w>":1290,"30</w>":1291,"US</w>":1292,"each</w>":1293,"things</w>":1294,"estim":1295,"getting</w>":1296,"best</w>":1297,"na</w>":1298,"simp":1299,"pot":1300,"term</w>":1301,"viral</w>":1302,"den":1303,"har":1304,"mp</w>":1305,"yet</w>":1306,"rela":1307,"refun":1308,"confir":1309,"concer":1310,"predic":1311,"currently</w>":1312,"treat":1313,"recommen":1314,"intere":1315,"br":1316,"every</w>":1317,"gin":1318,"land</w>":1319,"ni":1320,"tm":1321,"tal":1322,"specific</w>":1323,"small</w>":1324,"Can</w>":1325,"zed</w>":1326,"poli":1327,"lowing</w>":1328,"masks</w>":1329,"related</w>":1330,"workers</w>":1331,"In</w>":1332,"ap</w>":1333,"um</w>":1334,"ath</w>":1335,"made</w>":1336,"shi":1337,"comple":1338,"infections</w>":1339,"citiz":1340,"keep</w>":1341,"ed":1342,"war":1343,"area</w>":1344,"olog":1345,"stat":1346,"lif":1347,"exten":1348,"ours</w>":1349,"immune</w>":1350,"susp":1351,"trav":1352,"grou":1353,"etc</w>":1354,"childre":1355,"children</w>":1356,"sev":1357,"char":1358,"tics</w>":1359,"clai":1360,"health":1361,"stitu":1362,"market</w>":1363,"00":1364,"This</w>":1365,"cap":1366,"ns</w>":1367,"own</w>":1368,"main</w>":1369,"law</w>":1370,"within</w>":1371,"employ":1372,"solu":1373,"similar</w>":1374,"des</w>":1375,"equ":1376,"proc":1377,"again</w>":1378,"faces</w>":1379,"reported</w>":1380,"cancell":1381,"particul":1382,"higher</w>":1383,"prevent</w>":1384,"advice</w>":1385,"several</w>":1386,"tml</w>":1387,"severe</w>":1388,"14":1389,"100</w>":1390,"gn</w>":1391,"later</w>":1392,"stoc":1393,"polic":1394,"func":1395,"droplets</w>":1396,"19":1397,"om</w>":1398,"secon":1399,"tors</w>":1400,"wa":1401,"icul":1402,"busin":1403,"appe":1404,"coronaviruses</w>":1405,"surfaces</w>":1406,"ancing</w>":1407,"beta</w>":1408,"flights</w>":1409,"contrac":1410,"actually</w>":1411,"html</w>":1412,"saf":1413,"ants</w>":1414,"eric":1415,"rather</w>":1416,"scienti":1417,"bor":1418,"ef":1419,"ges</w>":1420,"next</w>":1421,"pap":1422,"tes</w>":1423,"ven":1424,"defin":1425,"part</w>":1426,"close</w>":1427,"fil":1428,"ming</w>":1429,"mic":1430,"val</w>":1431,"lear":1432,"posed</w>":1433,"exper":1434,"course</w>":1435,"ously</w>":1436,"avoid</w>":1437,"application</w>":1438,"cep":1439,"doing</w>":1440,"200":1441,"site</w>":1442,"apply</w>":1443,"return</w>":1444,"han</w>":1445,"ut</w>":1446,"action</w>":1447,"recei":1448,"something</w>":1449,"illness</w>":1450,"legal</w>":1451,"66</w>":1452,"dru":1453,"fri":1454,"ject</w>":1455,"nam":1456,"ster":1457,"having</w>":1458,"let</w>":1459,"port</w>":1460,"better</w>":1461,"evidence</w>":1462,"cough</w>":1463,"inese</w>":1464,"sta":1465,"influ":1466,"aying</w>":1467,"lower</w>":1468,"effective</w>":1469,"gamma</w>":1470,"25</w>":1471,"done</w>":1472,"eas":1473,"gs</w>":1474,"ged</w>":1475,"gest</w>":1476,"ili":1477,"lan":1478,"usu":1479,"tively</w>":1480,"often</w>":1481,"university</w>":1482,"necess":1483,"18</w>":1484,"hat</w>":1485,"hours</w>":1486,"ious</w>":1487,"tle</w>":1488,"lion</w>":1489,"short</w>":1490,"week</w>":1491,"hospital</w>":1492,"full</w>":1493,"source</w>":1494,"glob":1495,"cat":1496,"lon":1497,"param":1498,"ances</w>":1499,"difficul":1500,"distancing</w>":1501,"kin":1502,"col":1503,"pose</w>":1504,"fact</w>":1505,"house</w>":1506,"resul":1507,"My</w>":1508,"call":1509,"jec":1510,"ask</w>":1511,"shed</w>":1512,"part":1513,"essential</w>":1514,"treatment</w>":1515,"bro":1516,"once</w>":1517,"online</w>":1518,"enz":1519,"live</w>":1520,"sive</w>":1521,"amoun":1522,"preven":1523,"food</w>":1524,"start</w>":1525,"away</w>":1526,"hu":1527,"uhan</w>":1528,"ona</w>":1529,"spec":1530,"leave</w>":1531,"ples</w>":1532,"study</w>":1533,"clear</w>":1534,"following</w>":1535,"cannot</w>":1536,"ool</w>":1537,"mort":1538,"text</w>":1539,"novel</w>":1540,"list</w>":1541,"clin":1542,"humans</w>":1543,"temper":1544,"further</w>":1545,"check</w>":1546,"safe</w>":1547,"bility</w>":1548,"early</w>":1549,"gen</w>":1550,"ny":1551,"peci":1552,"dea":1553,"give</w>":1554,"norm":1555,"13":1556,"cul":1557,"gin</w>":1558,"ken</w>":1559,"ann":1560,"stand</w>":1561,"ish</w>":1562,"global</w>":1563,"So</w>":1564,"cris":1565,"old</w>":1566,"pay</w>":1567,"tro":1568,"zation</w>":1569,"open</w>":1570,"soap</w>":1571,"form</w>":1572,"reason</w>":1573,"wash":1574,"stop</w>":1575,"services</w>":1576,"cough":1577,"ki":1578,"lat":1579,"lit":1580,"mit":1581,"abo":1582,"count</w>":1583,"diseases</w>":1584,"phys":1585,"consider</w>":1586,"authori":1587,"problem</w>":1588,"crisis</w>":1589,"16</w>":1590,"11</w>":1591,"ific":1592,"ls</w>":1593,"sing":1594,"ought</w>":1595,"dit</w>":1596,"set</w>":1597,"vered</w>":1598,"economic</w>":1599,"typ":1600,"initi":1601,"view</w>":1602,"call</w>":1603,"fy</w>":1604,"inten":1605,"cold</w>":1606,"maj":1607,"experi":1608,"hold</w>":1609,"outside</w>":1610,"international</w>":1611,"either</w>":1612,"community</w>":1613,"Cor":1614,"bin":1615,"ling</w>":1616,"ner</w>":1617,"snee":1618,"supp":1619,"els</w>":1620,"elec":1621,"working</w>":1622,"closed</w>":1623,"airline</w>":1624,"school</w>":1625,"immunity</w>":1626,"epidemic</w>":1627,"60</w>":1628,"ben":1629,"fa":1630,"lab":1631,"ncov</w>":1632,"thro":1633,"tici":1634,"although</w>":1635,"taking</w>":1636,"activi":1637,"control</w>":1638,"results</w>":1639,"It</w>":1640,"ft</w>":1641,"hal":1642,"man</w>":1643,"ters</w>":1644,"sum":1645,"deter":1646,"dered</w>":1647,"entially</w>":1648,"certain</w>":1649,"increase</w>":1650,"orea</w>":1651,"organi":1652,"confirmed</w>":1653,"influenz":1654,"13</w>":1655,"50</w>":1656,"tal</w>":1657,"disc":1658,"ages</w>":1659,"become</w>":1660,"identi":1661,"understand</w>":1662,"anything</w>":1663,"CoV</w>":1664,"amount</w>":1665,"deaths</w>":1666,"cr":1667,"reduce</w>":1668,"ick":1669,"guid":1670,"look</w>":1671,"signific":1672,"conditions</w>":1673,"China</w>":1674,"refund</w>":1675,"above</w>":1676,"influenza</w>":1677,"ban</w>":1678,"gy</w>":1679,"pac":1680,"three</w>":1681,"rely</w>":1682,"regi":1683,"allow</w>":1684,"contain":1685,"spo":1686,"web":1687,"descri":1688,"wash</w>":1689,"affected</w>":1690,"type</w>":1691,"allowed</w>":1692,"blo":1693,"sh</w>":1694,"sha":1695,"ale</w>":1696,"ased</w>":1697,"especi":1698,"who":1699,"makes</w>":1700,"tail":1701,"ols</w>":1702,"effect</w>":1703,"provide</w>":1704,"protein</w>":1705,"cancelled</w>":1706,"stock</w>":1707,"function</w>":1708,"guidance</w>":1709,"especially</w>":1710,"tation</w>":1711,"note</w>":1712,"plan</w>":1713,"infecti":1714,"deral</w>":1715,"anyone</w>":1716,"stand":1717,"continue</w>":1718,"additional</w>":1719,"12":1720,"In":1721,"ial</w>":1722,"entry</w>":1723,"ross</w>":1724,"theta</w>":1725,"exi":1726,"surface</w>":1727,"recently</w>":1728,"generally</w>":1729,"looking</w>":1730,"benef":1731,"led</w>":1732,"rna</w>":1733,"anal":1734,"active</w>":1735,"suff":1736,"making</w>":1737,"cial</w>":1738,"fied</w>":1739,"numbers</w>":1740,"lock":1741,"ells</w>":1742,"child</w>":1743,"citizens</w>":1744,"status</w>":1745,"life</w>":1746,"AR":1747,"cir":1748,"hop":1749,"wers</w>":1750,"aring</w>":1751,"nose</w>":1752,"lie":1753,"cho":1754,"ribu":1755,"tely</w>":1756,"fever</w>":1757,"recent</w>":1758,"Why</w>":1759,"mild</w>":1760,"issue</w>":1761,"safe":1762,"bill</w>":1763,"tec":1764,"wing</w>":1765,"atten":1766,"united</w>":1767,"lev":1768,"excep":1769,"ire</w>":1770,"distribu":1771,"contract</w>":1772,"trump</w>":1773,"result</w>":1774,"individuals</w>":1775,"Ho":1776,"March</w>":1777,"atic</w>":1778,"bit</w>":1779,"grow":1780,"ening</w>":1781,"visit":1782,"ital":1783,"asking</w>":1784,"actions</w>":1785,"show</w>":1786,"got</w>":1787,"students</w>":1788,"true</w>":1789,"sources</w>":1790,"media</w>":1791,"spreading</w>":1792,"usually</w>":1793,"But</w>":1794,"ber":1795,"cam":1796,"ry</w>":1797,"wal":1798,"esti":1799,"del":1800,"americ":1801,"presi":1802,"month</w>":1803,"public":1804,"differen":1805,"future</w>":1806,"ental</w>":1807,"animals</w>":1808,"paper</w>":1809,"necessary</w>":1810,"announ":1811,"bly</w>":1812,"ute</w>":1813,"ref":1814,"diag":1815,"adv":1816,"ago</w>":1817,"stead</w>":1818,"obser":1819,"desi":1820,"origin":1821,"hospitals</w>":1822,"causes</w>":1823,"infectious</w>":1824,"ama":1825,"dr</w>":1826,"lun":1827,"table</w>":1828,"uk</w>":1829,"ues</w>":1830,"xi":1831,"via</w>":1832,"associ":1833,"unless</w>":1834,"coll":1835,"compan":1836,"move</w>":1837,"appropri":1838,"hand":1839,"fore":1840,"engen</w>":1841,"ference</w>":1842,"group</w>":1843,"mouth</w>":1844,"sk":1845,"instead</w>":1846,"ang":1847,"aning</w>":1848,"size</w>":1849,"infect</w>":1850,"patho":1851,"grad":1852,"eters</w>":1853,"regar":1854,"centr":1855,"longer</w>":1856,"italy</w>":1857,"diagno":1858,"80</w>":1859,"aw":1860,"mal":1861,"past</w>":1862,"reduc":1863,"ics</w>":1864,"expl":1865,"previ":1866,"gov</w>":1867,"dering</w>":1868,"questions</w>":1869,"limited</w>":1870,"Covid</w>":1871,"bank</w>":1872,"sugge":1873,"seem</w>":1874,"temperature</w>":1875,"authorities</w>":1876,"22</w>":1877,"cas":1878,"da</w>":1879,"os</w>":1880,"pne":1881,"essi":1882,"progr":1883,"oper":1884,"taken</w>":1885,"sense</w>":1886,"trip</w>":1887,"passen":1888,"economy</w>":1889,"gather":1890,"official</w>":1891,"clinical</w>":1892,"nytimes</w>":1893,"single</w>":1894,"Are</w>":1895,"euro":1896,"ging</w>":1897,"hard</w>":1898,"arch":1899,"ority</w>":1900,"light</w>":1901,"trying</w>":1902,"seen</w>":1903,"mid":1904,"ticket</w>":1905,"today</w>":1906,"scho":1907,"employe":1908,"idea</w>":1909,"mortality</w>":1910,"However</w>":1911,"ak</w>":1912,"bre":1913,"den</w>":1914,"nd</w>":1915,"pi":1916,"tting</w>":1917,"wr":1918,"ination</w>":1919,"esses</w>":1920,"death</w>":1921,"quite</w>":1922,"pared</w>":1923,"access</w>":1924,"impact</w>":1925,"areas</w>":1926,"reasons</w>":1927,"present</w>":1928,"potential</w>":1929,"particular</w>":1930,"95</w>":1931,"city</w>":1932,"ear":1933,"youn":1934,"art</w>":1935,"always</w>":1936,"mis":1937,"include</w>":1938,"booking</w>":1939,"company</w>":1940,"ship</w>":1941,"parameters</w>":1942,"little</w>":1943,"Corona":1944,"blood</w>":1945,"17</w>":1946,"We</w>":1947,"tun":1948,"writ":1949,"ins</w>":1950,"insur":1951,"ering</w>":1952,"arri":1953,"org</w>":1954,"ack</w>":1955,"expect</w>":1956,"suggest</w>":1957,"required</w>":1958,"multi":1959,"ology</w>":1960,"process</w>":1961,"business</w>":1962,"lockdown</w>":1963,"ba":1964,"cells</w>":1965,"mer</w>":1966,"won":1967,"zing</w>":1968,"argu":1969,"stre":1970,"iting</w>":1971,"died</w>":1972,"proce":1973,"below</w>":1974,"nega":1975,"correc":1976,"wear</w>":1977,"older</w>":1978,"strate":1979,"told</w>":1980,"fully</w>":1981,"officials</w>":1982,"tech":1983,"schools</w>":1984,"insurance</w>":1985,"24</w>":1986,"cha":1987,"son</w>":1988,"tell</w>":1989,"your":1990,"alco":1991,"vide":1992,"spe":1993,"lead":1994,"begin</w>":1995,"agre":1996,"dom</w>":1997,"bodies</w>":1998,"force</w>":1999,"manu":2000,"develop</w>":2001,"effects</w>":2002,"isolation</w>":2003,"companies</w>":2004,"alcoho":2005,"cc":2006,"est":2007,"fit</w>":2008,"hin":2009,"ld":2010,"nal</w>":2011,"vali":2012,"thought</w>":2013,"indic":2014,"hood</w>":2015,"survi":2016,"pper</w>":2017,"range</w>":2018,"called</w>":2019,"safety</w>":2020,"paid</w>":2021,"onia</w>":2022,"story</w>":2023,"there":2024,"chinese</w>":2025,"opp":2026,"tically</w>":2027,"total</w>":2028,"event</w>":2029,"selves</w>":2030,"probability</w>":2031,"certain":2032,"reason":2033,"invol":2034,"member</w>":2035,"drug</w>":2036,"kind</w>":2037,"pneum":2038,"Coronavirus</w>":2039,"HO</w>":2040,"SAR":2041,"cat</w>":2042,"free</w>":2043,"mers</w>":2044,"rap":2045,"institu":2046,"rules</w>":2047,"living</w>":2048,"logi":2049,"cover</w>":2050,"ext":2051,"among</w>":2052,"buy</w>":2053,"else</w>":2054,"corona</w>":2055,"tail</w>":2056,"federal</w>":2057,"scen":2058,"prac":2059,"expected</w>":2060,"governments</w>":2061,"vaccines</w>":2062,"needs</w>":2063,"follow</w>":2064,"germany</w>":2065,"everyone</w>":2066,"value</w>":2067,"touching</w>":2068,"difficult</w>":2069,"appropriate</w>":2070,"yourself</w>":2071,"WHO</w>":2072,"bed</w>":2073,"ble":2074,"bur":2075,"cent":2076,"eld</w>":2077,"enter</w>":2078,"acy</w>":2079,"coming</w>":2080,"immedi":2081,"serious</w>":2082,"sample</w>":2083,"practi":2084,"happen</w>":2085,"normal</w>":2086,"SARS</w>":2087,"Sh":2088,"bru":2089,"non":2090,"south</w>":2091,"uary</w>":2092,"anuary</w>":2093,"err":2094,"ones</w>":2095,"asi":2096,"ass":2097,"cover":2098,"share</w>":2099,"nei":2100,"stration</w>":2101,"lab</w>":2102,"bio":2103,"specific":2104,"caused</w>":2105,"direct</w>":2106,"support</w>":2107,"simply</w>":2108,"travel":2109,"website</w>":2110,"alcohol</w>":2111,"pneumonia</w>":2112,"bats</w>":2113,"ement</w>":2114,"fat":2115,"frequ":2116,"gro":2117,"korea</w>":2118,"stim":2119,"tar":2120,"ator</w>":2121,"omes</w>":2122,"lies</w>":2123,"detail":2124,"level</w>":2125,"buil":2126,"comes</w>":2127,"migr":2128,"mitted</w>":2129,"president</w>":2130,"manufac":2131,"therefore</w>":2132,"Euro":2133,"wom":2134,"thre":2135,"inst":2136,"real</w>":2137,"envir":2138,"ories</w>":2139,"left</w>":2140,"extre":2141,"hol":2142,"grap":2143,"arily</w>":2144,"samples</w>":2145,"distance</w>":2146,"models</w>":2147,"changes</w>":2148,"cancel</w>":2149,"needed</w>":2150,"decision</w>":2151,"second</w>":2152,"pack":2153,"malari":2154,"environ":2155,"bri":2156,"border</w>":2157,"dri":2158,"ima":2159,"lor":2160,"lying</w>":2161,"pt</w>":2162,"rout":2163,"remo":2164,"dia</w>":2165,"post</w>":2166,"tioned</w>":2167,"quick":2168,"wise</w>":2169,"price</w>":2170,"approach</w>":2171,"patient</w>":2172,"manag":2173,"house":2174,"development</w>":2175,"healthcare</w>":2176,"employment</w>":2177,"washing</w>":2178,"negative</w>":2179,"Should</w>":2180,"40</w>":2181,"Fe":2182,"cal":2183,"gers</w>":2184,"kill</w>":2185,"r0</w>":2186,"int</w>":2187,"inde":2188,"remain</w>":2189,"erci":2190,"alph":2191,"account</w>":2192,"unlikely</w>":2193,"mail</w>":2194,"new":2195,"pregn":2196,"feel</w>":2197,"soon</w>":2198,"accep":2199,"scre":2200,"studies</w>":2201,"standing</w>":2202,"animal</w>":2203,"individual</w>":2204,"estimate</w>":2205,"interest</w>":2206,"solution</w>":2207,"major</w>":2208,"associated</w>":2209,"forei":2210,"aware</w>":2211,"practice</w>":2212,"alpha</w>":2213,"For</w>":2214,"UK</w>":2215,"dge</w>":2216,"fra":2217,"my":2218,"saying</w>":2219,"inated</w>":2220,"orts</w>":2221,"proper":2222,"press</w>":2223,"https</w>":2224,"fication</w>":2225,"considered</w>":2226,"developed</w>":2227,"job</w>":2228,"political</w>":2229,"travell":2230,"physical</w>":2231,"scenari":2232,"bruary</w>":2233,"frac</w>":2234,"bad</w>":2235,"cum":2236,"dom":2237,"dra":2238,"mine</w>":2239,"wuhan</w>":2240,"inve":2241,"ord":2242,"atur":2243,"sions</w>":2244,"deb":2245,"ada</w>":2246,"admini":2247,"tax</w>":2248,"tations</w>":2249,"clas":2250,"accur":2251,"personal</w>":2252,"million</w>":2253,"visit</w>":2254,"report</w>":2255,"reports</w>":2256,"underlying</w>":2257,"protection</w>":2258,"problems</w>":2259,"growth</w>":2260,"announced</w>":2261,"malaria</w>":2262,"21</w>":2263,"As</w>":2264,"ont</w>":2265,"sible</w>":2266,"def":2267,"depart":2268,"them":2269,"exerci":2270,"chance</w>":2271,"ried</w>":2272,"adul":2273,"agen":2274,"perfor":2275,"published</w>":2276,"approved</w>":2277,"places</w>":2278,"dry</w>":2279,"sequence</w>":2280,"simple</w>":2281,"experts</w>":2282,"experience</w>":2283,"significant</w>":2284,"whole</w>":2285,"quickly</w>":2286,"31</w>":2287,"Un":2288,"bon":2289,"cent</w>":2290,"dly</w>":2291,"lation</w>":2292,"ow":2293,"ol</w>":2294,"pi</w>":2295,"vol":2296,"thus</w>":2297,"almost</w>":2298,"aca":2299,"ligi":2300,"may":2301,"urity</w>":2302,"compu":2303,"mely</w>":2304,"immigr":2305,"eps</w>":2306,"ains</w>":2307,"approval</w>":2308,"mater":2309,"particles</w>":2310,"claim</w>":2311,"healthy</w>":2312,"policy</w>":2313,"coughing</w>":2314,"regarding</w>":2315,"multiple</w>":2316,"stimul":2317,"themselves</w>":2318,"section</w>":2319,"ene</w>":2320,"stems</w>":2321,"asy":2322,"meth":2323,"presen":2324,"ism</w>":2325,"factors</w>":2326,"hiv</w>":2327,"tom</w>":2328,"curve</w>":2329,"medicine</w>":2330,"objec":2331,"schengen</w>":2332,"production</w>":2333,"sequen":2334,"prevention</w>":2335,"gatherings</w>":2336,"bleach</w>":2337,"women</w>":2338,"29":2339,"23</w>":2340,"Re":2341,"lam":2342,"leng":2343,"ok</w>":2344,"oes</w>":2345,"ward</w>":2346,"ace</w>":2347,"ices</w>":2348,"run</w>":2349,"tran":2350,"exac":2351,"advis":2352,"factor</w>":2353,"systems</w>":2354,"likeli":2355,"mass</w>":2356,"link</w>":2357,"big</w>":2358,"icient</w>":2359,"antibodies</w>":2360,"great</w>":2361,"book</w>":2362,"shows</w>":2363,"dependent</w>":2364,"equi":2365,"learning</w>":2366,"receive</w>":2367,"standard</w>":2368,"distribution</w>":2369,"90</w>":2370,"99</w>":2371,"Ger":2372,"bal":2373,"dama":2374,"jour":2375,"late</w>":2376,"sent</w>":2377,"ton</w>":2378,"xim":2379,"zer":2380,"zes</w>":2381,"inci":2382,"reser":2383,"stances</w>":2384,"itself</w>":2385,"room</w>":2386,"illion</w>":2387,"sue</w>":2388,"seas":2389,"separ":2390,"expo":2391,"rights</w>":2392,"short":2393,"never</w>":2394,"host</w>":2395,"dow":2396,"aily</w>":2397,"him</w>":2398,"key</w>":2399,"kets</w>":2400,"syn":2401,"scale</w>":2402,"imple":2403,"special</w>":2404,"know":2405,"pass</w>":2406,"started</w>":2407,"subject</w>":2408,"actual</w>":2409,"purpose</w>":2410,"ysis</w>":2411,"capac":2412,"scientists</w>":2413,"method</w>":2414,"cou":2415,"dated</w>":2416,"daily</w>":2417,"gl":2418,"nu":2419,"utes</w>":2420,"vation</w>":2421,"run":2422,"consu":2423,"che":2424,"addre":2425,"dog</w>":2426,"pean</w>":2427,"tax":2428,"worse</w>":2429,"istic</w>":2430,"toge":2431,"clean</w>":2432,"measure</w>":2433,"starting</w>":2434,"directly</w>":2435,"recovered</w>":2436,"various</w>":2437,"doctor</w>":2438,"talk</w>":2439,"catch</w>":2440,"supply</w>":2441,"circum":2442,"previous</w>":2443,"together</w>":2444,"15":2445,"cing</w>":2446,"dou":2447,"ef</w>":2448,"ids</w>":2449,"mom":2450,"pite</w>":2451,"rep":2452,"stom":2453,"haps</w>":2454,"succ":2455,"extr":2456,"opti":2457,"goes</w>":2458,"context</w>":2459,"strali":2460,"field</w>":2461,"possibly</w>":2462,"prior</w>":2463,"includes</w>":2464,"nation":2465,"bacter":2466,"despite</w>":2467,"gress</w>":2468,"assume</w>":2469,"profess":2470,"completely</w>":2471,"ological</w>":2472,"broad":2473,"video</w>":2474,"likelihood</w>":2475,"28</w>":2476,"eter</w>":2477,"ition</w>":2478,"mit</w>":2479,"mso</w>":2480,"mental</w>":2481,"sort</w>":2482,"ensure</w>":2483,"ects</w>":2484,"across</w>":2485,"noti":2486,"sely</w>":2487,"compared</w>":2488,"corpor":2489,"feet</w>":2490,"gene":2491,"evol":2492,"airlines</w>":2493,"occur":2494,"obvi":2495,"tempor":2496,"limit</w>":2497,"products</w>":2498,"require":2499,"professi":2500,"potentially</w>":2501,"ilities</w>":2502,"activity</w>":2503,"lieve</w>":2504,"passengers</w>":2505,"household</w>":2506,"asymptom":2507,"26</w>":2508,"27</w>":2509,"Al":2510,"Ne":2511,"dates</w>":2512,"foc":2513,"other":2514,"sis</w>":2515,"vin":2516,"var":2517,"anted</w>":2518,"remain":2519,"det":2520,"dead":2521,"spi":2522,"poses</w>":2523,"ops</w>":2524,"perhaps</w>":2525,"wearing</w>":2526,"ail</w>":2527,"wide</w>":2528,"tty</w>":2529,"minutes</w>":2530,"alized</w>":2531,"breathing</w>":2532,"expon":2533,"offer</w>":2534,"gets</w>":2535,"trials</w>":2536,"provider</w>":2537,"booked</w>":2538,"investi":2539,"isolate</w>":2540,"recommend":2541,"appear</w>":2542,"strategy</w>":2543,"manufactu":2544,"capacity</w>":2545,"AT":2546,"Wuhan</w>":2547,"ak":2548,"aver":2549,"ca":2550,"ck</w>":2551,"fre":2552,"fal":2553,"ods</w>":2554,"ancial</w>":2555,"simul":2556,"deli":2557,"cost</w>":2558,"abli":2559,"conclu":2560,"conduc":2561,"quali":2562,"cies</w>":2563,"guide":2564,"cleaning</w>":2565,"ills</w>":2566,"cancel":2567,"issues</w>":2568,"condition</w>":2569,"drin":2570,"scientific</w>":2571,"half</w>":2572,"correct</w>":2573,"establi":2574,"reasonable</w>":2575,"immediately</w>":2576,"specifically</w>":2577,"pregnant</w>":2578,"administration</w>":2579,"adults</w>":2580,"stimulus</w>":2581,"exactly</w>":2582,"asymptomatic</w>":2583,"Do</w>":2584,"ely</w>":2585,"her":2586,"hit</w>":2587,"january</w>":2588,"mary</w>":2589,"san":2590,"sani":2591,"wat":2592,"yle</w>":2593,"inc":2594,"incu":2595,"rele":2596,"resources</w>":2597,"ork</w>":2598,"rup":2599,"dep":2600,"post":2601,"exposed</w>":2602,"ounds</w>":2603,"pretty</w>":2604,"200</w>":2605,"fig":2606,"create</w>":2607,"prime</w>":2608,"treat</w>":2609,"basically</w>":2610,"please</w>":2611,"flu":2612,"provided</w>":2613,"canada</w>":2614,"affect</w>":2615,"pressure</w>":2616,"authority</w>":2617,"requires</w>":2618,"payment</w>":2619,"addition</w>":2620,"security</w>":2621,"spreads</w>":2622,"ferences</w>":2623,"concerned</w>":2624,"initial</w>":2625,"activities</w>":2626,"analysis</w>":2627,"except</w>":2628,"knowle":2629,"moment</w>":2630,"guidelines</w>":2631,"35</w>":2632,"And</w>":2633,"Does</w>":2634,"ative</w>":2635,"bat</w>":2636,"bation</w>":2637,"bir":2638,"eu":2639,"ets</w>":2640,"ever</w>":2641,"four</w>":2642,"ner":2643,"natur":2644,"plot</w>":2645,"smo":2646,"upper</w>":2647,"thir":2648,"rest</w>":2649,"ened</w>":2650,"asked</w>":2651,"lied</w>":2652,"loan</w>":2653,"lots</w>":2654,"lead</w>":2655,"compar":2656,"pedia</w>":2657,"tee</w>":2658,"heard</w>":2659,"terms</w>":2660,"answers</w>":2661,"ingly</w>":2662,"mut":2663,"fortun":2664,"tures</w>":2665,"financial</w>":2666,"step</w>":2667,"tribu":2668,"understanding</w>":2669,"protec":2670,"research":2671,"developing</w>":2672,"aching</w>":2673,"Chinese</w>":2674,"service</w>":2675,"members</w>":2676,"concerns</w>":2677,"recommended</w>":2678,"groups</w>":2679,"borders</w>":2680,"determin":2681,"organization</w>":2682,"pathogen":2683,"department</w>":2684,"circumstances</w>":2685,"otherwise</w>":2686,"Ac":2687,"aa":2688,"bit":2689,"bol":2690,"dan":2691,"lec":2692,"ne</w>":2693,"page</w>":2694,"rates</w>":2695,"top":2696,"thes":2697,"income</w>":2698,"antly</w>":2699,"encour":2700,"acts</w>":2701,"search</w>":2702,"unemployment</w>":2703,"propor":2704,"rix</w>":2705,"infecting</w>":2706,"tering</w>":2707,"strain</w>":2708,"top</w>":2709,"events</w>":2710,"ements</w>":2711,"law":2712,"guar":2713,"student</w>":2714,"random</w>":2715,"matrix</w>":2716,"maintain</w>":2717,"update</w>":2718,"continu":2719,"values</w>":2720,"mentioned</w>":2721,"wards</w>":2722,"particularly</w>":2723,"learn</w>":2724,"species</w>":2725,"described</w>":2726,"benefits</w>":2727,"difference</w>":2728,"design":2729,"suggests</w>":2730,"invest":2731,"ordin":2732,"exercise</w>":2733,"investig":2734,"average</w>":2735,"50":2736,"AC":2737,"Con":2738,"Ital":2739,"St":2740,"cy":2741,"dy":2742,"fle":2743,"fair":2744,"ny</w>":2745,"rss</w>":2746,"tary</w>":2747,"refu":2748,"ended</w>":2749,"stly</w>":2750,"vid":2751,"astic</w>":2752,"nothing</w>":2753,"essing</w>":2754,"die</w>":2755,"code</w>":2756,"conver":2757,"constitu":2758,"chlor":2759,"option</w>":2760,"opini":2761,"metho":2762,"tag</w>":2763,"words</w>":2764,"head</w>":2765,"party</w>":2766,"funds</w>":2767,"transmitted</w>":2768,"possibility</w>":2769,"credit</w>":2770,"expen":2771,"require</w>":2772,"outbreaks</w>":2773,"antibody</w>":2774,"matter</w>":2775,"issued</w>":2776,"showing</w>":2777,"recover</w>":2778,"regular</w>":2779,"epidemi":2780,"minister</w>":2781,"estimates</w>":2782,"relative</w>":2783,"charac":2784,"micro":2785,"stern</w>":2786,"easily</w>":2787,"colle":2788,"typically</w>":2789,"existing</w>":2790,"employees</w>":2791,"valid</w>":2792,"neigh":2793,"frequently</w>":2794,"myself</w>":2795,"maybe</w>":2796,"exposure</w>":2797,"incubation</w>":2798,"figure</w>":2799,"Italy</w>":2800,"88":2801,"Or</w>":2802,"Tru":2803,"df</w>":2804,"fall</w>":2805,"len":2806,"nCoV</w>":2807,"sal</w>":2808,"ining</w>":2809,"arr":2810,"ators</w>":2811,"liqu":2812,"dem":2813,"dest":2814,"demo":2815,"contain</w>":2816,"believe</w>":2817,"aged</w>":2818,"february</w>":2819,"parts</w>":2820,"giene</w>":2821,"tual</w>":2822,"persons</w>":2823,"phar":2824,"send</w>":2825,"help":2826,"larger</w>":2827,"position</w>":2828,"carri":2829,"regularly</w>":2830,"aches</w>":2831,"structure</w>":2832,"usa</w>":2833,"everything</w>":2834,"touch</w>":2835,"secre":2836,"hygiene</w>":2837,"docum":2838,"extension</w>":2839,"businesses</w>":2840,"catching</w>":2841,"lung</w>":2842,"program":2843,"young</w>":2844,"length</w>":2845,"48</w>":2846,"500</w>":2847,"74</w>":2848,"94</w>":2849,"ct":2850,"don":2851,"email</w>":2852,"sw":2853,"squ":2854,"venti":2855,"wed</w>":2856,"wil":2857,"intro":2858,"tives</w>":2859,"ond</w>":2860,"steps</w>":2861,"attemp":2862,"sus</w>":2863,"const</w>":2864,"produce</w>":2865,"sport</w>":2866,"poly</w>":2867,"exclu":2868,"precau":2869,"moder":2870,"play</w>":2871,"impro":2872,"ground</w>":2873,"priv":2874,"airport</w>":2875,"occu":2876,"critical</w>":2877,"shown</w>":2878,"happens</w>":2879,"assump":2880,"vote</w>":2881,"wait</w>":2882,"received</w>":2883,"throat</w>":2884,"region</w>":2885,"choice</w>":2886,"observed</w>":2887,"original</w>":2888,"wondering</w>":2889,"certainly</w>":2890,"foreign</w>":2891,"professor</w>":2892,"29</w>":2893,"30":2894,"32</w>":2895,"70</w>":2896,"Apri":2897,"bs</w>":2898,"crow":2899,"fit":2900,"fail":2901,"fda</w>":2902,"hun":2903,"ly":2904,"lack</w>":2905,"mor":2906,"reach</w>":2907,"ong":2908,"alth</w>":2909,"echan":2910,"dispo":2911,"trac":2912,"covered</w>":2913,"exam</w>":2914,"chem":2915,"begin":2916,"tionally</w>":2917,"ade</w>":2918,"complic":2919,"molec":2920,"vement</w>":2921,"australi":2922,"strong</w>":2923,"interpre":2924,"increased</w>":2925,"banks</w>":2926,"recogn":2927,"allows</w>":2928,"depending</w>":2929,"seek</w>":2930,"relatively</w>":2931,"suspected</w>":2932,"mics</w>":2933,"statis":2934,"kipedia</w>":2935,"determine</w>":2936,"americans</w>":2937,"Trump</w>":2938,"April</w>":2939,"NA</w>":2940,"On</w>":2941,"The":2942,"cats</w>":2943,"ee</w>":2944,"eligi":2945,"fine</w>":2946,"gg":2947,"mechan":2948,"sal":2949,"use":2950,"xy":2951,"ends</w>":2952,"style</w>":2953,"atures</w>":2954,"acid</w>":2955,"acute</w>":2956,"ils</w>":2957,"unable</w>":2958,"conference</w>":2959,"chall":2960,"options</w>":2961,"preci":2962,"board</w>":2963,"impossible</w>":2964,"contag":2965,"giving</w>":2966,"entire</w>":2967,"becomes</w>":2968,"aving</w>":2969,"disrup":2970,"obli":2971,"illed</w>":2972,"resident</w>":2973,"residence</w>":2974,"depends</w>":2975,"tissue</w>":2976,"contracep":2977,"coughs</w>":2978,"cash</w>":2979,"breath</w>":2980,"fatality</w>":2981,"extremely</w>":2982,"calcul":2983,"Germany</w>":2984,"address</w>":2985,"exponential</w>":2986,"false</w>":2987,"sanitiz":2988,"fortunately</w>":2989,"demand</w>":2990,"No":2991,"There</w>":2992,"cell</w>":2993,"eyes</w>":2994,"fer</w>":2995,"fast</w>":2996,"ki</w>":2997,"ined</w>":2998,"instruc":2999,"relev":3000,"asse":3001,"esn</w>":3002,"ables</w>":3003,"elder":3004,"wei":3005,"cities</w>":3006,"terna":3007,"strains</w>":3008,"pain</w>":3009,"ety</w>":3010,"funding</w>":3011,"pre</w>":3012,"basis</w>":3013,"residents</w>":3014,"mention</w>":3015,"proteins</w>":3016,"definition</w>":3017,"langu":3018,"analy":3019,"levels</w>":3020,"delay</w>":3021,"central</w>":3022,"diagnosed</w>":3023,"package</w>":3024,"sequences</w>":3025,"spike</w>":3026,"manufacture":3027,"third</w>":3028,"17":3029,"1000</w>":3030,"38</w>":3031,"40":3032,"Am":3033,"Than":3034,"aer":3035,"eu</w>":3036,"ired</w>":3037,"mac":3038,"ut":3039,"recor":3040,"replic":3041,"ergy</w>":3042,"stri":3043,"items</w>":3044,"ash":3045,"acting</w>":3046,"power</w>":3047,"choo":3048,"hote":3049,"missi":3050,"ular</w>":3051,"takes</w>":3052,"worth</w>":3053,"works</w>":3054,"worried</w>":3055,"contam":3056,"ancy</w>":3057,"forced</w>":3058,"tually</w>":3059,"seri":3060,"justi":3061,"minim":3062,"sometimes</w>":3063,"phone</w>":3064,"phase</w>":3065,"changed</w>":3066,"logy</w>":3067,"director</w>":3068,"small":3069,"purposes</w>":3070,"suppor":3071,"assuming</w>":3072,"controll":3073,"policies</w>":3074,"drugs</w>":3075,"difficulty</w>":3076,"normally</w>":3077,"walk</w>":3078,"wrong</w>":3079,"survive</w>":3080,"index</w>":3081,"accurate</w>":3082,"agency</w>":3083,"separate</w>":3084,"fairly</w>":3085,"opinion</w>":3086,"character":3087,"elderly</w>":3088,"36</w>":3089,"45</w>":3090,"75</w>":3091,"88</w>":3092,"Qu":3093,"Will</w>":3094,"emo":3095,"pdf</w>":3096,"sore</w>":3097,"win":3098,"went</w>":3099,"york</w>":3100,"thous":3101,"review</w>":3102,"republic":3103,"ards</w>":3104,"stopp":3105,"estion</w>":3106,"white</w>":3107,"lish</w>":3108,"log</w>":3109,"loans</w>":3110,"provin":3111,"spr":3112,"beha":3113,"election</w>":3114,"door</w>":3115,"doesn</w>":3116,"ternal</w>":3117,"genome</w>":3118,"prices</w>":3119,"illing</w>":3120,"idly</w>":3121,"passed</w>":3122,"points</w>":3123,"regulations</w>":3124,"updated</w>":3125,"payments</w>":3126,"organ":3127,"planning</w>":3128,"hydro":3129,"appears</w>":3130,"sneezing</w>":3131,"electr":3132,"sufficient</w>":3133,"came</w>":3134,"program</w>":3135,"europe</w>":3136,"rapidly</w>":3137,"grocer":3138,"screening</w>":3139,"implemen":3140,"extra</w>":3141,"knowledge</w>":3142,"relevant</w>":3143,"He":3144,"billion</w>":3145,"cro":3146,"dle</w>":3147,"ered</w>":3148,"font</w>":3149,"ky</w>":3150,"par</w>":3151,"sit</w>":3152,"tment</w>":3153,"uate</w>":3154,"rever":3155,"revie":3156,"reference</w>":3157,"tial</w>":3158,"end":3159,"alone</w>":3160,"vity</w>":3161,"ech</w>":3162,"ace":3163,"ica</w>":3164,"ession</w>":3165,"rule</w>":3166,"lier</w>":3167,"lives</w>":3168,"sir":3169,"sities</w>":3170,"sum</w>":3171,"deal</w>":3172,"space</w>":3173,"leq</w>":3174,"explan":3175,"chi":3176,"appa":3177,"iring</w>":3178,"plans</w>":3179,"surve":3180,"history</w>":3181,"risks</w>":3182,"essentially</w>":3183,"fund</w>":3184,"request</w>":3185,"included</w>":3186,"triang":3187,"turn</w>":3188,"looks</w>":3189,"highly</w>":3190,"recommend</w>":3191,"purch":3192,"fram":3193,"communic":3194,"predict</w>":3195,"filter</w>":3196,"name</w>":3197,"organiz":3198,"extent</w>":3199,"United</w>":3200,"zero</w>":3201,"seasonal</w>":3202,"doub":3203,"optimi":3204,"methods</w>":3205,"introduc":3206,"Americ":3207,"aero":3208,"triangleq</w>":3209,"26":3210,"ax":3211,"cru":3212,"ftw":3213,"gine</w>":3214,"pare</w>":3215,"pment</w>":3216,"sation</w>":3217,"slow</w>":3218,"tren":3219,"eral</w>":3220,"staf":3221,"att":3222,"esday</w>":3223,"theory</w>":3224,"absolu":3225,"contribu":3226,"prohi":3227,"bus</w>":3228,"shel":3229,"near</w>":3230,"apan</w>":3231,"mod":3232,"mostly</w>":3233,"head":3234,"content</w>":3235,"toil":3236,"wikipedia</w>":3237,"file</w>":3238,"softw":3239,"eping</w>":3240,"guess</w>":3241,"reading</w>":3242,"princi":3243,"offering</w>":3244,"back":3245,"drome</w>":3246,"thinking</w>":3247,"situations</w>":3248,"increas":3249,"cement</w>":3250,"oughly</w>":3251,"decided</w>":3252,"hypo":3253,"concern</w>":3254,"interested</w>":3255,"easy</w>":3256,"types</w>":3257,"elections</w>":3258,"identified</w>":3259,"benefit</w>":3260,"skin</w>":3261,"employee</w>":3262,"writing</w>":3263,"practic":3264,"traveling</w>":3265,"details</w>":3266,"threat</w>":3267,"imagine</w>":3268,"scenario</w>":3269,"couple</w>":3270,"temporary</w>":3271,"recommendations</w>":3272,"neighb":3273,"secretary</w>":3274,"precautions</w>":3275,"language</w>":3276,"behavi":3277,"Health</w>":3278,"staff</w>":3279,"44</w>":3280,"72</w>":3281,"South</w>":3282,"To</w>":3283,"bb":3284,"co</w>":3285,"car</w>":3286,"cate":3287,"fe</w>":3288,"fec":3289,"fail</w>":3290,"ise</w>":3291,"ners</w>":3292,"pic":3293,"sy</w>":3294,"ongoing</w>":3295,"stant</w>":3296,"disp":3297,"lose</w>":3298,"exemp":3299,"external</w>":3300,"ril</w>":3301,"opt</w>":3302,"vers</w>":3303,"add</w>":3304,"quo":3305,"que</w>":3306,"mean":3307,"april</w>":3308,"aging</w>":3309,"movement</w>":3310,"plying</w>":3311,"territ":3312,"stry</w>":3313,"aft</w>":3314,"laws</w>":3315,"efforts</w>":3316,"sensi":3317,"ained</w>":3318,"line":3319,"basic</w>":3320,"knows</w>":3321,"cut</w>":3322,"hospitalized</w>":3323,"applied</w>":3324,"famili":3325,"upon</w>":3326,"universities</w>":3327,"harm</w>":3328,"recommends</w>":3329,"citizen</w>":3330,"extend</w>":3331,"contracting</w>":3332,"papers</w>":3333,"hope</w>":3334,"advance</w>":3335,"lungs</w>":3336,"explain</w>":3337,"written</w>":3338,"techn":3339,"routine</w>":3340,"equipment</w>":3341,"damage</w>":3342,"nucle":3343,"running</w>":3344,"genetic</w>":3345,"pathogens</w>":3346,"bola</w>":3347,"vid19</w>":3348,"beginning</w>":3349,"categ":3350,"01</w>":3351,"16":3352,"Fr":3353,"GT":3354,"Korea</w>":3355,"bran":3356,"di</w>":3357,"kers</w>":3358,"mach":3359,"nor</w>":3360,"none</w>":3361,"pr</w>":3362,"sco":3363,"along</w>":3364,"alterna":3365,"stren":3366,"state":3367,"costs</w>":3368,"ched</w>":3369,"shut</w>":3370,"dots</w>":3371,"prece":3372,"prepare</w>":3373,"heart</w>":3374,"counts</w>":3375,"paren":3376,"five</w>":3377,"fight</w>":3378,"ports</w>":3379,"stic</w>":3380,"person":3381,"mind</w>":3382,"sampl":3383,"transit</w>":3384,"office</w>":3385,"decre":3386,"produced</w>":3387,"invest</w>":3388,"isolated</w>":3389,"severity</w>":3390,"parameter</w>":3391,"jects</w>":3392,"huge</w>":3393,"131</w>":3394,"experien":3395,"labor":3396,"significantly</w>":3397,"pathogen</w>":3398,"bathro":3399,"ldn</w>":3400,"instance</w>":3401,"environment</w>":3402,"advisor</w>":3403,"down":3404,"syndrome</w>":3405,"notice</w>":3406,"australia</w>":3407,"seriously</w>":3408,"software</w>":3409,"streng":3410,"02</w>":3411,"62</w>":3412,"Sch":3413,"ared</w>":3414,"cure</w>":3415,"dings</w>":3416,"educ":3417,"flo":3418,"hour</w>":3419,"ior</w>":3420,"mer":3421,"oday</w>":3422,"ologi":3423,"pat":3424,"pris":3425,"sor":3426,"sli":3427,"tan":3428,"vary</w>":3429,"wanted</w>":3430,"yond</w>":3431,"than":3432,"ine":3433,"reli":3434,"orders</w>":3435,"role</w>":3436,"asp":3437,"assi":3438,"loss</w>":3439,"degre":3440,"sett":3441,"unknown</w>":3442,"coff":3443,"conn":3444,"buying</w>":3445,"shor":3446,"added</w>":3447,"net</w>":3448,"compen":3449,"meet</w>":3450,"moving</w>":3451,"word</w>":3452,"world":3453,"dures</w>":3454,"fees</w>":3455,"partici":3456,"facilities</w>":3457,"hili":3458,"gives</w>":3459,"ington</w>":3460,"mutations</w>":3461,"final</w>":3462,"sites</w>":3463,"minute</w>":3464,"When</w>":3465,"expec":3466,"biological</w>":3467,"disinfect</w>":3468,"reporting</w>":3469,"causing</w>":3470,"thermore</w>":3471,"populations</w>":3472,"critici":3473,"candi":3474,"articles</w>":3475,"decla":3476,"mainly</w>":3477,"allowing</w>":3478,"gerous</w>":3479,"france</w>":3480,"doctors</w>":3481,"initially</w>":3482,"sneezes</w>":3483,"summer</w>":3484,"contains</w>":3485,"attention</w>":3486,"reduced</w>":3487,"procedures</w>":3488,"agreed</w>":3489,"bonds</w>":3490,"academic</w>":3491,"natural</w>":3492,"protective</w>":3493,"researchers</w>":3494,"guaran":3495,"dynam":3496,"recogni":3497,"They</w>":3498,"hotel</w>":3499,"minimum</w>":3500,"France</w>":3501,"statement</w>":3502,"27":3503,"Now</w>":3504,"Ph":3505,"aking</w>":3506,"bar":3507,"eating</w>":3508,"nature</w>":3509,"sen</w>":3510,"swe":3511,"tter</w>":3512,"wai":3513,"xed</w>":3514,"inside</w>":3515,"red":3516,"entering</w>":3517,"sters</w>":3518,"stance</w>":3519,"whel":3520,"six</w>":3521,"unfortunately</w>":3522,"abor":3523,"promi":3524,"powers</w>":3525,"beyond</w>":3526,"she":3527,"adap":3528,"mia</w>":3529,"irs</w>":3530,"vet</w>":3531,"wea":3532,"parks</w>":3533,"gies</w>":3534,"wife</w>":3535,"commonly</w>":3536,"scep":3537,"closing</w>":3538,"responses</w>":3539,"responsible</w>":3540,"providing</w>":3541,"consider":3542,"therap":3543,"activ":3544,"solve</w>":3545,"maintain":3546,"signs</w>":3547,"carry</w>":3548,"overall</w>":3549,"overwhel":3550,"avoi":3551,"prediction</w>":3552,"solutions</w>":3553,"defined</w>":3554,"usual</w>":3555,"mortg":3556,"intended</w>":3557,"crats</w>":3558,"containment</w>":3559,"lief</w>":3560,"estimation</w>":3561,"midity</w>":3562,"targe":3563,"debt</w>":3564,"success":3565,"corporate</w>":3566,"requirements</w>":3567,"remains</w>":3568,"conducted</w>":3569,"investment</w>":3570,"documents</w>":3571,"ventilat":3572,"statistics</w>":3573,"useful</w>":3574,"oblig":3575,"manufacturer</w>":3576,"implemented</w>":3577,"explanation</w>":3578,"apparently</w>":3579,"52</w>":3580,"Li":3581,"Res":3582,"bits</w>":3583,"dation</w>":3584,"dary</w>":3585,"ebola</w>":3586,"ff</w>":3587,"fly</w>":3588,"fter</w>":3589,"hon":3590,"mc":3591,"ode</w>":3592,"oil</w>":3593,"rat":3594,"tled</w>":3595,"ual</w>":3596,"yn":3597,"ands</w>":3598,"real":3599,"remember</w>":3600,"til":3601,"tis</w>":3602,"ending</w>":3603,"oral</w>":3604,"viol":3605,"ith</w>":3606,"dian</w>":3607,"depo":3608,"confi":3609,"conven":3610,"project</w>":3611,"leaving</w>":3612,"math":3613,"shopp":3614,"metr":3615,"meaning</w>":3616,"apar":3617,"peak</w>":3618,"rench</w>":3619,"2003</w>":3620,"hic</w>":3621,"keeping</w>":3622,"took</w>":3623,"entirely</w>":3624,"recep":3625,"even":3626,"commer":3627,"monit":3628,"phi</w>":3629,"airports</w>":3630,"vaccination</w>":3631,"examples</w>":3632,"markets</w>":3633,"considering</w>":3634,"therlan":3635,"happened</w>":3636,"paying</w>":3637,"joh":3638,"talking</w>":3639,"complete</w>":3640,"suspended</w>":3641,"police</w>":3642,"expert</w>":3643,"friend</w>":3644,"preventing</w>":3645,"humidity</w>":3646,"sneeze</w>":3647,"whose</w>":3648,"american</w>":3649,"handling</w>":3650,"passenger</w>":3651,"middle</w>":3652,"build</w>":3653,"material</w>":3654,"shortness</w>":3655,"consul":3656,"focus</w>":3657,"deadly</w>":3658,"proportion</w>":3659,"occur</w>":3660,"eligible</w>":3661,"contagious</w>":3662,"stopped</w>":3663,"chief</w>":3664,"toilet</w>":3665,"bathroom</w>":3666,"coffee</w>":3667,"18":3668,"1st</w>":3669,"39</w>":3670,"59</w>":3671,"AA":3672,"CT":3673,"EU</w>":3674,"Nor":3675,"President</w>":3676,"Th":3677,"Wor":3678,"bab":3679,"bloc":3680,"bmatrix</w>":3681,"dying</w>":3682,"fall":3683,"gd":3684,"gle</w>":3685,"ied</w>":3686,"ker</w>":3687,"ron":3688,"swit":3689,"sound</w>":3690,"vul":3691,"ys</w>":3692,"zech</w>":3693,"and":3694,"energy</w>":3695,"stable</w>":3696,"itely</w>":3697,"row</w>":3698,"icon":3699,"whate":3700,"diver":3701,"lost</w>":3702,"demon":3703,"demics</w>":3704,"concentr":3705,"pool":3706,"exact</w>":3707,"ches</w>":3708,"shall</w>":3709,"neu":3710,"ney</w>":3711,"que":3712,"combin":3713,"doll":3714,"ulty</w>":3715,"pread</w>":3716,"pression</w>":3717,"perman":3718,"western</w>":3719,"cla":3720,"tradi":3721,"afr":3722,"commit":3723,"outcome</w>":3724,"sell</w>":3725,"essment</w>":3726,"datas":3727,"approxim":3728,"linked</w>":3729,"generated</w>":3730,"clearly</w>":3731,"drop</w>":3732,"preval":3733,"antibio":3734,"virtual</w>":3735,"where":3736,"follow":3737,"subst":3738,"presence</w>":3739,"variance</w>":3740,"night</w>":3741,"complex</w>":3742,"charge</w>":3743,"equation</w>":3744,"seconds</w>":3745,"definitely</w>":3746,"filed</w>":3747,"experim":3748,"2009</w>":3749,"staur":3750,"necessarily</w>":3751,"partner</w>":3752,"differences</w>":3753,"european</w>":3754,"earlier</w>":3755,"younger</w>":3756,"detailed</w>":3757,"property</w>":3758,"travelling</w>":3759,"travellers</w>":3760,"scenarios</w>":3761,"perform":3762,"nationals</w>":3763,"varphi</w>":3764,"canceled</w>":3765,"nerable</w>":3766,"dangerous</w>":3767,"topic</w>":3768,"ordinary</w>":3769,"States</w>":3770,"flexi":3771,"college</w>":3772,"sanitizer</w>":3773,"contaminated</w>":3774,"increasing</w>":3775,"hilipp":3776,"scepti":3777,"confidence</w>":3778,"therlands</w>":3779,"vulnerable</w>":3780,"whatever</w>":3781,"49</w>":3782,"64</w>":3783,"85</w>":3784,"Au":3785,"CD":3786,"Ex":3787,"SA</w>":3788,"care":3789,"dable</w>":3790,"dential</w>":3791,"eting</w>":3792,"fer":3793,"fare</w>":3794,"gar":3795,"gger</w>":3796,"hs</w>":3797,"hom":3798,"ier</w>":3799,"less":3800,"np</w>":3801,"pes</w>":3802,"ption</w>":3803,"rs</w>":3804,"rai":3805,"ss":3806,"sable</w>":3807,"insi":3808,"republic</w>":3809,"represen":3810,"restaur":3811,"aling</w>":3812,"stro":3813,"itary</w>":3814,"ece</w>":3815,"super":3816,"semin":3817,"setting</w>":3818,"confu":3819,"consequences</w>":3820,"spend</w>":3821,"lets</w>":3822,"poly":3823,"aper</w>":3824,"applying</w>":3825,"hot":3826,"percent":3827,"goal</w>":3828,"worry</w>":3829,"feel":3830,"parties</w>":3831,"stran":3832,"training</w>":3833,"fund":3834,"interven":3835,"cloth</w>":3836,"medicines</w>":3837,"disinfection</w>":3838,"placed</w>":3839,"engine":3840,"effectively</w>":3841,"lling</w>":3842,"decline</w>":3843,"advised</w>":3844,"variable</w>":3845,"science</w>":3846,"center</w>":3847,"treatments</w>":3848,"politici":3849,"employed</w>":3850,"processing</w>":3851,"veness</w>":3852,"broad</w>":3853,"temperatures</w>":3854,"kids</w>":3855,"latter</w>":3856,"growing</w>":3857,"walking</w>":3858,"previously</w>":3859,"operating</w>":3860,"certainty</w>":3861,"institutions</w>":3862,"practical</w>":3863,"covering</w>":3864,"Europe</w>":3865,"European</w>":3866,"immigration</w>":3867,"balance</w>":3868,"obviously</w>":3869,"professional</w>":3870,"simulation</w>":3871,"qualify</w>":3872,"postp":3873,"helpful</w>":3874,"carrier</w>":3875,"private</w>":3876,"assumptions</w>":3877,"crowded</w>":3878,"complications</w>":3879,"challeng":3880,"choose</w>":3881,"thousands</w>":3882,"parents</w>":3883,"Schengen</w>":3884,"worldwide</w>":3885,"deposit</w>":3886,"receptor</w>":3887,"demonstr":3888,"46":3889,"46</w>":3890,"53</w>":3891,"65</w>":3892,"After</w>":3893,"Some</w>":3894,"Would</w>":3895,"bans</w>":3896,"card</w>":3897,"crit":3898,"dar":3899,"fav":3900,"ist</w>":3901,"ide</w>":3902,"jur":3903,"oxy":3904,"rhin":3905,"sav":3906,"save</w>":3907,"independent</w>":3908,"reti":3909,"repe":3910,"tivity</w>":3911,"orted</w>":3912,"ste</w>":3913,"stated</w>":3914,"staying</w>":3915,"itali":3916,"ecu":3917,"icer</w>":3918,"limin":3919,"libr":3920,"sir</w>":3921,"suscepti":3922,"depar":3923,"copper</w>":3924,"matic</w>":3925,"quad</w>":3926,"docu":3927,"pets</w>":3928,"prepared</w>":3929,"teaching</w>":3930,"facility</w>":3931,"keting</w>":3932,"recession</w>":3933,"wides":3934,"eval":3935,"anced</w>":3936,"forward</w>":3937,"pandemics</w>":3938,"somewhere</w>":3939,"primary</w>":3940,"informed</w>":3941,"tried</w>":3942,"sched":3943,"through":3944,"custom":3945,"increases</w>":3946,"advise</w>":3947,"quarantines</w>":3948,"product</w>":3949,"applies</w>":3950,"ached</w>":3951,"planned</w>":3952,"tish</w>":3953,"refundable</w>":3954,"extended</w>":3955,"employer</w>":3956,"names</w>":3957,"stero":3958,"washington</w>":3959,"delta</w>":3960,"grade</w>":3961,"diagnosis</w>":3962,"speaking</w>":3963,"leader</w>":3964,"centers</w>":3965,"assessment</w>":3966,"extreme</w>":3967,"graphic</w>":3968,"objects</w>":3969,"obvious</w>":3970,"Also</w>":3971,"thesis</w>":3972,"liquid</w>":3973,"attempt</w>":3974,"morning</w>":3975,"smaller</w>":3976,"organis":3977,"sampling</w>":3978,"laboratory</w>":3979,"declared</w>":3980,"World</w>":3981,"clamation</w>":3982,"substanti":3983,"performance</w>":3984,"hilippines</w>":3985,"CDC</w>":3986,"criter":3987,"document</w>":3988,"widespread</w>":3989,"schedul":3990,"125</w>":3991,"41</w>":3992,"51</w>":3993,"Air":3994,"Com":3995,"Edit</w>":3996,"Gi":3997,"IV</w>":3998,"Sin":3999,"az":4000,"bound</w>":4001,"ca</w>":4002,"ci</w>":4003,"cab":4004,"cross</w>":4005,"ey":4006,"edit</w>":4007,"fed</w>":4008,"hence</w>":4009,"jun":4010,"ng":4011,"nas":4012,"oon":4013,"pho":4014,"qquad</w>":4015,"rt</w>":4016,"wou":4017,"wel":4018,"thor":4019,"thma</w>":4020,"ordered</w>":4021,"atoday</w>":4022,"viable</w>":4023,"ash</w>":4024,"dily</w>":4025,"diam":4026,"trou":4027,"thema":4028,"unclear</w>":4029,"covid19</w>":4030,"proclamation</w>":4031,"execu":4032,"chances</w>":4033,"adju":4034,"meeting</w>":4035,"appoin":4036,"agent</w>":4037,"mid</w>":4038,"autom":4039,"plastic</w>":4040,"civi":4041,"tickets</w>":4042,"2016</w>":4043,"park</w>":4044,"faculty</w>":4045,"hile</w>":4046,"gence</w>":4047,"wiki</w>":4048,"comments</w>":4049,"muno":4050,"radi":4051,"created</w>":4052,"creating</w>":4053,"interval</w>":4054,"internet</w>":4055,"withdra":4056,"approaches</w>":4057,"visas</w>":4058,"tural</w>":4059,"mani":4060,"restriction</w>":4061,"relation</w>":4062,"recovery</w>":4063,"decide</w>":4064,"structures</w>":4065,"usatoday</w>":4066,"voting</w>":4067,"101</w>":4068,"minimi":4069,"droplet</w>":4070,"estimated</w>":4071,"interesting</w>":4072,"bring</w>":4073,"claimed</w>":4074,"cancellation</w>":4075,"latest</w>":4076,"identify</w>":4077,"circul":4078,"hope":4079,"design</w>":4080,"handle</w>":4081,"argument</w>":4082,"involved</w>":4083,"target</w>":4084,"holders</w>":4085,"remote</w>":4086,"properly</w>":4087,"performed</w>":4088,"journ":4089,"profession":4090,"detected</w>":4091,"established</w>":4092,"disposable</w>":4093,"chemical</w>":4094,"families</w>":4095,"alternative</w>":4096,"PhD</w>":4097,"mortgage</w>":4098,"permanent</w>":4099,"percentage</w>":4100,"oxygen</w>":4101,"throughout</w>":4102,"Given</w>":4103,"Since</w>":4104,"61</w>":4105,"96</w>":4106,"Di":4107,"Del":4108,"SI":4109,"With</w>":4110,"While</w>":4111,"bes</w>":4112,"eding</w>":4113,"fill</w>":4114,"gent</w>":4115,"gate</w>":4116,"ized</w>":4117,"job":4118,"lm</w>":4119,"lac":4120,"os":4121,"pa</w>":4122,"pm</w>":4123,"pid</w>":4124,"rying</w>":4125,"tol":4126,"uses</w>":4127,"vs</w>":4128,"vec":4129,"refl":4130,"references</w>":4131,"enfor":4132,"stain":4133,"roll</w>":4134,"road</w>":4135,"acqu":4136,"listed</w>":4137,"sign</w>":4138,"constant</w>":4139,"prop":4140,"spli":4141,"spir":4142,"letter</w>":4143,"mathema":4144,"exc":4145,"expan":4146,"chron":4147,"bei</w>":4148,"amp":4149,"bul":4150,"adop":4151,"nel</w>":4152,"quanti":4153,"compe":4154,"percent</w>":4155,"wed":4156,"worst</w>":4157,"held</w>":4158,"bott":4159,"immuno":4160,"entitled</w>":4161,"symp":4162,"eved</w>":4163,"laun":4164,"scri":4165,"eta</w>":4166,"selling</w>":4167,"somebody</w>":4168,"ratic</w>":4169,"break</w>":4170,"milk</w>":4171,"tree</w>":4172,"treated</w>":4173,"biology</w>":4174,"vaccinated</w>":4175,"helps</w>":4176,"manner</w>":4177,"anti</w>":4178,"anyway</w>":4179,"thern</w>":4180,"declar":4181,"limit":4182,"banned</w>":4183,"returning</w>":4184,"furthermore</w>":4185,"emergencies</w>":4186,"front</w>":4187,"suspect</w>":4188,"claims</w>":4189,"stocks</w>":4190,"borne</w>":4191,"friends</w>":4192,"labs</w>":4193,"discus":4194,"write</w>":4195,"brief":4196,"Federal</w>":4197,"acceptable</w>":4198,"class</w>":4199,"materi":4200,"transp":4201,"glas":4202,"bacteria</w>":4203,"evolu":4204,"herd</w>":4205,"release</w>":4206,"released</w>":4207,"depend</w>":4208,"birth</w>":4209,"comparis":4210,"constitutional</w>":4211,"destination</w>":4212,"wild</w>":4213,"weight</w>":4214,"controlled</w>":4215,"province</w>":4216,"reverse</w>":4217,"ace2</w>":4218,"absolutely</w>":4219,"decrease</w>":4220,"compensation</w>":4221,"eventually</w>":4222,"commercial</w>":4223,"prevalence</w>":4224,"antibiotics</w>":4225,"criteria</w>":4226,"professionals</w>":4227,"04</w>":4228,"28":4229,"47</w>":4230,"Go":4231,"HIV</w>":4232,"Po":4233,"RNA</w>":4234,"That</w>":4235,"Vi":4236,"avi":4237,"cast</w>":4238,"czech</w>":4239,"fr</w>":4240,"gor":4241,"hong</w>":4242,"jected</w>":4243,"kit</w>":4244,"kong</w>":4245,"mrna</w>":4246,"nson</w>":4247,"od":4248,"op</w>":4249,"ovirus</w>":4250,"roun":4251,"sa</w>":4252,"ser</w>":4253,"stic":4254,"sses</w>":4255,"sanc":4256,"won</w>":4257,"wish</w>":4258,"zoon":4259,"thy</w>":4260,"erve</w>":4261,"onto</w>":4262,"oring</w>":4263,"store</w>":4264,"viro":4265,"acted</w>":4266,"notic":4267,"diab":4268,"illegal</w>":4269,"load":4270,"load</w>":4271,"sures</w>":4272,"construc":4273,"lease</w>":4274,"pow":4275,"poor</w>":4276,"extra":4277,"beli":4278,"behin":4279,"tionary</w>":4280,"nearly</w>":4281,"ghtly</w>":4282,"correspon":4283,"iran</w>":4284,"ult</w>":4285,"premi":4286,"mod</w>":4287,"tele":4288,"perspec":4289,"timate</w>":4290,"infect":4291,"ayed</w>":4292,"fewer</w>":4293,"bot":4294,"imposed</w>":4295,"counter":4296,"counter</w>":4297,"fact":4298,"facts</w>":4299,"contacts</w>":4300,"stron":4301,"towards</w>":4302,"embas":4303,"scha":4304,"findings</w>":4305,"etes</w>":4306,"numer":4307,"implic":4308,"breast":4309,"prim":4310,"symptomatic</w>":4311,"treating</w>":4312,"twice</w>":4313,"disinfecting</w>":4314,"trips</w>":4315,"sche":4316,"manage</w>":4317,"periods</w>":4318,"cancer</w>":4319,"consist":4320,"passport</w>":4321,"effecti":4322,"court</w>":4323,"particle</w>":4324,"happening</w>":4325,"stores</w>":4326,"checks</w>":4327,"fraction</w>":4328,"membran":4329,"saw</w>":4330,"plane</w>":4331,"statements</w>":4332,"easier</w>":4333,"faster</w>":4334,"discu":4335,"regions</w>":4336,"standards</w>":4337,"exist</w>":4338,"visitors</w>":4339,"explained</w>":4340,"gathering</w>":4341,"misinformation</w>":4342,"wonder</w>":4343,"techno":4344,"rapid</w>":4345,"erring</w>":4346,"error</w>":4347,"neither</w>":4348,"environmental</w>":4349,"management</w>":4350,"indeed</w>":4351,"newsp":4352,"lamb":4353,"requirement</w>":4354,"free":4355,"delivery</w>":4356,"conclusion</w>":4357,"watch</w>":4358,"fluid</w>":4359,"mutate</w>":4360,"investigation</w>":4361,"chloro":4362,"epidemiology</w>":4363,"pharmac":4364,"mechanism</w>":4365,"assets</w>":4366,"Thanks</w>":4367,"shelter</w>":4368,"linear</w>":4369,"technical</w>":4370,"degree</w>":4371,"weather</w>":4372,"targeted</w>":4373,"shopping</w>":4374,"apartment</w>":4375,"concentration</w>":4376,"pooled</w>":4377,"whereas</w>":4378,"feeling</w>":4379,"library</w>":4380,"hopefully</w>":4381,"enforcement</w>":4382,"split</w>":4383,"symptom</w>":4384,"zoono":4385,"diabetes</w>":4386,"behind</w>":4387,"33</w>":4388,"43</w>":4389,"57":4390,"56</w>":4391,"91</w>":4392,"Asi":4393,"Boo":4394,"DA</w>":4395,"FI":4396,"He</w>":4397,"Lon":4398,"Sen":4399,"She</w>":4400,"USA</w>":4401,"cb":4402,"cr</w>":4403,"ct</w>":4404,"da":4405,"dn</w>":4406,"dance</w>":4407,"dless</w>":4408,"foun":4409,"flow</w>":4410,"fying</w>":4411,"gy":4412,"gc</w>":4413,"homes</w>":4414,"japan</w>":4415,"mber</w>":4416,"nar":4417,"nice</w>":4418,"nesday</w>":4419,"o2</w>":4420,"ron</w>":4421,"rac":4422,"round</w>":4423,"ssed</w>":4424,"tour</w>":4425,"un</w>":4426,"vap":4427,"wants</w>":4428,"willing</w>":4429,"thu":4430,"ression</w>":4431,"relief</w>":4432,"title</w>":4433,"ald</w>":4434,"stage</w>":4435,"asthma</w>":4436,"omial</w>":4437,"nobody</w>":4438,"whom</w>":4439,"iled</w>":4440,"sun":4441,"devi":4442,"tract</w>":4443,"trade</w>":4444,"coh":4445,"abilities</w>":4446,"proof</w>":4447,"proper</w>":4448,"progress</w>":4449,"spent</w>":4450,"rise</w>":4451,"quine</w>":4452,"met":4453,"ffic</w>":4454,"ague</w>":4455,"dogs</w>":4456,"prepar":4457,"tered</w>":4458,"persi":4459,"goods</w>":4460,"ssian</w>":4461,"tot":4462,"train</w>":4463,"traffic</w>":4464,"ember</w>":4465,"sold</w>":4466,"outcomes</w>":4467,"gra":4468,"risky</w>":4469,"form":4470,"finally</w>":4471,"series</w>":4472,"fire</w>":4473,"pped</w>":4474,"effici":4475,"transmissi":4476,"phy":4477,"senate</w>":4478,"pro</w>":4479,"closely</w>":4480,"officer</w>":4481,"requiring</w>":4482,"elling</w>":4483,"disinfect":4484,"respond</w>":4485,"week":4486,"origin</w>":4487,"antigen</w>":4488,"looked</w>":4489,"strict</w>":4490,"anywhere</w>":4491,"rank":4492,"great":4493,"greater</w>":4494,"entation</w>":4495,"logical</w>":4496,"subjects</w>":4497,"recover":4498,"regulation</w>":4499,"sugg":4500,"politics</w>":4501,"warning</w>":4502,"waiting</w>":4503,"frivol":4504,"calling</w>":4505,"physically</w>":4506,"Corona</w>":4507,"binding</w>":4508,"camp":4509,"refer</w>":4510,"suggested</w>":4511,"strategies</w>":4512,"chain</w>":4513,"speak</w>":4514,"leading</w>":4515,"agreement</w>":4516,"institute</w>":4517,"building</w>":4518,"image</w>":4519,"route</w>":4520,"foreign":4521,"computer</w>":4522,"occurred</w>":4523,"expenses</w>":4524,"array</w>":4525,"modern</w>":4526,"improve</w>":4527,"fitting</w>":4528,"record</w>":4529,"republicans</w>":4530,"grocery</w>":4531,"territory</w>":4532,"dynamic</w>":4533,"ventilators</w>":4534,"baby</w>":4535,"committee</w>":4536,"approximately</w>":4537,"restaurants</w>":4538,"susceptible</w>":4539,"nasal</w>":4540,"bottom</w>":4541,"schedu":4542,"effectiveness</w>":4543,"lambda</w>":4544,"chloroquine</w>":4545,"London</w>":4546,"frivolous</w>":4547,"11":4548,"47":4549,"42</w>":4550,"AG":4551,"Can":4552,"De":4553,"FDA</w>":4554,"January</w>":4555,"Te":4556,"ati":4557,"ade":4558,"ahead</w>":4559,"bb</w>":4560,"dure</w>":4561,"ex</w>":4562,"far":4563,"fect</w>":4564,"fish</w>":4565,"gri":4566,"h2":4567,"has":4568,"ion</w>":4569,"killed</w>":4570,"nur":4571,"pick</w>":4572,"ran</w>":4573,"rare</w>":4574,"son":4575,"slow":4576,"sounds</w>":4577,"tin":4578,"inations</w>":4579,"retro":4580,"reproduction</w>":4581,"reached</w>":4582,"arran":4583,"achi":4584,"accounts</w>":4585,"notes</w>":4586,"estions</w>":4587,"dilu":4588,"sud":4589,"defa":4590,"abs</w>":4591,"connec":4592,"conspir":4593,"prove</w>":4594,"span":4595,"spac":4596,"amin":4597,"opt":4598,"buy":4599,"shops</w>":4600,"elbo":4601,"quick</w>":4602,"quality</w>":4603,"ffner</w>":4604,"agree</w>":4605,"miti":4606,"mista":4607,"doi</w>":4608,"presum":4609,"prescri":4610,"mother</w>":4611,"tative</w>":4612,"fee</w>":4613,"partial</w>":4614,"ised</w>":4615,"gene</w>":4616,"after":4617,"granted</w>":4618,"formul":4619,"finding</w>":4620,"alize</w>":4621,"transfer</w>":4622,"interview</w>":4623,"military</w>":4624,"expired</w>":4625,"offered</w>":4626,"links</w>":4627,"obtain</w>":4628,"object</w>":4629,"english</w>":4630,"pass":4631,"unities</w>":4632,"subsequ":4633,"sols</w>":4634,"highest</w>":4635,"india</w>":4636,"supposed</w>":4637,"decisions</w>":4638,"valent</w>":4639,"games</w>":4640,"000":4641,"148</w>":4642,"secondary</w>":4643,"contracted</w>":4644,"majority</w>":4645,"binomial</w>":4646,"supplies</w>":4647,"electro":4648,"summary</w>":4649,"identification</w>":4650,"craft</w>":4651,"shares</w>":4652,"graduate</w>":4653,"argue</w>":4654,"stress</w>":4655,"procedure</w>":4656,"immediate</w>":4657,"managed</w>":4658,"domes":4659,"transport</w>":4660,"reservo":4661,"downs</w>":4662,"taxes</w>":4663,"broadcast</w>":4664,"New</w>":4665,"detect</w>":4666,"drink</w>":4667,"sanders</w>":4668,"determined</w>":4669,"Act</w>":4670,"lawful</w>":4671,"democrats</w>":4672,"frame</w>":4673,"aerosols</w>":4674,"trends</w>":4675,"principle</w>":4676,"practices</w>":4677,"experiencing</w>":4678,"education</w>":4679,"guarantee</w>":4680,"successful</w>":4681,"Reserve</w>":4682,"iconexternal</w>":4683,"fundam":4684,"steroids</w>":4685,"eye</w>":4686,"trouble</w>":4687,"materials</w>":4688,"stick</w>":4689,"stronger</w>":4690,"schaffner</w>":4691,"membrane</w>":4692,"schedule</w>":4693,"elbow</w>":4694,"presumably</w>":4695,"114</w>":4696,"112</w>":4697,"37</w>":4698,"60":4699,"73</w>":4700,"87</w>":4701,"90":4702,"97</w>":4703,"Due</w>":4704,"ED":4705,"Econ":4706,"Jo":4707,"Or":4708,"Per":4709,"Pro":4710,"Spain</w>":4711,"caff":4712,"fel":4713,"gan</w>":4714,"gical</w>":4715,"hessi":4716,"lay":4717,"nations</w>":4718,"ok":4719,"pcr</w>":4720,"rou":4721,"roughly</w>":4722,"smar":4723,"tv</w>":4724,"uation</w>":4725,"wave</w>":4726,"yout":4727,"zon</w>":4728,"init</w>":4729,"indu":4730,"inhal":4731,"ania</w>":4732,"reactions</w>":4733,"arching</w>":4734,"ense</w>":4735,"ency</w>":4736,"enforce</w>":4737,"ecting</w>":4738,"omo</w>":4739,"noted</w>":4740,"habit":4741,"essed</w>":4742,"sim</w>":4743,"detail</w>":4744,"trillion</w>":4745,"theore":4746,"unnecessary</w>":4747,"concep":4748,"congress</w>":4749,"sports</w>":4750,"spending</w>":4751,"mails</w>":4752,"poll":4753,"ury</w>":4754,"expression</w>":4755,"core</w>":4756,"mio</w>":4757,"dot</w>":4758,"doors</w>":4759,"peer</w>":4760,"modi":4761,"termin":4762,"fear</w>":4763,"feeding</w>":4764,"box</w>":4765,"isn</w>":4766,"ssia</w>":4767,"strong":4768,"figu":4769,"soli":4770,"layo":4771,"lations</w>":4772,"respect</w>":4773,"gust</w>":4774,"guide</w>":4775,"tend</w>":4776,"arian</w>":4777,"panic</w>":4778,"imported</w>":4779,"alities</w>":4780,"transmit</w>":4781,"steel</w>":4782,"approx</w>":4783,"aircraft</w>":4784,"discovered</w>":4785,"generic</w>":4786,"changing</w>":4787,"mark</w>":4788,"forec":4789,"pull</w>":4790,"penal":4791,"unique</w>":4792,"matters</w>":4793,"restricted</w>":4794,"dreds</w>":4795,"logistic</w>":4796,"directed</w>":4797,"limiting</w>":4798,"quarantined</w>":4799,"author</w>":4800,"compare</w>":4801,"furl":4802,"assumed</w>":4803,"integr":4804,"everybody</w>":4805,"gloves</w>":4806,"hard":4807,"relation":4808,"predicted</w>":4809,"predictions</w>":4810,"suspend</w>":4811,"charged</w>":4812,"equal</w>":4813,"contracts</w>":4814,"typical</w>":4815,"cry":4816,"chosen</w>":4817,"exception</w>":4818,"distributed</w>":4819,"visiting</w>":4820,"advanced</w>":4821,"collected</w>":4822,"arrival</w>":4823,"indicates</w>":4824,"involve</w>":4825,"coverage</w>":4826,"travelers</w>":4827,"holding</w>":4828,"February</w>":4829,"classi":4830,"agencies</w>":4831,"journal</w>":4832,"reservation</w>":4833,"season</w>":4834,"runny</w>":4835,"cheap</w>":4836,"taxpay":4837,"stomach</w>":4838,"Netherlands</w>":4839,"According</w>":4840,"encourage</w>":4841,"expensive</w>":4842,"programs</w>":4843,"failure</w>":4844,"hundreds</w>":4845,"contraception</w>":4846,"contraceptive</w>":4847,"replication</w>":4848,"Question</w>":4849,"organizations</w>":4850,"behavior</w>":4851,"sensitivity</w>":4852,"machine</w>":4853,"slightly</w>":4854,"reliable</w>":4855,"settings</w>":4856,"recognize</w>":4857,"sweden</w>":4858,"obligations</w>":4859,"mathbb</w>":4860,"monitor</w>":4861,"traditional</w>":4862,"hotels</w>":4863,"scheduled</w>":4864,"civil</w>":4865,"Delta</w>":4866,"wednesday</w>":4867,"briefing</w>":4868,"comparison</w>":4869,"perspective</w>":4870,"embassy</w>":4871,"primarily</w>":4872,"Booking</w>":4873,"vapor</w>":4874,"conspiracy</w>":4875,"spaces</w>":4876,"domestic</w>":4877,"Econom":4878,"caffe":4879,"hessian</w>":4880,"2nd</w>":4881,"400</w>":4882,"57</w>":4883,"84</w>":4884,"92</w>":4885,"ES</w>":4886,"Fin":4887,"From</w>":4888,"French</w>":4889,"Here</w>":4890,"Off":4891,"One</w>":4892,"Rec":4893,"aster</w>":4894,"bl":4895,"ba</w>":4896,"cn":4897,"cs":4898,"cu</w>":4899,"cel":4900,"cratic</w>":4901,"eth":4902,"eure</w>":4903,"estate</w>":4904,"fru":4905,"fau":4906,"fla":4907,"gau":4908,"ires</w>":4909,"ign":4910,"ka</w>":4911,"ler</w>":4912,"mm":4913,"mc</w>":4914,"mess":4915,"n95</w>":4916,"oviruses</w>":4917,"ped</w>":4918,"pal</w>":4919,"rty</w>":4920,"sm</w>":4921,"twee":4922,"ube</w>":4923,"usc":4924,"vals</w>":4925,"vative</w>":4926,"war</w>":4927,"xing</w>":4928,"reality</w>":4929,"remove</w>":4930,"timely</w>":4931,"era</w>":4932,"onset</w>":4933,"ouse</w>":4934,"entr":4935,"orona":4936,"alman</w>":4937,"stor":4938,"stability</w>":4939,"atri":4940,"rote</w>":4941,"oms</w>":4942,"didn</w>":4943,"dirty</w>":4944,"lions</w>":4945,"lists</w>":4946,"degc</w>":4947,"search":4948,"uncertainty</w>":4949,"virul":4950,"conferences</w>":4951,"lement</w>":4952,"pox</w>":4953,"beds</w>":4954,"oppor":4955,"veri":4956,"shing</w>":4957,"aden":4958,"inflam":4959,"comfor":4960,"apart</w>":4961,"corti":4962,"ules</w>":4963,"tea</w>":4964,"vere":4965,"perform</w>":4966,"plus</w>":4967,"2017</w>":4968,"aim</w>":4969,"clause</w>":4970,"putting</w>":4971,"surgical</w>":4972,"key":4973,"wipe</w>":4974,"evac":4975,"communities</w>":4976,"outlin":4977,"ppe</w>":4978,"pants</w>":4979,"effort</w>":4980,"efficient</w>":4981,"raw</w>":4982,"print</w>":4983,"interaction</w>":4984,"location</w>":4985,"informa":4986,"expires</w>":4987,"society</w>":4988,"provides</w>":4989,"custo":4990,"foo":4991,"antiviral</w>":4992,"antiretro":4993,"respirators</w>":4994,"ideas</w>":4995,"signed</w>":4996,"variables</w>":4997,"updates</w>":4998,"legally</w>":4999,"continues</w>":5000,"additionally</w>":5001,"joint</w>":5002,"applications</w>":5003,"denied</w>":5004,"extensive</w>":5005,"functions</w>":5006,"calls</w>":5007,"preventive</w>":5008,"physici":5009,"intensive</w>":5010,"majeure</w>":5011,"contained</w>":5012,"India</w>":5013,"exists</w>":5014,"presidential</w>":5015,"advant":5016,"reducing</w>":5017,"breach</w>":5018,"techni":5019,"lord</w>":5020,"bacterial</w>":5021,"depth</w>":5022,"molecular</w>":5023,"interpretation</w>":5024,"calculate</w>":5025,"Note</w>":5026,"assem":5027,"reviewed</w>":5028,"purchase</w>":5029,"strength</w>":5030,"participants</w>":5031,"candidate</w>":5032,"maintaining</w>":5033,"avoiding</w>":5034,"politicians</w>":5035,"customers</w>":5036,"minimize</w>":5037,"jobs</w>":5038,"adopted</w>":5039,"noticed</w>":5040,"totally</w>":5041,"foreigners</w>":5042,"adequ":5043,"spanish</w>":5044,"subsequent</w>":5045,"45":5046,"59":5047,"Ad":5048,"Am</w>":5049,"Afr":5050,"IT</w>":5051,"Let</w>":5052,"Mo":5053,"Ob":5054,"Par":5055,"Pri":5056,"TT":5057,"Up":5058,"ational</w>":5059,"bing</w>":5060,"bes":5061,"cle</w>":5062,"clim":5063,"cfr</w>":5064,"eat</w>":5065,"gas</w>":5066,"greg":5067,"hic":5068,"ibu":5069,"ities</w>":5070,"kid":5071,"mes</w>":5072,"nation</w>":5073,"nam</w>":5074,"nesses</w>":5075,"ox</w>":5076,"plo":5077,"pate</w>":5078,"rn":5079,"sil":5080,"sle":5081,"ssing</w>":5082,"ually</w>":5083,"uated</w>":5084,"ups</w>":5085,"wan":5086,"wrote</w>":5087,"iner":5088,"invi":5089,"intu":5090,"inser":5091,"anos":5092,"rement</w>":5093,"repu":5094,"arding</w>":5095,"itable</w>":5096,"acorona":5097,"oming</w>":5098,"rub</w>":5099,"lio</w>":5100,"iling</w>":5101,"dely</w>":5102,"unprece":5103,"consen":5104,"leg</w>":5105,"legi":5106,"exp</w>":5107,"chic":5108,"oph":5109,"optim":5110,"bud":5111,"eland</w>":5112,"net":5113,"nested</w>":5114,"compromi":5115,"ghting</w>":5116,"apore</w>":5117,"hot</w>":5118,"dose</w>":5119,"iration</w>":5120,"team</w>":5121,"tau</w>":5122,"perfect</w>":5123,"goo":5124,"heat</w>":5125,"hear</w>":5126,"2018</w>":5127,"2013</w>":5128,"readily</w>":5129,"isdic":5130,"ssive</w>":5131,"surpris":5132,"widely</w>":5133,"inging</w>":5134,"fixed</w>":5135,"musc":5136,"monday</w>":5137,"fined</w>":5138,"differ</w>":5139,"jud":5140,"aves</w>":5141,"betacorona":5142,"pping</w>":5143,"alifor":5144,"differently</w>":5145,"priori":5146,"stuck</w>":5147,"stuff</w>":5148,"closer</w>":5149,"distinc":5150,"exams</w>":5151,"ides</w>":5152,"knowing</w>":5153,"provisions</w>":5154,"duration</w>":5155,"folding</w>":5156,"availability</w>":5157,"shot</w>":5158,"mainland</w>":5159,"carrying</w>":5160,"legis":5161,"compon":5162,"comply</w>":5163,"furt</w>":5164,"payroll</w>":5165,"touched</w>":5166,"profen</w>":5167,"dented</w>":5168,"dency</w>":5169,"harder</w>":5170,"confirm</w>":5171,"confirmation</w>":5172,"polio</w>":5173,"warned</w>":5174,"capit":5175,"filing</w>":5176,"filters</w>":5177,"kins</w>":5178,"colum":5179,"hubei</w>":5180,"culture</w>":5181,"liter":5182,"mitting</w>":5183,"share":5184,"publications</w>":5185,"refers</w>":5186,"xiv</w>":5187,"regardless</w>":5188,"reduction</w>":5189,"arriving</w>":5190,"videos</w>":5191,"nonimmigr":5192,"assess</w>":5193,"holds</w>":5194,"graph</w>":5195,"drive</w>":5196,"accepted</w>":5197,"classes</w>":5198,"optim</w>":5199,"drinking</w>":5200,"naturally</w>":5201,"refused</w>":5202,"assumption</w>":5203,"sales</w>":5204,"instructions</w>":5205,"Thank</w>":5206,"emotional</w>":5207,"republican</w>":5208,"hydrogen</w>":5209,"groceries</w>":5210,"introduced</w>":5211,"American</w>":5212,"cruise</w>":5213,"category</w>":5214,"scope</w>":5215,"ologists</w>":5216,"realistic</w>":5217,"jurisdic":5218,"executive</w>":5219,"chronic</w>":5220,"laundry</w>":5221,"declaration</w>":5222,"evolution</w>":5223,"extraordinary</w>":5224,"newspaper</w>":5225,"freedom</w>":5226,"preparing</w>":5227,"rankfurt</w>":5228,"default</w>":5229,"strongly</w>":5230,"cryst":5231,"fauci</w>":5232,"uscis</w>":5233,"virulence</w>":5234,"ibuprofen</w>":5235,"anosmia</w>":5236,"unprecedented</w>":5237,"consensus</w>":5238,"05</w>":5239,"23":5240,"25":5241,"37":5242,"300</w>":5243,"81</w>":5244,"At</w>":5245,"Be":5246,"Date</w>":5247,"DNA</w>":5248,"ME":5249,"Pe":5250,"PR</w>":5251,"Sec":5252,"Uni":5253,"bun":5254,"bought</w>":5255,"bills</w>":5256,"ction</w>":5257,"dna</w>":5258,"dboard</w>":5259,"eve</w>":5260,"home":5261,"ii</w>":5262,"jan</w>":5263,"kills</w>":5264,"mm</w>":5265,"nan":5266,"ring</w>":5267,"rab":5268,"ske":5269,"slowing</w>":5270,"telling</w>":5271,"vou":5272,"vations</w>":5273,"west</w>":5274,"yu":5275,"zz":5276,"inary</w>":5277,"inhabit":5278,"remin":5279,"reinfected</w>":5280,"ress</w>":5281,"reover</w>":5282,"reven":5283,"reaction</w>":5284,"religi":5285,"oned</w>":5286,"enh":5287,"ented</w>":5288,"enty</w>":5289,"orting</w>":5290,"stations</w>":5291,"stops</w>":5292,"ata</w>":5293,"atar</w>":5294,"atten</w>":5295,"ack":5296,"accor":5297,"divi":5298,"diarr":5299,"lic</w>":5300,"lipid</w>":5301,"loved</w>":5302,"seq</w>":5303,"theories</w>":5304,"cop":5305,"consum":5306,"consent</w>":5307,"progre":5308,"leth":5309,"expres":5310,"exchange</w>":5311,"cher</w>":5312,"began</w>":5313,"shut":5314,"else":5315,"adjust</w>":5316,"agues</w>":5317,"holi":5318,"presu":5319,"movi":5320,"moreover</w>":5321,"vehic":5322,"goch</w>":5323,"duty</w>":5324,"feed</w>":5325,"ream</w>":5326,"bogoch</w>":5327,"genes</w>":5328,"sol</w>":5329,"portion</w>":5330,"epide":5331,"lap</w>":5332,"monton</w>":5333,"sitting</w>":5334,"datab":5335,"alien</w>":5336,"probable</w>":5337,"Where</w>":5338,"internal</w>":5339,"millions</w>":5340,"studying</w>":5341,"lock</w>":5342,"located</w>":5343,"expiration</w>":5344,"governor</w>":5345,"reque":5346,"elled</w>":5347,"airborne</w>":5348,"flying</w>":5349,"flatten</w>":5350,"regression</w>":5351,"illnesses</w>":5352,"turned</w>":5353,"arer</w>":5354,"providers</w>":5355,"virals</w>":5356,"largest</w>":5357,"pending</w>":5358,"random":5359,"child":5360,"entally</w>":5361,"december</w>":5362,"oom</w>":5363,"emerging</w>":5364,"cardboard</w>":5365,"variation</w>":5366,"regulatory</w>":5367,"ousness</w>":5368,"returned</w>":5369,"checked</w>":5370,"german</w>":5371,"north</w>":5372,"voted</w>":5373,"profit</w>":5374,"planes</w>":5375,"nih</w>":5376,"shift</w>":5377,"edmonton</w>":5378,"employers</w>":5379,"140</w>":5380,"partners</w>":5381,"annual</w>":5382,"intensity</w>":5383,"label</w>":5384,"discre":5385,"lockdowns</w>":5386,"ARES</w>":5387,"america</w>":5388,"refuse</w>":5389,"observation</w>":5390,"operate</w>":5391,"tunity</w>":5392,"validation</w>":5393,"involving</w>":5394,"aside</w>":5395,"covers</w>":5396,"graph":5397,"Feb</w>":5398,"owner</w>":5399,"owners</w>":5400,"volun":5401,"equivalent</w>":5402,"German</w>":5403,"reply</w>":5404,"evolving</w>":5405,"occurs</w>":5406,"temporarily</w>":5407,"recommendation</w>":5408,"cancellations</w>":5409,"designed</w>":5410,"refusal</w>":5411,"chlorine</w>":5412,"colleagues</w>":5413,"privacy</w>":5414,"xychloroquine</w>":5415,"spring</w>":5416,"survey</w>":5417,"doubt</w>":5418,"background</w>":5419,"patter":5420,"connection</w>":5421,"shorter</w>":5422,"redness</w>":5423,"consideration</w>":5424,"johnson</w>":5425,"gdp</w>":5426,"neutr":5427,"combination</w>":5428,"flexibility</w>":5429,"challenges</w>":5430,"thoroughly</w>":5431,"diameter</w>":5432,"withdraw</w>":5433,"vector</w>":5434,"stainless</w>":5435,"propag":5436,"mathematical</w>":5437,"competi":5438,"consistent</w>":5439,"greatly</w>":5440,"figures</w>":5441,"caffeine</w>":5442,"opportunity</w>":5443,"adequate</w>":5444,"legitimate</w>":5445,"surprising</w>":5446,"muscle</w>":5447,"119</w>":5448,"440</w>":5449,"58</w>":5450,"54</w>":5451,"67</w>":5452,"77":5453,"78</w>":5454,"As":5455,"All</w>":5456,"Bar":5457,"Could</w>":5458,"CARES</w>":5459,"Demo":5460,"Eng":5461,"Frankfurt</w>":5462,"Gen":5463,"Hong</w>":5464,"Japan</w>":5465,"Kong</w>":5466,"Kalman</w>":5467,"LS</w>":5468,"Mon":5469,"Rom":5470,"Sci":5471,"Yo":5472,"aa</w>":5473,"ake</w>":5474,"bc":5475,"bat":5476,"bar</w>":5477,"bited</w>":5478,"blam":5479,"ee":5480,"gt":5481,"gon":5482,"gori":5483,"him":5484,"ig":5485,"ight</w>":5486,"ists</w>":5487,"ign</w>":5488,"kish</w>":5489,"lo</w>":5490,"lin</w>":5491,"mr</w>":5492,"nh":5493,"ns":5494,"nia</w>":5495,"ncb":5496,"oI</w>":5497,"oth</w>":5498,"pv</w>":5499,"path</w>":5500,"sence</w>":5501,"swa":5502,"text":5503,"ur</w>":5504,"vac":5505,"vague</w>":5506,"wan</w>":5507,"xlab</w>":5508,"zen</w>":5509,"zations</w>":5510,"inhi":5511,"inactiv":5512,"anxi":5513,"till</w>":5514,"arbit":5515,"enge</w>":5516,"ences</w>":5517,"envelo":5518,"enforced</w>":5519,"orrow</w>":5520,"alle":5521,"alber":5522,"algori":5523,"ston</w>":5524,"stays</w>":5525,"vic":5526,"ites</w>":5527,"itly</w>":5528,"asia</w>":5529,"acet":5530,"icon</w>":5531,"icity</w>":5532,"ham</w>":5533,"dium</w>":5534,"russia</w>":5535,"list":5536,"losses</w>":5537,"sight</w>":5538,"sively</w>":5539,"sibly</w>":5540,"deep</w>":5541,"dealing</w>":5542,"track</w>":5543,"seas</w>":5544,"col</w>":5545,"abroad</w>":5546,"absence</w>":5547,"proven</w>":5548,"proxim":5549,"letting</w>":5550,"maxim":5551,"pol":5552,"poll</w>":5553,"posted</w>":5554,"pool</w>":5555,"uring</w>":5556,"explic":5557,"amend":5558,"elds</w>":5559,"adic":5560,"ques</w>":5561,"apse</w>":5562,"appreci":5563,"agents</w>":5564,"mped</w>":5565,"pet</w>":5566,"prefer</w>":5567,"prelimin":5568,"veget":5569,"permit</w>":5570,"worked</w>":5571,"rence</w>":5572,"hea</w>":5573,"heav":5574,"ump</w>":5575,"ticketing</w>":5576,"2010</w>":5577,"2011</w>":5578,"feature</w>":5579,"clari":5580,"suring</w>":5581,"surroun":5582,"histor":5583,"keeps</w>":5584,"strai":5585,"tools</w>":5586,"trains</w>":5587,"paths</w>":5588,"outdoor</w>":5589,"deri":5590,"tte</w>":5591,"becoming</w>":5592,"forms</w>":5593,"respec":5594,"scrat":5595,"tomorrow</w>":5596,"ppp</w>":5597,"somewhat</w>":5598,"transcri":5599,"translation</w>":5600,"rati":5601,"phen":5602,"aining</w>":5603,"locations</w>":5604,"medication</w>":5605,"airways</w>":5606,"bigger</w>":5607,"geo":5608,"occas":5609,"flatten":5610,"modelling</w>":5611,"empty</w>":5612,"provision</w>":5613,"mandat":5614,"measu":5615,"fications</w>":5616,"antici":5617,"antigen":5618,"caution</w>":5619,"passing</w>":5620,"starts</w>":5621,"contrast</w>":5622,"economics</w>":5623,"houses</w>":5624,"solved</w>":5625,"directions</w>":5626,"productive</w>":5627,"presents</w>":5628,"showed</w>":5629,"importance</w>":5630,"carried</w>":5631,"returns</w>":5632,"compli":5633,"overseas</w>":5634,"northern</w>":5635,"secure</w>":5636,"census</w>":5637,"harv":5638,"002</w>":5639,"001</w>":5640,"scientist</w>":5641,"learned</w>":5642,"receiving</w>":5643,"sterday</w>":5644,"static</w>":5645,"amounts</w>":5646,"clinic</w>":5647,"authorized</w>":5648,"singapore</w>":5649,"describe</w>":5650,"blog</w>":5651,"shared</w>":5652,"exceptions</w>":5653,"visitation</w>":5654,"originated</w>":5655,"xide</w>":5656,"association</w>":5657,"collection</w>":5658,"diagnostic</w>":5659,"suggesting</w>":5660,"operation</w>":5661,"piec":5662,"bag</w>":5663,"correctly</w>":5664,"leaders</w>":5665,"institution</w>":5666,"centres</w>":5667,"asian</w>":5668,"fatal</w>":5669,"british</w>":5670,"accept</w>":5671,"presented</w>":5672,"objective</w>":5673,"chemi":5674,"repatri":5675,"watching</w>":5676,"encouraged</w>":5677,"continuous</w>":5678,"Congress</w>":5679,"programming</w>":5680,"swabs</w>":5681,"molecules</w>":5682,"challenge</w>":5683,"disruption</w>":5684,"supportive</w>":5685,"optimize</w>":5686,"feces</w>":5687,"personally</w>":5688,"shortly</w>":5689,"candidates</w>":5690,"waiver</w>":5691,"sheet</w>":5692,"Norway</w>":5693,"dollar</w>":5694,"dollars</w>":5695,"dataset</w>":5696,"datasets</w>":5697,"follows</w>":5698,"followed</w>":5699,"stranded</w>":5700,"wouldn</w>":5701,"journals</w>":5702,"bottle</w>":5703,"glass</w>":5704,"Viru":5705,"gorous</w>":5706,"FIP</w>":5707,"Senate</w>":5708,"cohort</w>":5709,"phylo":5710,"weekend</w>":5711,"suggestions</w>":5712,"formula</w>":5713,"reservoir</w>":5714,"Joh":5715,"penalty</w>":5716,"relationship</w>":5717,"celona</w>":5718,"tweeted</w>":5719,"cortico":5720,"Paris</w>":5721,"besides</w>":5722,"google</w>":5723,"betacoronaviruses</w>":5724,"alifornia</w>":5725,"shareholders</w>":5726,"voucher</w>":5727,"inhabitants</w>":5728,"randomly</w>":5729,"You</w>":5730,"gonna</w>":5731,"himself</w>":5732,"ncbi</w>":5733,"arbitr":5734,"algorith":5735,"maximum</w>":5736,"amendment</w>":5737,"preliminary</w>":5738,"05":5739,"09</w>":5740,"2f":5741,"21st</w>":5742,"34</w>":5743,"48":5744,"68</w>":5745,"93</w>":5746,"Ar":5747,"Any</w>":5748,"E2</w>":5749,"Me":5750,"Pr":5751,"Philippines</w>":5752,"ST":5753,"Su":5754,"Speci":5755,"Tim":5756,"UU":5757,"ah":5758,"apo":5759,"adian</w>":5760,"bad":5761,"boun":5762,"base</w>":5763,"dc</w>":5764,"dor":5765,"eg</w>":5766,"eable</w>":5767,"east</w>":5768,"emails</w>":5769,"fas":5770,"fab":5771,"gun":5772,"gma</w>":5773,"hasi":5774,"jing</w>":5775,"kp":5776,"kits</w>":5777,"puni":5778,"philippines</w>":5779,"tfo":5780,"yal</w>":5781,"ylab</w>":5782,"thin</w>":5783,"int":5784,"anno":5785,"rep</w>":5786,"tips</w>":5787,"ony</w>":5788,"arti":5789,"aled</w>":5790,"stages</w>":5791,"ater":5792,"attribu":5793,"vir</w>":5794,"iter":5795,"asury</w>":5796,"ombar":5797,"hael</w>":5798,"lie</w>":5799,"liam":5800,"lipi":5801,"suitable</w>":5802,"trad":5803,"sea</w>":5804,"seven</w>":5805,"unlike</w>":5806,"coordin":5807,"covariance</w>":5808,"propo":5809,"promp":5810,"spin</w>":5811,"spain</w>":5812,"mamm":5813,"ame</w>":5814,"ric</w>":5815,"ries</w>":5816,"witter</w>":5817,"opposed</w>":5818,"buses</w>":5819,"busy</w>":5820,"version</w>":5821,"versus</w>":5822,"adding</w>":5823,"neg":5824,"comment</w>":5825,"meter</w>":5826,"meals</w>":5827,"apor":5828,"correlation</w>":5829,"dow</w>":5830,"irrit":5831,"moved</w>":5832,"teach</w>":5833,"veter":5834,"weak</w>":5835,"weak":5836,"audi":5837,"plat":5838,"plenty</w>":5839,"gold</w>":5840,"ums</w>":5841,"20th</w>":5842,"fears</w>":5843,"feasi":5844,"parliam":5845,"impose</w>":5846,"click</w>":5847,"iso":5848,"isation</w>":5849,"purely</w>":5850,"town</w>":5851,"wipes</w>":5852,"evapor":5853,"fip</w>":5854,"fighting</w>":5855,"sovere":5856,"portfo":5857,"output</w>":5858,"outlets</w>":5859,"grant</w>":5860,"grad</w>":5861,"dical</w>":5862,"tton</w>":5863,"forces</w>":5864,"former</w>":5865,"selection</w>":5866,"yesterday</w>":5867,"demia</w>":5868,"somehow</w>":5869,"alization</w>":5870,"phil":5871,"sending</w>":5872,"Who</w>":5873,"interactions</w>":5874,"ortation</w>":5875,"closures</w>":5876,"inform</w>":5877,"treasury</w>":5878,"gely</w>":5879,"trial</w>":5880,"trigger</w>":5881,"icial</w>":5882,"schem":5883,"responsi":5884,"turing</w>":5885,"aller":5886,"anymore</w>":5887,"quarter</w>":5888,"actively</w>":5889,"housing</w>":5890,"gave</w>":5891,"gather</w>":5892,"courts</w>":5893,"limits</w>":5894,"medium</w>":5895,"importation</w>":5896,"ideal</w>":5897,"strugg":5898,"worker</w>":5899,"suppose</w>":5900,"everyday</w>":5901,"107</w>":5902,"ministry</w>":5903,"satis":5904,"profits</w>":5905,"denial</w>":5906,"harm":5907,"refunds</w>":5908,"interests</w>":5909,"citizen":5910,"warm</w>":5911,"lifts</w>":5912,"charges</w>":5913,"capable</w>":5914,"198</w>":5915,"waste</w>":5916,"born</w>":5917,"michael</w>":5918,"2006</w>":5919,"2008</w>":5920,"named</w>":5921,"land":5922,"kinds</w>":5923,"colds</w>":5924,"specul":5925,"spot</w>":5926,"websites</w>":5927,"121</w>":5928,"suffer</w>":5929,"safely</w>":5930,"attend</w>":5931,"visits</w>":5932,"referring</w>":5933,"desired</w>":5934,"centre</w>":5935,"explains</w>":5936,"piece</w>":5937,"indicate</w>":5938,"indicated</w>":5939,"involves</w>":5940,"errors</w>":5941,"bioinforma":5942,"specificity</w>":5943,"remotely</w>":5944,"newly</w>":5945,"pregnancy</w>":5946,"screen</w>":5947,"accurately</w>":5948,"define</w>":5949,"defense</w>":5950,"departments</w>":5951,"academia</w>":5952,"Republic":5953,"implement</w>":5954,"double</w>":5955,"bacteri":5956,"broader</w>":5957,"broadca":5958,"Although</w>":5959,"varies</w>":5960,"conclusions</w>":5961,"conduct</w>":5962,"establish":5963,"smokers</w>":5964,"protecting</w>":5965,"researcher</w>":5966,"determining</w>":5967,"investigations</w>":5968,"democratic</w>":5969,"ventilation</w>":5970,"failed</w>":5971,"sir2</w>":5972,"axs</w>":5973,"neighbors</w>":5974,"bbc</w>":5975,"exempt</w>":5976,"quoted</w>":5977,"sensitive</w>":5978,"nucleic</w>":5979,"categories</w>":5980,"ologist</w>":5981,"thanks</w>":5982,"abortion</w>":5983,"tilde</w>":5984,"metric</w>":5985,"block</w>":5986,"falls</w>":5987,"gdpr</w>":5988,"afraid</w>":5989,"flexible</w>":5990,"engineering</w>":5991,"savings</w>":5992,"retirement</w>":5993,"italian</w>":5994,"departure</w>":5995,"substantially</w>":5996,"Airlines</w>":5997,"appointment</w>":5998,"acquired</w>":5999,"transportation</w>":6000,"loaded</w>":6001,"power":6002,"believed</w>":6003,"premium</w>":6004,"factory</w>":6005,"numerous</w>":6006,"recovering</w>":6007,"opt2</w>":6008,"fundamental</w>":6009,"EDIT</w>":6010,"Org":6011,"forecast</w>":6012,"gaussian</w>":6013,"Update</w>":6014,"climate</w>":6015,"reputation</w>":6016,"network</w>":6017,"legislation</w>":6018,"nanop":6019,"elsewhere</w>":6020,"vehicle</w>":6021,"epidemics</w>":6022,"nh3</w>":6023,"swab</w>":6024,"anxiety</w>":6025,"heavy</w>":6026,"clarify</w>":6027,"ratio</w>":6028,"phenom":6029,"mandatory</w>":6030,"pieces</w>":6031,"arbitrary</w>":6032,"lipids</w>":6033,"portfolio</w>":6034,"0pt</w>":6035,"120":6036,"110</w>":6037,"116</w>":6038,"38":6039,"55</w>":6040,"67":6041,"63</w>":6042,"76</w>":6043,"77</w>":6044,"80":6045,"98</w>":6046,"AAT":6047,"Bri":6048,"Cu":6049,"Cur":6050,"Coun":6051,"Fed</w>":6052,"Goo":6053,"Ju":6054,"Lu":6055,"Mini":6056,"Pol":6057,"R0</w>":6058,"So":6059,"Sour":6060,"bs":6061,"bra":6062,"bles</w>":6063,"bail":6064,"cars</w>":6065,"cup</w>":6066,"cited</w>":6067,"eg":6068,"ethan":6069,"elimin":6070,"french</w>":6071,"ga</w>":6072,"gone</w>":6073,"gements</w>":6074,"hor":6075,"hur":6076,"ip":6077,"ion":6078,"ian</w>":6079,"jection</w>":6080,"kar":6081,"king":6082,"kings</w>":6083,"lens</w>":6084,"min</w>":6085,"oxide</w>":6086,"pin":6087,"pha":6088,"rich</w>":6089,"ricul":6090,"sn":6091,"sou":6092,"satur":6093,"tch</w>":6094,"tments</w>":6095,"tably</w>":6096,"task</w>":6097,"ule</w>":6098,"yer</w>":6099,"thou":6100,"intr":6101,"inet</w>":6102,"indoor</w>":6103,"anth":6104,"antom</w>":6105,"reb":6106,"redi":6107,"replac":6108,"relu":6109,"resource</w>":6110,"represent</w>":6111,"realize</w>":6112,"oning</w>":6113,"oner</w>":6114,"arance</w>":6115,"enjo":6116,"enever</w>":6117,"stream</w>":6118,"atal</w>":6119,"vice</w>":6120,"vision</w>":6121,"viously</w>":6122,"visibly</w>":6123,"accoun":6124,"ico</w>":6125,"ican</w>":6126,"whenever</w>":6127,"dig":6128,"rupt</w>":6129,"ilit":6130,"deduc":6131,"destruc":6132,"seve":6133,"searching</w>":6134,"theta":6135,"units</w>":6136,"unwell</w>":6137,"unrelated</w>":6138,"unlawful</w>":6139,"abili":6140,"conser":6141,"promo":6142,"master</w>":6143,"posts</w>":6144,"poland</w>":6145,"urgent</w>":6146,"exhi":6147,"exhal":6148,"ams</w>":6149,"tioning</w>":6150,"shoc":6151,"eline</w>":6152,"met</w>":6153,"meant</w>":6154,"aggre":6155,"hosts</w>":6156,"mix</w>":6157,"ultim":6158,"moti":6159,"mobi":6160,"tational</w>":6161,"peroxide</w>":6162,"august</w>":6163,"play":6164,"playing</w>":6165,"ume</w>":6166,"2015</w>":6167,"feels</w>":6168,"features</w>":6169,"parms</w>":6170,"partis":6171,"istics</w>":6172,"puts</w>":6173,"surpri":6174,"kel</w>":6175,"toward</w>":6176,"gium</w>":6177,"githu":6178,"ourselves</w>":6179,"parent</w>":6180,"ingu":6181,"ingredi":6182,"grounds</w>":6183,"mutation</w>":6184,"tters</w>":6185,"ford</w>":6186,"scared</w>":6187,"fini":6188,"serve</w>":6189,"jumped</w>":6190,"select</w>":6191,"gue</w>":6192,"gun</w>":6193,"pubs</w>":6194,"year":6195,"effic":6196,"func</w>":6197,"impacts</w>":6198,"alive</w>":6199,"aliens</w>":6200,"rarely</w>":6201,"phr":6202,"phantom</w>":6203,"senior</w>":6204,"interact</w>":6205,"massive</w>":6206,"locked</w>":6207,"approve</w>":6208,"offers</w>":6209,"disaster</w>":6210,"distress</w>":6211,"backed</w>":6212,"regard</w>":6213,"responding</w>":6214,"illance</w>":6215,"emphasi":6216,"prevents</w>":6217,"mania</w>":6218,"cuomo</w>":6219,"fically</w>":6220,"licen":6221,"needing</w>":6222,"math</w>":6223,"trust</w>":6224,"crimin":6225,"direction</w>":6226,"luck</w>":6227,"affects</w>":6228,"cele":6229,"issuing</w>":6230,"banking</w>":6231,"signing</w>":6232,"cardi":6233,"orean</w>":6234,"10000</w>":6235,"touri":6236,"organ</w>":6237,"mentions</w>":6238,"hyper":6239,"protease</w>":6240,"denly</w>":6241,"bringing</w>":6242,"nie</w>":6243,"eden</w>":6244,"claiming</w>":6245,"stitute</w>":6246,"equally</w>":6247,"processes</w>":6248,"cancelling</w>":6249,"144</w>":6250,"appeared</w>":6251,"safer</w>":6252,"2004</w>":6253,"eased</w>":6254,"washed</w>":6255,"throw</w>":6256,"regional</w>":6257,"describes</w>":6258,"describing</w>":6259,"123</w>":6260,"suffering</w>":6261,"campu":6262,"publication</w>":6263,"amaica</w>":6264,"skills</w>":6265,"grades</w>":6266,"earn</w>":6267,"earning</w>":6268,"missing</w>":6269,"arrive</w>":6270,"arrived</w>":6271,"proceed</w>":6272,"reasonably</w>":6273,"frequent</w>":6274,"grow</w>":6275,"built</w>":6276,"threat":6277,"threats</w>":6278,"packages</w>":6279,"households</w>":6280,"debate</w>":6281,"volume</w>":6282,"journey</w>":6283,"zerland</w>":6284,"deadline</w>":6285,"manufactured</w>":6286,"establish</w>":6287,"fluids</w>":6288,"knowled":6289,"eur</w>":6290,"smoke</w>":6291,"ACE2</w>":6292,"liquids</w>":6293,"destinations</w>":6294,"carriers</w>":6295,"fitness</w>":6296,"eligibility</w>":6297,"precisely</w>":6298,"analyses</w>":6299,"hydroxychloroquine</w>":6300,"surveillance</w>":6301,"purchased</w>":6302,"communication</w>":6303,"organizers</w>":6304,"doubling</w>":6305,"trend</w>":6306,"absolute</w>":6307,"quote</w>":6308,"meantime</w>":6309,"meaning":6310,"nuclei</w>":6311,"personnel</w>":6312,"experienced</w>":6313,"sorry</w>":6314,"aspects</w>":6315,"guarante":6316,"overwhelmed</w>":6317,"avoided</w>":6318,"ynman</w>":6319,"africa</w>":6320,"Australi":6321,"seminars</w>":6322,"confused</w>":6323,"postpone</w>":6324,"organisation</w>":6325,"adjusted</w>":6326,"manife":6327,"toler":6328,"limitation</w>":6329,"limitations</w>":6330,"discussed</w>":6331,"sanctions</w>":6332,"breastfeeding</w>":6333,"pharmacies</w>":6334,"zoonotic</w>":6335,"foundation</w>":6336,"11th</w>":6337,"Canada</w>":6338,"suddenly</w>":6339,"amino</w>":6340,"mitigate</w>":6341,"prescription</w>":6342,"Person</w>":6343,"youtube</w>":6344,"concept</w>":6345,"layover</w>":6346,"cnn</w>":6347,"physician</w>":6348,"advantage</w>":6349,"Africa</w>":6350,"Prime</w>":6351,"budget</w>":6352,"jurisdictions</w>":6353,"religious</w>":6354,"database</w>":6355,"Barcelona</w>":6356,"vegetables</w>":6357,"straight</w>":6358,"harvard</w>":6359,"fabric</w>":6360,"ombardy</w>":6361,"feasible</w>":6362,"sovereign</w>":6363,"phenomen":6364,"Minister</w>":6365,"ethanol</w>":6366,"thoughts</w>":6367,"severely</w>":6368,"06</w>":6369,"103</w>":6370,"118</w>":6371,"150</w>":6372,"39":6373,"44":6374,"58":6375,"69</w>":6376,"71</w>":6377,"83</w>":6378,"89</w>":6379,"AGT":6380,"CC":6381,"EI":6382,"Even</w>":6383,"Fur":6384,"Fri":6385,"Fir":6386,"Fox</w>":6387,"H1":6388,"Has</w>":6389,"IC":6390,"Iran</w>":6391,"Mc":6392,"N95</w>":6393,"Of</w>":6394,"Opt</w>":6395,"PA</w>":6396,"Please</w>":6397,"RD</w>":6398,"Swe":6399,"We":6400,"Wi":6401,"York</w>":6402,"ares</w>":6403,"atically</w>":6404,"by":6405,"bil":6406,"bay":6407,"bling</w>":6408,"ck":6409,"cc</w>":6410,"cket</w>":6411,"dden</w>":6412,"ec</w>":6413,"eti":6414,"eing</w>":6415,"edi":6416,"fair</w>":6417,"filled</w>":6418,"gir":6419,"gain</w>":6420,"g13</w>":6421,"gross</w>":6422,"hire</w>":6423,"ie</w>":6424,"jam":6425,"ko":6426,"knew</w>":6427,"laid</w>":6428,"lpv</w>":6429,"mi</w>":6430,"men</w>":6431,"nic":6432,"nom":6433,"nsp":6434,"nls</w>":6435,"nlm</w>":6436,"ot":6437,"ox":6438,"ot</w>":6439,"ood</w>":6440,"ph</w>":6441,"rr":6442,"ski":6443,"sale</w>":6444,"saving</w>":6445,"sba</w>":6446,"ton":6447,"tas":6448,"tab":6449,"tam":6450,"twitter</w>":6451,"uti":6452,"usel":6453,"va</w>":6454,"vom":6455,"zoom</w>":6456,"thly</w>":6457,"thread</w>":6458,"inal</w>":6459,"ana</w>":6460,"anese</w>":6461,"refri":6462,"retail</w>":6463,"replaced</w>":6464,"tin</w>":6465,"erred</w>":6466,"enter":6467,"altogether</w>":6468,"stan</w>":6469,"station</w>":6470,"star</w>":6471,"visu":6472,"itu":6473,"itarian</w>":6474,"itiner":6475,"rooms</w>":6476,"acks</w>":6477,"acknowled":6478,"icu</w>":6479,"iceland</w>":6480,"haven</w>":6481,"eshi":6482,"escap":6483,"dipl":6484,"lim</w>":6485,"liber":6486,"ligence</w>":6487,"suit</w>":6488,"detec":6489,"tration</w>":6490,"seg":6491,"theat":6492,"thetical</w>":6493,"unemployed</w>":6494,"coo":6495,"absor":6496,"concen":6497,"convin":6498,"spouse</w>":6499,"leaves</w>":6500,"mar</w>":6501,"pos</w>":6502,"posing</w>":6503,"poore":6504,"posite</w>":6505,"bed":6506,"bet</w>":6507,"rimin":6508,"sharing</w>":6509,"ades</w>":6510,"adver":6511,"infe":6512,"infra":6513,"comb":6514,"commission</w>":6515,"meat</w>":6516,"meet":6517,"merely</w>":6518,"aps</w>":6519,"apanese</w>":6520,"agricul":6521,"mps</w>":6522,"mixing</w>":6523,"mirr":6524,"doc</w>":6525,"motion</w>":6526,"mode</w>":6527,"mosqu":6528,"teen</w>":6529,"tai":6530,"permission</w>":6531,"plain</w>":6532,"gott":6533,"tims</w>":6534,"rency</w>":6535,"partly</w>":6536,"island</w>":6537,"trations</w>":6538,"emed</w>":6539,"fields</w>":6540,"soiled</w>":6541,"sodium</w>":6542,"sooner</w>":6543,"ancet</w>":6544,"grants</w>":6545,"grand":6546,"forbi":6547,"tuesday</w>":6548,"finance</w>":6549,"etnam</w>":6550,"curves</w>":6551,"arial</w>":6552,"implies</w>":6553,"transactions</w>":6554,"transmitting</w>":6555,"break":6556,"Which</w>":6557,"interf":6558,"intermedi":6559,"sind</w>":6560,"certi":6561,"linen</w>":6562,"fun</w>":6563,"big":6564,"bia</w>":6565,"bias</w>":6566,"geor":6567,"gement</w>":6568,"schol":6569,"clean":6570,"illu":6571,"dros</w>":6572,"speciali":6573,"understand":6574,"allergy</w>":6575,"cured</w>":6576,"marketing</w>":6577,"anta</w>":6578,"virtually</w>":6579,"largely</w>":6580,"hospital":6581,"passes</w>":6582,"contradic":6583,"entary</w>":6584,"restrict</w>":6585,"restricting</w>":6586,"economist</w>":6587,"drew</w>":6588,"popular</w>":6589,"crime</w>":6590,"bookings</w>":6591,"decree</w>":6592,"deceased</w>":6593,"emerged</w>":6594,"advises</w>":6595,"advising</w>":6596,"quarantining</w>":6597,"shop</w>":6598,"bank":6599,"banning</w>":6600,"author":6601,"authors</w>":6602,"ideally</w>":6603,"regulated</w>":6604,"puri":6605,"views</w>":6606,"check":6607,"isolating</w>":6608,"universal</w>":6609,"structural</w>":6610,"norway</w>":6611,"frag":6612,"users</w>":6613,"everywhere</w>":6614,"100":6615,"valu":6616,"game</w>":6617,"similarly</w>":6618,"sections</w>":6619,"seeking</w>":6620,"density</w>":6621,"relations</w>":6622,"shif":6623,"ships</w>":6624,"completed</w>":6625,"edit":6626,"claimer</w>":6627,"143</w>":6628,"147</w>":6629,"1918</w>":6630,"secondly</w>":6631,"2005</w>":6632,"resulting</w>":6633,"specim":6634,"134</w>":6635,"intentionally</w>":6636,"binom</w>":6637,"faq</w>":6638,"discrimin":6639,"registration</w>":6640,"Inf":6641,"hoping</w>":6642,"hopkins</w>":6643,"visitor</w>":6644,"delayed</w>":6645,"announcement</w>":6646,"observations</w>":6647,"collabor":6648,"ski</w>":6649,"missed</w>":6650,"street</w>":6651,"logies</w>":6652,"burden</w>":6653,"frequency</w>":6654,"instances</w>":6655,"packaging</w>":6656,"driver</w>":6657,"driving</w>":6658,"drivers</w>":6659,"removed</w>":6660,"managing</w>":6661,"properties</w>":6662,"domin":6663,"investing</w>":6664,"bonate</w>":6665,"sequencing</w>":6666,"shortages</w>":6667,"couldn</w>":6668,"gly":6669,"15th</w>":6670,"professors</w>":6671,"corporations</w>":6672,"News</w>":6673,"exponentially</w>":6674,"fresh</w>":6675,"incess</w>":6676,"aaaa":6677,"topics</w>":6678,"guardian</w>":6679,"continuing</w>":6680,"cycle</w>":6681,"neighbor":6682,"8888</w>":6683,"lending</w>":6684,"lenders</w>":6685,"donald</w>":6686,"moderate</w>":6687,"complicated</w>":6688,"molecule</w>":6689,"statistical</w>":6690,"ashing</w>":6691,"smallpox</w>":6692,"supporting</w>":6693,"characterized</w>":6694,"thousand</w>":6695,"crossing</w>":6696,"frame":6697,"optimization</w>":6698,"Americans</w>":6699,"attack</w>":6700,"contribute</w>":6701,"prohibits</w>":6702,"modnested</w>":6703,"practicing</w>":6704,"neighbor</w>":6705,"behaviour</w>":6706,"exemption</w>":6707,"merase</w>":6708,"tane":6709,"expecting</w>":6710,"criticism</w>":6711,"therapy</w>":6712,"maintained</w>":6713,"ratg13</w>":6714,"experimental</w>":6715,"polymerase</w>":6716,"strange</w>":6717,"intervention</w>":6718,"interventions</w>":6719,"rhinovirus</w>":6720,"saved</w>":6721,"repeat</w>":6722,"substantial</w>":6723,"cabinet</w>":6724,"welcome</w>":6725,"welfare</w>":6726,"radio</w>":6727,"toll</w>":6728,"Govern":6729,"virology</w>":6730,"construction</w>":6731,"implications</w>":6732,"technology</w>":6733,"Asian</w>":6734,"efficients</w>":6735,"disinfectant</w>":6736,"disinfectants</w>":6737,"campai":6738,"h2o</w>":6739,"hasn</w>":6740,"nursing</w>":6741,"slowly</w>":6742,"tiny</w>":6743,"achieve</w>":6744,"passage</w>":6745,"polls</w>":6746,"solid</w>":6747,"integral</w>":6748,"hardest</w>":6749,"taxpayer</w>":6750,"Recently</w>":6751,"blue</w>":6752,"message</w>":6753,"searched</w>":6754,"custody</w>":6755,"Obviously</w>":6756,"optimal</w>":6757,"components</w>":6758,"People</w>":6759,"Univer":6760,"rabies</w>":6761,"revenue</w>":6762,"holiday</w>":6763,"pattern</w>":6764,"Monday</w>":6765,"victims</w>":6766,"explicitly</w>":6767,"flattening</w>":6768,"antigenic</w>":6769,"compliance</w>":6770,"Virus</w>":6771,"corticosteroids</w>":6772,"fashi":6773,"veterinary</w>":6774,"parliament</w>":6775,"harmful</w>":6776,"citizenship</w>":6777,"landlord</w>":6778,"bioinformatics</w>":6779,"reluct":6780,"ultimately</w>":6781,"criminal</w>":6782,"celebr":6783,"First</w>":6784,"useless</w>":6785,"refriger":6786,"concentrations</w>":6787,"meetings</w>":6788,"120</w>":6789,"130</w>":6790,"2F":6791,"55":6792,"96":6793,"An":6794,"Ap":6795,"An</w>":6796,"Air</w>":6797,"BP</w>":6798,"Ber":6799,"Cle":6800,"Col":6801,"Data</w>":6802,"During</w>":6803,"Fang":6804,"GC":6805,"Gene</w>":6806,"HS</w>":6807,"Have</w>":6808,"Jan</w>":6809,"May</w>":6810,"OP":6811,"Of":6812,"Ru":6813,"SP":6814,"Tur":6815,"ab</w>":6816,"astern</w>":6817,"astro":6818,"bent</w>":6819,"bars</w>":6820,"barri":6821,"cli":6822,"cdot</w>":6823,"em</w>":6824,"fth":6825,"fell</w>":6826,"fits</w>":6827,"gall":6828,"hr":6829,"ha</w>":6830,"im</w>":6831,"ika</w>":6832,"jones</w>":6833,"jump</w>":6834,"ko</w>":6835,"killing</w>":6836,"la</w>":6837,"lay</w>":6838,"lend</w>":6839,"md</w>":6840,"mal</w>":6841,"mel":6842,"mari":6843,"nau":6844,"nhs</w>":6845,"oh</w>":6846,"pit":6847,"pes":6848,"qrt</w>":6849,"ry":6850,"rad":6851,"sc</w>":6852,"sar":6853,"sin</w>":6854,"sqrt</w>":6855,"ti</w>":6856,"twe":6857,"tum":6858,"umo":6859,"uters</w>":6860,"va":6861,"vi</w>":6862,"vast</w>":6863,"vous</w>":6864,"wound</w>":6865,"wage</w>":6866,"yi":6867,"inno":6868,"indepen":6869,"indoors</w>":6870,"anes":6871,"resc":6872,"replace</w>":6873,"reconsider</w>":6874,"rebook</w>":6875,"reacting</w>":6876,"tize</w>":6877,"arg":6878,"arby</w>":6879,"enco":6880,"enable</w>":6881,"enact</w>":6882,"enced</w>":6883,"ensuring</w>":6884,"orban</w>":6885,"orxiv</w>":6886,"alar":6887,"alve":6888,"stating</w>":6889,"atr":6890,"atories</w>":6891,"viability</w>":6892,"accom":6893,"acci":6894,"icked</w>":6895,"omic</w>":6896,"noon</w>":6897,"noise</w>":6898,"esus</w>":6899,"lities</w>":6900,"ila</w>":6901,"sition</w>":6902,"sub</w>":6903,"dex</w>":6904,"defe":6905,"deep":6906,"dead</w>":6907,"tras":6908,"seat</w>":6909,"seaf":6910,"cool</w>":6911,"cook</w>":6912,"abstr":6913,"abuse</w>":6914,"cong":6915,"confin":6916,"proposed</w>":6917,"propose</w>":6918,"profile</w>":6919,"projects</w>":6920,"spar":6921,"letters</w>":6922,"pose":6923,"poster":6924,"exit</w>":6925,"bel":6926,"bear</w>":6927,"belon":6928,"opha":6929,"opposite</w>":6930,"bust</w>":6931,"shu":6932,"shou":6933,"shire</w>":6934,"adds</w>":6935,"netherlands</w>":6936,"nearby</w>":6937,"infant</w>":6938,"infants</w>":6939,"combat</w>":6940,"ags</w>":6941,"agrap":6942,"prepa":6943,"prefer":6944,"mobility</w>":6945,"vember</w>":6946,"permitted</w>":6947,"perfec":6948,"web</w>":6949,"auto</w>":6950,"audi</w>":6951,"oles":6952,"civet</w>":6953,"hearing</w>":6954,"duties</w>":6955,"2014</w>":6956,"feynman</w>":6957,"paragrap":6958,"ssions</w>":6959,"face":6960,"facilit":6961,"kept</w>":6962,"tow":6963,"tox":6964,"trained</w>":6965,"wider</w>":6966,"ansa</w>":6967,"outline</w>":6968,"outbound</w>":6969,"rising</w>":6970,"accru":6971,"became</w>":6972,"forget</w>":6973,"tum</w>":6974,"monthly</w>":6975,"scans</w>":6976,"currency</w>":6977,"selected</w>":6978,"yeast</w>":6979,"tends</w>":6980,"tenance</w>":6981,"tenant</w>":6982,"ppm</w>":6983,"arities</w>":6984,"funeral</w>":6985,"align</w>":6986,"alizations</w>":6987,"breathe</w>":6988,"sensible</w>":6989,"pric":6990,"crew</w>":6991,"stered</w>":6992,"clothing</w>":6993,"cloture</w>":6994,"offices</w>":6995,"trees</w>":6996,"medications</w>":6997,"fur</w>":6998,"bition</w>":6999,"biorxiv</w>":7000,"gee</w>":7001,"gered</w>":7002,"naoc":7003,"regim":7004,"turns</w>":7005,"margin</w>":7006,"england</w>":7007,"respirator</w>":7008,"economies</w>":7009,"lled</w>":7010,"subway</w>":7011,"subsection</w>":7012,"submit</w>":7013,"books</w>":7014,"wasn</w>":7015,"decades</w>":7016,"cex</w>":7017,"Covid19</w>":7018,"reland</w>":7019,"relates</w>":7020,"importantly</w>":7021,"stands</w>":7022,"maintenance</w>":7023,"caring</w>":7024,"variety</w>":7025,"compounds</w>":7026,"anization</w>":7027,"rowing</w>":7028,"checking</w>":7029,"decides</w>":7030,"anime</w>":7031,"conditional</w>":7032,"officially</w>":7033,"germs</w>":7034,"residu":7035,"residential</w>":7036,"join</w>":7037,"109</w>":7038,"sector</w>":7039,"eviction</w>":7040,"predictable</w>":7041,"recommending</w>":7042,"bron":7043,"warmer</w>":7044,"suspici":7045,"wake</w>":7046,"defini":7047,"filtration</w>":7048,"2007</w>":7049,"friday</w>":7050,"frieden</w>":7051,"catastro":7052,"london</w>":7053,"color</w>":7054,"enzy":7055,"hub</w>":7056,"experiment</w>":7057,"identifying</w>":7058,"container</w>":7059,"shape</w>":7060,"tails</w>":7061,"128</w>":7062,"Inter":7063,"visited</w>":7064,"wald</w>":7065,"referred</w>":7066,"collapse</w>":7067,"appropriately</w>":7068,"casual</w>":7069,"pneumo":7070,"archi":7071,"reasoning</w>":7072,"logic</w>":7073,"extinc":7074,"practically</w>":7075,"assessing</w>":7076,"traveled</w>":7077,"grows</w>":7078,"manufacturing</w>":7079,"instant</w>":7080,"environments</w>":7081,"calend":7082,"accuracy</w>":7083,"adult</w>":7084,"Unfortunately</w>":7085,"immigrants</w>":7086,"291</w>":7087,"damages</w>":7088,"shortage</w>":7089,"glm</w>":7090,"cheaper</w>":7091,"taxable</w>":7092,"success</w>":7093,"corporation</w>":7094,"focused</w>":7095,"remaining</w>":7096,"qualified</w>":7097,"drinks</w>":7098,"eutical</w>":7099,"nervous</w>":7100,"comparing</w>":7101,"mutated</w>":7102,"danger</w>":7103,"encouraging</w>":7104,"designated</w>":7105,"constitution</w>":7106,"methodo":7107,"exclusively</w>":7108,"30th</w>":7109,"tracing</w>":7110,"disrupted</w>":7111,"analyze</w>":7112,"manufacturers</w>":7113,"stria</w>":7114,"stries</w>":7115,"choosing</w>":7116,"provinces</w>":7117,"spray</w>":7118,"organism</w>":7119,"sird</w>":7120,"sirmc":7121,"communicable</w>":7122,"America</w>":7123,"aerosol</w>":7124,"prohibited</w>":7125,"hypothetical</w>":7126,"picture</w>":7127,"meanwhile</w>":7128,"machines</w>":7129,"aspect</w>":7130,"assistance</w>":7131,"degrees</w>":7132,"connected</w>":7133,"adaptive</w>":7134,"therapies</w>":7135,"ventilator</w>":7136,"tility</w>":7137,"violation</w>":7138,"conventions</w>":7139,"Then</w>":7140,"These</w>":7141,"quette</w>":7142,"experimentation</w>":7143,"Exam":7144,"homology</w>":7145,"raise</w>":7146,"insight</w>":7147,"representative</w>":7148,"supervis":7149,"confusion</w>":7150,"polyaden":7151,"politician</w>":7152,"demonstrate</w>":7153,"demonstrated</w>":7154,"dark</w>":7155,"favor":7156,"favor</w>":7157,"rhinoviruses</w>":7158,"repeated</w>":7159,"evaluate</w>":7160,"organisms</w>":7161,"cabin</w>":7162,"junk</w>":7163,"automatically</w>":7164,"circulating</w>":7165,"SIR</w>":7166,"avir</w>":7167,"odds</w>":7168,"corresponding</w>":7169,"pharmaceutical</w>":7170,"devices</w>":7171,"persist</w>":7172,"transmissible</w>":7173,"h2o2</w>":7174,"arrangements</w>":7175,"connecting</w>":7176,"mistake</w>":7177,"okay</w>":7178,"industry</w>":7179,"theoretical</w>":7180,"furlough</w>":7181,"furlough":7182,"comfortable</w>":7183,"keyword</w>":7184,"evacuation</w>":7185,"antiretroviral</w>":7186,"technique</w>":7187,"chicago</w>":7188,"capital</w>":7189,"literature</w>":7190,"nonimmigrant</w>":7191,"diarrhea</w>":7192,"consumer</w>":7193,"expressed</w>":7194,"shutdown</w>":7195,"volunte":7196,"English</w>":7197,"General</w>":7198,"Romania</w>":7199,"bcg</w>":7200,"textoutline</w>":7201,"alberta</w>":7202,"proximity</w>":7203,"appreciate</w>":7204,"geographic</w>":7205,"anticipate</w>":7206,"chemistry</w>":7207,"badly</w>":7208,"guns</w>":7209,"proposal</w>":7210,"mammals</w>":7211,"scheme</w>":7212,"responsibility</w>":7213,"Organization</w>":7214,"1206</w>":7215,"British</w>":7216,"Google</w>":7217,"Source</w>":7218,"saturday</w>":7219,"anthony</w>":7220,"exhales</w>":7221,"aggressive</w>":7222,"mobile</w>":7223,"github</w>":7224,"ingredients</w>":7225,"efficacy</w>":7226,"campus</w>":7227,"Sweden</w>":7228,"etiquette</w>":7229,"itinerary</w>":7230,"diplom":7231,"poorer</w>":7232,"infrastructure</w>":7233,"mirror</w>":7234,"taiwan</w>":7235,"interfere</w>":7236,"biggest</w>":7237,"glyco":7238,"Fangcan":7239,"Ofcom</w>":7240,"fthansa</w>":7241,"tweet</w>":7242,"anesthes":7243,"alveol":7244,"seafood</w>":7245,"posterior</w>":7246,"preparedness</w>":7247,"perfectly</w>":7248,"paragraph</w>":7249,"naocl</w>":7250,"calendar</w>":7251,"sirmc2</w>":7252,"polyadeny":7253,"2m</w>":7254,"539</w>":7255,"79</w>":7256,"85":7257,"87":7258,"82</w>":7259,"800</w>":7260,"AAC":7261,"Ban":7262,"CR</w>":7263,"City</w>":7264,"Chi":7265,"Centr":7266,"Dr</w>":7267,"Don":7268,"Dis":7269,"GCT":7270,"GPA</w>":7271,"GBP</w>":7272,"Hu":7273,"Hum":7274,"IO":7275,"Is":7276,"KL":7277,"Kaz":7278,"Many</w>":7279,"N1</w>":7280,"OT":7281,"On":7282,"RS</w>":7283,"Vow":7284,"atives</w>":7285,"cg":7286,"cin":7287,"cei":7288,"cce":7289,"dd":7290,"dred</w>":7291,"dhs</w>":7292,"dpa</w>":7293,"ea</w>":7294,"ethe":7295,"eid":7296,"elev":7297,"eastern</w>":7298,"fom":7299,"fies</w>":7300,"fcc</w>":7301,"gul":7302,"gary</w>":7303,"h1":7304,"hen</w>":7305,"hits</w>":7306,"hline</w>":7307,"hcov</w>":7308,"itive</w>":7309,"ization</w>":7310,"je":7311,"jp</w>":7312,"japanese</w>":7313,"las":7314,"lated</w>":7315,"laying</w>":7316,"lanta</w>":7317,"ms":7318,"macy</w>":7319,"nt</w>":7320,"n1</w>":7321,"nate</w>":7322,"nell</w>":7323,"num</w>":7324,"oting</w>":7325,"ping</w>":7326,"pal":7327,"pun":7328,"pau":7329,"pter</w>":7330,"pages</w>":7331,"qatar</w>":7332,"rd</w>":7333,"rin":7334,"ris</w>":7335,"ram":7336,"slo":7337,"sali":7338,"sms</w>":7339,"sick":7340,"tor":7341,"tat":7342,"tent</w>":7343,"tory</w>":7344,"tells</w>":7345,"wa</w>":7346,"wages</w>":7347,"yo</w>":7348,"yed</w>":7349,"zone</w>":7350,"thqu":7351,"thening</w>":7352,"induc":7353,"inject</w>":7354,"injur":7355,"anders</w>":7356,"reve":7357,"react</w>":7358,"reject</w>":7359,"retail":7360,"resort</w>":7361,"relieve</w>":7362,"resolve</w>":7363,"reson":7364,"timatic</w>":7365,"ert</w>":7366,"arity</w>":7367,"ens":7368,"encounter</w>":7369,"entered</w>":7370,"ord</w>":7371,"orbi":7372,"alex</w>":7373,"stories</w>":7374,"stingly</w>":7375,"stained</w>":7376,"vital</w>":7377,"vietnam</w>":7378,"rower</w>":7379,"rodents</w>":7380,"acids</w>":7381,"ich":7382,"ictv</w>":7383,"noting</w>":7384,"esian</w>":7385,"liest</w>":7386,"lips</w>":7387,"lights</w>":7388,"losing</w>":7389,"losis</w>":7390,"succe":7391,"dele":7392,"degrad":7393,"deemed</w>":7394,"tro</w>":7395,"sey</w>":7396,"seat":7397,"sets</w>":7398,"seats</w>":7399,"unk</w>":7400,"uncertain</w>":7401,"coefficients</w>":7402,"proto":7403,"proved</w>":7404,"map</w>":7405,"poons</w>":7406,"exce":7407,"express</w>":7408,"exico</w>":7409,"ammon":7410,"amid</w>":7411,"rid</w>":7412,"opec</w>":7413,"vert</w>":7414,"eler":7415,"elected</w>":7416,"elbur":7417,"admission</w>":7418,"admissi":7419,"neys</w>":7420,"infty</w>":7421,"compri":7422,"app</w>":7423,"ultras":7424,"preprint</w>":7425,"moves</w>":7426,"tember</w>":7427,"tap</w>":7428,"wered</w>":7429,"ausible</w>":7430,"gown</w>":7431,"wording</w>":7432,"worsen":7433,"oling</w>":7434,"infects</w>":7435,"rences</w>":7436,"cil</w>":7437,"cipl":7438,"ayer</w>":7439,"coronaviral</w>":7440,"uments</w>":7441,"ticle</w>":7442,"2000</w>":7443,"feed":7444,"boards</w>":7445,"boarding</w>":7446,"boiling</w>":7447,"cles</w>":7448,"ising</w>":7449,"isms</w>":7450,"counted</w>":7451,"facepi":7452,"push</w>":7453,"string":7454,"tool</w>":7455,"entials</w>":7456,"paa</w>":7457,"eva</w>":7458,"ance":7459,"gram</w>":7460,"epa</w>":7461,"lasts</w>":7462,"accus":7463,"formation</w>":7464,"tured</w>":7465,"scar":7466,"sero":7467,"avel":7468,"sels</w>":7469,"seller</w>":7470,"guil":7471,"tenancy</w>":7472,"CON":7473,"transiting</w>":7474,"ration":7475,"rational</w>":7476,"rael</w>":7477,"breaking</w>":7478,"readers</w>":7479,"senators</w>":7480,"prone</w>":7481,"interface</w>":7482,"interactive</w>":7483,"intervals</w>":7484,"stein</w>":7485,"stetr":7486,"ellular</w>":7487,"airs</w>":7488,"bike</w>":7489,"disabilities</w>":7490,"disclaimer</w>":7491,"discipl":7492,"gel</w>":7493,"human":7494,"distant</w>":7495,"distingu":7496,"examin":7497,"examination</w>":7498,"icians</w>":7499,"generate</w>":7500,"responded</w>":7501,"turkish</w>":7502,"drops</w>":7503,"dropped</w>":7504,"idity</w>":7505,"specified</w>":7506,"ofcom</w>":7507,"channel</w>":7508,"emphas":7509,"knobs</w>":7510,"underway</w>":7511,"thinks</w>":7512,"culosis</w>":7513,"munici":7514,"develops</w>":7515,"ranging</w>":7516,"eight</w>":7517,"green</w>":7518,"quarters</w>":7519,"match</w>":7520,"canadian</w>":7521,"positions</w>":7522,"activation</w>":7523,"produces</w>":7524,"smell</w>":7525,"apped</w>":7526,"stantly</w>":7527,"signals</w>":7528,"cards</w>":7529,"carbonate</w>":7530,"variability</w>":7531,"legs</w>":7532,"overview</w>":7533,"happy</w>":7534,"stoch":7535,"viewing</w>":7536,"suppres":7537,"deciding</w>":7538,"ritain</w>":7539,"assumes</w>":7540,"drastic</w>":7541,"residency</w>":7542,"usage</w>":7543,"void</w>":7544,"votes</w>":7545,"voters</w>":7546,"105</w>":7547,"10th</w>":7548,"1016</w>":7549,"seeing</w>":7550,"docs</w>":7551,"relax</w>":7552,"concerning</w>":7553,"brn</w>":7554,"brings</w>":7555,"brought</w>":7556,"talks</w>":7557,"edu</w>":7558,"edings</w>":7559,"suspen":7560,"00000":7561,"capture</w>":7562,"149</w>":7563,"1998</w>":7564,"defines</w>":7565,"definite</w>":7566,"2001</w>":7567,"naming</w>":7568,"influenced</w>":7569,"jective</w>":7570,"broken</w>":7571,"nyt</w>":7572,"138</w>":7573,"intend</w>":7574,"supplement</w>":7575,"labor</w>":7576,"throats</w>":7577,"summari":7578,"discour":7579,"crash</w>":7580,"pack</w>":7581,"spots</w>":7582,"hopes</w>":7583,"berg</w>":7584,"berculosis</w>":7585,"observe</w>":7586,"origins</w>":7587,"originally</w>":7588,"collect</w>":7589,"handled</w>":7590,"handwashing</w>":7591,"reductions</w>":7592,"midnight</w>":7593,"earthqu":7594,"bah":7595,"arguing</w>":7596,"argued</w>":7597,"stret":7598,"streets</w>":7599,"proceedings</w>":7600,"chapter</w>":7601,"speed</w>":7602,"speech</w>":7603,"leads</w>":7604,"estyle</w>":7605,"indication</w>":7606,"indicating</w>":7607,"survived</w>":7608,"survival</w>":7609,"logist</w>":7610,"nonethe":7611,"woman</w>":7612,"manager</w>":7613,"news":7614,"draw</w>":7615,"exercises</w>":7616,"sequenced</w>":7617,"transition</w>":7618,"advisory</w>":7619,"damaged</w>":7620,"zeros</w>":7621,"incidence</w>":7622,"reserved</w>":7623,"separated</w>":7624,"exposing</w>":7625,"syncy":7626,"consume</w>":7627,"focusing</w>":7628,"varying</w>":7629,"cares</w>":7630,"simulations</w>":7631,"deliver":7632,"deliver</w>":7633,"herpes":7634,"comparable</w>":7635,"proportion":7636,"investments</w>":7637,"epidemiological</w>":7638,"epidemiologist</w>":7639,"microbes</w>":7640,"microbiology</w>":7641,"demographic</w>":7642,"pharmacy</w>":7643,"helping</w>":7644,"documented</w>":7645,"squares</w>":7646,"wild":7647,"attempts</w>":7648,"excludes</w>":7649,"hundred</w>":7650,"dispose</w>":7651,"interpret</w>":7652,"interpreted</w>":7653,"mechanisms</w>":7654,"salary</w>":7655,"macro":7656,"replicate</w>":7657,"justified</w>":7658,"controlling</w>":7659,"characteristic</w>":7660,"characteristics</w>":7661,"stopping</w>":7662,"spraying</w>":7663,"electron":7664,"electron</w>":7665,"crown</w>":7666,"introducing</w>":7667,"axle</w>":7668,"contributions</w>":7669,"principal</w>":7670,"neighbour":7671,"bbing</w>":7672,"pictures</w>":7673,"territories</w>":7674,"technically</w>":7675,"preceding</w>":7676,"tang</w>":7677,"compens":7678,"criticized</w>":7679,"promise</w>":7680,"considerations</w>":7681,"overwhelming</w>":7682,"targeting</w>":7683,"successfully</w>":7684,"metre</w>":7685,"consular</w>":7686,"blocks</w>":7687,"switch</w>":7688,"diversi":7689,"diversity</w>":7690,"insider</w>":7691,"challenging</w>":7692,"june</w>":7693,"photo</w>":7694,"thorough</w>":7695,"automatic</w>":7696,"lacking</w>":7697,"reflects</w>":7698,"odd</w>":7699,"correspondent</w>":7700,"discuss</w>":7701,"discussion</w>":7702,"571</w>":7703,"Asia</w>":7704,"sunday</w>":7705,"graham</w>":7706,"formal</w>":7707,"transmissibility</w>":7708,"recoveries</w>":7709,"atia</w>":7710,"diluted</w>":7711,"sudden</w>":7712,"connections</w>":7713,"buyback</w>":7714,"mitig":7715,"felt</w>":7716,"smarter</w>":7717,"theoretically</w>":7718,"taxpayers</w>":7719,"Economic</w>":7720,"Finland</w>":7721,"Office</w>":7722,"fruit</w>":7723,"outlinestyle</w>":7724,"antiretrovirals</w>":7725,"techniques</w>":7726,"kidney</w>":7727,"silver</w>":7728,"invitation</w>":7729,"compromised</w>":7730,"column</w>":7731,"Security</w>":7732,"reminder</w>":7733,"accordance</w>":7734,"divided</w>":7735,"lethal</w>":7736,"movies</w>":7737,"requests</w>":7738,"discretion</w>":7739,"neutral</w>":7740,"competition</w>":7741,"Democrats</w>":7742,"blame</w>":7743,"inhibit":7744,"acetate</w>":7745,"surrounding</w>":7746,"derivative</w>":7747,"respectively</w>":7748,"scratch</w>":7749,"phylogenetic</w>":7750,"trading</w>":7751,"evaporation</w>":7752,"Republican</w>":7753,"bacteriopha":7754,"nanoparticle</w>":7755,"Country</w>":7756,"July</w>":7757,"Poland</w>":7758,"kingdom</w>":7759,"enjoy</w>":7760,"phenomenon</w>":7761,"Furthermore</w>":7762,"Western</w>":7763,"kov</w>":7764,"nico":7765,"itude</w>":7766,"intermediate</w>":7767,"scholar":7768,"bankrupt</w>":7769,"discrimination</w>":7770,"neighborhood</w>":7771,"framework</w>":7772,"taneously</w>":7773,"campaign</w>":7774,"University</w>":7775,"Clearly</w>":7776,"nausea</w>":7777,"abstract</w>":7778,"confinement</w>":7779,"belgium</w>":7780,"belongs</w>":7781,"definitions</w>":7782,"methodology</w>":7783,"Fangcang</w>":7784,"polyadenylation</w>":7785,"Chief</w>":7786,"Donald</w>":7787,"KLM</w>":7788,"Vowelbur":7789,"saliva</w>":7790,"ammonia</w>":7791,"feedback</w>":7792,"facepiece</w>":7793,"00000000</w>":7794,"earthquake</w>":7795,"nonetheless</w>":7796,"115":7797,"24":7798,"229":7799,"22nd</w>":7800,"32":7801,"328</w>":7802,"3rd</w>":7803,"56":7804,"69":7805,"600</w>":7806,"73":7807,"830</w>":7808,"94":7809,"AI":7810,"Ab</w>":7811,"AC</w>":7812,"Are":7813,"Bas":7814,"Cro":7815,"California</w>":7816,"D19</w>":7817,"ED</w>":7818,"EM</w>":7819,"Emp":7820,"Fol":7821,"Grou":7822,"Hop":7823,"Hel":7824,"Last</w>":7825,"Man":7826,"Main":7827,"NY":7828,"Na":7829,"No</w>":7830,"Pan":7831,"Qatar</w>":7832,"Ro":7833,"RT</w>":7834,"SE</w>":7835,"Slo":7836,"Sun":7837,"Sim":7838,"Sep":7839,"Sanders</w>":7840,"Today</w>":7841,"Was</w>":7842,"Wash":7843,"ath":7844,"bone</w>":7845,"bour":7846,"brow":7847,"blan":7848,"black</w>":7849,"bags</w>":7850,"cal</w>":7851,"california</w>":7852,"dant</w>":7853,"decon":7854,"dash":7855,"ele":7856,"eds</w>":7857,"ease</w>":7858,"eous</w>":7859,"emia</w>":7860,"element</w>":7861,"fro":7862,"fing":7863,"fare":7864,"gm</w>":7865,"gator</w>":7866,"ix</w>":7867,"ided</w>":7868,"ireland</w>":7869,"ktor</w>":7870,"khan</w>":7871,"korean</w>":7872,"lu</w>":7873,"lancet</w>":7874,"mh":7875,"moun":7876,"mits</w>":7877,"male</w>":7878,"nes":7879,"nings</w>":7880,"npr</w>":7881,"nbs":7882,"oS</w>":7883,"oti":7884,"ois</w>":7885,"ored</w>":7886,"osc":7887,"ota</w>":7888,"ps":7889,"py":7890,"p2</w>":7891,"pon":7892,"psy":7893,"pure</w>":7894,"qs</w>":7895,"rr</w>":7896,"rh</w>":7897,"ral</w>":7898,"rally</w>":7899,"rlap</w>":7900,"si</w>":7901,"sad":7902,"sday</w>":7903,"slower</w>":7904,"sorts</w>":7905,"score</w>":7906,"saudi</w>":7907,"tc</w>":7908,"tl</w>":7909,"tm</w>":7910,"tang":7911,"uine</w>":7912,"vt</w>":7913,"vo</w>":7914,"vnews</w>":7915,"vak":7916,"wu</w>":7917,"well":7918,"xx</w>":7919,"xes</w>":7920,"yel":7921,"ymp":7922,"ype</w>":7923,"ze":7924,"zika</w>":7925,"thri":7926,"inity</w>":7927,"intest":7928,"incur":7929,"inevi":7930,"insufficient</w>":7931,"indefinitely</w>":7932,"innate</w>":7933,"ane</w>":7934,"anair</w>":7935,"andrew</w>":7936,"reci":7937,"reinfection</w>":7938,"referen":7939,"reopen</w>":7940,"rebooking</w>":7941,"reaching</w>":7942,"rejected</w>":7943,"reproductive</w>":7944,"represents</w>":7945,"tise</w>":7946,"tigh":7947,"tious</w>":7948,"onward</w>":7949,"arre":7950,"aries</w>":7951,"arrest</w>":7952,"ene":7953,"ence":7954,"ensive</w>":7955,"alli":7956,"along":7957,"althy</w>":7958,"step":7959,"sture</w>":7960,"stence</w>":7961,"attrac":7962,"ateral</w>":7963,"viri":7964,"viet</w>":7965,"visible</w>":7966,"vigorous</w>":7967,"royal</w>":7968,"robust</w>":7969,"asks</w>":7970,"assign":7971,"ech":7972,"eck</w>":7973,"ective</w>":7974,"ecdc</w>":7975,"accompan":7976,"iclo":7977,"icals</w>":7978,"ham":7979,"hai</w>":7980,"essive</w>":7981,"whil":7982,"dient</w>":7983,"dible</w>":7984,"rural</w>":7985,"live":7986,"liver</w>":7987,"life":7988,"liable</w>":7989,"lification</w>":7990,"lopin":7991,"sic</w>":7992,"sides</w>":7993,"sues</w>":7994,"sustained</w>":7995,"def</w>":7996,"deT</w>":7997,"dedic":7998,"trace</w>":7999,"sex</w>":8000,"seed</w>":8001,"sees</w>":8002,"seme":8003,"seem":8004,"uncommon</w>":8005,"unlimited</w>":8006,"unwin":8007,"unusual</w>":8008,"unrealistic</w>":8009,"cos</w>":8010,"cocc":8011,"coord":8012,"cotton</w>":8013,"absen":8014,"concre":8015,"condom":8016,"congreg":8017,"prop</w>":8018,"protest</w>":8019,"projected</w>":8020,"yotic</w>":8021,"spl":8022,"sphere</w>":8023,"sporting</w>":8024,"ley</w>":8025,"mag</w>":8026,"magn":8027,"masters</w>":8028,"posit":8029,"polling</w>":8030,"uro</w>":8031,"urged</w>":8032,"urities</w>":8033,"ursday</w>":8034,"expe":8035,"che</w>":8036,"chen</w>":8037,"chest</w>":8038,"begun</w>":8039,"ambi":8040,"ambul":8041,"rid":8042,"ride</w>":8043,"rible</w>":8044,"rigorous</w>":8045,"versa</w>":8046,"sha</w>":8047,"shar":8048,"shoo":8049,"admitted</w>":8050,"adopt</w>":8051,"info</w>":8052,"inflation</w>":8053,"comorbi":8054,"apps</w>":8055,"agu":8056,"hoarding</w>":8057,"hoea</w>":8058,"miss</w>":8059,"door":8060,"doses</w>":8061,"dozen</w>":8062,"peop":8063,"irical</w>":8064,"ulate</w>":8065,"preju":8066,"preexisting</w>":8067,"mothers</w>":8068,"take":8069,"vets</w>":8070,"vements</w>":8071,"wet</w>":8072,"austria</w>":8073,"plausible</w>":8074,"gop</w>":8075,"gofund":8076,"worth":8077,"worsen</w>":8078,"timeline</w>":8079,"olymp":8080,"rental</w>":8081,"hemi":8082,"hepati":8083,"dust</w>":8084,"dutch</w>":8085,"tico</w>":8086,"2021</w>":8087,"feb</w>":8088,"aise</w>":8089,"imming</w>":8090,"imposing</w>":8091,"class":8092,"clade</w>":8093,"isode</w>":8094,"council</w>":8095,"facing</w>":8096,"puzz":8097,"contacted</w>":8098,"strang":8099,"tok":8100,"tober</w>":8101,"gic</w>":8102,"gig</w>":8103,"gion</w>":8104,"genomic</w>":8105,"genuine</w>":8106,"paste</w>":8107,"rectang":8108,"answ":8109,"afore":8110,"inger</w>":8111,"fil</w>":8112,"fiable</w>":8113,"sole</w>":8114,"porous</w>":8115,"dice</w>":8116,"episode</w>":8117,"lasting</w>":8118,"accused</w>":8119,"tuberculosis</w>":8120,"stigma</w>":8121,"scare</w>":8122,"fines</w>":8123,"finds</w>":8124,"finland</w>":8125,"serves</w>":8126,"july</w>":8127,"juice</w>":8128,"curious</w>":8129,"omedical</w>":8130,"firm</w>":8131,"cluster</w>":8132,"clubs</w>":8133,"tension</w>":8134,"dating</w>":8135,"COVID19</w>":8136,"cred":8137,"interior</w>":8138,"steve</w>":8139,"likewise</w>":8140,"milder</w>":8141,"pride</w>":8142,"priority</w>":8143,"studied</w>":8144,"explo":8145,"expects</w>":8146,"expelled</w>":8147,"approxi":8148,"governmental</w>":8149,"linois</w>":8150,"biased</w>":8151,"disinfected</w>":8152,"disappear</w>":8153,"dissemin":8154,"navi":8155,"obstetr":8156,"trig":8157,"iciently</w>":8158,"clearer</w>":8159,"descent</w>":8160,"turning</w>":8161,"socially</w>":8162,"empirical</w>":8163,"understo":8164,"undergraduate</w>":8165,"orial</w>":8166,"cutting</w>":8167,"ficate</w>":8168,"married</w>":8169,"markov</w>":8170,"fold</w>":8171,"forese":8172,"strictly</w>":8173,"hospitalizations</w>":8174,"plicative</w>":8175,"engaging</w>":8176,"grease</w>":8177,"positively</w>":8178,"positives</w>":8179,"houston</w>":8180,"full":8181,"gaz":8182,"lugg":8183,"declin":8184,"decreas":8185,"afford</w>":8186,"courses</w>":8187,"resem":8188,"mainstream</w>":8189,"invo":8190,"invasi":8191,"tized</w>":8192,"variations</w>":8193,"workplace</w>":8194,"sciences</w>":8195,"science":8196,"suppress</w>":8197,"suppose":8198,"conditioned</w>":8199,"servic":8200,"joke</w>":8201,"multi</w>":8202,"ush</w>":8203,"106</w>":8204,"member":8205,"touris":8206,"plants</w>":8207,"planet</w>":8208,"secu":8209,"hardly</w>":8210,"predicting</w>":8211,"predictive</w>":8212,"predictors</w>":8213,"shield</w>":8214,"statute</w>":8215,"lift</w>":8216,"lifted</w>":8217,"extending</w>":8218,"processed</w>":8219,"stockp":8220,"functional</w>":8221,"functioning</w>":8222,"1975</w>":8223,"wasting</w>":8224,"business":8225,"appearance</w>":8226,"venia</w>":8227,"microw":8228,"2002</w>":8229,"fridge</w>":8230,"influence</w>":8231,"landed</w>":8232,"difficulties</w>":8233,"partment</w>":8234,"deau</w>":8235,"132</w>":8236,"cultural</w>":8237,"singing</w>":8238,"intention</w>":8239,"binds</w>":8240,"fati":8241,"halt</w>":8242,"identity</w>":8243,"packed</w>":8244,"spoon</w>":8245,"spoons</w>":8246,"description</w>":8247,"127</w>":8248,"1287</w>":8249,"suffered</w>":8250,"sufficiently</w>":8251,"choices</w>":8252,"attendance</w>":8253,"attenuated</w>":8254,"bert</w>":8255,"berries</w>":8256,"delays</w>":8257,"differenti":8258,"observing</w>":8259,"collecting</w>":8260,"skilled</w>":8261,"angel":8262,"gradually</w>":8263,"reduces</w>":8264,"operational</w>":8265,"earliest</w>":8266,"hind":8267,"surviv":8268,"logists</w>":8269,"burn</w>":8270,"burg</w>":8271,"burger</w>":8272,"nonfrivolous</w>":8273,"coverings</w>":8274,"targets</w>":8275,"manufacture</w>":8276,"graphs</w>":8277,"removal</w>":8278,"drawn</w>":8279,"debts</w>":8280,"defence</w>":8281,"performing</w>":8282,"Under</w>":8283,"owned</w>":8284,"computers</w>":8285,"computational</w>":8286,"immigrant</w>":8287,"presentation</w>":8288,"objections</w>":8289,"objectively</w>":8290,"Region</w>":8291,"reserve</w>":8292,"addressed</w>":8293,"nationally</w>":8294,"genetically</w>":8295,"evolve</w>":8296,"occurring</w>":8297,"Alterna":8298,"detection</w>":8299,"simultaneously</w>":8300,"delivered</w>":8301,"conclude</w>":8302,"birds</w>":8303,"eua</w>":8304,"eukar":8305,"smoking</w>":8306,"smooth</w>":8307,"pathogenic</w>":8308,"aac</w>":8309,"designing</w>":8310,"cytes</w>":8311,"converted</w>":8312,"convergence</w>":8313,"chlorite</w>":8314,"opinions</w>":8315,"epidemiologists</w>":8316,"microscope</w>":8317,"888</w>":8318,"destro":8319,"helped</w>":8320,"ctv</w>":8321,"ctvnews</w>":8322,"square</w>":8323,"introduce</w>":8324,"occup":8325,"crowds</w>":8326,"fitted</w>":8327,"chemically</w>":8328,"chemicals</w>":8329,"australian</w>":8330,"recognition</w>":8331,"ggles</w>":8332,"mechanical</w>":8333,"precise</w>":8334,"disruptions</w>":8335,"obliged</w>":8336,"sanitizers</w>":8337,"instructed</w>":8338,"records</w>":8339,"recorded</w>":8340,"hotez</w>":8341,"justice</w>":8342,"minimal</w>":8343,"winter</w>":8344,"window</w>":8345,"implementing</w>":8346,"reviewers</w>":8347,"acetic</w>":8348,"communications</w>":8349,"optimistic</w>":8350,"crucial</w>":8351,"attacks</w>":8352,"contributed</w>":8353,"increasingly</w>":8354,"hypochlorite</w>":8355,"picked</w>":8356,"disper":8357,"familiar</w>":8358,"nucleoti":8359,"laboratories</w>":8360,"strengthen</w>":8361,"floor</w>":8362,"merson</w>":8363,"prison</w>":8364,"assist</w>":8365,"connect</w>":8366,"particip":8367,"participate</w>":8368,"expectation</w>":8369,"expectations</w>":8370,"criticised</w>":8371,"dynamics</w>":8372,"2744</w>":8373,"waive</w>":8374,"waived</w>":8375,"sheets</w>":8376,"adapt</w>":8377,"adapted</w>":8378,"therapeu":8379,"activated</w>":8380,"obligation</w>":8381,"honor</w>":8382,"honest</w>":8383,"tildeT</w>":8384,"conventional</w>":8385,"metrics</w>":8386,"monitoring</w>":8387,"john</w>":8388,"johns</w>":8389,"North</w>":8390,"queens":8391,"August</w>":8392,"seminar</w>":8393,"engineered</w>":8394,"postponed</w>":8395,"postponing</w>":8396,"retired</w>":8397,"departed</w>":8398,"evalu":8399,"evaluated</w>":8400,"diamond</w>":8401,"appointments</w>":8402,"manipul":8403,"circulation</w>":8404,"SIRD</w>":8405,"vectors</w>":8406,"reflect</w>":8407,"propy":8408,"excess</w>":8409,"excuse</w>":8410,"expanded</w>":8411,"discussing</w>":8412,"glasses</w>":8413,"evolutionary</w>":8414,"constructed</w>":8415,"believ":8416,"television</w>":8417,"technologies</w>":8418,"gyms</w>":8419,"thuania</w>":8420,"metres</w>":8421,"gradient</w>":8422,"formally</w>":8423,"suggestion</w>":8424,"camping</w>":8425,"AGG":8426,"dilution</w>":8427,"opt1</w>":8428,"buyer</w>":8429,"mistakes</w>":8430,"afternoon</w>":8431,"electroly":8432,"60s</w>":8433,"layer</w>":8434,"youtu</w>":8435,"modification</w>":8436,"classification</w>":8437,"ethical</w>":8438,"flavi":8439,"searches</w>":8440,"verify</w>":8441,"verified</w>":8442,"inflammation</w>":8443,"comfort</w>":8444,"assemble</w>":8445,"4515</w>":8446,"Most</w>":8447,"kidneys</w>":8448,"rnas</w>":8449,"intuitive</w>":8450,"compromise</w>":8451,"distinction</w>":8452,"literally</w>":8453,"nonimmigrants</w>":8454,"Before</w>":8455,"bunch</w>":8456,"accord":8457,"progression</w>":8458,"presume</w>":8459,"movie</w>":8460,"batch</w>":8461,"vacation</w>":8462,"listen</w>":8463,"historical</w>":8464,"occasion":8465,"repatriation</w>":8466,"Johnson</w>":8467,"algorithm</w>":8468,"Article</w>":8469,"Special</w>":8470,"artif":8471,"irritation</w>":8472,"platform</w>":8473,"allergies</w>":8474,"speculation</w>":8475,"broadcaster</w>":8476,"establishment</w>":8477,"powerful</w>":8478,"Social</w>":8479,"southern</w>":8480,"rebates</w>":8481,"thetatildeT</w>":8482,"conservative</w>":8483,"finished</w>":8484,"licensed</w>":8485,"tourist</w>":8486,"guaranteed</w>":8487,"Australia</w>":8488,"Friday</w>":8489,"H1N1</w>":8490,"Wikipedia</w>":8491,"vomiting</w>":8492,"escape</w>":8493,"theaters</w>":8494,"gotten</w>":8495,"purifi":8496,"checkpoint</w>":8497,"valuable</w>":8498,"shifts</w>":8499,"Infected</w>":8500,"fashion</w>":8501,"reluctance</w>":8502,"OPT</w>":8503,"barrier</w>":8504,"yield</w>":8505,"rescue</w>":8506,"arguments</w>":8507,"accommod":8508,"congestion</w>":8509,"shutting</w>":8510,"accrue</w>":8511,"broncho":8512,"suspicion</w>":8513,"catastrop":8514,"supervisor</w>":8515,"furloughed</w>":8516,"alveolar</w>":8517,"Kazak":8518,"h1n1</w>":8519,"ultrasound</w>":8520,"accusations</w>":8521,"rationale</w>":8522,"humanitarian</w>":8523,"distinguish</w>":8524,"emphasis</w>":8525,"municip":8526,"suspension</w>":8527,"bahn</w>":8528,"nicovideo</w>":8529,"scholarship</w>":8530,"Vowelburger":8531,"Manila</w>":8532,"Sunday</w>":8533,"September</w>":8534,"fareast</w>":8535,"nbsp</w>":8536,"vakia</w>":8537,"alongside</w>":8538,"iclovir</w>":8539,"whilst</w>":8540,"lopinavir</w>":8541,"seemingly</w>":8542,"concrete</w>":8543,"condoms</w>":8544,"prejudice</w>":8545,"gofundme</w>":8546,"rectangular</w>":8547,"aforementioned</w>":8548,"approximation</w>":8549,"understood</w>":8550,"supposedly</w>":8551,"Alternatively</w>":8552,"eukaryotic</w>":8553,"queensland</w>":8554,"occasionally</w>":8555,"01":8556,"115</w>":8557,"111</w>":8558,"1200</w>":8559,"1101</w>":8560,"212</w>":8561,"250":8562,"320</w>":8563,"426":8564,"700</w>":8565,"737":8566,"83":8567,"97":8568,"At":8569,"AS</w>":8570,"AP</w>":8571,"Any":8572,"Bi":8573,"Bor":8574,"Bec":8575,"Bel":8576,"Bei":8577,"CG":8578,"CN":8579,"Cre":8580,"Call</w>":8581,"Czech</w>":8582,"DAT":8583,"Every":8584,"EST":8585,"Flu</w>":8586,"Ge":8587,"Gu":8588,"GPR</w>":8589,"H2":8590,"Her</w>":8591,"Hun":8592,"Im":8593,"Je":8594,"Jamaica</w>":8595,"Land":8596,"Lombardy</w>":8597,"Mar":8598,"Mun":8599,"More</w>":8600,"NO":8601,"Our</w>":8602,"PP":8603,"Pas":8604,"RE":8605,"Rob":8606,"RME":8607,"SC":8608,"SE":8609,"Sy":8610,"SS</w>":8611,"Ser":8612,"Str":8613,"Swit":8614,"Secon":8615,"Stre":8616,"Sext":8617,"TG":8618,"TH":8619,"Vis":8620,"Yet</w>":8621,"ac</w>":8622,"au</w>":8623,"avirus</w>":8624,"arent</w>":8625,"asts</w>":8626,"aked</w>":8627,"asters</w>":8628,"band</w>":8629,"bic":8630,"bal</w>":8631,"bated</w>":8632,"bance</w>":8633,"blin":8634,"bend</w>":8635,"blowing</w>":8636,"bbs</w>":8637,"cv</w>":8638,"cit":8639,"ctions</w>":8640,"cali":8641,"cky</w>":8642,"dal</w>":8643,"dity</w>":8644,"day":8645,"dens</w>":8646,"dently</w>":8647,"dentally</w>":8648,"eos</w>":8649,"eera</w>":8650,"fs</w>":8651,"fen":8652,"fate</w>":8653,"four":8654,"gp</w>":8655,"gal</w>":8656,"gains</w>":8657,"gpr</w>":8658,"hk":8659,"hate</w>":8660,"hill</w>":8661,"hori":8662,"hsa</w>":8663,"htm</w>":8664,"ier":8665,"ish":8666,"ific</w>":8667,"izing</w>":8668,"ijing</w>":8669,"jaz":8670,"jamaica</w>":8671,"kl":8672,"keshi":8673,"lg</w>":8674,"li</w>":8675,"lle</w>":8676,"lers</w>":8677,"lai":8678,"llap</w>":8679,"lombardy</w>":8680,"mg</w>":8681,"mu</w>":8682,"mess</w>":8683,"mest</w>":8684,"mates</w>":8685,"matory</w>":8686,"maca":8687,"mingly</w>":8688,"nr</w>":8689,"nm</w>":8690,"nk</w>":8691,"nout</w>":8692,"nity</w>":8693,"oR</w>":8694,"oD</w>":8695,"ose</w>":8696,"oten":8697,"oils</w>":8698,"px</w>":8699,"ptions</w>":8700,"panc":8701,"ptical</w>":8702,"pills</w>":8703,"plots</w>":8704,"pmc</w>":8705,"ro</w>":8706,"rating</w>":8707,"s7</w>":8708,"sf</w>":8709,"sac":8710,"ses":8711,"sse":8712,"sme":8713,"sers</w>":8714,"sstart</w>":8715,"slight</w>":8716,"session</w>":8717,"ssels</w>":8718,"tt</w>":8719,"tw</w>":8720,"tac":8721,"tag":8722,"tdown</w>":8723,"tables</w>":8724,"ub":8725,"ure":8726,"ubi":8727,"utility</w>":8728,"vas":8729,"ves":8730,"will":8731,"wells</w>":8732,"xy</w>":8733,"xem":8734,"ya</w>":8735,"yers</w>":8736,"yesus</w>":8737,"zens</w>":8738,"thy":8739,"that":8740,"thail":8741,"thursday</w>":8742,"ink":8743,"ino</w>":8744,"insu":8745,"inate</w>":8746,"inter</w>":8747,"inability</w>":8748,"incoming</w>":8749,"indirect</w>":8750,"inaccurate</w>":8751,"injected</w>":8752,"ano":8753,"angi":8754,"anten":8755,"anda</w>":8756,"reop":8757,"reim":8758,"reinfor":8759,"reid</w>":8760,"revo":8761,"retary</w>":8762,"remind</w>":8763,"repurchase</w>":8764,"reposit":8765,"tie</w>":8766,"tim</w>":8767,"tition</w>":8768,"time":8769,"titer</w>":8770,"tible</w>":8771,"titled</w>":8772,"ouses</w>":8773,"outri":8774,"arab":8775,"army</w>":8776,"arrange</w>":8777,"enor":8778,"encoun":8779,"enna</w>":8780,"endly</w>":8781,"ora</w>":8782,"ordering</w>":8783,"aland</w>":8784,"allo":8785,"albe":8786,"alter</w>":8787,"stent</w>":8788,"stool</w>":8789,"aten</w>":8790,"attr":8791,"viktor</w>":8792,"ville</w>":8793,"itop":8794,"itted</w>":8795,"roles</w>":8796,"rolling</w>":8797,"romania</w>":8798,"asser":8799,"acking</w>":8800,"ache</w>":8801,"aciclovir</w>":8802,"icc":8803,"icers</w>":8804,"icus</w>":8805,"icode</w>":8806,"noses</w>":8807,"notably</w>":8808,"hable</w>":8809,"habit</w>":8810,"habits</w>":8811,"dic</w>":8812,"dities</w>":8813,"dimen":8814,"rum":8815,"russian</w>":8816,"rubbing</w>":8817,"lid</w>":8818,"liers</w>":8819,"lived</w>":8820,"liability</w>":8821,"lized</w>":8822,"ilway</w>":8823,"illinois</w>":8824,"logn":8825,"sizes</w>":8826,"sigma</w>":8827,"sigpr</w>":8828,"sustain":8829,"trine</w>":8830,"tries</w>":8831,"trick":8832,"sement</w>":8833,"semi</w>":8834,"und</w>":8835,"unit</w>":8836,"unused</w>":8837,"unknow":8838,"unreasonable</w>":8839,"unicode</w>":8840,"codes</w>":8841,"absent</w>":8842,"consequence</w>":8843,"confined</w>":8844,"propan":8845,"proof":8846,"proves</w>":8847,"prolon":8848,"projec":8849,"prospec":8850,"spon":8851,"spur":8852,"spouses</w>":8853,"leans</w>":8854,"matically</w>":8855,"makers</w>":8856,"magaz":8857,"makeshi":8858,"pois":8859,"posting</w>":8860,"expose</w>":8861,"bey</w>":8862,"beau":8863,"bearing</w>":8864,"beijing</w>":8865,"ama</w>":8866,"ami</w>":8867,"witn":8868,"open":8869,"elli":8870,"ady</w>":8871,"adratic</w>":8872,"nej":8873,"nego":8874,"neuro":8875,"quadratic</w>":8876,"infr":8877,"infer</w>":8878,"compl":8879,"med":8880,"metal</w>":8881,"ffp</w>":8882,"ffin</w>":8883,"apy</w>":8884,"apers</w>":8885,"appen":8886,"mix":8887,"mic</w>":8888,"peter</w>":8889,"irin</w>":8890,"irresponsible</w>":8891,"iricus</w>":8892,"ull</w>":8893,"ulated</w>":8894,"mole</w>":8895,"tees</w>":8896,"teas":8897,"temp</w>":8898,"tedly</w>":8899,"tedros</w>":8900,"pertain":8901,"percarbonate</w>":8902,"peracetic</w>":8903,"weare":8904,"wealth</w>":8905,"wearer</w>":8906,"wealthy</w>":8907,"plum":8908,"govt</w>":8909,"goggles</w>":8910,"worn</w>":8911,"worrying</w>":8912,"timing</w>":8913,"renhe":8914,"cisc":8915,"heavi":8916,"coronaviru":8917,"terr":8918,"ticated</w>":8919,"2012</w>":8920,"para":8921,"paras":8922,"paralle":8923,"aids</w>":8924,"cler":8925,"iss</w>":8926,"istically</w>":8927,"israel</w>":8928,"counting</w>":8929,"surro":8930,"surge":8931,"surger":8932,"hide</w>":8933,"contents</w>":8934,"contacting</w>":8935,"strand</w>":8936,"stray</w>":8937,"strain":8938,"straw":8939,"giveness</w>":8940,"gibbs</w>":8941,"genomes</w>":8942,"entities</w>":8943,"pains</w>":8944,"pairs</w>":8945,"recall</w>":8946,"evening</w>":8947,"emas</w>":8948,"soak</w>":8949,"commit</w>":8950,"ancement</w>":8951,"outdoors</w>":8952,"grave</w>":8953,"epitop":8954,"riski":8955,"lax</w>":8956,"lationary</w>":8957,"accum":8958,"accessi":8959,"acceler":8960,"forgiven</w>":8961,"forgiveness</w>":8962,"judge</w>":8963,"curtail":8964,"lowers</w>":8965,"firms</w>":8966,"clusters</w>":8967,"tens</w>":8968,"tening</w>":8969,"tenure</w>":8970,"panicked</w>":8971,"impre":8972,"imper":8973,"imply</w>":8974,"impression</w>":8975,"alise</w>":8976,"alizing</w>":8977,"transfor":8978,"raz":8979,"rap</w>":8980,"rain</w>":8981,"railway</w>":8982,"breaks</w>":8983,"phit</w>":8984,"phases</w>":8985,"reads</w>":8986,"reader</w>":8987,"probabilities</w>":8988,"princess</w>":8989,"credible</w>":8990,"intern":8991,"stem</w>":8992,"primar":8993,"publish</w>":8994,"stupid</w>":8995,"closure</w>":8996,"sinki</w>":8997,"expand</w>":8998,"expire</w>":8999,"hanom</w>":9000,"bio</w>":9001,"bilities</w>":9002,"biomedical</w>":9003,"dish</w>":9004,"disallowed</w>":9005,"disasters</w>":9006,"geal</w>":9007,"gear</w>":9008,"nato</w>":9009,"ocation</w>":9010,"october</w>":9011,"flat</w>":9012,"obama</w>":9013,"distur":9014,"examined</w>":9015,"backs</w>":9016,"triage</w>":9017,"cleans":9018,"desicc":9019,"drow":9020,"idal</w>":9021,"aren</w>":9022,"measles</w>":9023,"alled</w>":9024,"marks</w>":9025,"marked</w>":9026,"antivirals</w>":9027,"protected</w>":9028,"loose</w>":9029,"consists</w>":9030,"considers</w>":9031,"munich</w>":9032,"pulmon":9033,"penn</w>":9034,"hospitalization</w>":9035,"caught</w>":9036,"anyways</w>":9037,"engage</w>":9038,"rancisc":9039,"passive</w>":9040,"pointed</w>":9041,"entory</w>":9042,"matches</w>":9043,"cdna</w>":9044,"trusts</w>":9045,"trudeau</w>":9046,"economists</w>":9047,"critically</w>":9048,"substances</w>":9049,"substitute</w>":9050,"fulfil</w>":9051,"gative</w>":9052,"lufthansa</w>":9053,"increments</w>":9054,"decade</w>":9055,"sourced</w>":9056,"affecting</w>":9057,"emerge</w>":9058,"producing</w>":9059,"relate</w>":9060,"shold</w>":9061,"inventory</w>":9062,"systematic</w>":9063,"carlo</w>":9064,"varied</w>":9065,"variant</w>":9066,"regulates</w>":9067,"upcoming</w>":9068,"workplaces</w>":9069,"compound</w>":9070,"overcome</w>":9071,"oversight</w>":9072,"overreacting</w>":9073,"pursu":9074,"pursue</w>":9075,"oresc":9076,"drying</w>":9077,"getoptim</w>":9078,"individually</w>":9079,"usd</w>":9080,"user</w>":9081,"voter</w>":9082,"108</w>":9083,"sake</w>":9084,"applicable</w>":9085,"securities</w>":9086,"doctrine</w>":9087,"controls</w>":9088,"tissues</w>":9089,"harsh</w>":9090,"confirming</w>":9091,"interestingly</w>":9092,"nio":9093,"politico</w>":9094,"shipped</w>":9095,"shipping</w>":9096,"edges</w>":9097,"editing</w>":9098,"warmest</w>":9099,"lify</w>":9100,"chart</w>":9101,"003":9102,"caps</w>":9103,"capsu":9104,"equations</w>":9105,"process":9106,"143":9107,"145</w>":9108,"14th</w>":9109,"1960s</w>":9110,"wasted</w>":9111,"appearing</w>":9112,"appealing</w>":9113,"contractor</w>":9114,"scientifically</w>":9115,"boris</w>":9116,"borrow":9117,"borrow</w>":9118,"micron</w>":9119,"expertise</w>":9120,"cept</w>":9121,"ception</w>":9122,"2003":9123,"receipt</w>":9124,"drunk</w>":9125,"friendly</w>":9126,"namely</w>":9127,"lantic</w>":9128,"globally</w>":9129,"colour</w>":9130,"brown</w>":9131,"hubs</w>":9132,"kibb":9133,"lator</w>":9134,"bind</w>":9135,"supple":9136,"suppliers</w>":9137,"fake</w>":9138,"faqs</w>":9139,"labour</w>":9140,"labels</w>":9141,"detergent</w>":9142,"organized</w>":9143,"disclose</w>":9144,"pacific</w>":9145,"spose</w>":9146,"Institute</w>":9147,"Index</w>":9148,"attending</w>":9149,"exceptional</w>":9150,"camels</w>":9151,"publicly</w>":9152,"differential</w>":9153,"announce</w>":9154,"advoc":9155,"amazing</w>":9156,"amazon</w>":9157,"handles</w>":9158,"skill</w>":9159,"explaining</w>":9160,"operations</w>":9161,"breyesus</w>":9162,"pigs</w>":9163,"youngest</w>":9164,"arrivals</w>":9165,"multiplicative</w>":9166,"argues</w>":9167,"arguably</w>":9168,"stress":9169,"stressed</w>":9170,"negatively</w>":9171,"correction</w>":9172,"chair</w>":9173,"chaos</w>":9174,"chains</w>":9175,"speak":9176,"agrees</w>":9177,"agreements</w>":9178,"alcohols</w>":9179,"indicator</w>":9180,"survives</w>":9181,"nonprofits</w>":9182,"biosafety</w>":9183,"traveler</w>":9184,"fatalities</w>":9185,"grown</w>":9186,"migration</w>":9187,"threshold</w>":9188,"brief</w>":9189,"driven</w>":9190,"removing</w>":9191,"accepting</w>":9192,"travelled</w>":9193,"mayor</w>":9194,"compute</w>":9195,"computations</w>":9196,"maternity</w>":9197,"stimulate</w>":9198,"advisories</w>":9199,"ballot</w>":9200,"ballots</w>":9201,"incidents</w>":9202,"synthesis</w>":9203,"nuclear</w>":9204,"155</w>":9205,"replied</w>":9206,"extraction</w>":9207,"nationwide</w>":9208,"broadly</w>":9209,"notifications</w>":9210,"genetics</w>":9211,"occurrence</w>":9212,"remainder</w>":9213,"aka</w>":9214,"cake</w>":9215,"conclusive</w>":9216,"conducting</w>":9217,"canceling</w>":9218,"water":9219,"incenti":9220,"deplo":9221,"fluoresc":9222,"nership</w>":9223,"thirds</w>":9224,"pathogenicity</w>":9225,"aaa</w>":9226,"thesized</w>":9227,"proportions</w>":9228,"continued</w>":9229,"continuously</w>":9230,"designation</w>":9231,"investors</w>":9232,"Consi":9233,"fleet</w>":9234,"faire</w>":9235,"refusing</w>":9236,"convert</w>":9237,"converting</w>":9238,"expense</w>":9239,"lenses</w>":9240,"liquidity</w>":9241,"pharyn":9242,"donor</w>":9243,"swine</w>":9244,"swimming</w>":9245,"squats</w>":9246,"excluding</w>":9247,"exclude</w>":9248,"exclusive</w>":9249,"moderna</w>":9250,"improved</w>":9251,"302</w>":9252,"tracking</w>":9253,"calculation</w>":9254,"calculating</w>":9255,"calculator</w>":9256,"Novel</w>":9257,"instruction</w>":9258,"instructor</w>":9259,"weigh":9260,"weigh</w>":9261,"17th</w>":9262,"strike</w>":9263,"seriousness</w>":9264,"justify</w>":9265,"justification</w>":9266,"supported</w>":9267,"controller</w>":9268,"Questions</w>":9269,"Quora</w>":9270,"electrical</w>":9271,"reversed</w>":9272,"reviews</w>":9273,"apparent</w>":9274,"surveys</w>":9275,"introduction</w>":9276,"261</w>":9277,"contributing</w>":9278,"prohibit</w>":9279,"prohibition</w>":9280,"heads</w>":9281,"headed</w>":9282,"principles</w>":9283,"exemptions</w>":9284,"quotes</w>":9285,"decreases</w>":9286,"strengthening</w>":9287,"flood</w>":9288,"flown</w>":9289,"patr":9290,"reliably</w>":9291,"expect":9292,"declares</w>":9293,"recognizes</w>":9294,"activate</w>":9295,"Lithuania</w>":9296,"mckibb":9297,"realistically</w>":9298,"conveni":9299,"mathcal</w>":9300,"commerce</w>":9301,"consulates</w>":9302,"consultation</w>":9303,"CTT":9304,"falling</w>":9305,"fallout</w>":9306,"switching</w>":9307,"switzerland</w>":9308,"combined</w>":9309,"experiments</w>":9310,"Exchange</w>":9311,"career</w>":9312,"careful</w>":9313,"carefully</w>":9314,"ferred</w>":9315,"homeland</w>":9316,"lessons</w>":9317,"raising</w>":9318,"representation</w>":9319,"restaurant</w>":9320,"stroke</w>":9321,"confusing</w>":9322,"italians</w>":9323,"customer</w>":9324,"photo":9325,"would":9326,"radiation</w>":9327,"withdrawn</w>":9328,"journali":9329,"Dise":9330,"SIGPR</w>":9331,"jobless</w>":9332,"acquire</w>":9333,"expanding</w>":9334,"Possi":9335,"sanction</w>":9336,"loads</w>":9337,"powdered</w>":9338,"telephone</w>":9339,"breastfeed</w>":9340,"consistently</w>":9341,"discussions</w>":9342,"newspapers</w>":9343,"zoonoses</w>":9344,"FIRME":9345,"Senator</w>":9346,"cbp</w>":9347,"narrow</w>":9348,"device</w>":9349,"efficiently</w>":9350,"greatest</w>":9351,"Testing</w>":9352,"farmers</w>":9353,"griffin</w>":9354,"nurses</w>":9355,"achieved</w>":9356,"afterwards</w>":9357,"electrostatic</w>":9358,"reservoirs</w>":9359,"fundamentally</w>":9360,"Proper":9361,"smart</w>":9362,"industries</w>":9363,"inhaled</w>":9364,"modify</w>":9365,"Economics</w>":9366,"Reco":9367,"csse</w>":9368,"ethics</w>":9369,"flag</w>":9370,"ignoring</w>":9371,"inflammatory</w>":9372,"evacuate</w>":9373,"foot</w>":9374,"physicians</w>":9375,"assembly</w>":9376,"TTT":9377,"sleep</w>":9378,"wang</w>":9379,"invited</w>":9380,"chicken</w>":9381,"optimsstart</w>":9382,"judg":9383,"prioritize</w>":9384,"distinct</w>":9385,"component</w>":9386,"capita</w>":9387,"crystal</w>":9388,"MERS</w>":9389,"Secretary</w>":9390,"homemade</w>":9391,"skeptical</w>":9392,"copy</w>":9393,"graphy</w>":9394,"Science</w>":9395,"igg</w>":9396,"inactivated</w>":9397,"envelope</w>":9398,"measured</w>":9399,"Johns</w>":9400,"algorithms</w>":9401,"Medical</w>":9402,"STEM</w>":9403,"Time</w>":9404,"ahu</w>":9405,"attributed</w>":9406,"negligence</w>":9407,"platforms</w>":9408,"isopropan":9409,"struggling</w>":9410,"satisfied</w>":9411,"Cuomo</w>":9412,"Currently</w>":9413,"eliminate</w>":9414,"replacing</w>":9415,"accounting</w>":9416,"deduction</w>":9417,"destruction</w>":9418,"destructive</w>":9419,"motiv":9420,"partisan</w>":9421,"surprise</w>":9422,"surprised</w>":9423,"hypertension</w>":9424,"ICE</w>":9425,"bayesian</w>":9426,"girls</w>":9427,"tasmania</w>":9428,"inferences</w>":9429,"combine</w>":9430,"agriculture</w>":9431,"mosquit":9432,"certificate</w>":9433,"cleaned</w>":9434,"specialists</w>":9435,"hospitalisation</w>":9436,"editors</w>":9437,"specimen</w>":9438,"Government</w>":9439,"refrigerator</w>":9440,"Bernie</w>":9441,"Turkish</w>":9442,"clients</w>":9443,"gallon</w>":9444,"ryan</w>":9445,"sars":9446,"independently</w>":9447,"sparse</w>":9448,"shouldn</w>":9449,"facebook</w>":9450,"towels</w>":9451,"International</w>":9452,"archives</w>":9453,"extinction</w>":9454,"Examples</w>":9455,"anesthesia</w>":9456,"Central</w>":9457,"Hubei</w>":9458,"Human</w>":9459,"cinemas</w>":9460,"eidl</w>":9461,"fomite</w>":9462,"paul</w>":9463,"induced</w>":9464,"retailers</w>":9465,"resonance</w>":9466,"degraded</w>":9467,"seattle</w>":9468,"comprises</w>":9469,"serotypes</w>":9470,"guilty</w>":9471,"CONFIRME":9472,"stochastic</w>":9473,"compensate</w>":9474,"inhibitor</w>":9475,"11500</w>":9476,"229e</w>":9477,"Area</w>":9478,"Empiricus</w>":9479,"Hopkins</w>":9480,"Pandemic</w>":9481,"Simil":9482,"Washington</w>":9483,"bourg</w>":9484,"blanket</w>":9485,"dashboard</w>":9486,"frozen</w>":9487,"mhv</w>":9488,"mount</w>":9489,"oscill":9490,"psych":9491,"wellbeing</w>":9492,"yellow</w>":9493,"intestinal</w>":9494,"recipi":9495,"attracted</w>":9496,"assignments</w>":9497,"accompanied</w>":9498,"livestock</w>":9499,"dedicated</w>":9500,"semester</w>":9501,"ambulance</w>":9502,"comorbidities</w>":9503,"hepatitis</w>":9504,"answering</w>":9505,"navigator</w>":9506,"tourism</w>":9507,"stockpile</w>":9508,"businessinsider</w>":9509,"microwave</w>":9510,"fatigue</w>":9511,"believes</w>":9512,"accordingly</w>":9513,"municipalities</w>":9514,"Boris</w>":9515,"Because</w>":9516,"Beijing</w>":9517,"Landlord</w>":9518,"Munich</w>":9519,"NOT</w>":9520,"Switzerland</w>":9521,"Street</w>":9522,"Sextus</w>":9523,"calibr":9524,"fourth</w>":9525,"jazeera</w>":9526,"laisse":9527,"otensin</w>":9528,"xembourg</w>":9529,"thailand</w>":9530,"angiotensin</w>":9531,"antenatal</w>":9532,"reimbur":9533,"repository</w>":9534,"outright</w>":9535,"arabia</w>":9536,"albeit</w>":9537,"prolonged</w>":9538,"magazine</w>":9539,"makeshift</w>":9540,"negoti":9541,"wearers</w>":9542,"renheit</w>":9543,"heavily</w>":9544,"strawberries</w>":9545,"primaries</w>":9546,"rancisco</w>":9547,"mckibbin</w>":9548,"isopropanol</w>":9549,"CONFIRMED</w>":9550,"laissez</w>":9551,"08":9552,"0m</w>":9553,"025</w>":9554,"1k</w>":9555,"113</w>":9556,"188</w>":9557,"22":9558,"250</w>":9559,"226":9560,"34":9561,"337</w>":9562,"3001</w>":9563,"4th</w>":9564,"5th</w>":9565,"5000</w>":9566,"63":9567,"66":9568,"86":9569,"99":9570,"911</w>":9571,"953</w>":9572,"973</w>":9573,"9320</w>":9574,"Aid</w>":9575,"Ang":9576,"Avoid</w>":9577,"BC":9578,"Bo":9579,"BC</w>":9580,"Bru":9581,"Bur":9582,"Both</w>":9583,"CV</w>":9584,"CAC":9585,"Do":9586,"DS</w>":9587,"Den":9588,"Dec":9589,"Day</w>":9590,"Dut":9591,"Eff":9592,"Ebola</w>":9593,"F1</w>":9594,"Fall</w>":9595,"Flight</w>":9596,"Hy":9597,"Hamp":9598,"Hanno":9599,"IG":9600,"IM":9601,"IS":9602,"J1</w>":9603,"Korean</w>":9604,"La":9605,"Lo":9606,"LA</w>":9607,"Lell":9608,"Long":9609,"Ma":9610,"Mi":9611,"Mr</w>":9612,"Mer":9613,"Men":9614,"Mul":9615,"More":9616,"NY</w>":9617,"Num":9618,"Nep":9619,"N99</w>":9620,"National</w>":9621,"NHS</w>":9622,"O2</w>":9623,"Pre":9624,"Pay":9625,"PDAT":9626,"Pub":9627,"Ry":9628,"RE</w>":9629,"Rel":9630,"Ret":9631,"Red":9632,"RSS</w>":9633,"Sa":9634,"Se":9635,"SO</w>":9636,"Sco":9637,"Sto":9638,"Sem":9639,"Some":9640,"Span":9641,"Still</w>":9642,"SAS</w>":9643,"Tu":9644,"Tw":9645,"Tha":9646,"Tai":9647,"Treas":9648,"Take</w>":9649,"US":9650,"UI</w>":9651,"UPDAT":9652,"Vir":9653,"Wall</w>":9654,"Well</w>":9655,"Y2003":9656,"Zoom</w>":9657,"ae</w>":9658,"ah</w>":9659,"ai</w>":9660,"ax</w>":9661,"adi":9662,"akes</w>":9663,"aque":9664,"bf":9665,"bn":9666,"bc</w>":9667,"bd</w>":9668,"bn</w>":9669,"bon</w>":9670,"bother</w>":9671,"bases</w>":9672,"bacc":9673,"bage</w>":9674,"biting</w>":9675,"b26":9676,"bquote</w>":9677,"britain</w>":9678,"cf</w>":9679,"crea":9680,"cents</w>":9681,"cans":9682,"cus</w>":9683,"camp</w>":9684,"cites</w>":9685,"cellular</w>":9686,"dest</w>":9687,"dong</w>":9688,"dness</w>":9689,"dental</w>":9690,"e2</w>":9691,"ere":9692,"eded</w>":9693,"euro</w>":9694,"fat</w>":9695,"fan</w>":9696,"fam</w>":9697,"ferring</w>":9698,"francisco</w>":9699,"gou":9700,"gging</w>":9701,"gaining</w>":9702,"gaps</w>":9703,"gb26":9704,"hr</w>":9705,"ho</w>":9706,"hall":9707,"hiring</w>":9708,"hstan</w>":9709,"hrenheit</w>":9710,"ip</w>":9711,"ito</w>":9712,"ior":9713,"iors</w>":9714,"ions</w>":9715,"isture</w>":9716,"jay</w>":9717,"juni":9718,"kr</w>":9719,"kg</w>":9720,"ker":9721,"kage</w>":9722,"lent</w>":9723,"lest</w>":9724,"lty</w>":9725,"lpr":9726,"lici":9727,"lating</w>":9728,"lman</w>":9729,"lasi":9730,"lene</w>":9731,"lysis</w>":9732,"lbs</w>":9733,"lfriend</w>":9734,"lump</w>":9735,"mb":9736,"ml</w>":9737,"mou":9738,"mere</w>":9739,"ming":9740,"mlun":9741,"mRNA</w>":9742,"mentation</w>":9743,"mbox</w>":9744,"morgan</w>":9745,"mentary</w>":9746,"mexico</w>":9747,"nl</w>":9748,"ni</w>":9749,"nine</w>":9750,"nai":9751,"nish</w>":9752,"nels</w>":9753,"nash":9754,"natal</w>":9755,"oo</w>":9756,"oth":9757,"och":9758,"oven</w>":9759,"ovas":9760,"ply</w>":9761,"pas</w>":9762,"ptive</w>":9763,"pays</w>":9764,"pated</w>":9765,"pound</w>":9766,"ptic</w>":9767,"pical</w>":9768,"pta</w>":9769,"pmc":9770,"p0m</w>":9771,"rh":9772,"ri</w>":9773,"ras":9774,"ric":9775,"ramp</w>":9776,"race</w>":9777,"rbd</w>":9778,"sf":9779,"sl":9780,"san</w>":9781,"som":9782,"sop":9783,"sag":9784,"scan</w>":9785,"sals</w>":9786,"sought</w>":9787,"soph":9788,"ts":9789,"tr</w>":9790,"tz</w>":9791,"tts</w>":9792,"tted</w>":9793,"tine</w>":9794,"tance</w>":9795,"tari":9796,"tons</w>":9797,"tability</w>":9798,"tful</w>":9799,"tkr</w>":9800,"uno":9801,"utum</w>":9802,"v2</w>":9803,"van":9804,"von</w>":9805,"vin</w>":9806,"van</w>":9807,"vent</w>":9808,"vage</w>":9809,"wp</w>":9810,"win</w>":9811,"ware</w>":9812,"wad":9813,"wine</w>":9814,"wary</w>":9815,"ware":9816,"waves</w>":9817,"wavel":9818,"yard</w>":9819,"yland</w>":9820,"yale</w>":9821,"ylim</w>":9822,"zx":9823,"zi</w>":9824,"zec":9825,"zard</w>":9826,"thon</w>":9827,"thes</w>":9828,"thal":9829,"thick</w>":9830,"throwing</w>":9831,"ins":9832,"inen</w>":9833,"ints</w>":9834,"inqu":9835,"inhe":9836,"iness</w>":9837,"inating</w>":9838,"inanim":9839,"induce</w>":9840,"incen":9841,"ineffective</w>":9842,"inappropriate</w>":9843,"incum":9844,"inely</w>":9845,"insan":9846,"inbound</w>":9847,"injection</w>":9848,"inadmissi":9849,"antim":9850,"anship</w>":9851,"recon":9852,"resur":9853,"remedi":9854,"restim":9855,"realized</w>":9856,"reaches</w>":9857,"reproduce</w>":9858,"reschedule</w>":9859,"recombination</w>":9860,"rejection</w>":9861,"refinance</w>":9862,"reuters</w>":9863,"tia</w>":9864,"tip</w>":9865,"tially</w>":9866,"tight</w>":9867,"titu":9868,"tising</w>":9869,"tiredness</w>":9870,"eri":9871,"erate</w>":9872,"ership</w>":9873,"outs</w>":9874,"ouver</w>":9875,"oult</w>":9876,"aro</w>":9877,"aru</w>":9878,"arms</w>":9879,"arcg":9880,"endo":9881,"endemic</w>":9882,"enue</w>":9883,"enni":9884,"endan":9885,"enacted</w>":9886,"orf":9887,"orly</w>":9888,"ormal</w>":9889,"orleans</w>":9890,"ales</w>":9891,"alleg":9892,"alism</w>":9893,"alert</w>":9894,"stabili":9895,"atso":9896,"atoes</w>":9897,"atlanta</w>":9898,"vier</w>":9899,"vial</w>":9900,"visc":9901,"vict":9902,"itor</w>":9903,"ital</w>":9904,"itation</w>":9905,"itting</w>":9906,"itous</w>":9907,"itty</w>":9908,"itative</w>":9909,"item</w>":9910,"road":9911,"roman</w>":9912,"rooting</w>":9913,"robert</w>":9914,"ass</w>":9915,"accomp":9916,"actors</w>":9917,"acknowledge</w>":9918,"iche":9919,"omin":9920,"omis":9921,"ombia</w>":9922,"omitted</w>":9923,"not":9924,"notion</w>":9925,"nored</w>":9926,"nodes</w>":9927,"notable</w>":9928,"november</w>":9929,"hamp":9930,"hair</w>":9931,"haem":9932,"esis</w>":9933,"wholes":9934,"whatso":9935,"whiche":9936,"dip</w>":9937,"div</w>":9938,"diet</w>":9939,"divid":9940,"dirt</w>":9941,"diure":9942,"dilator</w>":9943,"rush</w>":9944,"ruled</w>":9945,"liam</w>":9946,"likes</w>":9947,"listing</w>":9948,"litis</w>":9949,"ligent</w>":9950,"iland</w>":9951,"lod</w>":9952,"los</w>":9953,"loses</w>":9954,"loops</w>":9955,"sido":9956,"sigest</w>":9957,"super</w>":9958,"dean</w>":9959,"demy</w>":9960,"deva":9961,"derestim":9962,"trash</w>":9963,"sex":9964,"sewing</w>":9965,"semit</w>":9966,"sealed</w>":9967,"seinen</w>":9968,"thered</w>":9969,"unil":9970,"unavailable</w>":9971,"unpaid</w>":9972,"unapproved</w>":9973,"unintended</w>":9974,"unnecessarily</w>":9975,"uncontrolled</w>":9976,"undesired</w>":9977,"unwashed</w>":9978,"unpredictable</w>":9979,"underestim":9980,"coded</w>":9981,"coef</w>":9982,"cooperation</w>":9983,"cooling</w>":9984,"abun":9985,"cons</w>":9986,"conve":9987,"consci":9988,"conden":9989,"conjun":9990,"constantly</w>":9991,"pros</w>":9992,"prolif":9993,"prophy":9994,"prosecu":9995,"yoga</w>":9996,"sphate</w>":9997,"sputum</w>":9998,"lei":9999,"leu":10000,"lely</w>":10001,"max</w>":10002,"mailing</w>":10003,"pop</w>":10004,"pover":10005,"poorly</w>":10006,"uri</w>":10007,"urine</w>":10008,"urging</w>":10009,"exha":10010,"exts</w>":10011,"chin</w>":10012,"chan</w>":10013,"chats</w>":10014,"bears</w>":10015,"bell":10016,"before":10017,"belief</w>":10018,"amate":10019,"amps</w>":10020,"among":10021,"righ":10022,"opac":10023,"ophar":10024,"bub":10025,"bul</w>":10026,"burea":10027,"butt":10028,"button</w>":10029,"bucket</w>":10030,"vertic":10031,"shes</w>":10032,"shly</w>":10033,"shir":10034,"shment</w>":10035,"shed":10036,"shale</w>":10037,"eled</w>":10038,"elabor":10039,"elligence</w>":10040,"adoles":10041,"negl":10042,"nepal</w>":10043,"quer":10044,"coma</w>":10045,"compati":10046,"complying</w>":10047,"medary</w>":10048,"ounding</w>":10049,"ounced</w>":10050,"ffs</w>":10051,"fficial</w>":10052,"ffp2</w>":10053,"apple</w>":10054,"aphr":10055,"correlated</w>":10056,"corner</w>":10057,"mpy</w>":10058,"hoc</w>":10059,"holes</w>":10060,"mixed</w>":10061,"misun":10062,"dows</w>":10063,"dozens</w>":10064,"pew</w>":10065,"petition</w>":10066,"ird</w>":10067,"irable</w>":10068,"preser":10069,"moisture</w>":10070,"tee":10071,"tere":10072,"teds</w>":10073,"teach":10074,"tay":10075,"taste</w>":10076,"veg</w>":10077,"percei":10078,"perlman</w>":10079,"wel</w>":10080,"weap":10081,"wears</w>":10082,"aum</w>":10083,"auto":10084,"autho":10085,"plays</w>":10086,"played</w>":10087,"gosti":10088,"worthy</w>":10089,"worries</w>":10090,"times":10091,"olds</w>":10092,"renters</w>":10093,"renko</w>":10094,"cially</w>":10095,"hel</w>":10096,"heating</w>":10097,"hedge</w>":10098,"dual</w>":10099,"duci":10100,"ticity</w>":10101,"202</w>":10102,"201</w>":10103,"205</w>":10104,"20200":10105,"female</w>":10106,"aims</w>":10107,"boy":10108,"bot</w>":10109,"boon</w>":10110,"boss</w>":10111,"boil</w>":10112,"body":10113,"boils</w>":10114,"bodily</w>":10115,"boiled</w>":10116,"boston</w>":10117,"imf</w>":10118,"cling</w>":10119,"isaac</w>":10120,"isticated</w>":10121,"counc":10122,"counties</w>":10123,"faced</w>":10124,"hia</w>":10125,"keen</w>":10126,"tobacc":10127,"gian</w>":10128,"gitis</w>":10129,"gieva</w>":10130,"gency</w>":10131,"pap</w>":10132,"recur":10133,"rector</w>":10134,"ingness</w>":10135,"ingestion</w>":10136,"fif":10137,"soapy</w>":10138,"solely</w>":10139,"commons</w>":10140,"ancell":10141,"ancouver</w>":10142,"outgoing</w>":10143,"derstanding</w>":10144,"lax":10145,"lag</w>":10146,"launder</w>":10147,"accred":10148,"forth</w>":10149,"tugal</w>":10150,"monte</w>":10151,"thold</w>":10152,"scru":10153,"scary</w>":10154,"scram":10155,"differs</w>":10156,"serial</w>":10157,"serology</w>":10158,"serological</w>":10159,"avenue</w>":10160,"lows</w>":10161,"lowering</w>":10162,"sellers</w>":10163,"gut</w>":10164,"guang":10165,"gupta</w>":10166,"publici":10167,"firstly</w>":10168,"clue</w>":10169,"clues</w>":10170,"tened</w>":10171,"tention</w>":10172,"tendency</w>":10173,"tenstein</w>":10174,"ppv</w>":10175,"arise</w>":10176,"samine</w>":10177,"essence</w>":10178,"effected</w>":10179,"impacted</w>":10180,"alian</w>":10181,"align":10182,"translate</w>":10183,"transferred</w>":10184,"raab</w>":10185,"phd</w>":10186,"phones</w>":10187,"senator</w>":10188,"sengers</w>":10189,"seniors</w>":10190,"probabili":10191,"prou":10192,"prof</w>":10193,"praise</w>":10194,"interacting</w>":10195,"steady</w>":10196,"mildly</w>":10197,"questioned</w>":10198,"closes</w>":10199,"clothes</w>":10200,"masked</w>":10201,"approves</w>":10202,"hang</w>":10203,"fusion</w>":10204,"dismis":10205,"discharged</w>":10206,"atedly</w>":10207,"geo</w>":10208,"geome":10209,"vaccinations</w>":10210,"humoral</w>":10211,"flour</w>":10212,"trivial</w>":10213,"icially</w>":10214,"generation</w>":10215,"generating</w>":10216,"cleared</w>":10217,"respondents</w>":10218,"desire</w>":10219,"desirable</w>":10220,"modeling</w>":10221,"modeled</w>":10222,"modelled</w>":10223,"turkey</w>":10224,"turnout</w>":10225,"specialized</w>":10226,"channels</w>":10227,"reporters</w>":10228,"undergrad</w>":10229,"oria</w>":10230,"orist</w>":10231,"alling</w>":10232,"marke":10233,"margin":10234,"protects</w>":10235,"loosen":10236,"spital</w>":10237,"need":10238,"engine</w>":10239,"engaged</w>":10240,"ranges</w>":10241,"pointing</w>":10242,"enture</w>":10243,"entlic":10244,"quart</w>":10245,"mature</w>":10246,"trum</w>":10247,"truly</w>":10248,"truth</w>":10249,"crises</w>":10250,"canadi":10251,"temp2</w>":10252,"tempting</w>":10253,"subsi":10254,"submitted</w>":10255,"subjective</w>":10256,"employ</w>":10257,"solving</w>":10258,"directive</w>":10259,"fulfill</w>":10260,"gap</w>":10261,"gastro":10262,"declines</w>":10263,"decker</w>":10264,"tained</w>":10265,"affairs</w>":10266,"affinity</w>":10267,"researching</w>":10268,"tylen":10269,"emerges</w>":10270,"relating</w>":10271,"relapse</w>":10272,"pressures</w>":10273,"sman</w>":10274,"smith</w>":10275,"issuance</w>":10276,"stanbul</w>":10277,"signal</w>":10278,"signature</w>":10279,"carbon</w>":10280,"upshot</w>":10281,"compelled</w>":10282,"furin</w>":10283,"overdr":10284,"overloaded</w>":10285,"rownames</w>":10286,"view":10287,"viewed</w>":10288,"continents</w>":10289,"achuse":10290,"dryer</w>":10291,"gering</w>":10292,"resistant</w>":10293,"resistance</w>":10294,"jog</w>":10295,"fron":10296,"voided</w>":10297,"104</w>":10298,"organs</w>":10299,"similarities</w>":10300,"hydr":10301,"hybri":10302,"globe</w>":10303,"tiser</w>":10304,"estimating</w>":10305,"simpler</w>":10306,"deny</w>":10307,"denying</w>":10308,"haran</w>":10309,"relatives</w>":10310,"relaxed</w>":10311,"refunded</w>":10312,"bric":10313,"brace</w>":10314,"politically</w>":10315,"completing</w>":10316,"edt</w>":10317,"eda</w>":10318,"warn</w>":10319,"warnings</w>":10320,"statnews</w>":10321,"lifting</w>":10322,"extensions</w>":10323,"capabilities</w>":10324,"142</w>":10325,"191</w>":10326,"1999</w>":10327,"1948</w>":10328,"contraction</w>":10329,"contractors</w>":10330,"safest</w>":10331,"borrower</w>":10332,"vend":10333,"files</w>":10334,"filers</w>":10335,"filtering</w>":10336,"drum</w>":10337,"stering</w>":10338,"easi":10339,"ilian</w>":10340,"long":10341,"parame":10342,"cols</w>":10343,"color":10344,"collo":10345,"brother</w>":10346,"spector</w>":10347,"spectrum</w>":10348,"136</w>":10349,"139</w>":10350,"137</w>":10351,"13th</w>":10352,"cular</w>":10353,"cultures</w>":10354,"trol</w>":10355,"tropical</w>":10356,"coughed</w>":10357,"kistan</w>":10358,"mittee</w>":10359,"physics</w>":10360,"initiatives</w>":10361,"intentions</w>":10362,"sneezed</w>":10363,"supplied</w>":10364,"fares</w>":10365,"fahrenheit</w>":10366,"deterior":10367,"organize</w>":10368,"disclo":10369,"significance</w>":10370,"register</w>":10371,"descriptive</w>":10372,"shape":10373,"shake</w>":10374,"shaped</w>":10375,"infectivity</w>":10376,"126</w>":10377,"12th</w>":10378,"Infec":10379,"Inspector</w>":10380,"suffix</w>":10381,"chose</w>":10382,"choir</w>":10383,"distribute</w>":10384,"Hospital</w>":10385,"wales</w>":10386,"advances</w>":10387,"originate</w>":10388,"associate</w>":10389,"forever</w>":10390,"skype</w>":10391,"regards</w>":10392,"males</w>":10393,"explore</w>":10394,"eurozone</w>":10395,"pig</w>":10396,"wrong":10397,"writes</w>":10398,"stream":10399,"chaired</w>":10400,"leadership</w>":10401,"agreb</w>":10402,"hints</w>":10403,"indications</w>":10404,"surviving</w>":10405,"oppon":10406,"institutes</w>":10407,"scenes</w>":10408,"bleaching</w>":10409,"buried</w>":10410,"erral</w>":10411,"detailing</w>":10412,"Eurostar</w>":10413,"malarial</w>":10414,"bridge</w>":10415,"drift</w>":10416,"images</w>":10417,"routes</w>":10418,"routinely</w>":10419,"newborn</w>":10420,"screen":10421,"myth</w>":10422,"myster":10423,"domain</w>":10424,"dramatic</w>":10425,"dramatically</w>":10426,"administr":10427,"defen":10428,"defend":10429,"bond</w>":10430,"ownership</w>":10431,"academy</w>":10432,"computing</w>":10433,"asymp":10434,"presenting</w>":10435,"297</w>":10436,"Relief</w>":10437,"Reuters</w>":10438,"lengths</w>":10439,"lengthy</w>":10440,"exacer":10441,"equipped</w>":10442,"ballo":10443,"damaging</w>":10444,"implementation</w>":10445,"couri":10446,"consult</w>":10447,"consuming</w>":10448,"addresses</w>":10449,"circumstance</w>":10450,"repo</w>":10451,"stomer</w>":10452,"nationality</w>":10453,"notify</w>":10454,"notified</w>":10455,"notification</w>":10456,"evolved</w>":10457,"remained</w>":10458,"spired</w>":10459,"spikes</w>":10460,"investigative</w>":10461,"freely</w>":10462,"freshly</w>":10463,"qualifying</w>":10464,"sanitary</w>":10465,"sanjay</w>":10466,"sanitiser</w>":10467,"postdoc</w>":10468,"birth":10469,"fortunate</w>":10470,"determination</w>":10471,"deterministic</w>":10472,"bolson":10473,"encourages</w>":10474,"lawsuit</w>":10475,"designate</w>":10476,"investigated</w>":10477,"505</w>":10478,"Connell</w>":10479,"Stack":10480,"cycling</w>":10481,"conversation</w>":10482,"constitute</w>":10483,"microsco":10484,"carries</w>":10485,"documentation</w>":10486,"programmer</w>":10487,"donate</w>":10488,"swab":10489,"attempted</w>":10490,"attempting</w>":10491,"excluded</w>":10492,"precaution</w>":10493,"improves</w>":10494,"improvement</w>":10495,"30s</w>":10496,"crowding</w>":10497,"fails</w>":10498,"disposed</w>":10499,"tracker</w>":10500,"begins</w>":10501,"interpreting</w>":10502,"salt</w>":10503,"sanitizing</w>":10504,"November</w>":10505,"languages</w>":10506,"171</w>":10507,"401</w>":10508,"401k</w>":10509,"utc</w>":10510,"replicating</w>":10511,"missive</w>":10512,"missions</w>":10513,"contamination</w>":10514,"justifiable</w>":10515,"emotionally</w>":10516,"windows</w>":10517,"provincial</w>":10518,"electric</w>":10519,"electricity</w>":10520,"sirmc</w>":10521,"explanations</w>":10522,"purchases</w>":10523,"communicating</w>":10524,"organizer</w>":10525,"doubled</w>":10526,"crude</w>":10527,"attached</w>":10528,"modest</w>":10529,"modinfected</w>":10530,"headache</w>":10531,"toilets</w>":10532,"hypothesis</w>":10533,"picking</w>":10534,"territorial</w>":10535,"161</w>":10536,"16th</w>":10537,"branch</w>":10538,"machiner":10539,"alternatively</w>":10540,"download</w>":10541,"educated</w>":10542,"float</w>":10543,"thank</w>":10544,"settles</w>":10545,"redun":10546,"weaken</w>":10547,"considerably</w>":10548,"overwhelm</w>":10549,"overwhelmingly</w>":10550,"mortgages</w>":10551,"obligated</w>":10552,"Like</w>":10553,"honour</w>":10554,"honest":10555,"ratings</w>":10556,"violating</w>":10557,"convention</w>":10558,"mathsf</w>":10559,"apartments</w>":10560,"AAAA":10561,"Thus</w>":10562,"blocked</w>":10563,"switches</w>":10564,"iconpdf</w>":10565,"divergence</w>":10566,"pooling</w>":10567,"neuter</w>":10568,"tradition</w>":10569,"committees</w>":10570,"approximate</w>":10571,"antibiotic</w>":10572,"Expedia</w>":10573,"garden</w>":10574,"gardens</w>":10575,"garbage</w>":10576,"homo":10577,"lesser</w>":10578,"lessly</w>":10579,"raisers</w>":10580,"represented</w>":10581,"supermarket</w>":10582,"feelings</w>":10583,"engineer</w>":10584,"susceptibles</w>":10585,"Commission</w>":10586,"azar</w>":10587,"cabins</w>":10588,"ngtkr</w>":10589,"photom":10590,"adjust":10591,"circulates</w>":10592,"Director</w>":10593,"osoph":10594,"mathematics</w>":10595,"expands</w>":10596,"expansion</w>":10597,"bulle":10598,"adopting</w>":10599,"quantile</w>":10600,"quantities</w>":10601,"quantitative</w>":10602,"immunology</w>":10603,"laundro":10604,"discusses</w>":10605,"transparent</w>":10606,"comparisons</w>":10607,"Post</w>":10608,"numeric</w>":10609,"implicit</w>":10610,"implicated</w>":10611,"breastmilk</w>":10612,"racist</w>":10613,"sunlight</w>":10614,"metabo":10615,"persistent</w>":10616,"format</w>":10617,"efficiency</w>":10618,"weekly</w>":10619,"Canadian</w>":10620,"Department</w>":10621,"Tedros</w>":10622,"farms</w>":10623,"grief</w>":10624,"arranged</w>":10625,"arrangement</w>":10626,"aminoph":10627,"password</w>":10628,"Program</w>":10629,"feline</w>":10630,"fellow</w>":10631,"layers</w>":10632,"routing</w>":10633,"smart":10634,"inhalation</w>":10635,"terminology</w>":10636,"layovers</w>":10637,"relationships</w>":10638,"Officer</w>":10639,"csv</w>":10640,"fruits</w>":10641,"ignor":10642,"adenovirus</w>":10643,"outlining</w>":10644,"outlined</w>":10645,"foot":10646,"foothold</w>":10647,"advantages</w>":10648,"59pm</w>":10649,"African</w>":10650,"plotting</w>":10651,"rnase</w>":10652,"rnases</w>":10653,"silly</w>":10654,"inserts</w>":10655,"insertions</w>":10656,"judgement</w>":10657,"columbia</w>":10658,"jurisdiction</w>":10659,"crystals</w>":10660,"Union</w>":10661,"skewed</w>":10662,"yuki</w>":10663,"yusha</w>":10664,"enhance</w>":10665,"enhanced</w>":10666,"diarrhoea</w>":10667,"consumers</w>":10668,"holidays</w>":10669,"requested</w>":10670,"childcare</w>":10671,"childbirth</w>":10672,"graphics</w>":10673,"voluntary</w>":10674,"patterns</w>":10675,"propagation</w>":10676,"Assu":10677,"England</w>":10678,"Scienti":10679,"battle</w>":10680,"gtngtkr</w>":10681,"ignored</w>":10682,"inactivate</w>":10683,"enveloped</w>":10684,"acetaminoph":10685,"appreciated</w>":10686,"historically</w>":10687,"measure":10688,"anticipated</w>":10689,"repatriate</w>":10690,"Metro</w>":10691,"Princess</w>":10692,"Such</w>":10693,"Specifically</w>":10694,"Times</w>":10695,"UUUU":10696,"apologi":10697,"boundary</w>":10698,"dorm":10699,"punished</w>":10700,"punishment</w>":10701,"intelligence</w>":10702,"coordinates</w>":10703,"prompted</w>":10704,"weaker</w>":10705,"weakened</w>":10706,"audio</w>":10707,"audience</w>":10708,"isopropy":10709,"struggle</w>":10710,"speculative</w>":10711,"Republicans</w>":10712,"Customer</w>":10713,"braz":10714,"brain</w>":10715,"hurric":10716,"ipc</w>":10717,"phac</w>":10718,"rebate</w>":10719,"replacement</w>":10720,"deductible</w>":10721,"thetaLS</w>":10722,"shock</w>":10723,"playground</w>":10724,"partisanship</w>":10725,"yearby":10726,"phrase</w>":10727,"phrases</w>":10728,"cardiovas":10729,"tourists</w>":10730,"threatens</w>":10731,"meaningless</w>":10732,"meaningful</w>":10733,"guarantees</w>":10734,"manifestations</w>":10735,"tolerance</w>":10736,"McLell":10737,"McConnell</w>":10738,"bilayer</w>":10739,"girlfriend</w>":10740,"oxy</w>":10741,"oxford</w>":10742,"acknowledging</w>":10743,"liberty</w>":10744,"detectable</w>":10745,"segment</w>":10746,"segments</w>":10747,"cooking</w>":10748,"bedding</w>":10749,"agricultural</w>":10750,"mosquito</w>":10751,"grandparents</w>":10752,"forbid</w>":10753,"forbidden</w>":10754,"breakfast</w>":10755,"georgieva</w>":10756,"illustr":10757,"specialist</w>":10758,"understandable</w>":10759,"understandably</w>":10760,"fragments</w>":10761,"100k</w>":10762,"editor</w>":10763,"specimens</w>":10764,"collaboration</w>":10765,"celebrations</w>":10766,"celebrating</w>":10767,"2Fm</w>":10768,"Russia</w>":10769,"SPY2003":10770,"hrv</w>":10771,"meltdown</w>":10772,"pitch</w>":10773,"innovation</w>":10774,"accidents</w>":10775,"facilitate</w>":10776,"residues</w>":10777,"enzymes</w>":10778,"pneumococc":10779,"pneumocytes</w>":10780,"glycosamine</w>":10781,"85pt</w>":10782,"Bank</w>":10783,"ION</w>":10784,"elevated</w>":10785,"palm</w>":10786,"slovenia</w>":10787,"sickest</w>":10788,"injury</w>":10789,"revealed</w>":10790,"succeeded</w>":10791,"protocols</w>":10792,"stringent</w>":10793,"discipline</w>":10794,"examiners</w>":10795,"summarize</w>":10796,"discourage</w>":10797,"stretched</w>":10798,"newsagents</w>":10799,"syncytial</w>":10800,"herpesvirus</w>":10801,"proportionate</w>":10802,"wildlife</w>":10803,"macroeconomic</w>":10804,"neighbourhood</w>":10805,"bacteriophage</w>":10806,"AIDS</w>":10807,"Basically</w>":10808,"Croatia</w>":10809,"Following</w>":10810,"Helsinki</w>":10811,"Mainland</w>":10812,"NYC</w>":10813,"Royal</w>":10814,"Slovakia</w>":10815,"elements</w>":10816,"fingers</w>":10817,"zealand</w>":10818,"arrested</w>":10819,"echtenstein</w>":10820,"lifetime</w>":10821,"coordination</w>":10822,"splashing</w>":10823,"magnitude</w>":10824,"shoot</w>":10825,"doorknobs</w>":10826,"people":10827,"takeout</w>":10828,"worthless</w>":10829,"hemisphere</w>":10830,"tokyo</w>":10831,"triggered</w>":10832,"foreseeable</w>":10833,"luggage</w>":10834,"invasion</w>":10835,"membership</w>":10836,"hindsight</w>":10837,"dispersion</w>":10838,"nucleotides</w>":10839,"therapeutic</w>":10840,"artificially</w>":10841,"purifier</w>":10842,"accommodation</w>":10843,"Kazakhstan</w>":10844,"Vowelburger™</w>":10845,"H2O2</w>":10846,"Hungary</w>":10847,"Passengers</w>":10848,"TGV</w>":10849,"blind</w>":10850,"citations</w>":10851,"fenthal":10852,"macaques</w>":10853,"pancakes</w>":10854,"ubiqu":10855,"willingness</w>":10856,"logne</w>":10857,"unknowns</w>":10858,"projections</w>":10859,"spurious</w>":10860,"mixture</w>":10861,"teaspoons</w>":10862,"parainfluenza</w>":10863,"surrogate</w>":10864,"riskier</w>":10865,"accessible</w>":10866,"curtailed</w>":10867,"internship</w>":10868,"niosh</w>":10869,"borrowers</w>":10870,"supplemental</w>":10871,"incentives</w>":10872,"Consider</w>":10873,"convenience</w>":10874,"photos</w>":10875,"Diseases</w>":10876,"Possibly</w>":10877,"mosquitoes</w>":10878,"calibration</w>":10879,"reimbursement</w>":10880,"BCG</w>":10881,"Brussels</w>":10882,"Burr</w>":10883,"Denmark</w>":10884,"December</w>":10885,"Dutch</w>":10886,"Hampshire</w>":10887,"Hannover</w>":10888,"Longyearby":10889,"Multi":10890,"Moreover</w>":10891,"Nepal</w>":10892,"Ryanair</w>":10893,"Reddit</w>":10894,"Semin":10895,"Spanish</w>":10896,"Two</w>":10897,"Thailand</w>":10898,"Taiwan</w>":10899,"Treasury</w>":10900,"UPDATE</w>":10901,"aqueous</w>":10902,"bfgs</w>":10903,"creative</w>":10904,"cansino</w>":10905,"gb2626</w>":10906,"junior</w>":10907,"lprs</w>":10908,"lasio</w>":10909,"mlungen</w>":10910,"nashville</w>":10911,"sophisticated</w>":10912,"unofficial</w>":10913,"waveleng":10914,"inanimate</w>":10915,"incumbent</w>":10916,"insane</w>":10917,"remedies</w>":10918,"arcgis</w>":10919,"accomplish</w>":10920,"omission</w>":10921,"wholesale</w>":10922,"whatsoever</w>":10923,"whichever</w>":10924,"dividend</w>":10925,"sidorenko</w>":10926,"proliferate</w>":10927,"poverty</w>":10928,"beforehand</w>":10929,"amongst</w>":10930,"opharyn":10931,"bureau</w>":10932,"vertices</w>":10933,"shirt</w>":10934,"shedding</w>":10935,"elaborate</w>":10936,"adolescents</w>":10937,"compatible</w>":10938,"teachers</w>":10939,"authored</w>":10940,"gostin</w>":10941,"bodyweight</w>":10942,"tobacco</w>":10943,"ancellor</w>":10944,"accredited</w>":10945,"scrambling</w>":10946,"guangdong</w>":10947,"canadians</w>":10948,"tylenol</w>":10949,"overdraft</w>":10950,"achusetts</w>":10951,"bolsonaro</w>":10952,"StackExchange</w>":10953,"microscop":10954,"machinery</w>":10955,"acetaminophen</w>":10956,"isopropyl</w>":10957,"hurricane</w>":10958,"cardiovascular</w>":10959,"McLellan</w>":10960,"SPY200320":10961,"pneumococcal</w>":10962,"Longyearbyen</w>":10963,"04":10964,"06":10965,"08</w>":10966,"018</w>":10967,"088":10968,"036</w>":10969,"110":10970,"119":10971,"180</w>":10972,"117</w>":10973,"117":10974,"2co":10975,"280</w>":10976,"222</w>":10977,"223":10978,"31":10979,"319</w>":10980,"300":10981,"329":10982,"362</w>":10983,"41":10984,"43":10985,"462</w>":10986,"5ps</w>":10987,"590</w>":10988,"538</w>":10989,"540":10990,"70":10991,"74":10992,"75":10993,"76":10994,"79":10995,"7b":10996,"705":10997,"860</w>":10998,"999</w>":10999,"975</w>":11000,"927":11001,"AN":11002,"AM</w>":11003,"Ano":11004,"Ama":11005,"Ame":11006,"Apart</w>":11007,"ANA</w>":11008,"Apr</w>":11009,"APR</w>":11010,"Ans":11011,"BL":11012,"Bu":11013,"By</w>":11014,"BB</w>":11015,"BI</w>":11016,"Bat</w>":11017,"Blo":11018,"Best</w>":11019,"Back":11020,"Britain</w>":11021,"Blasio</w>":11022,"CE":11023,"CS":11024,"CO</w>":11025,"Cam":11026,"Cap":11027,"Cases</w>":11028,"Center</w>":11029,"CGT":11030,"Czec":11031,"DE":11032,"DL":11033,"Ei":11034,"En":11035,"ER</w>":11036,"Ear":11037,"Each</w>":11038,"Epi":11039,"Emer":11040,"Fre":11041,"Factors</w>":11042,"FCO</w>":11043,"Ga":11044,"Gre":11045,"Gru":11046,"Gra":11047,"Hi":11048,"HR</w>":11049,"HT</w>":11050,"His</w>":11051,"Hence</w>":11052,"House</w>":11053,"It":11054,"Imp":11055,"Jan":11056,"Jun":11057,"Ko":11058,"LL":11059,"Loo":11060,"LAT":11061,"Lancet</w>":11062,"Mor":11063,"Mil":11064,"Mar</w>":11065,"Main</w>":11066,"Mexico</w>":11067,"NS":11068,"Nd</w>":11069,"NT</w>":11070,"N100</w>":11071,"NAP</w>":11072,"Os":11073,"OK</w>":11074,"Other</w>":11075,"Open":11076,"PH":11077,"PR":11078,"Py":11079,"Ps</w>":11080,"PS</w>":11081,"Pal</w>":11082,"Pur":11083,"Presu":11084,"Ra":11085,"Rh":11086,"RA</w>":11087,"Right</w>":11088,"S7</w>":11089,"Stu":11090,"Shan":11091,"Section</w>":11092,"See</w>":11093,"See":11094,"SNAP</w>":11095,"Tor":11096,"Tran":11097,"Tok":11098,"TUI</w>":11099,"Ur":11100,"UV</w>":11101,"Use</w>":11102,"WE</w>":11103,"Whe":11104,"Ye":11105,"Yout":11106,"aat":11107,"ait</w>":11108,"ation":11109,"awa":11110,"atively</w>":11111,"astom":11112,"atial</w>":11113,"a036</w>":11114,"bk":11115,"bá":11116,"ball</w>":11117,"bla":11118,"bber</w>":11119,"blow</w>":11120,"bare":11121,"blu":11122,"blast</w>":11123,"blat":11124,"bled</w>":11125,"bail</w>":11126,"btw</w>":11127,"con</w>":11128,"caf":11129,"cge</w>":11130,"cite</w>":11131,"cements</w>":11132,"cream</w>":11133,"ds":11134,"dt</w>":11135,"dous</w>":11136,"dited</w>":11137,"dani":11138,"dys":11139,"dfr":11140,"dsec":11141,"dbeta</w>":11142,"dged</w>":11143,"dtrump</w>":11144,"dang":11145,"dsey</w>":11146,"eq</w>":11147,"ear</w>":11148,"ears</w>":11149,"eties</w>":11150,"earch</w>":11151,"ests</w>":11152,"etry</w>":11153,"ebol":11154,"eload</w>":11155,"ebreyesus</w>":11156,"flaw":11157,"filling</w>":11158,"frank":11159,"flows</w>":11160,"gg</w>":11161,"gand</w>":11162,"gil":11163,"gla":11164,"gors</w>":11165,"gare":11166,"gically</w>":11167,"garian</w>":11168,"ghai</w>":11169,"hi</w>":11170,"hexam":11171,"hus":11172,"hran</w>":11173,"hensive</w>":11174,"hitting</w>":11175,"if":11176,"ij":11177,"iat":11178,"ize</w>":11179,"itis</w>":11180,"iousness</w>":11181,"jh":11182,"ja</w>":11183,"jo</w>":11184,"jer":11185,"jac":11186,"jail</w>":11187,"jenni":11188,"ku":11189,"kn</w>":11190,"ken":11191,"kit":11192,"kes":11193,"kun":11194,"kle":11195,"kne":11196,"kis":11197,"kore":11198,"kalman</w>":11199,"kater":11200,"kicked</w>":11201,"kirin</w>":11202,"lv":11203,"lor</w>":11204,"les":11205,"lare</w>":11206,"lap":11207,"lates</w>":11208,"lours</w>":11209,"mon</w>":11210,"msp":11211,"mally</w>":11212,"mall</w>":11213,"mome":11214,"mnu":11215,"mson":11216,"messed</w>":11217,"nl":11218,"np":11219,"nc</w>":11220,"nj</w>":11221,"nou":11222,"nul":11223,"nder</w>":11224,"nary</w>":11225,"nwa":11226,"nick":11227,"nail</w>":11228,"npv</w>":11229,"nbk":11230,"ost":11231,"ots</w>":11232,"ogh</w>":11233,"otic</w>":11234,"overn":11235,"osa":11236,"osis</w>":11237,"overe":11238,"obey</w>":11239,"pd":11240,"pn":11241,"pru":11242,"pour</w>":11243,"phili":11244,"ray</w>":11245,"rhe":11246,"rine</w>":11247,"rated</w>":11248,"rons</w>":11249,"ramp":11250,"rhea</w>":11251,"rbinom</w>":11252,"sg":11253,"sd</w>":11254,"sp</w>":11255,"sat":11256,"sas":11257,"sic":11258,"sill</w>":11259,"sest</w>":11260,"sory</w>":11261,"slu":11262,"sni":11263,"stics</w>":11264,"sspo":11265,"sAs":11266,"sdashboard</w>":11267,"tsu":11268,"tone</w>":11269,"tus</w>":11270,"tence</w>":11271,"tless</w>":11272,"tge":11273,"tant":11274,"tection</w>":11275,"tland</w>":11276,"tants</w>":11277,"tfully</w>":11278,"tops</w>":11279,"toral</w>":11280,"toring</w>":11281,"tamin":11282,"tack":11283,"ution</w>":11284,"uted</w>":11285,"upre":11286,"uber</w>":11287,"ucle":11288,"uating</w>":11289,"usion</w>":11290,"vor":11291,"vably</w>":11292,"wre":11293,"wes</w>":11294,"wen</w>":11295,"wore</w>":11296,"wong</w>":11297,"wire</w>":11298,"wins</w>":11299,"wrap</w>":11300,"xation</w>":11301,"xbus</w>":11302,"xlim</w>":11303,"yen</w>":11304,"yun":11305,"yment</w>":11306,"yright</w>":11307,"youth</w>":11308,"yful</w>":11309,"ycle</w>":11310,"yahu</w>":11311,"zu":11312,"zar":11313,"zer</w>":11314,"zable</w>":11315,"zep":11316,"th2</w>":11317,"thick":11318,"iny</w>":11319,"insp":11320,"intly</w>":11321,"intru":11322,"input</w>":11323,"inland</w>":11324,"inclin":11325,"incomes</w>":11326,"inak":11327,"incorrect</w>":11328,"incorporate</w>":11329,"inacceptable</w>":11330,"inactivation</w>":11331,"instantly</w>":11332,"indefinite</w>":11333,"inburg</w>":11334,"ang</w>":11335,"ano</w>":11336,"anst":11337,"anec":11338,"anom":11339,"anay":11340,"anting</w>":11341,"angerous</w>":11342,"anisation</w>":11343,"ren</w>":11344,"ref</w>":11345,"reau":11346,"refore</w>":11347,"reuni":11348,"redre":11349,"reside</w>":11350,"reapply</w>":11351,"renew":11352,"resolution</w>":11353,"revol":11354,"reward</w>":11355,"repaying</w>":11356,"resolved</w>":11357,"resorts</w>":11358,"remarks</w>":11359,"reintroduction</w>":11360,"retention</w>":11361,"tivi":11362,"tiary</w>":11363,"tiful</w>":11364,"tidy":11365,"tistic</w>":11366,"erals</w>":11367,"eric</w>":11368,"erior</w>":11369,"eradic":11370,"ones":11371,"ontari":11372,"outer</w>":11373,"oured</w>":11374,"argen":11375,"armed</w>":11376,"arland</w>":11377,"arxiv</w>":11378,"enb":11379,"ena</w>":11380,"ention</w>":11381,"enab":11382,"enth</w>":11383,"encep":11384,"en136</w>":11385,"orph":11386,"orney</w>":11387,"ale":11388,"aly</w>":11389,"alas</w>":11390,"alum":11391,"alter":11392,"alty</w>":11393,"alloc":11394,"altun":11395,"allies</w>":11396,"alised</w>":11397,"alarial</w>":11398,"aldtrump</w>":11399,"sty</w>":11400,"stone</w>":11401,"stell":11402,"staff":11403,"stairs</w>":11404,"stamps</w>":11405,"att</w>":11406,"attitu":11407,"vise</w>":11408,"viate</w>":11409,"vised</w>":11410,"vigi":11411,"vices</w>":11412,"vitro</w>":11413,"ita</w>":11414,"roof</w>":11415,"room":11416,"rome</w>":11417,"rogers</w>":11418,"root</w>":11419,"rolled</w>":11420,"roche</w>":11421,"asi</w>":11422,"asing</w>":11423,"asha":11424,"assure</w>":11425,"assay</w>":11426,"assays</w>":11427,"assa":11428,"astically</w>":11429,"aska</w>":11430,"echo":11431,"ecology</w>":11432,"aci":11433,"aco</w>":11434,"actional</w>":11435,"acart</w>":11436,"ical":11437,"omberg</w>":11438,"ompas</w>":11439,"noone</w>":11440,"nolo</w>":11441,"nowad":11442,"haplo":11443,"hagel</w>":11444,"hazard</w>":11445,"esome</w>":11446,"dial</w>":11447,"distr":11448,"diso":11449,"ditional</w>":11450,"distric":11451,"dire</w>":11452,"dibly</w>":11453,"district</w>":11454,"dizz":11455,"divor":11456,"rug</w>":11457,"runs</w>":11458,"rubber</w>":11459,"lified</w>":11460,"liechtenstein</w>":11461,"ligand</w>":11462,"lowered</w>":11463,"losi</w>":11464,"sies</w>":11465,"side":11466,"sued</w>":11467,"suits</w>":11468,"suici":11469,"deal":11470,"detr":11471,"debit</w>":11472,"deut":11473,"depression</w>":11474,"dehydr":11475,"tra</w>":11476,"trail</w>":11477,"trapped</w>":11478,"segreg":11479,"sewage</w>":11480,"theli":11481,"therea":11482,"thetic</w>":11483,"unter":11484,"unexpected</w>":11485,"unrest</w>":11486,"unlaw":11487,"undiagnosed</w>":11488,"unstable</w>":11489,"unvaccinated</w>":11490,"unconstitutional</w>":11491,"unfolding</w>":11492,"unauthorized</w>":11493,"unconsci":11494,"unfortunate</w>":11495,"cole</w>":11496,"covery</w>":11497,"cope</w>":11498,"codon</w>":11499,"cock</w>":11500,"covid":11501,"cooperating</w>":11502,"covs</w>":11503,"coefficient</w>":11504,"cosme":11505,"abi":11506,"abc</w>":11507,"abol":11508,"contemp":11509,"conferen":11510,"consoli":11511,"concei":11512,"constrain":11513,"proposes</w>":11514,"sper":11515,"spill</w>":11516,"split":11517,"spatial</w>":11518,"lea":11519,"lean</w>":11520,"legen":11521,"lege</w>":11522,"leased</w>":11523,"leaning</w>":11524,"maker</w>":11525,"pot</w>":11526,"poon</w>":11527,"pools</w>":11528,"posely</w>":11529,"pocket</w>":11530,"url</w>":11531,"urich</w>":11532,"urban</w>":11533,"expre":11534,"expor":11535,"excre":11536,"excu":11537,"export</w>":11538,"chy</w>":11539,"chur":11540,"chris":11541,"chell</w>":11542,"charities</w>":11543,"chancellor</w>":11544,"behave</w>":11545,"beach</w>":11546,"behalf</w>":11547,"ampl":11548,"amend</w>":11549,"amond</w>":11550,"ria</w>":11551,"rim</w>":11552,"riding</w>":11553,"rises</w>":11554,"rific":11555,"ribon":11556,"riot</w>":11557,"rigors</w>":11558,"tion1</w>":11559,"tionable</w>":11560,"tionality</w>":11561,"optm":11562,"opened</w>":11563,"opposition</w>":11564,"opsdashboard</w>":11565,"bug</w>":11566,"bureau":11567,"verse</w>":11568,"verne":11569,"verage</w>":11570,"vertical</w>":11571,"verbal</w>":11572,"veranst":11573,"shi</w>":11574,"shen":11575,"shat":11576,"shore</w>":11577,"shtml</w>":11578,"shrou":11579,"shrin":11580,"elf</w>":11581,"eling</w>":11582,"eless</w>":11583,"elders</w>":11584,"elastom":11585,"ado</w>":11586,"adhere</w>":11587,"adoption</w>":11588,"adhanom</w>":11589,"neal</w>":11590,"neten":11591,"newar":11592,"neyland</w>":11593,"quater":11594,"quasi</w>":11595,"inflate</w>":11596,"inferior</w>":11597,"compre":11598,"compas":11599,"composed</w>":11600,"complain</w>":11601,"meal</w>":11602,"medr":11603,"meets</w>":11604,"ghtest</w>":11605,"ghtm":11606,"ghebreyesus</w>":11607,"ape</w>":11608,"corps</w>":11609,"correlations</w>":11610,"corrid":11611,"corneal</w>":11612,"age":11613,"ago":11614,"agt":11615,"aggreg":11616,"mping</w>":11617,"mptive</w>":11618,"hosting</w>":11619,"hoods</w>":11620,"hotter</w>":11621,"dob":11622,"pel</w>":11623,"petrol</w>":11624,"ults</w>":11625,"ulture</w>":11626,"ultimate</w>":11627,"presti":11628,"preferences</w>":11629,"movements</w>":11630,"tel</w>":11631,"tegn":11632,"taa</w>":11633,"percu":11634,"perately</w>":11635,"permitting</w>":11636,"permits</w>":11637,"west":11638,"weird</w>":11639,"auch</w>":11640,"autop":11641,"aufenthal":11642,"pled</w>":11643,"plin</w>":11644,"plas":11645,"plate</w>":11646,"plague</w>":11647,"goals</w>":11648,"wordsec":11649,"olve</w>":11650,"olina</w>":11651,"infective</w>":11652,"infecteds</w>":11653,"rens</w>":11654,"renal</w>":11655,"reness</w>":11656,"cili":11657,"cidal</w>":11658,"cigare":11659,"hei":11660,"hear":11661,"coronaviri":11662,"duke</w>":11663,"dums</w>":11664,"terrible</w>":11665,"tertiary</w>":11666,"2022</w>":11667,"20degc</w>":11668,"20440</w>":11669,"fever":11670,"feier":11671,"paris</w>":11672,"partially</w>":11673,"parlours</w>":11674,"aik</w>":11675,"aimed</w>":11676,"aiming</w>":11677,"boson</w>":11678,"boxes</w>":11679,"immin":11680,"improvi":11681,"imental</w>":11682,"isbn</w>":11683,"county</w>":11684,"counselling</w>":11685,"ssively</w>":11686,"facem":11687,"pup":11688,"pub</w>":11689,"puter</w>":11690,"pumps</w>":11691,"surfact":11692,"surround</w>":11693,"hiking</w>":11694,"hidden</w>":11695,"keholders</w>":11696,"kevin</w>":11697,"keogh</w>":11698,"straps</w>":11699,"toff</w>":11700,"toys</w>":11701,"tooth":11702,"gift</w>":11703,"gently</w>":11704,"geneva</w>":11705,"ouring</w>":11706,"sym":11707,"syll":11708,"syria</w>":11709,"train":11710,"traits</w>":11711,"trajec":11712,"path":11713,"parently</w>":11714,"paink":11715,"pakistan</w>":11716,"wiped</w>":11717,"ansi</w>":11718,"answered</w>":11719,"afm</w>":11720,"afaik</w>":11721,"fix</w>":11722,"fire":11723,"fili":11724,"figh":11725,"fires</w>":11726,"fidd":11727,"soil</w>":11728,"commentary</w>":11729,"ancer</w>":11730,"ancers</w>":11731,"ancest":11732,"outlook</w>":11733,"outward</w>":11734,"outweigh</w>":11735,"gry</w>":11736,"gray</w>":11737,"grams</w>":11738,"granting</w>":11739,"dict":11740,"dictat":11741,"mutual</w>":11742,"music</w>":11743,"mucus</w>":11744,"epic":11745,"epage</w>":11746,"rison</w>":11747,"dermat":11748,"lain</w>":11749,"lawn</w>":11750,"lavage</w>":11751,"ttes</w>":11752,"fork</w>":11753,"forum</w>":11754,"tup</w>":11755,"tuary</w>":11756,"respecting</w>":11757,"monet":11758,"monkey</w>":11759,"monwealth</w>":11760,"scaff":11761,"scaling</w>":11762,"scales</w>":11763,"finances</w>":11764,"finkel</w>":11765,"served</w>":11766,"sertation</w>":11767,"juan</w>":11768,"betting</w>":11769,"mind":11770,"minor</w>":11771,"minds</w>":11772,"minster</w>":11773,"mineral</w>":11774,"minnes":11775,"curb</w>":11776,"guy</w>":11777,"guest</w>":11778,"guess":11779,"guard</w>":11780,"guesses</w>":11781,"guests</w>":11782,"firing</w>":11783,"firmed</w>":11784,"tently</w>":11785,"tended</w>":11786,"tensions</w>":11787,"tennes":11788,"pple</w>":11789,"ppen</w>":11790,"COB":11791,"arization</w>":11792,"pango":11793,"panel</w>":11794,"panose</w>":11795,"essentials</w>":11796,"funded</w>":11797,"mptoms</w>":11798,"import</w>":11799,"alia</w>":11800,"translu":11801,"translations</w>":11802,"transferring</w>":11803,"pheral</w>":11804,"sentence</w>":11805,"pron":11806,"prints</w>":11807,"pranay":11808,"creation</w>":11809,"interstate</w>":11810,"intermit":11811,"interference</w>":11812,"interim</w>":11813,"internationally</w>":11814,"intercept</w>":11815,"withstanding</w>":11816,"questioning</w>":11817,"closest</w>":11818,"siness</w>":11819,"mass":11820,"locally</w>":11821,"informal</w>":11822,"governance</w>":11823,"governors</w>":11824,"offensive</w>":11825,"tremen":11826,"ellite</w>":11827,"hancock</w>":11828,"liness</w>":11829,"linens</w>":11830,"medically</w>":11831,"basics</w>":11832,"airplane</w>":11833,"bid</w>":11834,"biden</w>":11835,"pleas":11836,"discount</w>":11837,"dissolution</w>":11838,"dissolved</w>":11839,"discontinuous</w>":11840,"discharges</w>":11841,"disproportion":11842,"discovery</w>":11843,"dissertation</w>":11844,"inclusion</w>":11845,"na2co":11846,"hump</w>":11847,"flush</w>":11848,"distances</w>":11849,"distorted</w>":11850,"examines</w>":11851,"flies</w>":11852,"schen</w>":11853,"schni":11854,"generously</w>":11855,"cleav":11856,"responders</w>":11857,"responsive</w>":11858,"desk</w>":11859,"desperately</w>":11860,"droxychloroquine</w>":11861,"dromedary</w>":11862,"iddle</w>":11863,"specially</w>":11864,"specify</w>":11865,"ofcovid</w>":11866,"reportedly</w>":11867,"mandate</w>":11868,"mandated</w>":11869,"undergo</w>":11870,"undergoing</w>":11871,"undermine</w>":11872,"peripheral</w>":11873,"orized</w>":11874,"reassuring</w>":11875,"cue</w>":11876,"cuit</w>":11877,"cuts</w>":11878,"cutoff</w>":11879,"fiction</w>":11880,"foods</w>":11881,"virgin":11882,"loosely</w>":11883,"consist</w>":11884,"penn":11885,"thermome":11886,"rank</w>":11887,"contrary</w>":11888,"contractual</w>":11889,"grew</w>":11890,"green":11891,"greece</w>":11892,"union</w>":11893,"folks</w>":11894,"folded</w>":11895,"mats</w>":11896,"matt</w>":11897,"matched</w>":11898,"cdc":11899,"restrictive</w>":11900,"economically</w>":11901,"logically</w>":11902,"critics</w>":11903,"canned</w>":11904,"submission</w>":11905,"substitu":11906,"subset</w>":11907,"directs</w>":11908,"luzon</w>":11909,"luck":11910,"lucky</w>":11911,"luxembourg</w>":11912,"incredibly</w>":11913,"dece":11914,"decent</w>":11915,"declare</w>":11916,"resume</w>":11917,"cease</w>":11918,"Cologne</w>":11919,"productivity</w>":11920,"presses</w>":11921,"median</w>":11922,"mediated</w>":11923,"highlight</w>":11924,"bandan":11925,"apping</w>":11926,"famous</w>":11927,"stanford</w>":11928,"invade</w>":11929,"indian</w>":11930,"carthy</w>":11931,"uphold</w>":11932,"upwards</w>":11933,"upload</w>":11934,"leges</w>":11935,"overly</w>":11936,"oversee</w>":11937,"overstay</w>":11938,"overlooked</w>":11939,"overcrowding</w>":11940,"rowly</w>":11941,"problematic</w>":11942,"purposely</w>":11943,"suppression</w>":11944,"achment</w>":11945,"Char":11946,"Chron":11947,"drastically</w>":11948,"norm</w>":11949,"jose":11950,"joyful</w>":11951,"jointly</w>":11952,"fractional</w>":11953,"epitheli":11954,"usable</w>":11955,"usda</w>":11956,"vox</w>":11957,"1049</w>":11958,"valence</w>":11959,"memory</w>":11960,"ministers</w>":11961,"ministries</w>":11962,"saharan</w>":11963,"applicant</w>":11964,"centre":11965,"neck</w>":11966,"necologists</w>":11967,"evictions</w>":11968,"spreaders</w>":11969,"sequently</w>":11970,"communal</w>":11971,"estimator</w>":11972,"simplification</w>":11973,"potent</w>":11974,"potatoes</w>":11975,"deno":11976,"dened</w>":11977,"dense</w>":11978,"dengue</w>":11979,"denomin":11980,"harve":11981,"harris</w>":11982,"relaxing</w>":11983,"relaxation</w>":11984,"niaid</w>":11985,"nightm":11986,"edingly</w>":11987,"warded</w>":11988,"ologically</w>":11989,"statutes</w>":11990,"statut":11991,"extends</w>":11992,"travels</w>":11993,"seventh</w>":11994,"charset</w>":11995,"charging</w>":11996,"claimsp":11997,"healthier</w>":11998,"00000</w>":11999,"capital":12000,"equili":12001,"proctoring</w>":12002,"particulate</w>":12003,"1473</w>":12004,"1400000000</w>":12005,"stocking</w>":12006,"1922</w>":12007,"1994</w>":12008,"borrowing</w>":12009,"efs</w>":12010,"michel</w>":12011,"microns</w>":12012,"sterile</w>":12013,"sterili":12014,"statistic</w>":12015,"stakeholders</w>":12016,"landing</w>":12017,"necessity</w>":12018,"global":12019,"kine":12020,"kinder":12021,"colleges</w>":12022,"resulted</w>":12023,"jecting</w>":12024,"broke</w>":12025,"brook":12026,"prevented</w>":12027,"preventative</w>":12028,"clinics</w>":12029,"nyc</w>":12030,"nyu</w>":12031,"deaf</w>":12032,"133</w>":12033,"cultured</w>":12034,"annually</w>":12035,"troops</w>":12036,"latent</w>":12037,"latrine</w>":12038,"mitchell</w>":12039,"authorization</w>":12040,"authorizes</w>":12041,"ification</w>":12042,"initiated</w>":12043,"intense</w>":12044,"intentional</w>":12045,"binar</w>":12046,"elective</w>":12047,"electoral</w>":12048,"faulty</w>":12049,"ticism</w>":12050,"halting</w>":12051,"cracy</w>":12052,"pace</w>":12053,"registered</w>":12054,"containers</w>":12055,"spoke</w>":12056,"shah</w>":12057,"shaw</w>":12058,"shame</w>":12059,"tailored</w>":12060,"122</w>":12061,"124</w>":12062,"Information</w>":12063,"Intere":12064,"existence</w>":12065,"benefici":12066,"benefiting</w>":12067,"beneficial</w>":12068,"analo":12069,"suffice</w>":12070,"suffere":12071,"circles</w>":12072,"circuit</w>":12073,"safeguar":12074,"tech</w>":12075,"distributions</w>":12076,"distributing</w>":12077,"berlin</w>":12078,"bernie</w>":12079,"camps</w>":12080,"walks</w>":12081,"announcing</w>":12082,"announcements</w>":12083,"refrain</w>":12084,"referral</w>":12085,"origination</w>":12086,"collap":12087,"collar</w>":12088,"collateral</w>":12089,"companion</w>":12090,"appropriations</w>":12091,"foremost</w>":12092,"graduation</w>":12093,"regarded</w>":12094,"centric</w>":12095,"diagnostics</w>":12096,"cashi":12097,"caseload</w>":12098,"operated</w>":12099,"operates</w>":12100,"midst</w>":12101,"schooling</w>":12102,"breast</w>":12103,"brewer</w>":12104,"pied</w>":12105,"wrt</w>":12106,"earned</w>":12107,"misinformed</w>":12108,"misleading</w>":12109,"misfold</w>":12110,"Coronaviruses</w>":12111,"multiply</w>":12112,"bake</w>":12113,"baking</w>":12114,"arguable</w>":12115,"strep</w>":12116,"stretch</w>":12117,"negatives</w>":12118,"chamber</w>":12119,"chaotic</w>":12120,"chaplin</w>":12121,"videoch":12122,"manual</w>":12123,"hinder</w>":12124,"validate</w>":12125,"validated</w>":12126,"validating</w>":12127,"pneumon":12128,"scene</w>":12129,"blew</w>":12130,"burst</w>":12131,
[...]
