{"<unk>":0,"'":1,"(":2,")":3,",":4,"-":5,".":6,"/":7,"0":8,"1":9,"2":10,"3":11,"4":12,"5":13,"6":14,"7":15,"8":16,"9":17,":":18,"a":19,"b":20,"c":21,"d":22,"e":23,"f":24,"g":25,"h":26,"i":27,"j":28,"k":29,"l":30,"m":31,"n":32,"o":33,"p":34,"q":35,"r":36,"s":37,"t":38,"u":39,"v":40,"w":41,"x":42,"y":43,"z":44,"t</w>":45,"k</w>":46,"d</w>":47,"e</w>":48,"r</w>":49,"y</w>":50,"8</w>":51,"s</w>":52,"n</w>":53,"l</w>":54,"g</w>":55,"2</w>":56,"f</w>":57,"h</w>":58,"0</w>":59,"v</w>":60,"o</w>":61,"4</w>":62,"m</w>":63,"p</w>":64,"a</w>":65,"c</w>":66,"u</w>":67,"q</w>":68,"9</w>":69,"1</w>":70,"i</w>":71,"7</w>":72,"3</w>":73,"z</w>":74,"6</w>":75,"j</w>":76,"w</w>":77,"5</w>":78,"b</w>":79,"x</w>":80,".</w>":81,"'</w>":82,"(</w>":83,":</w>":84,",</w>":85,")</w>":86,"/</w>":87,"-</w>":88,"th":89,"in":90,"an":91,"the</w>":92,"re":93,"ti":94,"er":95,"co":96,"en":97,"ar":98,"to</w>":99,"ou":100,"ing</w>":101,"is</w>":102,"te":103,"on":104,"on</w>":105,"al":106,"or":107,"of</w>":108,"and</w>":109,"es</w>":110,"at</w>":111,"or</w>":112,"vi":113,"in</w>":114,"ro":115,"it":116,"er</w>":117,"st":118,"ed</w>":119,"ca":120,"ly</w>":121,"ac":122,"no":123,"as":124,"di":125,"le</w>":126,"at":127,"ec":128,"ve</w>":129,"tion</w>":130,"li":131,"wh":132,"that</w>":133,"ha":134,"si":135,"the":136,"se</w>":137,"al</w>":138,"are</w>":139,"il":140,"ru":141,"for</w>":142,"lo":143,"de":144,"su":145,"it</w>":146,"un":147,"not</w>":148,"se":149,"yo":150,"you</w>":151,"ri":152,"mp":153,"ma":154,"le":155,"st</w>":156,"as</w>":157,"be":158,"ts</w>":159,"ted</w>":160,"ce</w>":161,"sp":162,"con":163,"ld</w>":164,"me</w>":165,"en</w>":166,"be</w>":167,"ho":168,"pro":169,"viru":170,"an</w>":171,"ur":172,"ab":173,"ne":174,"ent</w>":175,"po":176,"ere</w>":177,"ch":178,"la":179,"me":180,"wit":181,"tion":182,"so":183,"tr":184,"with</w>":185,"have</w>":186,"mi":187,"bu":188,"ch</w>":189,"this</w>":190,"virus</w>":191,"ex":192,"ver":193,"our</w>":194,"op":195,"inf":196,"if</w>":197,"fi":198,"ta":199,"so</w>":200,"ad":201,"pe":202,"sa":203,"can</w>":204,"qu":205,"tions</w>":206,"ther</w>":207,"gh":208,"we":209,"ill</w>":210,"your</w>":211,"fro":212,"from</w>":213,"ould</w>":214,"ve":215,"cor":216,"ci":217,"ate</w>":218,"fe":219,"sh":220,"do":221,"mo":222,"ses</w>":223,"ers</w>":224,"th</w>":225,"ag":226,"but</w>":227,"ore</w>":228,"ter</w>":229,"they</w>":230,"pre":231,"ap":232,"out</w>":233,"19</w>":234,"will</w>":235,"he":236,"ss</w>":237,"ity</w>":238,"per":239,"to":240,"one</w>":241,"ay</w>":242,"ally</w>":243,"ce":244,"by</w>":245,"infec":246,"peop":247,"people</w>":248,"ke</w>":249,"ge":250,"ment</w>":251,"there</w>":252,"wor":253,"go":254,"ds</w>":255,"covi":256,"covid</w>":257,"lu":258,"coron":259,"whi":260,"ke":261,"mm":262,"du":263,"corona":264,"do</w>":265,"ter":266,"any</w>":267,"ir":268,"all</w>":269,"ation</w>":270,"ren":271,"cal</w>":272,"ver</w>":273,"20":274,"use</w>":275,"who</w>":276,"ine</w>":277,"ents</w>":278,"ll</w>":279,"bo":280,"gh</w>":281,"ssi":282,"other</w>":283,"would</w>":284,"more</w>":285,"sti":286,"rea":287,"fac":288,"ir</w>":289,"cu":290,"ght</w>":291,"pa":292,"tive</w>":293,"ms</w>":294,"ding</w>":295,"sur":296,"pu":297,"gi":298,"mu":299,"par":300,"coronavirus</w>":301,"we</w>":302,"has</w>":303,"ting</w>":304,"oun":305,"id</w>":306,"ra":307,"mb":308,"de</w>":309,"ys</w>":310,"able</w>":311,"ar</w>":312,"cou":313,"heal":314,"hi":315,"ence</w>":316,"some</w>":317,"sed</w>":318,"which</w>":319,"gen":320,"comp":321,"their</w>":322,"af":323,"sc":324,"sy":325,"der</w>":326,"cont":327,"ev":328,"ase</w>":329,"mon":330,"was</w>":331,"ing":332,"also</w>":333,"gu":334,"od</w>":335,"coun":336,"red</w>":337,"da":338,"wi":339,"ks</w>":340,"wn</w>":341,"ge</w>":342,"health</w>":343,"no</w>":344,"inc":345,"comm":346,"may</w>":347,"es":348,"enti":349,"pl":350,"king</w>":351,"about</w>":352,"ans":353,"ant</w>":354,"tes</w>":355,"por":356,"spec":357,"tra":358,"than</w>":359,"ance</w>":360,"should</w>":361,"ht":362,"ars</w>":363,"time</w>":364,"act</w>":365,"ble</w>":366,"ough</w>":367,"ol":368,"ani":369,"min":370,"been</w>":371,"als</w>":372,"of":373,"tho":374,"ty</w>":375,"out":376,"get</w>":377,"tly</w>":378,"for":379,"imp":380,"ye":381,"us</w>":382,"ary</w>":383,"now</w>":384,"ris":385,"tu":386,"sts</w>":387,"tic":388,"ure</w>":389,"what</w>":390,"ded</w>":391,"cause</w>":392,"resp":393,"when</w>":394,"very</w>":395,"20</w>":396,"ll":397,"how</w>":398,"can":399,"medi":400,"wa":401,"dise":402,"ju":403,"ser":404,"our":405,"ast</w>":406,"nu":407,"dif":408,"ces</w>":409,"res</w>":410,"ck</w>":411,"00</w>":412,"ous</w>":413,"fa":414,"fu":415,"viruses</w>":416,"mar":417,"ef":418,"up</w>":419,"like</w>":420,"fec":421,"ory</w>":422,"most</w>":423,"der":424,"mpto":425,"pers":426,"vel</w>":427,"could</w>":428,"feren":429,"only</w>":430,"ound</w>":431,"gr":432,"tri":433,"lation</w>":434,"av":435,"lin":436,"mes</w>":437,"ste":438,"does</w>":439,"day</w>":440,"cur":441,"many</w>":442,"rec":443,"its</w>":444,"speci":445,"stu":446,"mber</w>":447,"infected</w>":448,"new</w>":449,"low":450,"sing</w>":451,"te</w>":452,"cases</w>":453,"tp</w>":454,"http</w>":455,"then</w>":456,"these</w>":457,"pp":458,"ten":459,"ans</w>":460,"fin":461,"sta":462,"hu":463,"bli":464,"el":465,"prob":466,"chin":467,"dence</w>":468,"them</w>":469,"ali":470,"pi":471,"mic</w>":472,"sen":473,"cov</w>":474,"those</w>":475,"read</w>":476,"disease</w>":477,"such</w>":478,"trans":479,"fir":480,"some":481,"ari":482,"ties</w>":483,"less</w>":484,"tional</w>":485,"pri":486,"after</w>":487,"bet":488,"test</w>":489,"ong</w>":490,"try</w>":491,"sympto":492,"na":493,"need</w>":494,"like":495,"les</w>":496,"sit":497,"ga":498,"uni":499,"prote":500,"ying</w>":501,"low</w>":502,"because</w>":503,"age</w>":504,"publi":505,"inter":506,"possi":507,"were</w>":508,"reas":509,"even</w>":510,"evi":511,"way</w>":512,"days</w>":513,"risk</w>":514,"sars</w>":515,"thing</w>":516,"qui":517,"sel":518,"mer":519,"stri":520,"inclu":521,"exp":522,"where</w>":523,"mple</w>":524,"said</w>":525,"ort":526,"stan":527,"ph":528,"dy</w>":529,"evidence</w>":530,"clo":531,"ings</w>":532,"symptoms</w>":533,"ww":534,"spread</w>":535,"brea":536,"china</w>":537,"fore</w>":538,"www</w>":539,"mil":540,"han":541,"sin":542,"read":543,"just</w>":544,"lar":545,"sting</w>":546,"care</w>":547,"infection</w>":548,"2020</w>":549,"bas":550,"mas":551,"home</w>":552,"aga":553,"person</w>":554,"cer":555,"dat":556,"duc":557,"likely</w>":558,"gn":559,"ors</w>":560,"differen":561,"pati":562,"vern":563,"number</w>":564,"ard</w>":565,"fun":566,"make</w>":567,"might</w>":568,"au":569,"ps</w>":570,"dis":571,"tre":572,"tic</w>":573,"govern":574,"with":575,"travel</w>":576,"bi":577,"exa":578,"cy</w>":579,"is":580,"ments</w>":581,"ility</w>":582,"cial</w>":583,"work</w>":584,"case</w>":585,"ving</w>":586,"ori":587,"ssion</w>":588,"still</w>":589,"ad</w>":590,"tw":591,"dec":592,"pr":593,"ws</w>":594,"line</w>":595,"while</w>":596,"gener":597,"appro":598,"air":599,"cation</w>":600,"men":601,"being</w>":602,"bac":603,"dro":604,"infor":605,"into</w>":606,"demic</w>":607,"mation</w>":608,"howe":609,"however</w>":610,"cle":611,"app":612,"fo":613,"effec":614,"see</w>":615,"ach</w>":616,"my</w>":617,"had</w>":618,"chan":619,"provi":620,"surfac":621,"much</w>":622,"curren":623,"contact</w>":624,"lt</w>":625,"used</w>":626,"com</w>":627,"man</w>":628,"atory</w>":629,"ons</w>":630,"data</w>":631,"possible</w>":632,"ves</w>":633,"ved</w>":634,"before</w>":635,"cd":636,"sto":637,"pe</w>":638,"str":639,"sure</w>":640,"ess":641,"nee":642,"tur":643,"vir":644,"two</w>":645,"ill":646,"prev":647,"vac":648,"ating</w>":649,"emp":650,"pen":651,"probab":652,"tely</w>":653,"come</w>":654,"repor":655,"self</w>":656,"acti":657,"kno":658,"cdc</w>":659,"posi":660,"respir":661,"fli":662,"stay</w>":663,"anti":664,"respon":665,"go</w>":666,"id":667,"was":668,"wee":669,"patients</w>":670,"over</w>":671,"times</w>":672,"poin":673,"plac":674,"public</w>":675,"pan":676,"spit":677,"peri":678,"first</w>":679,"fl":680,"he</w>":681,"information</w>":682,"cour":683,"ques":684,"well</w>":685,"cep":686,"ger</w>":687,"indi":688,"protec":689,"oth":690,"sick</w>":691,"see":692,"hel":693,"different</w>":694,"long</w>":695,"thr":696,"vacc":697,"ob":698,"ket</w>":699,"sted</w>":700,"chil":701,"sho":702,"rela":703,"take</w>":704,"meas":705,"same</w>":706,"respiratory</w>":707,"ail":708,"dur":709,"dent</w>":710,"mission</w>":711,"ween</w>":712,"sec":713,"tries</w>":714,"between</w>":715,"government</w>":716,"imm":717,"tru":718,"et</w>":719,"ning</w>":720,"all":721,"down</w>":722,"here</w>":723,"know</w>":724,"ential</w>":725,"10</w>":726,"ck":727,"dre":728,"tor</w>":729,"thin":730,"med</w>":731,"ures</w>":732,"state</w>":733,"mode":734,"countries</w>":735,"end</w>":736,"loo":737,"good</w>":738,"are":739,"under":740,"least</w>":741,"hospit":742,"ness</w>":743,"example</w>":744,"gre":745,"consi":746,"ated</w>":747,"rate</w>":748,"regu":749,"tests</w>":750,"contr":751,"medical</w>":752,"stric":753,"velo":754,"il</w>":755,"though</w>":756,"pas":757,"ins</w>":758,"sion</w>":759,"sub":760,"based</w>":761,"during</w>":762,"man":763,"uation</w>":764,"eng":765,"testing</w>":766,"ort</w>":767,"country</w>":768,"common</w>":769,"outbrea":770,"mp</w>":771,"resu":772,"whe":773,"cen":774,"advi":775,"wer</w>":776,"ths</w>":777,"popu":778,"tain</w>":779,"going</w>":780,"import":781,"hands</w>":782,"ia</w>":783,"avail":784,"through</w>":785,"ple":786,"lar</w>":787,"using</w>":788,"ect</w>":789,"again":790,"emer":791,"body</w>":792,"against</w>":793,"eco":794,"develo":795,"poli":796,"emplo":797,"ty":798,"ture</w>":799,"think</w>":800,"000</w>":801,"ten</w>":802,"2019</w>":803,"03</w>":804,"around</w>":805,"depen":806,"fol":807,"specifi":808,"direc":809,"ran":810,"tou":811,"restric":812,"say</w>":813,"et":814,"hou":815,"ni":816,"tting</w>":817,"ze</w>":818,"sear":819,"offi":820,"immun":821,"available</w>":822,"car":823,"econo":824,"dents</w>":825,"fre":826,"mat":827,"ant":828,"cally</w>":829,"ey</w>":830,"ls</w>":831,"fami":832,"temp":833,"did</w>":834,"under</w>":835,"transmission</w>":836,"ked</w>":837,"mal</w>":838,"val":839,"high</w>":840,"syste":841,"including</w>":842,"auth":843,"positive</w>":844,"whether</w>":845,"another</w>":846,"side</w>":847,"sign":848,"world</w>":849,"high":850,"avo":851,"human</w>":852,"since</w>":853,"pandemic</w>":854,"cance":855,"probably</w>":856,"others</w>":857,"gy</w>":858,"ide":859,"sh</w>":860,"sa</w>":861,"yes</w>":862,"order</w>":863,"quar":864,"ger":865,"accor":866,"pres":867,"kee":868,"money</w>":869,"march</w>":870,"someone</w>":871,"situation</w>":872,"measures</w>":873,"sour":874,"any":875,"star":876,"appli":877,"surfaces</w>":878,"important</w>":879,"ven</w>":880,"reco":881,"ality</w>":882,"xt</w>":883,"proce":884,"tain":885,"says</w>":886,"boo":887,"ue</w>":888,"social</w>":889,"back</w>":890,"help</w>":891,"date</w>":892,"epi":893,"lot</w>":894,"flu</w>":895,"gge":896,"over":897,"ite</w>":898,"actu":899,"work":900,"tal</w>":901,"ens</w>":902,"produc":903,"ching</w>":904,"known</w>":905,"ever":906,"che":907,"outbreak</w>":908,"condi":909,"addi":910,"ghts</w>":911,"indivi":912,"every":913,"am</w>":914,"parti":915,"individu":916,"found</w>":917,"vo":918,"states</w>":919,"national</w>":920,"population</w>":921,"up":922,"why</w>":923,"sugge":924,"news</w>":925,"few</w>":926,"grou":927,"ready</w>":928,"ban":929,"sm":930,"requi":931,"stru":932,"without</w>":933,"according</w>":934,"lts</w>":935,"sever":936,"due</w>":937,"point</w>":938,"question</w>":939,"iso":940,"recomm":941,"local</w>":942,"water</w>":943,"drople":944,"gro":945,"must</w>":946,"ations</w>":947,"ear":948,"fe</w>":949,"nec":950,"retur":951,"outh</w>":952,"ours</w>":953,"kes</w>":954,"tiz":955,"artic":956,"means</w>":957,"infections</w>":958,"face</w>":959,"servi":960,"viral</w>":961,"family</w>":962,"avoid</w>":963,"00":964,"ic</w>":965,"na</w>":966,"things</w>":967,"allow":968,"stra":969,"sup":970,"coronaviruses</w>":971,"issu":972,"ced</w>":973,"fur":974,"nor":975,"ways</w>":976,"cing</w>":977,"im":978,"resear":979,"current</w>":980,"quarant":981,"keep</w>":982,"right</w>":983,"place</w>":984,"hand</w>":985,"ently</w>":986,"tested</w>":987,"already</w>":988,"ature</w>":989,"large</w>":990,"emergen":991,"ders</w>":992,"eu":993,"lon":994,"ming</w>":995,"ath</w>":996,"pay":997,"childre":998,"children</w>":999,"cs</w>":1000,"late</w>":1001,"own</w>":1002,"vie":1003,"chec":1004,"scho":1005,"contin":1006,"year</w>":1007,"ml</w>":1008,"per</w>":1009,"ss":1010,"ters</w>":1011,"both</w>":1012,"struc":1013,"cre":1014,"cla":1015,"onal</w>":1016,"answer</w>":1017,"esti":1018,"hy":1019,"vari":1020,"thre":1021,"ous":1022,"cau":1023,"given</w>":1024,"comple":1025,"general</w>":1026,"system</w>":1027,"glo":1028,"mit":1029,"enz":1030,"influ":1031,"elec":1032,"model</w>":1033,"cro":1034,"clin":1035,"every</w>":1036,"hours</w>":1037,"tical</w>":1038,"ats</w>":1039,"sev":1040,"main":1041,"html</w>":1042,"response</w>":1043,"ess</w>":1044,"non</w>":1045,"tors</w>":1046,"ficu":1047,"scri":1048,"mask</w>":1049,"severe</w>":1050,"sity</w>":1051,"duce</w>":1052,"market</w>":1053,"proble":1054,"masks</w>":1055,"course</w>":1056,"sci":1057,"happ":1058,"logi":1059,"shi":1060,"difficu":1061,"des</w>":1062,"oc":1063,"ol</w>":1064,"val</w>":1065,"assu":1066,"vaccine</w>":1067,"restrictions</w>":1068,"several</w>":1069,"droplets</w>":1070,"el</w>":1071,"land</w>":1072,"pac":1073,"ini":1074,"neu":1075,"contro":1076,"ful</w>":1077,"deci":1078,"change</w>":1079,"14</w>":1080,"ges</w>":1081,"ling</w>":1082,"sing":1083,"simil":1084,"cough</w>":1085,"treat":1086,"develop":1087,"100</w>":1088,"ap</w>":1089,"far</w>":1090,"xi":1091,"ther":1092,"enough</w>":1093,"spread":1094,"busin":1095,"too</w>":1096,"200":1097,"yet</w>":1098,"students</w>":1099,"flight</w>":1100,"ny":1101,"rit":1102,"rece":1103,"ach":1104,"dic":1105,"dies</w>":1106,"mini":1107,"lled</w>":1108,"univer":1109,"phy":1110,"within</w>":1111,"emergency</w>":1112,"ned</w>":1113,"inte":1114,"again</w>":1115,"wash</w>":1116,"weeks</w>":1117,"small</w>":1118,"recommen":1119,"article</w>":1120,"eas":1121,"really</w>":1122,"secon":1123,"main</w>":1124,"exten":1125,"she</w>":1126,"mbers</w>":1127,"influenz":1128,"ncov</w>":1129,"thro":1130,"law</w>":1131,"vely</w>":1132,"affec":1133,"plan":1134,"off</w>":1135,"study</w>":1136,"essential</w>":1137,"specific</w>":1138,"air</w>":1139,"om</w>":1140,"pur":1141,"war":1142,"ases</w>":1143,"protect</w>":1144,"contrac":1145,"blo":1146,"last</w>":1147,"comes</w>":1148,"org":1149,"sequ":1150,"mean</w>":1151,"fund</w>":1152,"bio":1153,"workers</w>":1154,"particu":1155,"clini":1156,"influenza</w>":1157,"gs</w>":1158,"ry</w>":1159,"tation</w>":1160,"put</w>":1161,"am":1162,"den":1163,"har":1164,"mso</w>":1165,"want</w>":1166,"inve":1167,"matic</w>":1168,"getting</w>":1169,"part</w>":1170,"often</w>":1171,"close</w>":1172,"illness</w>":1173,"period</w>":1174,"advice</w>":1175,"higher</w>":1176,"actually</w>":1177,"19":1178,"jo":1179,"tle</w>":1180,"stat":1181,"later</w>":1182,"lines</w>":1183,"lower</w>":1184,"currently</w>":1185,"area</w>":1186,"similar</w>":1187,"clu":1188,"each</w>":1189,"mort":1190,"ns</w>":1191,"defin":1192,"nega":1193,"city</w>":1194,"ines</w>":1195,"samp":1196,"reported</w>":1197,"ft</w>":1198,"ily</w>":1199,"ster":1200,"unti":1201,"lear":1202,"years</w>":1203,"seri":1204,"find</w>":1205,"wash":1206,"cl":1207,"done</w>":1208,"lan":1209,"sis</w>":1210,"ven":1211,"sive</w>":1212,"logy</w>":1213,"aper</w>":1214,"rather</w>":1215,"health":1216,"employ":1217,"conditions</w>":1218,"until</w>":1219,"fer</w>":1220,"stance</w>":1221,"nose</w>":1222,"cough":1223,"quarantine</w>":1224,"fri":1225,"led</w>":1226,"ore":1227,"rna</w>":1228,"confir":1229,"pot":1230,"soci":1231,"soap</w>":1232,"lls</w>":1233,"lling</w>":1234,"activi":1235,"30</w>":1236,"ected</w>":1237,"increas":1238,"hum":1239,"united</w>":1240,"flights</w>":1241,"euro":1242,"ately</w>":1243,"cho":1244,"ei":1245,"her</w>":1246,"zed</w>":1247,"let</w>":1248,"citiz":1249,"full</w>":1250,"better</w>":1251,"follow":1252,"etc</w>":1253,"necess":1254,"further</w>":1255,"away</w>":1256,"br":1257,"bility</w>":1258,"ta</w>":1259,"distan":1260,"death</w>":1261,"supp":1262,"best</w>":1263,"concer":1264,"short</w>":1265,"count</w>":1266,"anim":1267,"airline</w>":1268,"preven":1269,"suppor":1270,"recei":1271,"fil":1272,"snee":1273,"vol":1274,"col":1275,"ont</w>":1276,"visa</w>":1277,"distri":1278,"conta":1279,"ability</w>":1280,"solu":1281,"expo":1282,"patho":1283,"food</w>":1284,"effective</w>":1285,"services</w>":1286,"clinical</w>":1287,"distribu":1288,"15</w>":1289,"dru":1290,"rease</w>":1291,"abo":1292,"site</w>":1293,"seems</w>":1294,"authori":1295,"check</w>":1296,"treatment</w>":1297,"12</w>":1298,"ba":1299,"cha":1300,"ged</w>":1301,"resi":1302,"unless</w>":1303,"lea":1304,"doing</w>":1305,"appe":1306,"trave":1307,"surface</w>":1308,"application</w>":1309,"physi":1310,"organi":1311,"status</w>":1312,"animals</w>":1313,"re</w>":1314,"usu":1315,"ants</w>":1316,"rep":1317,"once</w>":1318,"set</w>":1319,"lations</w>":1320,"experi":1321,"term</w>":1322,"fact</w>":1323,"provide</w>":1324,"prevent</w>":1325,"related</w>":1326,"type</w>":1327,"group</w>":1328,"research</w>":1329,"nytimes</w>":1330,"amon":1331,"gin":1332,"mit</w>":1333,"pneu":1334,"ask</w>":1335,"live</w>":1336,"vered</w>":1337,"cir":1338,"predic":1339,"months</w>":1340,"cannot</w>":1341,"look</w>":1342,"hospital</w>":1343,"results</w>":1344,"immune</w>":1345,"return</w>":1346,"glob":1347,"control</w>":1348,"single</w>":1349,"intere":1350,"distancing</w>":1351,"da</w>":1352,"ial</w>":1353,"ind</w>":1354,"aly</w>":1355,"cations</w>":1356,"active</w>":1357,"entifi":1358,"something</w>":1359,"meri":1360,"longer</w>":1361,"view</w>":1362,"three</w>":1363,"humans</w>":1364,"ben":1365,"call":1366,"especi":1367,"ject</w>":1368,"tively</w>":1369,"aly":1370,"action</w>":1371,"demi":1372,"deter":1373,"char":1374,"stitu":1375,"form</w>":1376,"practi":1377,"individuals</w>":1378,"ously</w>":1379,"especially</w>":1380,"ameri":1381,"his</w>":1382,"hal":1383,"lit":1384,"ple</w>":1385,"uk</w>":1386,"italy</w>":1387,"note</w>":1388,"oper":1389,"fever</w>":1390,"shed</w>":1391,"give</w>":1392,"mul":1393,"negative</w>":1394,"bro":1395,"cri":1396,"fr":1397,"gn</w>":1398,"pay</w>":1399,"text</w>":1400,"ale</w>":1401,"although</w>":1402,"diag":1403,"part":1404,"hand":1405,"certain</w>":1406,"result</w>":1407,"touching</w>":1408,"temper":1409,"additional</w>":1410,"mortality</w>":1411,"either</w>":1412,"bly</w>":1413,"call</w>":1414,"fer":1415,"tro":1416,"wing</w>":1417,"inten":1418,"regi":1419,"actions</w>":1420,"suf":1421,"hold</w>":1422,"outside</w>":1423,"reason</w>":1424,"source</w>":1425,"above</w>":1426,"global</w>":1427,"ese</w>":1428,"cold</w>":1429,"cat":1430,"spo":1431,"diseases</w>":1432,"ful":1433,"closed</w>":1434,"clear</w>":1435,"apply</w>":1436,"house</w>":1437,"everyone</w>":1438,"initi":1439,"leave</w>":1440,"pneumon":1441,"circu":1442,"mate</w>":1443,"alk</w>":1444,"lion</w>":1445,"unity</w>":1446,"made</w>":1447,"exper":1448,"cess</w>":1449,"ire</w>":1450,"guid":1451,"recent</w>":1452,"larly</w>":1453,"effect</w>":1454,"immunity</w>":1455,"university</w>":1456,"18</w>":1457,"dea":1458,"excep":1459,"adu":1460,"cies</w>":1461,"infect</w>":1462,"infecti":1463,"entially</w>":1464,"trump</w>":1465,"passen":1466,"11</w>":1467,"bor":1468,"ed":1469,"mers</w>":1470,"mouth</w>":1471,"ute</w>":1472,"reduce</w>":1473,"descri":1474,"tail":1475,"generally</w>":1476,"week</w>":1477,"idea</w>":1478,"start</w>":1479,"amoun":1480,"diagno":1481,"fy</w>":1482,"ging</w>":1483,"hard</w>":1484,"jec":1485,"pla":1486,"paper</w>":1487,"sha":1488,"inste":1489,"requ":1490,"refund</w>":1491,"having</w>":1492,"leg":1493,"tran":1494,"taking</w>":1495,"feder":1496,"doc":1497,"medic":1498,"ference</w>":1499,"germany</w>":1500,"guidance</w>":1501,"bin":1502,"ki":1503,"member</w>":1504,"consider</w>":1505,"economic</w>":1506,"business</w>":1507,"confirmed</w>":1508,"among</w>":1509,"instead</w>":1510,"60</w>":1511,"dr</w>":1512,"gen</w>":1513,"your":1514,"rele":1515,"stre":1516,"atten":1517,"makes</w>":1518,"quite</w>":1519,"epidemic</w>":1520,"continue</w>":1521,"clai":1522,"difficult</w>":1523,"blood</w>":1524,"necessary</w>":1525,"federal</w>":1526,"ction</w>":1527,"font</w>":1528,"ken</w>":1529,"ner</w>":1530,"ination</w>":1531,"analy":1532,"ening</w>":1533,"always</w>":1534,"who":1535,"han</w>":1536,"maj":1537,"sense</w>":1538,"include</w>":1539,"employe":1540,"frequ":1541,"pneumonia</w>":1542,"gra":1543,"show</w>":1544,"ul":1545,"aning</w>":1546,"online</w>":1547,"novel</w>":1548,"asse":1549,"dered</w>":1550,"become</w>":1551,"next</w>":1552,"exi":1553,"hiv</w>":1554,"older</w>":1555,"allowed</w>":1556,"school</w>":1557,"samples</w>":1558,"citizens</w>":1559,"authorities</w>":1560,"ifi":1561,"com":1562,"asy":1563,"died</w>":1564,"sit</w>":1565,"working</w>":1566,"scre":1567,"increase</w>":1568,"mild</w>":1569,"problem</w>":1570,"purpo":1571,"following</w>":1572,"fully</w>":1573,"infectious</w>":1574,"yourself</w>":1575,"50</w>":1576,"bit</w>":1577,"gers</w>":1578,"son</w>":1579,"ann":1580,"ought</w>":1581,"tech":1582,"associ":1583,"profe":1584,"open</w>":1585,"tax</w>":1586,"presi":1587,"stic</w>":1588,"animal</w>":1589,"protein</w>":1590,"certain":1591,"bacter":1592,"stop</w>":1593,"benef":1594,"little</w>":1595,"13</w>":1596,"dri":1597,"lab":1598,"os</w>":1599,"yle</w>":1600,"aring</w>":1601,"style</w>":1602,"lies</w>":1603,"limi":1604,"simp":1605,"spe":1606,"safe":1607,"tics</w>":1608,"stand":1609,"fore":1610,"stock</w>":1611,"areas</w>":1612,"contract</w>":1613,"early</w>":1614,"defini":1615,"limited</w>":1616,"95</w>":1617,"gar":1618,"um</w>":1619,"zing</w>":1620,"rely</w>":1621,"tis":1622,"allow</w>":1623,"lock":1624,"making</w>":1625,"chi":1626,"gov</w>":1627,"compani":1628,"syn":1629,"community</w>":1630,"probability</w>":1631,"obser":1632,"child</w>":1633,"offici":1634,"present</w>":1635,"sources</w>":1636,"deaths</w>":1637,"amount</w>":1638,"10":1639,"bed</w>":1640,"sch":1641,"youn":1642,"zation</w>":1643,"reduc":1644,"unlikely</w>":1645,"consu":1646,"tations</w>":1647,"today</w>":1648,"impo":1649,"numbers</w>":1650,"international</w>":1651,"mental</w>":1652,"needs</w>":1653,"follow</w>":1654,"house":1655,"cancelled</w>":1656,"anyone</w>":1657,"suggest</w>":1658,"spreading</w>":1659,"affected</w>":1660,"usually</w>":1661,"asympto":1662,"announ":1663,"amp</w>":1664,"old</w>":1665,"pt</w>":1666,"real</w>":1667,"entry</w>":1668,"list</w>":1669,"den</w>":1670,"tail</w>":1671,"docu":1672,"agen":1673,"cells</w>":1674,"ticket</w>":1675,"prin":1676,"needed</w>":1677,"manu":1678,"isolation</w>":1679,"particular</w>":1680,"16</w>":1681,"gin</w>":1682,"kore":1683,"table</w>":1684,"insur":1685,"remo":1686,"erci":1687,"coho":1688,"alcoho":1689,"org</w>":1690,"ack</w>":1691,"fici":1692,"ols</w>":1693,"future</w>":1694,"chinese</w>":1695,"process</w>":1696,"estima":1697,"causes</w>":1698,"support</w>":1699,"bats</w>":1700,"equi":1701,"ili":1702,"pi</w>":1703,"rap":1704,"sk":1705,"wu":1706,"ined</w>":1707,"arri":1708,"ority</w>":1709,"lie":1710,"ligi":1711,"life</w>":1712,"there":1713,"wear</w>":1714,"ages</w>":1715,"compli":1716,"student</w>":1717,"price</w>":1718,"stances</w>":1719,"appropri":1720,"questions</w>":1721,"economy</w>":1722,"signifi":1723,"required</w>":1724,"washing</w>":1725,"temperature</w>":1726,"legal</w>":1727,"insurance</w>":1728,"14":1729,"80</w>":1730,"lec":1731,"ough":1732,"light</w>":1733,"lead":1734,"correc":1735,"reasons</w>":1736,"quick":1737,"expect</w>":1738,"patient</w>":1739,"clean</w>":1740,"dependent</w>":1741,"mitted</w>":1742,"logical</w>":1743,"coughing</w>":1744,"multi":1745,"ca</w>":1746,"lying</w>":1747,"men</w>":1748,"south</w>":1749,"ues</w>":1750,"income</w>":1751,"coll":1752,"vide":1753,"rules</w>":1754,"taken</w>":1755,"safe</w>":1756,"dom</w>":1757,"previ":1758,"total</w>":1759,"survi":1760,"mater":1761,"passengers</w>":1762,"officials</w>":1763,"asymptomatic</w>":1764,"therefore</w>":1765,"quickly</w>":1766,"25</w>":1767,"aw":1768,"ber":1769,"kind</w>":1770,"lun":1771,"mal":1772,"ones</w>":1773,"story</w>":1774,"simple</w>":1775,"run":1776,"detail":1777,"seen</w>":1778,"post</w>":1779,"mid":1780,"exerci":1781,"web":1782,"plan</w>":1783,"media</w>":1784,"bank</w>":1785,"distribution</w>":1786,"manufac":1787,"alcohol</w>":1788,"wuhan</w>":1789,"leng":1790,"ssing</w>":1791,"ton</w>":1792,"invol":1793,"tell</w>":1794,"stand</w>":1795,"ace":1796,"access</w>":1797,"dete":1798,"tax":1799,"scen":1800,"expected</w>":1801,"hospitals</w>":1802,"ship</w>":1803,"repli":1804,"experts</w>":1805,"17</w>":1806,"24</w>":1807,"ared</w>":1808,"ban</w>":1809,"border</w>":1810,"cover</w>":1811,"cated</w>":1812,"caused</w>":1813,"dit</w>":1814,"deli":1815,"suspec":1816,"contain":1817,"hood</w>":1818,"lated</w>":1819,"sample</w>":1820,"bodies</w>":1821,"paren":1822,"company</w>":1823,"event</w>":1824,"communi":1825,"personal</w>":1826,"approval</w>":1827,"true</w>":1828,"develop</w>":1829,"official</w>":1830,"normal</w>":1831,"immedi":1832,"pathogen":1833,"practice</w>":1834,"president</w>":1835,"tissu":1836,"bit":1837,"bill</w>":1838,"ies</w>":1839,"non":1840,"nal</w>":1841,"us":1842,"inde":1843,"cover":1844,"via</w>":1845,"asi":1846,"atur":1847,"size</w>":1848,"susp":1849,"ada</w>":1850,"partic":1851,"engen</w>":1852,"centr":1853,"range</w>":1854,"free</w>":1855,"epidemi":1856,"issue</w>":1857,"second</w>":1858,"physical</w>":1859,"medicine</w>":1860,"companies</w>":1861,"schengen</w>":1862,"ak</w>":1863,"bad</w>":1864,"cris":1865,"sm</w>":1866,"argu":1867,"distance</w>":1868,"desi":1869,"level</w>":1870,"feet</w>":1871,"got</w>":1872,"ssible</w>":1873,"cans</w>":1874,"grad":1875,"else</w>":1876,"places</w>":1877,"value</w>":1878,"booking</w>":1879,"individual</w>":1880,"groups</w>":1881,"completely</w>":1882,"serious</w>":1883,"clas":1884,"prevention</w>":1885,"korea</w>":1886,"appropriate</w>":1887,"cent</w>":1888,"ep":1889,"ise</w>":1890,"ly":1891,"san":1892,"tty</w>":1893,"coming</w>":1894,"enter</w>":1895,"living</w>":1896,"sible</w>":1897,"agre":1898,"pretty</w>":1899,"gene":1900,"force</w>":1901,"canada</w>":1902,"studies</w>":1903,"origin":1904,"airlines</w>":1905,"seem</w>":1906,"secur":1907,"drug</w>":1908,"simply</w>":1909,"household</w>":1910,"ilities</w>":1911,"crisis</w>":1912,"cr":1913,"cal":1914,"ima":1915,"mine</w>":1916,"institu":1917,"ensure</w>":1918,"envir":1919,"art</w>":1920,"itself</w>":1921,"acro":1922,"new":1923,"presen":1924,"gets</w>":1925,"scale</w>":1926,"governments</w>":1927,"protection</w>":1928,"underlying</w>":1929,"considered</w>":1930,"direct</w>":1931,"called</w>":1932,"adults</w>":1933,"detec":1934,"environ":1935,"bri":1936,"cru":1937,"mstances</w>":1938,"ssed</w>":1939,"arly</w>":1940,"capac":1941,"account</w>":1942,"sions</w>":1943,"depart":1944,"host</w>":1945,"ably</w>":1946,"lab</w>":1947,"tioned</w>":1948,"sation</w>":1949,"told</w>":1950,"wise</w>":1951,"reports</w>":1952,"identifi":1953,"carri":1954,"upda":1955,"activity</w>":1956,"half</w>":1957,"associated</w>":1958,"safety</w>":1959,"security</w>":1960,"cat</w>":1961,"lat":1962,"ping</w>":1963,"pes</w>":1964,"sche":1965,"tar":1966,"use":1967,"wth</w>":1968,"ining</w>":1969,"reser":1970,"ene</w>":1971,"ord":1972,"staf":1973,"suc":1974,"seas":1975,"separ":1976,"exac":1977,"feel</w>":1978,"share</w>":1979,"aged</w>":1980,"imple":1981,"reason":1982,"airpor":1983,"provider</w>":1984,"shows</w>":1985,"growth</w>":1986,"estimate</w>":1987,"potential</w>":1988,"jects</w>":1989,"ame":1990,"ice</w>":1991,"jap":1992,"ma</w>":1993,"ods</w>":1994,"pd":1995,"pment</w>":1996,"talk</w>":1997,"wr":1998,"thought</w>":1999,"reach</w>":2000,"limit</w>":2001,"buy</w>":2002,"adv":2003,"lus</w>":2004,"wide</w>":2005,"form":2006,"impact</w>":2007,"line":2008,"breathing</w>":2009,"ories</w>":2010,"changes</w>":2011,"understand</w>":2012,"hospitali":2013,"payment</w>":2014,"problems</w>":2015,"receive</w>":2016,"circumstances</w>":2017,"frequently</w>":2018,"techni":2019,"aware</w>":2020,"ai":2021,"est</w>":2022,"equ":2023,"fal":2024,"fat":2025,"fda</w>":2026,"mor":2027,"wo":2028,"remain</w>":2029,"tici":2030,"almost</w>":2031,"poly</w>":2032,"trac":2033,"trying</w>":2034,"dog</w>":2035,"move</w>":2036,"key</w>":2037,"factor</w>":2038,"paid</w>":2039,"ingly</w>":2040,"recently</w>":2041,"pper</w>":2042,"gather":2043,"effects</w>":2044,"report</w>":2045,"looking</w>":2046,"regular</w>":2047,"touch</w>":2048,"products</w>":2049,"hygi":2050,"healthcare</w>":2051,"lockdown</w>":2052,"equipment</w>":2053,"website</w>":2054,"scenari":2055,"dra":2056,"kill</w>":2057,"past</w>":2058,"thus</w>":2059,"anu":2060,"regar":2061,"vity</w>":2062,"cats</w>":2063,"astic</w>":2064,"dela":2065,"unemploy":2066,"left</w>":2067,"below</w>":2068,"proper":2069,"never</w>":2070,"migr":2071,"buil":2072,"worth</w>":2073,"impro":2074,"tically</w>":2075,"special</w>":2076,"possibly</w>":2077,"selves</w>":2078,"function</w>":2079,"approach</w>":2080,"approved</w>":2081,"other":2082,"models</w>":2083,"typi":2084,"actual</w>":2085,"schools</w>":2086,"difficul":2087,"occu":2088,"healthy</w>":2089,"activities</w>":2090,"supply</w>":2091,"interest</w>":2092,"analysis</w>":2093,"benefits</w>":2094,"multiple</w>":2095,"video</w>":2096,"hygiene</w>":2097,"bs</w>":2098,"hin":2099,"kill":2100,"ow":2101,"page</w>":2102,"sani":2103,"writ":2104,"recep":2105,"dem":2106,"lead</w>":2107,"conclu":2108,"hol":2109,"meth":2110,"sol":2111,"vement</w>":2112,"irs</w>":2113,"board</w>":2114,"mutations</w>":2115,"daily</w>":2116,"beta</w>":2117,"published</w>":2118,"includes</w>":2119,"stration</w>":2120,"vaccines</w>":2121,"anything</w>":2122,"require":2123,"immigr":2124,"learning</w>":2125,"europe</w>":2126,"agency</w>":2127,"exercise</w>":2128,"manufactu":2129,"ace2</w>":2130,"tissue</w>":2131,"epidemio":2132,"bon":2133,"dation</w>":2134,"eligi":2135,"ite":2136,"natur":2137,"rout":2138,"tary</w>":2139,"usa</w>":2140,"wal":2141,"encour":2142,"becomes</w>":2143,"hote":2144,"nei":2145,"toge":2146,"factors</w>":2147,"geno":2148,"fau":2149,"trip</w>":2150,"basi":2151,"funds</w>":2152,"tree</w>":2153,"section</w>":2154,"great</w>":2155,"policy</w>":2156,"depending</w>":2157,"book</w>":2158,"chemi":2159,"update</w>":2160,"throat</w>":2161,"sequen":2162,"solution</w>":2163,"described</w>":2164,"require</w>":2165,"announced</w>":2166,"pathogens</w>":2167,"capacity</w>":2168,"staff</w>":2169,"false</w>":2170,"together</w>":2171,"15":2172,"88</w>":2173,"bat</w>":2174,"dou":2175,"eld</w>":2176,"four</w>":2177,"janu":2178,"lor":2179,"sses</w>":2180,"wat":2181,"rer</w>":2182,"spor":2183,"progra":2184,"mely</w>":2185,"members</w>":2186,"soon</w>":2187,"ext":2188,"corpor":2189,"ago</w>":2190,"press</w>":2191,"pregn":2192,"compared</w>":2193,"minis":2194,"trials</w>":2195,"link</w>":2196,"transmitted</w>":2197,"likeli":2198,"expla":2199,"standing</w>":2200,"pha</w>":2201,"preval":2202,"antibodies</w>":2203,"points</w>":2204,"secre":2205,"suggests</w>":2206,"research":2207,"scienti":2208,"assume</w>":2209,"development</w>":2210,"easy</w>":2211,"potentially</w>":2212,"increased</w>":2213,"colle":2214,"whole</w>":2215,"forei":2216,"estimates</w>":2217,"method</w>":2218,"january</w>":2219,"29":2220,"bal":2221,"bru":2222,"co</w>":2223,"cant</w>":2224,"dr":2225,"dge</w>":2226,"eu</w>":2227,"ement</w>":2228,"fit</w>":2229,"fine</w>":2230,"len":2231,"ward</w>":2232,"alpha</w>":2233,"visit":2234,"rup":2235,"run</w>":2236,"deb":2237,"rights</w>":2238,"chance</w>":2239,"tionally</w>":2240,"molec":2241,"worse</w>":2242,"corona</w>":2243,"grap":2244,"million</w>":2245,"addition</w>":2246,"maintain</w>":2247,"happen</w>":2248,"pack":2249,"decision</w>":2250,"developed</w>":2251,"spreads</w>":2252,"particularly</w>":2253,"stern</w>":2254,"learn</w>":2255,"sneezing</w>":2256,"certainly</w>":2257,"young</w>":2258,"ficient</w>":2259,"particles</w>":2260,"ordin":2261,"succe":2262,"exactly</w>":2263,"otherwise</w>":2264,"difficulty</w>":2265,"demand</w>":2266,"items</w>":2267,"basically</w>":2268,"minister</w>":2269,"molecu":2270,"bir":2271,"dly</w>":2272,"est":2273,"flu":2274,"hun":2275,"sort</w>":2276,"yor":2277,"incu":2278,"resources</w>":2279,"tives</w>":2280,"ero":2281,"covered</w>":2282,"room</w>":2283,"cap":2284,"cate</w>":2285,"accep":2286,"haps</w>":2287,"spi":2288,"spac":2289,"sport</w>":2290,"trad":2291,"extre":2292,"shor":2293,"door</w>":2294,"perhaps</w>":2295,"kets</w>":2296,"reated</w>":2297,"month</w>":2298,"curve</w>":2299,"prior</w>":2300,"possibility</w>":2301,"treat</w>":2302,"seek</w>":2303,"regulations</w>":2304,"political</w>":2305,"tempor":2306,"recovered</w>":2307,"issues</w>":2308,"sequence</w>":2309,"investi":2310,"job</w>":2311,"exposure</w>":2312,"except</w>":2313,"immediately</w>":2314,"across</w>":2315,"pdf</w>":2316,"york</w>":2317,"ble":2318,"dan":2319,"don":2320,"eyes</w>":2321,"ner":2322,"ok</w>":2323,"ring</w>":2324,"wan":2325,"wed</w>":2326,"instruc":2327,"reference</w>":2328,"visit</w>":2329,"nothing</w>":2330,"them":2331,"illion</w>":2332,"demo":2333,"ril</w>":2334,"mail</w>":2335,"connec":2336,"addre":2337,"admini":2338,"infecting</w>":2339,"stimu":2340,"cul":2341,"events</w>":2342,"guide":2343,"wait</w>":2344,"finan":2345,"alia</w>":2346,"sensi":2347,"arily</w>":2348,"austr":2349,"cleaning</w>":2350,"provided</w>":2351,"antibody</w>":2352,"regularly</w>":2353,"subject</w>":2354,"outbreaks</w>":2355,"values</w>":2356,"production</w>":2357,"service</w>":2358,"create</w>":2359,"crow":2360,"busines":2361,"extension</w>":2362,"contamin":2363,"exposed</w>":2364,"experience</w>":2365,"employees</w>":2366,"standard</w>":2367,"impossible</w>":2368,"likelihood</w>":2369,"prevalence</w>":2370,"scientists</w>":2371,"50":2372,"99</w>":2373,"cy":2374,"cra":2375,"dry</w>":2376,"her":2377,"jour":2378,"las":2379,"phi":2380,"utes</w>":2381,"zes</w>":2382,"ened</w>":2383,"stly</w>":2384,"acts</w>":2385,"accur":2386,"acute</w>":2387,"asking</w>":2388,"dist":2389,"dispo":2390,"ech":2391,"rule</w>":2392,"chr":2393,"quali":2394,"april</w>":2395,"cement</w>":2396,"mum</w>":2397,"party</w>":2398,"minutes</w>":2399,"tures</w>":2400,"fair":2401,"pping</w>":2402,"expen":2403,"mentioned</w>":2404,"stron":2405,"relative</w>":2406,"regulation</w>":2407,"depends</w>":2408,"payments</w>":2409,"occur":2410,"recommends</w>":2411,"filed</w>":2412,"appear</w>":2413,"organization</w>":2414,"determin":2415,"critical</w>":2416,"doctor</w>":2417,"professi":2418,"syndro":2419,"significant</w>":2420,"length</w>":2421,"department</w>":2422,"gatherings</w>":2423,"receptor</w>":2424,"themselves</w>":2425,"guidelines</w>":2426,"70</w>":2427,"90</w>":2428,"bation</w>":2429,"fra":2430,"nature</w>":2431,"sent</w>":2432,"sore</w>":2433,"tun":2434,"va":2435,"vali":2436,"rest</w>":2437,"tivity</w>":2438,"comb":2439,"stop":2440,"ator</w>":2441,"produce</w>":2442,"tering</w>":2443,"parts</w>":2444,"parame":2445,"mind</w>":2446,"effor":2447,"state":2448,"expon":2449,"phone</w>":2450,"mented</w>":2451,"consider":2452,"valid</w>":2453,"authority</w>":2454,"recover</w>":2455,"requires</w>":2456,"isolate</w>":2457,"broad":2458,"initial</w>":2459,"play</w>":2460,"claim</w>":2461,"screening</w>":2462,"material</w>":2463,"malari":2464,"details</w>":2465,"suspected</w>":2466,"schedu":2467,"women</w>":2468,"unemployment</w>":2469,"fairly</w>":2470,"27</w>":2471,"aver":2472,"aero":2473,"ets</w>":2474,"ety</w>":2475,"fle":2476,"la</w>":2477,"mech":2478,"ster</w>":2479,"vant</w>":2480,"wers</w>":2481,"thir":2482,"err":2483,"ended</w>":2484,"vis":2485,"noti":2486,"ato":2487,"ection</w>":2488,"limit":2489,"may":2490,"ched</w>":2491,"pets</w>":2492,"wearing</w>":2493,"febru":2494,"shu":2495,"moder":2496,"mma</w>":2497,"terms</w>":2498,"rates</w>":2499,"him</w>":2500,"dama":2501,"species</w>":2502,"prime</w>":2503,"gamma</w>":2504,"focu":2505,"antibio":2506,"identi":2507,"random</w>":2508,"highly</w>":2509,"cancel</w>":2510,"started</w>":2511,"banks</w>":2512,"strate":2513,"invest":2514,"bathro":2515,"catching</w>":2516,"diagnosed</w>":2517,"existing</w>":2518,"purpose</w>":2519,"observed</w>":2520,"lung</w>":2521,"genetic</w>":2522,"incubation</w>":2523,"syndrome</w>":2524,"mechani":2525,"february</w>":2526,"28":2527,"22</w>":2528,"26</w>":2529,"40</w>":2530,"500</w>":2531,"fit":2532,"gt</w>":2533,"lack</w>":2534,"ny</w>":2535,"tt":2536,"zo":2537,"ine":2538,"intro":2539,"respec":2540,"republi":2541,"vir</w>":2542,"acting</w>":2543,"ased</w>":2544,"diver":2545,"ece</w>":2546,"lots</w>":2547,"dest":2548,"summ":2549,"sely</w>":2550,"contain</w>":2551,"conference</w>":2552,"law":2553,"option</w>":2554,"fig":2555,"tage</w>":2556,"wea":2557,"words</w>":2558,"facilities</w>":2559,"content</w>":2560,"eval":2561,"ania</w>":2562,"fail":2563,"persons</w>":2564,"sometimes</w>":2565,"nation":2566,"larger</w>":2567,"difference</w>":2568,"discu":2569,"big</w>":2570,"pre</w>":2571,"prac":2572,"pass</w>":2573,"directly</w>":2574,"director</w>":2575,"allows</w>":2576,"ssor</w>":2577,"various</w>":2578,"election</w>":2579,"scientifi":2580,"americans</w>":2581,"region</w>":2582,"major</w>":2583,"employee</w>":2584,"bacterial</w>":2585,"lieve</w>":2586,"correct</w>":2587,"running</w>":2588,"japan</w>":2589,"sanitiz":2590,"manufacturer</w>":2591,"businesses</w>":2592,"ef</w>":2593,"ff":2594,"hour</w>":2595,"ld":2596,"lating</w>":2597,"none</w>":2598,"ose</w>":2599,"sw":2600,"sco":2601,"tan":2602,"vation</w>":2603,"review</w>":2604,"tible</w>":2605,"code</w>":2606,"ends</w>":2607,"iting</w>":2608,"atures</w>":2609,"conduc":2610,"net</w>":2611,"pose</w>":2612,"pool":2613,"meet</w>":2614,"micro":2615,"vers</w>":2616,"file</w>":2617,"quo":2618,"moment</w>":2619,"aging</w>":2620,"prepa":2621,"precau":2622,"goes</w>":2623,"200</w>":2624,"stics</w>":2625,"giving</w>":2626,"portion</w>":2627,"gni":2628,"protective</w>":2629,"showing</w>":2630,"center</w>":2631,"matter</w>":2632,"systems</w>":2633,"everything</w>":2634,"strains</w>":2635,"structure</w>":2636,"credit</w>":2637,"easily</w>":2638,"affect</w>":2639,"europe":2640,"concerns</w>":2641,"drugs</w>":2642,"determine</w>":2643,"sufficient</w>":2644,"catch</w>":2645,"borders</w>":2646,"relevant</w>":2647,"purposes</w>":2648,"previous</w>":2649,"seasonal</w>":2650,"separate</w>":2651,"reasonable</w>":2652,"typically</w>":2653,"neigh":2654,"sequences</w>":2655,"secretary</w>":2656,"stimulus</w>":2657,"chron":2658,"13":2659,"21</w>":2660,"bre":2661,"cks</w>":2662,"ped</w>":2663,"walk</w>":2664,"inhi":2665,"recor":2666,"remember</w>":2667,"costs</w>":2668,"ards</w>":2669,"alter":2670,"cash</w>":2671,"die</w>":2672,"disp":2673,"theta</w>":2674,"loan</w>":2675,"design":2676,"abli":2677,"chlor":2678,"bus</w>":2679,"options</w>":2680,"opini":2681,"fied</w>":2682,"five</w>":2683,"field</w>":2684,"movement</w>":2685,"head</w>":2686,"ternal</w>":2687,"ounds</w>":2688,"compu":2689,"tually</w>":2690,"justi":2691,"stati":2692,"mention</w>":2693,"changed</w>":2694,"know":2695,"relatively</w>":2696,"measure</w>":2697,"starting</w>":2698,"overall</w>":2699,"continu":2700,"happens</w>":2701,"developing</w>":2702,"recommended</w>":2703,"wards</w>":2704,"contracep":2705,"coughs</w>":2706,"pathogen</w>":2707,"definition</w>":2708,"index</w>":2709,"updated</w>":2710,"hospitalized</w>":2711,"natural</w>":2712,"establi":2713,"australia</w>":2714,"malaria</w>":2715,"average</w>":2716,"aeroso":2717,"26":2718,"ate":2719,"aca":2720,"ct":2721,"ebo":2722,"eating</w>":2723,"fed</w>":2724,"fall</w>":2725,"gation</w>":2726,"gine</w>":2727,"nas":2728,"obli":2729,"rat":2730,"smo":2731,"top":2732,"venti":2733,"int</w>":2734,"attemp":2735,"leve":2736,"leav":2737,"hope</w>":2738,"ches</w>":2739,"mean":2740,"exclu":2741,"takes</w>":2742,"added</w>":2743,"saying</w>":2744,"top</w>":2745,"works</w>":2746,"compen":2747,"monit":2748,"wide":2749,"plastic</w>":2750,"tradi":2751,"tual</w>":2752,"step</w>":2753,"steps</w>":2754,"interpre":2755,"disrup":2756,"idly</w>":2757,"obvi":2758,"understanding</w>":2759,"economi":2760,"recogni":2761,"vote</w>":2762,"grocer":2763,"issued</w>":2764,"assump":2765,"increases</w>":2766,"received</w>":2767,"american</w>":2768,"professor</w>":2769,"rapidly</w>":2770,"oughly</w>":2771,"replication</w>":2772,"imagine</w>":2773,"occur</w>":2774,"extent</w>":2775,"researchers</w>":2776,"bleach</w>":2777,"administration</w>":2778,"bathroom</w>":2779,"figure</w>":2780,"scientific</w>":2781,"levels</w>":2782,"31</w>":2783,"bur":2784,"cli":2785,"dy":2786,"ids</w>":2787,"thous":2788,"viro":2789,"asked</w>":2790,"lier</w>":2791,"theory</w>":2792,"unable</w>":2793,"context</w>":2794,"prov":2795,"post":2796,"poly":2797,"tract</w>":2798,"pedi":2799,"que</w>":2800,"wei":2801,"vet</w>":2802,"moving</w>":2803,"mostly</w>":2804,"heart</w>":2805,"persi":2806,"territ":2807,"guar":2808,"plans</w>":2809,"offer</w>":2810,"outcome</w>":2811,"ground</w>":2812,"send</w>":2813,"disinfect</w>":2814,"responsible</w>":2815,"looks</w>":2816,"centers</w>":2817,"please</w>":2818,"presence</w>":2819,"condition</w>":2820,"norm":2821,"hydro":2822,"assuming</w>":2823,"aches</w>":2824,"contracting</w>":2825,"langu":2826,"fering</w>":2827,"attention</w>":2828,"reduced</w>":2829,"survive</w>":2830,"usato":2831,"environment</w>":2832,"fatality</w>":2833,"requirements</w>":2834,"sensitivity</w>":2835,"european</w>":2836,"usatoday</w>":2837,"02</w>":2838,"28</w>":2839,"94</w>":2840,"bb":2841,"cer</w>":2842,"card</w>":2843,"dar":2844,"dings</w>":2845,"hit</w>":2846,"pat":2847,"pris":2848,"sli":2849,"scep":2850,"tally</w>":2851,"uno":2852,"vate</w>":2853,"zer":2854,"independent</w>":2855,"reali":2856,"teg":2857,"tee</w>":2858,"stant</w>":2859,"whel":2860,"white</w>":2861,"simu":2862,"ribu":2863,"mately</w>":2864,"legi":2865,"progre":2866,"metho":2867,"explan":2868,"external</w>":2869,"cip":2870,"cell</w>":2871,"surve":2872,"contribu":2873,"port":2874,"pic":2875,"interval</w>":2876,"included</w>":2877,"signs</w>":2878,"pressure</w>":2879,"overwhel":2880,"recommend</w>":2881,"strain</w>":2882,"gloves</w>":2883,"decided</w>":2884,"aching</w>":2885,"choice</w>":2886,"appears</w>":2887,"france</w>":2888,"initially</w>":2889,"doctors</w>":2890,"spea":2891,"document</w>":2892,"original</w>":2893,"implemented</w>":2894,"airports</w>":2895,"eligible</w>":2896,"doub":2897,"foreign</w>":2898,"address</w>":2899,"financial</w>":2900,"maybe</w>":2901,"alterna":2902,"opinion</w>":2903,"normally</w>":2904,"billion</w>":2905,"cr</w>":2906,"di</w>":2907,"ever</w>":2908,"email</w>":2909,"fare</w>":2910,"hong</w>":2911,"mach":2912,"od":2913,"sal":2914,"uations</w>":2915,"wil":2916,"ancy</w>":2917,"refu":2918,"tis</w>":2919,"tire":2920,"alone</w>":2921,"assi":2922,"ators</w>":2923,"sities</w>":2924,"def":2925,"sus</w>":2926,"ried</w>":2927,"mples</w>":2928,"begin</w>":2929,"conver":2930,"project</w>":2931,"posed</w>":2932,"chall":2933,"meaning</w>":2934,"adap":2935,"western</w>":2936,"feel":2937,"dow":2938,"perform":2939,"world":2940,"dures</w>":2941,"compari":2942,"counts</w>":2943,"minute</w>":2944,"fortun":2945,"fail</w>":2946,"ferences</w>":2947,"steel</w>":2948,"gations</w>":2949,"basis</w>":2950,"examples</w>":2951,"populations</w>":2952,"policies</w>":2953,"procedures</w>":2954,"complete</w>":2955,"recommenda":2956,"extended</w>":2957,"concern</w>":2958,"residence</w>":2959,"handling</w>":2960,"transit</w>":2961,"labor":2962,"calcu":2963,"detected</w>":2964,"useful</w>":2965,"advan":2966,"delay</w>":2967,"properly</w>":2968,"written</w>":2969,"routine</w>":2970,"genome</w>":2971,"pregnant</w>":2972,"third</w>":2973,"strategy</w>":2974,"introduc":2975,"practic":2976,"precautions</w>":2977,"ebola</w>":2978,"performance</w>":2979,"1000</w>":2980,"ctions</w>":2981,"edu":2982,"flo":2983,"grea":2984,"icon":2985,"ker</w>":2986,"kit</w>":2987,"kong</w>":2988,"mer</w>":2989,"nd</w>":2990,"ners</w>":2991,"oil</w>":2992,"pcr</w>":2993,"rhin":2994,"vary</w>":2995,"xy":2996,"republic</w>":2997,"ergy</w>":2998,"cost</w>":2999,"tex":3000,"tele":3001,"lic":3002,"whate":3003,"del":3004,"dead":3005,"demon":3006,"suscep":3007,"unknown</w>":3008,"mps</w>":3009,"let":3010,"constitu":3011,"absolu":3012,"laws</w>":3013,"sof":3014,"opti":3015,"fication</w>":3016,"shall</w>":3017,"presu":3018,"perfec":3019,"worry</w>":3020,"even":3021,"derly</w>":3022,"person":3023,"gran":3024,"speciali":3025,"stain":3026,"humid":3027,"elderly</w>":3028,"situations</w>":3029,"basic</w>":3030,"pro</w>":3031,"chances</w>":3032,"illing</w>":3033,"spite</w>":3034,"types</w>":3035,"specifically</w>":3036,"allowing</w>":3037,"complex</w>":3038,"elections</w>":3039,"science</w>":3040,"universities</w>":3041,"washing":3042,"supplies</w>":3043,"concerned</w>":3044,"contains</w>":3045,"intended</w>":3046,"certainty</w>":3047,"chief</w>":3048,"previously</w>":3049,"delivery</w>":3050,"central</w>":3051,"grade</w>":3052,"identified</w>":3053,"carrier</w>":3054,"wrong</w>":3055,"scenarios</w>":3056,"college</w>":3057,"debt</w>":3058,"space</w>":3059,"contaminated</w>":3060,"exponential</w>":3061,"damage</w>":3062,"sanitizer</w>":3063,"pooled</w>":3064,"breath</w>":3065,"compensation</w>":3066,"language</w>":3067,"recommendations</w>":3068,"whatever</w>":3069,"humidity</w>":3070,"23</w>":3071,"65</w>":3072,"72</w>":3073,"75</w>":3074,"avir</w>":3075,"cu</w>":3076,"ci</w>":3077,"don</w>":3078,"dance</w>":3079,"dary</w>":3080,"dying</w>":3081,"fas":3082,"gg":3083,"glas":3084,"hs</w>":3085,"ior</w>":3086,"ja":3087,"llation</w>":3088,"mac":3089,"mrna</w>":3090,"olu":3091,"sable</w>":3092,"sday</w>":3093,"slow":3094,"slow</w>":3095,"uses</w>":3096,"went</w>":3097,"yn":3098,"yon":3099,"than":3100,"instance</w>":3101,"ands</w>":3102,"revie":3103,"ering</w>":3104,"copper</w>":3105,"eno":3106,"entering</w>":3107,"arr":3108,"ongoing</w>":3109,"viable</w>":3110,"categ":3111,"att":3112,"loss</w>":3113,"loans</w>":3114,"deal</w>":3115,"despite</w>":3116,"unfortun":3117,"sen</w>":3118,"setting</w>":3119,"beha":3120,"believe</w>":3121,"beyon":3122,"abs</w>":3123,"power</w>":3124,"mix":3125,"missi":3126,"bul":3127,"adju":3128,"cities</w>":3129,"agent</w>":3130,"bot":3131,"gives</w>":3132,"counter</w>":3133,"mass</w>":3134,"tware</w>":3135,"approxi":3136,"drop</w>":3137,"strong</w>":3138,"essentially</w>":3139,"through":3140,"vaccin":3141,"immuno":3142,"emerging</w>":3143,"specificity</w>":3144,"search</w>":3145,"office</w>":3146,"upon</w>":3147,"articles</w>":3148,"scrip":3149,"2009</w>":3150,"minimum</w>":3151,"seconds</w>":3152,"joh":3153,"defined</w>":3154,"sampling</w>":3155,"seriously</w>":3156,"sneeze</w>":3157,"contagi":3158,"residents</w>":3159,"experien":3160,"operating</w>":3161,"stress</w>":3162,"definitely</w>":3163,"solve</w>":3164,"corporate</w>":3165,"ordinary</w>":3166,"extremely</w>":3167,"danger":3168,"notice</w>":3169,"knowle":3170,"worldwide</w>":3171,"susceptible</w>":3172,"software</w>":3173,"washington</w>":3174,"beyond</w>":3175,"0pt</w>":3176,"18":3177,"ates</w>":3178,"cb":3179,"emb":3180,"fla":3181,"gence</w>":3182,"ki</w>":3183,"my":3184,"pho":3185,"sor":3186,"squ":3187,"sms</w>":3188,"tal":3189,"tren":3190,"vul":3191,"win":3192,"tial</w>":3193,"ending</w>":3194,"enfor":3195,"roo":3196,"row</w>":3197,"role</w>":3198,"ech</w>":3199,"limin":3200,"six</w>":3201,"sites</w>":3202,"lost</w>":3203,"depar":3204,"begin":3205,"confi":3206,"conven":3207,"proportion</w>":3208,"ables</w>":3209,"lates</w>":3210,"extr":3211,"extra":3212,"figu":3213,"ghtly</w>":3214,"short":3215,"pression</w>":3216,"2003</w>":3217,"facility</w>":3218,"cut</w>":3219,"mut":3220,"evolu":3221,"nucle":3222,"markets</w>":3223,"senate</w>":3224,"internet</w>":3225,"cloth</w>":3226,"auto":3227,"disinfection</w>":3228,"exam</w>":3229,"clearly</w>":3230,"provides</w>":3231,"stry</w>":3232,"turn</w>":3233,"knows</w>":3234,"position</w>":3235,"help":3236,"vaccination</w>":3237,"objects</w>":3238,"passed</w>":3239,"advis":3240,"eta</w>":3241,"nice</w>":3242,"carry</w>":3243,"free":3244,"cancellation</w>":3245,"german</w>":3246,"applies</w>":3247,"earlier</w>":3248,"xiv</w>":3249,"sneezes</w>":3250,"usual</w>":3251,"handle</w>":3252,"bacteria</w>":3253,"documents</w>":3254,"princi":3255,"covering</w>":3256,"design</w>":3257,"identification</w>":3258,"technical</w>":3259,"regarding</w>":3260,"build</w>":3261,"hotel</w>":3262,"watch</w>":3263,"spike</w>":3264,"nerable</w>":3265,"validation</w>":3266,"efforts</w>":3267,"antibiotics</w>":3268,"destination</w>":3269,"pedia</w>":3270,"explanation</w>":3271,"speaking</w>":3272,"delta</w>":3273,"behavi":3274,"throughout</w>":3275,"vulnerable</w>":3276,"beginning</w>":3277,"confidence</w>":3278,"04</w>":3279,"16":3280,"17":3281,"27":3282,"amen":3283,"dboard</w>":3284,"hon":3285,"mo</w>":3286,"nor</w>":3287,"pin":3288,"pap":3289,"sal</w>":3290,"yer</w>":3291,"thor":3292,"insi":3293,"inside</w>":3294,"replac":3295,"onto</w>":3296,"orders</w>":3297,"car</w>":3298,"care":3299,"came</w>":3300,"dia":3301,"lif":3302,"lives</w>":3303,"rub</w>":3304,"lose</w>":3305,"defau":3306,"mains</w>":3307,"beta":3308,"prof":3309,"sold</w>":3310,"buying</w>":3311,"expi":3312,"add</w>":3313,"save</w>":3314,"west</w>":3315,"apore</w>":3316,"percent</w>":3317,"tom</w>":3318,"took</w>":3319,"goal</w>":3320,"iring</w>":3321,"couple</w>":3322,"compe":3323,"affi":3324,"dates</w>":3325,"commer":3326,"entire</w>":3327,"training</w>":3328,"outcomes</w>":3329,"impor":3330,"candi":3331,"cantly</w>":3332,"pped</w>":3333,"huge</w>":3334,"transfer</w>":3335,"protease</w>":3336,"proteins</w>":3337,"closing</w>":3338,"ish</w>":3339,"ills</w>":3340,"shown</w>":3341,"shopping</w>":3342,"aller</w>":3343,"passport</w>":3344,"touched</w>":3345,"cardboard</w>":3346,"avoi":3347,"ideas</w>":3348,"applied</w>":3349,"booked</w>":3350,"smaller</w>":3351,"severity</w>":3352,"isolated</w>":3353,"further":3354,"electr":3355,"maintain":3356,"happened</w>":3357,"decide</w>":3358,"singapore</w>":3359,"invest</w>":3360,"friends</w>":3361,"choose</w>":3362,"predict</w>":3363,"practical</w>":3364,"binding</w>":3365,"younger</w>":3366,"significantly</w>":3367,"taxpay":3368,"communication</w>":3369,"indeed</w>":3370,"brief":3371,"targe":3372,"reservo":3373,"sports</w>":3374,"temporary</w>":3375,"wanted</w>":3376,"disposable</w>":3377,"professional</w>":3378,"statement</w>":3379,"prepared</w>":3380,"neighb":3381,"statistics</w>":3382,"leaving</w>":3383,"methods</w>":3384,"text":3385,"stainless</w>":3386,"unfortunately</w>":3387,"dangerous</w>":3388,"furthermore</w>":3389,"29</w>":3390,"3cl":3391,"dness</w>":3392,"fr</w>":3393,"fast</w>":3394,"gger</w>":3395,"ko":3396,"lac":3397,"mary</w>":3398,"oqu":3399,"pm</w>":3400,"plo":3401,"won":3402,"thma</w>":3403,"ince</w>":3404,"insec":3405,"ref":3406,"reover</w>":3407,"remains</w>":3408,"roll</w>":3409,"stent</w>":3410,"camp":3411,"acid</w>":3412,"asthma</w>":3413,"lists</w>":3414,"ils</w>":3415,"russi":3416,"sell</w>":3417,"sett":3418,"less":3419,"beg":3420,"betes</w>":3421,"construc":3422,"home":3423,"near</w>":3424,"lamb":3425,"latest</w>":3426,"memb":3427,"mis":3428,"mio</w>":3429,"mise</w>":3430,"civi":3431,"moreover</w>":3432,"apparen":3433,"perman":3434,"toil":3435,"gest</w>":3436,"teri":3437,"iran</w>":3438,"bow</w>":3439,"custo":3440,"rai":3441,"radi":3442,"history</w>":3443,"eved</w>":3444,"wiki":3445,"entirely</w>":3446,"llers</w>":3447,"staying</w>":3448,"elbow</w>":3449,"primar":3450,"differences</w>":3451,"funding</w>":3452,"decla":3453,"decrease</w>":3454,"back":3455,"effectively</w>":3456,"pandemi":3457,"substan":3458,"subsequ":3459,"manag":3460,"families</w>":3461,"droplet</w>":3462,"000":3463,"002</w>":3464,"cross</w>":3465,"mainly</w>":3466,"biology</w>":3467,"biological</w>":3468,"harder</w>":3469,"necessarily</w>":3470,"bring</w>":3471,"solutions</w>":3472,"critici":3473,"temperatures</w>":3474,"ferred</w>":3475,"whose</w>":3476,"majority</w>":3477,"benefit</w>":3478,"labs</w>":3479,"estimated</w>":3480,"complications</w>":3481,"involved</w>":3482,"containment</w>":3483,"suspended</w>":3484,"newsp":3485,"cruise</w>":3486,"airport</w>":3487,"advance</w>":3488,"scenario</w>":3489,"walking</w>":3490,"crowded</w>":3491,"craft</w>":3492,"parameters</w>":3493,"flexi":3494,"evalu":3495,"conducted</w>":3496,"inhibit":3497,"chloroqu":3498,"contraception</w>":3499,"aerosols</w>":3500,"ventilat":3501,"alternative</w>":3502,"comparison</w>":3503,"eventually</w>":3504,"figures</w>":3505,"diabetes</w>":3506,"3clpro</w>":3507,"lambda</w>":3508,"wikipedia</w>":3509,"pandemics</w>":3510,"chloroquine</w>":3511,"30":3512,"32</w>":3513,"40":3514,"48</w>":3515,"59</w>":3516,"85":3517,"90":3518,"ain</w>":3519,"adi":3520,"ber</w>":3521,"bits</w>":3522,"cz":3523,"created</w>":3524,"dle</w>":3525,"dity</w>":3526,"dure</w>":3527,"ep</w>":3528,"gy":3529,"gor":3530,"gent</w>":3531,"ii</w>":3532,"py":3533,"sy</w>":3534,"son":3535,"swit":3536,"swe":3537,"tin":3538,"tment</w>":3539,"treated</w>":3540,"upper</w>":3541,"willing</w>":3542,"iner":3543,"rei":3544,"reli":3545,"repe":3546,"resta":3547,"retire":3548,"alle":3549,"oral</w>":3550,"visi":3551,"cast</w>":3552,"causing</w>":3553,"acy</w>":3554,"nobody</w>":3555,"asp":3556,"dir":3557,"dilu":3558,"ecu":3559,"theore":3560,"selling</w>":3561,"spend</w>":3562,"congre":3563,"consequences</w>":3564,"traffi":3565,"mial</w>":3566,"exemp":3567,"fee</w>":3568,"feed":3569,"doi</w>":3570,"dogs</w>":3571,"appoin":3572,"head":3573,"perfor":3574,"worst</w>":3575,"reng":3576,"2018</w>":3577,"ssive</w>":3578,"paying</w>":3579,"parks</w>":3580,"parties</w>":3581,"contacts</w>":3582,"evac":3583,"evol":3584,"day":3585,"ford</w>":3586,"fav":3587,"pick</w>":3588,"prices</w>":3589,"phar":3590,"break</w>":3591,"treating</w>":3592,"generated</w>":3593,"aircraft</w>":3594,"stores</w>":3595,"stran":3596,"virtual</w>":3597,"reporting</w>":3598,"periods</w>":3599,"obtain</w>":3600,"night</w>":3601,"procedure</w>":3602,"produced</w>":3603,"returning</w>":3604,"returns</w>":3605,"hypo":3606,"threat</w>":3607,"logist</w>":3608,"neutr":3609,"treatments</w>":3610,"recession</w>":3611,"easi":3612,"secondary</w>":3613,"extend</w>":3614,"mortg":3615,"frivol":3616,"chain</w>":3617,"fraction</w>":3618,"partner</w>":3619,"diagnosis</w>":3620,"release</w>":3621,"claimed</w>":3622,"comfor":3623,"techno":3624,"speak</w>":3625,"agencies</w>":3626,"runny</w>":3627,"parents</w>":3628,"killed</w>":3629,"immigration</w>":3630,"program</w>":3631,"package</w>":3632,"success":3633,"birth</w>":3634,"accurate</w>":3635,"determined</w>":3636,"weather</w>":3637,"nasal</w>":3638,"monitor</w>":3639,"traditional</w>":3640,"grocery</w>":3641,"assumptions</w>":3642,"thousands</w>":3643,"guaran":3644,"zero</w>":3645,"odds</w>":3646,"greater</w>":3647,"iconexternal</w>":3648,"letter</w>":3649,"knowledge</w>":3650,"talking</w>":3651,"default</w>":3652,"commercial</w>":3653,"restaur":3654,"traffic</w>":3655,"feedback</w>":3656,"frivolous</w>":3657,"36</w>":3658,"85</w>":3659,"bla":3660,"cle</w>":3661,"cali":3662,"dless</w>":3663,"edit</w>":3664,"far":3665,"fill</w>":3666,"fying</w>":3667,"fall":3668,"gd":3669,"gle</w>":3670,"h2":3671,"ky</w>":3672,"ka</w>":3673,"lers</w>":3674,"omial</w>":3675,"pv</w>":3676,"pare</w>":3677,"rying</w>":3678,"swa":3679,"war</w>":3680,"yed</w>":3681,"zations</w>":3682,"remain":3683,"represen":3684,"coo":3685,"con</w>":3686,"ency</w>":3687,"tered</w>":3688,"along</w>":3689,"itary</w>":3690,"itali":3691,"streng":3692,"cates</w>":3693,"acqui":3694,"noted</w>":3695,"dily</w>":3696,"disc":3697,"listed</w>":3698,"lish</w>":3699,"habit":3700,"beli":3701,"spr":3702,"constant</w>":3703,"hope":3704,"ury</w>":3705,"ney</w>":3706,"nel</w>":3707,"nearly</w>":3708,"poor</w>":3709,"inflation</w>":3710,"fish</w>":3711,"pet</w>":3712,"wed":3713,"fered</w>":3714,"she":3715,"premi":3716,"prece":3717,"perform</w>":3718,"goods</w>":3719,"covid":3720,"keting</w>":3721,"rent</w>":3722,"park</w>":3723,"monday</w>":3724,"guess</w>":3725,"commonly</w>":3726,"outline</w>":3727,"somewhat</w>":3728,"primary</w>":3729,"symptomatic</w>":3730,"interactions</w>":3731,"selection</w>":3732,"expan":3733,"fund":3734,"declar":3735,"providing</w>":3736,"stocks</w>":3737,"tural</w>":3738,"antiviral</w>":3739,"thinking</w>":3740,"greece</w>":3741,"where":3742,"anti</w>":3743,"recovery</w>":3744,"processing</w>":3745,"additionally</w>":3746,"growing</w>":3747,"caution</w>":3748,"purch":3749,"employer</w>":3750,"travelling</w>":3751,"travellers</w>":3752,"calling</w>":3753,"charac":3754,"charge</w>":3755,"broad</w>":3756,"front</w>":3757,"exceptions</w>":3758,"passenger</w>":3759,"binomial</w>":3760,"released</w>":3761,"ulty</w>":3762,"assess":3763,"comment</w>":3764,"standards</w>":3765,"leading</w>":3766,"detailed</w>":3767,"middle</w>":3768,"taxes</w>":3769,"suspect</w>":3770,"communities</w>":3771,"suspend</w>":3772,"classi":3773,"crats</w>":3774,"institutions</w>":3775,"institute</w>":3776,"updates</w>":3777,"holders</w>":3778,"bonds</w>":3779,"graphi":3780,"trade</w>":3781,"journ":3782,"qualify</w>":3783,"strong":3784,"considering</w>":3785,"schedule</w>":3786,"identify</w>":3787,"mechanism</w>":3788,"republicans</w>":3789,"lawful</w>":3790,"record</w>":3791,"designed</w>":3792,"legis":3793,"laboratory</w>":3794,"rhino":3795,"absolutely</w>":3796,"bottom</w>":3797,"contagious</w>":3798,"shortness</w>":3799,"betacoronaviruses</w>":3800,"textoutline</w>":3801,"primarily</w>":3802,"declared</w>":3803,"czech</w>":3804,"dirty</w>":3805,"performed</w>":3806,"23":3807,"48":3808,"77":3809,"96</w>":3810,"ba</w>":3811,"bab":3812,"bans</w>":3813,"ele":3814,"fly</w>":3815,"fru":3816,"h1":3817,"hat</w>":3818,"ler":3819,"mits</w>":3820,"mania</w>":3821,"ne</w>":3822,"pani":3823,"plot</w>":3824,"rn":3825,"swi":3826,"twee":3827,"tables</w>":3828,"un</w>":3829,"uri":3830,"refl":3831,"coh":3832,"end":3833,"ono":3834,"oring</w>":3835,"itly</w>":3836,"store</w>":3837,"stable</w>":3838,"stage</w>":3839,"ash</w>":3840,"diarr":3841,"sim</w>":3842,"thema":3843,"log</w>":3844,"load</w>":3845,"devi":3846,"sun":3847,"super":3848,"uncertainty</w>":3849,"mathema":3850,"beds</w>":3851,"spou":3852,"prohi":3853,"trou":3854,"mista":3855,"bud":3856,"exce":3857,"expression</w>":3858,"execu":3859,"infla":3860,"sage</w>":3861,"quanti":3862,"fewer</w>":3863,"shel":3864,"preci":3865,"prepare</w>":3866,"hea</w>":3867,"held</w>":3868,"percen":3869,"2010</w>":3870,"2016</w>":3871,"facts</w>":3872,"musc":3873,"rati":3874,"compro":3875,"gue</w>":3876,"commit":3877,"mination</w>":3878,"forms</w>":3879,"risks</w>":3880,"waiting</w>":3881,"gradu":3882,"ppe</w>":3883,"findings</w>":3884,"translation</w>":3885,"transmit</w>":3886,"somewhere</w>":3887,"symptom</w>":3888,"games</w>":3889,"interven":3890,"quick</w>":3891,"closely</w>":3892,"milli":3893,"reading</w>":3894,"origin</w>":3895,"decline</w>":3896,"changing</w>":3897,"empty</w>":3898,"court</w>":3899,"cked</w>":3900,"english</w>":3901,"depend</w>":3902,"anyway</w>":3903,"recover":3904,"product</w>":3905,"gross</w>":3906,"north</w>":3907,"quarantined</w>":3908,"emergencies</w>":3909,"variable</w>":3910,"phylo":3911,"planning</w>":3912,"199":3913,"veness</w>":3914,"employers</w>":3915,"increasing</w>":3916,"preventing</w>":3917,"distributed</w>":3918,"america</w>":3919,"intensive</w>":3920,"diagnostic</w>":3921,"shares</w>":3922,"medicines</w>":3923,"rapid</w>":3924,"skin</w>":3925,"leader</w>":3926,"lungs</w>":3927,"sanders</w>":3928,"environmental</w>":3929,"write</w>":3930,"equation</w>":3931,"draw</w>":3932,"owner</w>":3933,"molecular</w>":3934,"herd</w>":3935,"phili":3936,"expensive</w>":3937,"occurs</w>":3938,"error</w>":3939,"shut</w>":3940,"focus</w>":3941,"investment</w>":3942,"academic</w>":3943,"obviously</w>":3944,"territory</w>":3945,"slightly</w>":3946,"approximately</w>":3947,"vaccinated</w>":3948,"extraordinary</w>":3949,"apparently</w>":3950,"subsequent</w>":3951,"acquired</w>":3952,"characteri":3953,"assessment</w>":3954,"39</w>":3955,"ade":3956,"bing</w>":3957,"blu":3958,"bound</w>":3959,"ff</w>":3960,"fren":3961,"gc</w>":3962,"gate</w>":3963,"ics</w>":3964,"jan</w>":3965,"kin":3966,"kits</w>":3967,"lin</w>":3968,"mm</w>":3969,"ot":3970,"ot</w>":3971,"o2</w>":3972,"op</w>":3973,"pha":3974,"rs</w>":3975,"r0</w>":3976,"rou":3977,"stion</w>":3978,"sle":3979,"twi":3980,"usc":3981,"vs</w>":3982,"vou":3983,"vec":3984,"xed</w>":3985,"inhabit":3986,"ance":3987,"rever":3988,"references</w>":3989,"energy</w>":3990,"stro":3991,"stability</w>":3992,"cab":3993,"acce":3994,"achi":3995,"notes</w>":3996,"sures</w>":3997,"spending</w>":3998,"concentr":3999,"homo":4000,"procla":4001,"virul":4002,"nesday</w>":4003,"poll</w>":4004,"cher</w>":4005,"meat</w>":4006,"soli":4007,"micha":4008,"opt</w>":4009,"tative</w>":4010,"peer</w>":4011,"peak</w>":4012,"que":4013,"wel":4014,"civet</w>":4015,"fees</w>":4016,"prepar":4017,"tools</w>":4018,"geor":4019,"worried</w>":4020,"terin":4021,"gical</w>":4022,"mutation</w>":4023,"compon":4024,"trains</w>":4025,"outline":4026,"forced</w>":4027,"tickets</w>":4028,"wai":4029,"margin</w>":4030,"linked</w>":4031,"finally</w>":4032,"somebody</w>":4033,"private</w>":4034,"nations</w>":4035,"phase</w>":4036,"military</w>":4037,"discovered</w>":4038,"disinfecting</w>":4039,"dece":4040,"decreas":4041,"antigen":4042,"respond</w>":4043,"responses</w>":4044,"helps</w>":4045,"advise</w>":4046,"nih</w>":4047,"author</w>":4048,"canceled</w>":4049,"checks</w>":4050,"happening</w>":4051,"decisions</w>":4052,"plane</w>":4053,"planes</w>":4054,"deni":4055,"harm":4056,"traveling</w>":4057,"operate</w>":4058,"regions</w>":4059,"request</w>":4060,"claims</w>":4061,"assets</w>":4062,"exists</w>":4063,"print</w>":4064,"collected</w>":4065,"materi":4066,"immediate</w>":4067,"argue</w>":4068,"target</w>":4069,"season</w>":4070,"improve</w>":4071,"epidemiology</w>":4072,"fauci</w>":4073,"chemical</w>":4074,"explain</w>":4075,"balance</w>":4076,"visiting</w>":4077,"fluid</w>":4078,"investigation</w>":4079,"instructions</w>":4080,"democrats</w>":4081,"distinc":4082,"stronger</w>":4083,"frac</w>":4084,"swabs</w>":4085,"chronic</w>":4086,"dyna":4087,"province</w>":4088,"licitly</w>":4089,"granted</w>":4090,"glass</w>":4091,"enforcement</w>":4092,"extra</w>":4093,"evolution</w>":4094,"helpful</w>":4095,"principle</w>":4096,"russia</w>":4097,"membran":4098,"civil</w>":4099,"permanent</w>":4100,"newspaper</w>":4101,"sweden</w>":4102,"easier</w>":4103,"hopefully</w>":4104,"wednesday</w>":4105,"covid19</w>":4106,"strongly</w>":4107,"h1n":4108,"percentage</w>":4109,"ratio</w>":4110,"french</w>":4111,"twice</w>":4112,"uscis</w>":4113,"michael</w>":4114,"outlinestyle</w>":4115,"21":4116,"38</w>":4117,"45</w>":4118,"400</w>":4119,"60":4120,"88":4121,"95":4122,"97":4123,"aa</w>":4124,"bar":4125,"bes</w>":4126,"bra":4127,"ct</w>":4128,"cking</w>":4129,"cfr</w>":4130,"ea":4131,"ey":4132,"eth":4133,"eure</w>":4134,"hind</w>":4135,"mani":4136,"nar":4137,"nur":4138,"nation</w>":4139,"n95</w>":4140,"pa</w>":4141,"pon":4142,"rt</w>":4143,"rare</w>":4144,"roughly</w>":4145,"sca":4146,"tory</w>":4147,"treas":4148,"thy</w>":4149,"antly</w>":4150,"retro":4151,"reproduction</w>":4152,"timely</w>":4153,"eral</w>":4154,"aled</w>":4155,"alber":4156,"ordered</w>":4157,"orxiv</w>":4158,"road</w>":4159,"stan</w>":4160,"cating</w>":4161,"lio</w>":4162,"liqu":4163,"libr":4164,"whom</w>":4165,"sides</w>":4166,"load":4167,"lopin":4168,"dep":4169,"degc</w>":4170,"unnecessary</w>":4171,"mably</w>":4172,"matically</w>":4173,"lets</w>":4174,"bei</w>":4175,"behind</w>":4176,"abor":4177,"abri":4178,"powers</w>":4179,"tionary</w>":4180,"mize</w>":4181,"exact</w>":4182,"version</w>":4183,"sau":4184,"ques</w>":4185,"quality</w>":4186,"veterin":4187,"corti":4188,"cians</w>":4189,"shing</w>":4190,"dome":4191,"heard</w>":4192,"infect":4193,"word</w>":4194,"goch</w>":4195,"bogoch</w>":4196,"faculty</w>":4197,"surpri":4198,"surgical</w>":4199,"monton</w>":4200,"dated</w>":4201,"wipe</w>":4202,"wife</w>":4203,"wiki</w>":4204,"comments</w>":4205,"off":4206,"dering</w>":4207,"trial</w>":4208,"trips</w>":4209,"stated</w>":4210,"expec":4211,"massive</w>":4212,"governor</w>":4213,"biorxiv</w>":4214,"generic</w>":4215,"pending</w>":4216,"posit</w>":4217,"relation":4218,"advised</w>":4219,"police</w>":4220,"politici":4221,"highest</w>":4222,"earn</w>":4223,"001</w>":4224,"electro":4225,"shift</w>":4226,"controlled</w>":4227,"thern</w>":4228,"therap":4229,"2008</w>":4230,"extensive</w>":4231,"contracted</w>":4232,"stero":4233,"travelers</w>":4234,"expert</w>":4235,"edmonton</w>":4236,"share":4237,"transport</w>":4238,"majeure</w>":4239,"assess</w>":4240,"driver</w>":4241,"lief</w>":4242,"contained</w>":4243,"nonimmigr":4244,"coverage</w>":4245,"class</w>":4246,"agreed</w>":4247,"morning</w>":4248,"regardless</w>":4249,"writing</w>":4250,"conclusion</w>":4251,"requirement</w>":4252,"eligibility</w>":4253,"encourage</w>":4254,"molecules</w>":4255,"extreme</w>":4256,"temporarily</w>":4257,"culture</w>":4258,"expenses</w>":4259,"profession":4260,"stopped</w>":4261,"visas</w>":4262,"modern</w>":4263,"fitting</w>":4264,"zoono":4265,"respect</w>":4266,"republican</w>":4267,"summary</w>":4268,"nationals</w>":4269,"scope</w>":4270,"computer</w>":4271,"established</w>":4272,"obligations</w>":4273,"topic</w>":4274,"widely</w>":4275,"progress</w>":4276,"feeling</w>":4277,"introduced</w>":4278,"practices</w>":4279,"presumably</w>":4280,"perfect</w>":4281,"specialist</w>":4282,"thoroughly</w>":4283,"imported</w>":4284,"briefing</w>":4285,"targeted</w>":4286,"reservoir</w>":4287,"began</w>":4288,"ventilators</w>":4289,"retirement</w>":4290,"restaurants</w>":4291,"gdp</w>":4292,"muscle</w>":4293,"millions</w>":4294,"philipp":4295,"adequ":4296,"voucher</w>":4297,"inhabitants</w>":4298,"concentration</w>":4299,"virulence</w>":4300,"denied</w>":4301,"liquid</w>":4302,"lopinavir</w>":4303,"05</w>":4304,"25":4305,"2f":4306,"33</w>":4307,"46":4308,"61</w>":4309,"bought</w>":4310,"cn":4311,"cket</w>":4312,"crit":4313,"dna</w>":4314,"eat</w>":4315,"eding</w>":4316,"east</w>":4317,"fabri":4318,"gon":4319,"hence</w>":4320,"ight</w>":4321,"icon</w>":4322,"job":4323,"ko</w>":4324,"kar":4325,"lm</w>":4326,"ler</w>":4327,"latory</w>":4328,"mly</w>":4329,"mingly</w>":4330,"nh":4331,"pm":4332,"ron</w>":4333,"roun":4334,"ser</w>":4335,"sound</w>":4336,"ups</w>":4337,"var":4338,"yu":4339,"zi":4340,"anese</w>":4341,"reast</w>":4342,"relation</w>":4343,"reactions</w>":4344,"religi":4345,"tition</w>":4346,"enge</w>":4347,"team</w>":4348,"teaching</w>":4349,"aling</w>":4350,"dig":4351,"divi":4352,"disa":4353,"atri":4354,"thesis</w>":4355,"location</w>":4356,"degre":4357,"deposit</w>":4358,"unlike</w>":4359,"spent</w>":4360,"spir":4361,"concep":4362,"holi":4363,"prove</w>":4364,"promp":4365,"net":4366,"lap</w>":4367,"labe":4368,"met":4369,"meter</w>":4370,"opport":4371,"fight</w>":4372,"vege":4373,"feature</w>":4374,"prelimin":4375,"appl":4376,"apart</w>":4377,"toco":4378,"tomor":4379,"towards</w>":4380,"gestion</w>":4381,"goo":4382,"duces</w>":4383,"2013</w>":4384,"box</w>":4385,"ream</w>":4386,"surpris":4387,"raise</w>":4388,"gene</w>":4389,"after":4390,"inging</w>":4391,"plant</w>":4392,"anish</w>":4393,"offering</w>":4394,"outdoor</w>":4395,"risdic":4396,"canadi":4397,"jurisdic":4398,"numer":4399,"fareast</w>":4400,"stays</w>":4401,"hubei</w>":4402,"else":4403,"alien</w>":4404,"fire</w>":4405,"name</w>":4406,"unique</w>":4407,"interact</w>":4408,"explicitly</w>":4409,"pheno":4410,"milk</w>":4411,"func":4412,"dismi":4413,"disinfect":4414,"mentation</w>":4415,"effecti":4416,"provision</w>":4417,"turned</w>":4418,"illed</w>":4419,"courts</w>":4420,"object</w>":4421,"shops</w>":4422,"dreds</w>":4423,"regulatory</w>":4424,"subjects</w>":4425,"manage</w>":4426,"manner</w>":4427,"importantly</w>":4428,"availability</w>":4429,"directions</w>":4430,"rando":4431,"restricted</w>":4432,"officer</w>":4433,"carrying</w>":4434,"valent</w>":4435,"cancelling</w>":4436,"keeping</w>":4437,"books</w>":4438,"worker</w>":4439,"productive</w>":4440,"suggested</w>":4441,"banned</w>":4442,"london</w>":4443,"creating</w>":4444,"clade</w>":4445,"scien":4446,"logists</w>":4447,"occa":4448,"ached</w>":4449,"pursu":4450,"warning</w>":4451,"contracts</w>":4452,"series</w>":4453,"frie":4454,"friend</w>":4455,"chosen</w>":4456,"citizen</w>":4457,"followed</w>":4458,"filing</w>":4459,"physically</w>":4460,"interesting</w>":4461,"charged</w>":4462,"intensity</w>":4463,"borne</w>":4464,"transpor":4465,"attend</w>":4466,"frequent</w>":4467,"ulti":4468,"exist</w>":4469,"drive</w>":4470,"drivers</w>":4471,"reducing</w>":4472,"imposed</w>":4473,"remote</w>":4474,"removed</w>":4475,"correctly</w>":4476,"collection</w>":4477,"replicate</w>":4478,"asian</w>":4479,"particle</w>":4480,"argument</w>":4481,"classes</w>":4482,"detect</w>":4483,"latter</w>":4484,"japanese</w>":4485,"equal</w>":4486,"kills</w>":4487,"encouraged</w>":4488,"explained</w>":4489,"foreign":4490,"visitors</w>":4491,"hundreds</w>":4492,"occurred</w>":4493,"parameter</w>":4494,"statements</w>":4495,"errors</w>":4496,"investors</w>":4497,"meaning":4498,"widespread</w>":4499,"interpretation</w>":4500,"simulation</w>":4501,"challeng":4502,"education</w>":4503,"reviewed</w>":4504,"category</w>":4505,"adjusted</w>":4506,"scription</w>":4507,"trends</w>":4508,"behavior</w>":4509,"candidate</w>":4510,"campai":4511,"settings</w>":4512,"toilet</w>":4513,"mortgage</w>":4514,"premium</w>":4515,"whereas</w>":4516,"graphic</w>":4517,"panic</w>":4518,"trouble</w>":4519,"committee</w>":4520,"proclamation</w>":4521,"december</w>":4522,"materials</w>":4523,"eastern</w>":4524,"treasury</w>":4525,"depth</w>":4526,"shareholders</w>":4527,"professionals</w>":4528,"criter":4529,"gonna</w>":4530,"preliminary</w>":4531,"tomorrow</w>":4532,"09</w>":4533,"01</w>":4534,"64</w>":4535,"79":4536,"ax":4537,"ama":4538,"ahead</w>":4539,"bat":4540,"breach</w>":4541,"dc</w>":4542,"dential</w>":4543,"eve</w>":4544,"emo":4545,"eting</w>":4546,"ga</w>":4547,"gri":4548,"ie</w>":4549,"ibu":4550,"ign":4551,"jun":4552,"jected</w>":4553,"kers</w>":4554,"lting</w>":4555,"moun":4556,"nson</w>":4557,"ncb":4558,"oxy":4559,"pid</w>":4560,"rac":4561,"sn":4562,"sp</w>":4563,"tably</w>":4564,"ut":4565,"uti":4566,"vals</w>":4567,"wants</w>":4568,"yers</w>":4569,"ze":4570,"ina</w>":4571,"insu":4572,"anno":4573,"refunds</w>":4574,"title</w>":4575,"coordin":4576,"eny":4577,"enty</w>":4578,"arding</w>":4579,"arance</w>":4580,"romania</w>":4581,"itiner":4582,"ste</w>":4583,"sters</w>":4584,"aci":4585,"notic":4586,"sil":4587,"iled</w>":4588,"illu":4589,"lock</w>":4590,"detail</w>":4591,"sud":4592,"unwell</w>":4593,"unclear</w>":4594,"mped</w>":4595,"maxi":4596,"leg</w>":4597,"spin</w>":4598,"spain</w>":4599,"spanish</w>":4600,"hosts</w>":4601,"homes</w>":4602,"proof</w>":4603,"abilities</w>":4604,"sove":4605,"sophi":4606,"mid</w>":4607,"mised</w>":4608,"buses</w>":4609,"fip</w>":4610,"web</w>":4611,"core</w>":4612,"feed</w>":4613,"dow</w>":4614,"doors</w>":4615,"aggre":4616,"apar":4617,"heav":4618,"stick</w>":4619,"readily</w>":4620,"pull</w>":4621,"gies</w>":4622,"compare</w>":4623,"afri":4624,"wish</w>":4625,"answers</w>":4626,"specu":4627,"minal</w>":4628,"offered</w>":4629,"mediate</w>":4630,"wave</w>":4631,"sero":4632,"serve</w>":4633,"deri":4634,"tric</w>":4635,"stuck</w>":4636,"tend</w>":4637,"somehow</w>":4638,"breaks</w>":4639,"datas":4640,"datab":4641,"decre":4642,"fold</w>":4643,"folio</w>":4644,"turing</w>":4645,"actively</w>":4646,"antiretro":4647,"week":4648,"looked</w>":4649,"arer</w>":4650,"engine":4651,"advises</w>":4652,"importance</w>":4653,"polio</w>":4654,"politics</w>":4655,"directed</w>":4656,"directive</w>":4657,"authors</w>":4658,"cheap</w>":4659,"everybody</w>":4660,"partici":4661,"voting</w>":4662,"isolating</w>":4663,"strated</w>":4664,"northern</w>":4665,"eur</w>":4666,"payroll</w>":4667,"clause</w>":4668,"clinic</w>":4669,"2004</w>":4670,"2006</w>":4671,"venue</w>":4672,"society</w>":4673,"calls</w>":4674,"operation</w>":4675,"suffer</w>":4676,"suffering</w>":4677,"requiring</w>":4678,"stret":4679,"reduction</w>":4680,"compliant</w>":4681,"leaders</w>":4682,"videos</w>":4683,"centre</w>":4684,"epa</w>":4685,"agreement</w>":4686,"image</w>":4687,"departments</w>":4688,"property</w>":4689,"holds</w>":4690,"drin":4691,"hung":4692,"accept</w>":4693,"spaces</w>":4694,"shorter</w>":4695,"donal":4696,"connection</w>":4697,"cratic</w>":4698,"combination</w>":4699,"effort</w>":4700,"broader</w>":4701,"visits</w>":4702,"limiting</w>":4703,"limitations</w>":4704,"fitness</w>":4705,"failed</w>":4706,"quoted</w>":4707,"obvious</w>":4708,"weight</w>":4709,"persist</w>":4710,"hydroxy":4711,"patter":4712,"portfolio</w>":4713,"doubt</w>":4714,"challenge</w>":4715,"downs</w>":4716,"advanced</w>":4717,"faster</w>":4718,"thanks</w>":4719,"missions</w>":4720,"johnson</w>":4721,"experiencing</w>":4722,"embas":4723,"departure</w>":4724,"mutate</w>":4725,"papers</w>":4726,"profen</w>":4727,"maintaining</w>":4728,"taxpayers</w>":4729,"insect</w>":4730,"flexible</w>":4731,"gorous</w>":4732,"visibly</w>":4733,"theoretical</w>":4734,"congress</w>":4735,"comfortable</w>":4736,"swab</w>":4737,"declaration</w>":4738,"baby</w>":4739,"cohort</w>":4740,"executive</w>":4741,"preparing</w>":4742,"membrane</w>":4743,"eye</w>":4744,"veterinary</w>":4745,"philippines</w>":4746,"nh3</w>":4747,"google</w>":4748,"jurisdictions</w>":4749,"elsewhere</w>":4750,"effectiveness</w>":4751,"randomly</w>":4752,"frieden</w>":4753,"criteria</w>":4754,"ibuprofen</w>":4755,"ncbi</w>":4756,"soverei":4757,"hydroxychloroquine</w>":4758,"100":4759,"110":4760,"2nd</w>":4761,"38":4762,"44</w>":4763,"56</w>":4764,"63":4765,"74</w>":4766,"amp":4767,"aid</w>":4768,"bc":4769,"barri":4770,"cure</w>":4771,"estate</w>":4772,"flow</w>":4773,"gard</w>":4774,"hor":4775,"ig":4776,"ide</w>":4777,"kings</w>":4778,"kid":4779,"lv":4780,"lr</w>":4781,"llow</w>":4782,"lend</w>":4783,"lpv</w>":4784,"mr</w>":4785,"macro":4786,"nan":4787,"pr</w>":4788,"pal":4789,"pag":4790,"plus</w>":4791,"rd</w>":4792,"round</w>":4793,"ske":4794,"sence</w>":4795,"sounds</w>":4796,"tdown</w>":4797,"tled</w>":4798,"vast</w>":4799,"yst":4800,"thu":4801,"inci":4802,"inacti":4803,"ang</w>":4804,"anxi":4805,"reve":4806,"reinfected</w>":4807,"reinfor":4808,"reality</w>":4809,"resource</w>":4810,"rebooking</w>":4811,"rebook</w>":4812,"refund":4813,"relief</w>":4814,"regard</w>":4815,"tially</w>":4816,"tips</w>":4817,"archi":4818,"teach</w>":4819,"alo":4820,"orban</w>":4821,"ston</w>":4822,"stori":4823,"cable</w>":4824,"ash":4825,"asia</w>":4826,"diamon":4827,"ects</w>":4828,"lia":4829,"illegal</w>":4830,"loved</w>":4831,"deca":4832,"deep</w>":4833,"unrelated</w>":4834,"seven</w>":4835,"rix</w>":4836,"rise</w>":4837,"mated</w>":4838,"bel":4839,"becoming</w>":4840,"confin":4841,"congestion</w>":4842,"absence</w>":4843,"neg":4844,"poland</w>":4845,"poster":4846,"lap":4847,"lamps</w>":4848,"tre</w>":4849,"expres":4850,"ops</w>":4851,"opted</w>":4852,"tai":4853,"tages</w>":4854,"adding</w>":4855,"correspon":4856,"fear</w>":4857,"feeding</w>":4858,"doz":4859,"domin":4860,"town</w>":4861,"tober</w>":4862,"gely</w>":4863,"worked</w>":4864,"mming</w>":4865,"iration</w>":4866,"face":4867,"cuo":4868,"suring</w>":4869,"parag":4870,"histori":4871,"gust</w>":4872,"mino</w>":4873,"yester":4874,"ticketing</w>":4875,"cancer</w>":4876,"wave":4877,"mark</w>":4878,"final</w>":4879,"elds</w>":4880,"aliens</w>":4881,"transactions</w>":4882,"transferred</w>":4883,"arial</w>":4884,"sitting</w>":4885,"gau":4886,"unicode</w>":4887,"interview</w>":4888,"internal</w>":4889,"expiration</w>":4890,"phil":4891,"breast":4892,"datory</w>":4893,"differently</w>":4894,"funda":4895,"august</w>":4896,"trees</w>":4897,"bike</w>":4898,"bigger</w>":4899,"examin":4900,"informed</w>":4901,"strate</w>":4902,"virals</w>":4903,"emph":4904,"respirators</w>":4905,"placed</w>":4906,"pants</w>":4907,"flatten":4908,"indicates</w>":4909,"objec":4910,"child":4911,"showed</w>":4912,"consistent</w>":4913,"strict</w>":4914,"managed</w>":4915,"mandatory</w>":4916,"cent":4917,"census</w>":4918,"restrict</w>":4919,"math</w>":4920,"matters</w>":4921,"matrix</w>":4922,"presents</w>":4923,"anywhere</w>":4924,"applications</w>":4925,"everyday</w>":4926,"particip":4927,"voted</w>":4928,"suggesting</w>":4929,"structures</w>":4930,"hyper":4931,"varies</w>":4932,"variation</w>":4933,"variance</w>":4934,"variety</w>":4935,"crossing</w>":4936,"mainland</w>":4937,"logistic</w>":4938,"october</w>":4939,"ministry</w>":4940,"integr":4941,"eased</w>":4942,"throw</w>":4943,"plants</w>":4944,"planned</w>":4945,"warned</w>":4946,"harm</w>":4947,"supple":4948,"preventive</w>":4949,"colds</w>":4950,"resident</w>":4951,"organisation</w>":4952,"predictions</w>":4953,"predictive</w>":4954,"interests</w>":4955,"partners</w>":4956,"shared</w>":4957,"kids</w>":4958,"commo":4959,"screen</w>":4960,"association</w>":4961,"bacteri":4962,"labor</w>":4963,"safely</w>":4964,"lockdowns</w>":4965,"observation</w>":4966,"10000</w>":4967,"remove</w>":4968,"arriving</w>":4969,"arrival</w>":4970,"complicated</w>":4971,"lengths</w>":4972,"involve</w>":4973,"tissues</w>":4974,"covers</w>":4975,"implement</w>":4976,"linear</w>":4977,"building</w>":4978,"typical</w>":4979,"naturally</w>":4980,"colleag":4981,"trading</w>":4982,"democratic</w>":4983,"antibiotic</w>":4984,"diversity</w>":4985,"summer</w>":4986,"evaluation</w>":4987,"attempt</w>":4988,"recognize</w>":4989,"climate</w>":4990,"virology</w>":4991,"bbc</w>":4992,"dark</w>":4993,"machine</w>":4994,"refused</w>":4995,"assistance</w>":4996,"down":4997,"optimi":4998,"personally</w>":4999,"nuclei</w>":5000,"advisor</w>":5001,"freedom</w>":5002,"amend":5003,"expired</w>":5004,"avoiding</w>":5005,"management</w>":5006,"inhibitors</w>":5007,"reliable</w>":5008,"evacu":5009,"successful</w>":5010,"guarantee</w>":5011,"italian</w>":5012,"strength</w>":5013,"believed</w>":5014,"spray</w>":5015,"journals</w>":5016,"legislation</w>":5017,"rhinovirus</w>":5018,"diarrhea</w>":5019,"homology</w>":5020,"harmful</w>":5021,"cortico":5022,"steroids</w>":5023,"adequate</w>":5024,"fabric</w>":5025,"religious</w>":5026,"degree</w>":5027,"opportunity</w>":5028,"vegetables</w>":5029,"applying</w>":5030,"surprising</w>":5031,"transportation</w>":5032,"foreigners</w>":5033,"emotional</w>":5034,"oxygen</w>":5035,"itinerary</w>":5036,"maximum</w>":5037,"participants</w>":5038,"embassy</w>":5039,"sovereign</w>":5040,"refundable</w>":5041,"diamond</w>":5042,"posterior</w>":5043,"yesterday</w>":5044,"05":5045,"300</w>":5046,"49</w>":5047,"41</w>":5048,"43</w>":5049,"69</w>":5050,"79</w>":5051,"86":5052,"800</w>":5053,"97</w>":5054,"ae</w>":5055,"amino</w>":5056,"bun":5057,"cuse</w>":5058,"dhs</w>":5059,"em":5060,"ea</w>":5061,"ec</w>":5062,"ex</w>":5063,"edi":5064,"eur":5065,"fran":5066,"gas</w>":5067,"g13</w>":5068,"hur":5069,"ici":5070,"ical</w>":5071,"llu":5072,"mself</w>":5073,"nb":5074,"nsp":5075,"oth</w>":5076,"puni":5077,"qat":5078,"rab":5079,"sar":5080,"san</w>":5081,"scu":5082,"smar":5083,"satur":5084,"tv</w>":5085,"tas":5086,"twit":5087,"task</w>":5088,"vard</w>":5089,"inv":5090,"inst":5091,"inser":5092,"and":5093,"ana</w>":5094,"anth":5095,"annu":5096,"redi":5097,"refer</w>":5098,"reaction</w>":5099,"represent</w>":5100,"retail</w>":5101,"rers</w>":5102,"reached</w>":5103,"revenue</w>":5104,"time":5105,"enforce</w>":5106,"arran":5107,"oul":5108,"telling</w>":5109,"onia</w>":5110,"vio":5111,"rote</w>":5112,"itable</w>":5113,"acted</w>":5114,"acci":5115,"accru":5116,"discre":5117,"diame":5118,"atly</w>":5119,"atories</w>":5120,"ecting</w>":5121,"live":5122,"liqui":5123,"liber":5124,"lipid</w>":5125,"haff":5126,"sir</w>":5127,"sian</w>":5128,"locations</w>":5129,"destruc":5130,"sum</w>":5131,"unlawful</w>":5132,"seas</w>":5133,"ride</w>":5134,"mamm":5135,"les":5136,"besides</w>":5137,"spring</w>":5138,"concen":5139,"conspir":5140,"prox":5141,"propo":5142,"proper</w>":5143,"urgent</w>":5144,"pow":5145,"chen</w>":5146,"laun":5147,"meals</w>":5148,"meeting</w>":5149,"track</w>":5150,"trillion</w>":5151,"miti":5152,"missible</w>":5153,"bugs</w>":5154,"oppo":5155,"info</w>":5156,"infra":5157,"fixed</w>":5158,"adjust</w>":5159,"adeno":5160,"saving</w>":5161,"wered</w>":5162,"weak</w>":5163,"vehi":5164,"feasi":5165,"feyn":5166,"door":5167,"mother</w>":5168,"moved</w>":5169,"prescription</w>":5170,"heat</w>":5171,"perspec":5172,"totally</w>":5173,"gel</w>":5174,"luck</w>":5175,"kel</w>":5176,"duty</w>":5177,"2015</w>":5178,"2011</w>":5179,"putting</w>":5180,"gium</w>":5181,"raw</w>":5182,"himself</w>":5183,"comply</w>":5184,"compounds</w>":5185,"scent</w>":5186,"scrat":5187,"schaff":5188,"entitled</w>":5189,"ples</w>":5190,"train</w>":5191,"forward</w>":5192,"tum</w>":5193,"tues":5194,"ller</w>":5195,"jump</w>":5196,"faq</w>":5197,"linen</w>":5198,"studying</w>":5199,"finding</w>":5200,"aries</w>":5201,"privac":5202,"gated</w>":5203,"intermediate</w>":5204,"closer</w>":5205,"breathe</w>":5206,"largest</w>":5207,"functions</w>":5208,"austri":5209,"bited</w>":5210,"deceased</w>":5211,"informa":5212,"provisions</w>":5213,"needing</w>":5214,"illance</w>":5215,"penn":5216,"knowing</w>":5217,"knobs</w>":5218,"india</w>":5219,"indicated</w>":5220,"indicate</w>":5221,"shot</w>":5222,"truly</w>":5223,"aller":5224,"modelling</w>":5225,"greatly</w>":5226,"contrast</w>":5227,"advising</w>":5228,"restriction</w>":5229,"houses</w>":5230,"valu":5231,"signed</w>":5232,"accordance</w>":5233,"overseas</w>":5234,"workplace</w>":5235,"chest</w>":5236,"banking</w>":5237,"returned</w>":5238,"quarantines</w>":5239,"checked</w>":5240,"ousness</w>":5241,"mitting</w>":5242,"enzy":5243,"ships</w>":5244,"minimize</w>":5245,"recommendation</w>":5246,"organ</w>":5247,"denial</w>":5248,"harvard</w>":5249,"joint</w>":5250,"negatives</w>":5251,"washed</w>":5252,"lands</w>":5253,"employed</w>":5254,"friday</w>":5255,"confirm</w>":5256,"bringing</w>":5257,"supportive</w>":5258,"filter</w>":5259,"volun":5260,"color</w>":5261,"authorized</w>":5262,"organizations</w>":5263,"handles</w>":5264,"describe</w>":5265,"amounts</w>":5266,"playing</w>":5267,"legally</w>":5268,"binom</w>":5269,"frequency</w>":5270,"presidential</w>":5271,"announcement</w>":5272,"ficiently</w>":5273,"raph</w>":5274,"arrive</w>":5275,"lecture</w>":5276,"manufacturing</w>":5277,"deliver</w>":5278,"parent</w>":5279,"aside</w>":5280,"agree</w>":5281,"originated</w>":5282,"cryst":5283,"newly</w>":5284,"presented</w>":5285,"carried</w>":5286,"useless</w>":5287,"reasonably</w>":5288,"fatal</w>":5289,"drawn</w>":5290,"owners</w>":5291,"conclusions</w>":5292,"solved</w>":5293,"epidemiological</w>":5294,"epidemiologist</w>":5295,"route</w>":5296,"hotez</w>":5297,"double</w>":5298,"packaging</w>":5299,"birds</w>":5300,"fluids</w>":5301,"investigations</w>":5302,"connecting</w>":5303,"cultural</w>":5304,"journal</w>":5305,"vative</w>":5306,"stops</w>":5307,"exponentially</w>":5308,"scheduled</w>":5309,"moderate</w>":5310,"zoom</w>":5311,"divergence</w>":5312,"discussed</w>":5313,"neighbor":5314,"chronous</w>":5315,"261</w>":5316,"ratg13</w>":5317,"disruption</w>":5318,"groceries</w>":5319,"assumption</w>":5320,"realize</w>":5321,"realistic</w>":5322,"surveillance</w>":5323,"picture</w>":5324,"pictures</w>":5325,"defen":5326,"calculate</w>":5327,"deadly</w>":5328,"constitutional</w>":5329,"optimal</w>":5330,"perfectly</w>":5331,"mixing</w>":5332,"experienced</w>":5333,"insight</w>":5334,"lifts</w>":5335,"expires</w>":5336,"avoided</w>":5337,"electron":5338,"neighbors</w>":5339,"refers</w>":5340,"repeat</w>":5341,"appointment</w>":5342,"evolving</w>":5343,"pharmac":5344,"hypothe":5345,"technology</w>":5346,"falls</w>":5347,"cooked</w>":5348,"mathematical</w>":5349,"recovering</w>":5350,"phylogenetic</w>":5351,"blue</w>":5352,"kinds</w>":5353,"components</w>":5354,"decreases</w>":5355,"antigenic</w>":5356,"h1n1</w>":5357,"nursing</w>":5358,"alberta</w>":5359,"library</w>":5360,"saudi</w>":5361,"domestic</w>":5362,"relationship</w>":5363,"disap":5364,"ultimately</w>":5365,"noticed</w>":5366,"heavy</w>":5367,"barrier</w>":5368,"nanop":5369,"anxiety</w>":5370,"belgium</w>":5371,"cuomo</w>":5372,"paragraph</w>":5373,"amendment</w>":5374,"diameter</w>":5375,"liquidity</w>":5376,"concentra":5377,"conspiracy</w>":5378,"schaffner</w>":5379,"privacy</w>":5380,"11":5381,"24":5382,"35</w>":5383,"59":5384,"68</w>":5385,"73":5386,"80":5387,"87</w>":5388,"ab</w>":5389,"ative</w>":5390,"bail":5391,"black</w>":5392,"bills</w>":5393,"cti":5394,"dpa</w>":5395,"elimin":5396,"fth":5397,"gt":5398,"gna":5399,"hy</w>":5400,"ha</w>":5401,"hits</w>":5402,"ire":5403,"ice":5404,"icu</w>":5405,"king":5406,"knew</w>":5407,"nhs</w>":5408,"nlm</w>":5409,"oh</w>":5410,"pk":5411,"ps":5412,"py</w>":5413,"ph</w>":5414,"plu":5415,"path</w>":5416,"sac":5417,"sba</w>":5418,"tor":5419,"tour</w>":5420,"tments</w>":5421,"ur</w>":5422,"vings</w>":5423,"wan</w>":5424,"wage</w>":5425,"wering</w>":5426,"wrote</w>":5427,"xlab</w>":5428,"yi":5429,"yout":5430,"zone</w>":5431,"invi":5432,"indu":5433,"indoor</w>":5434,"aned</w>":5435,"reb":5436,"resti":5437,"replace</w>":5438,"relieve</w>":5439,"redness</w>":5440,"tin</w>":5441,"tize</w>":5442,"tish</w>":5443,"timate</w>":5444,"cool</w>":5445,"enhan":5446,"enever</w>":5447,"encounter</w>":5448,"arbit":5449,"teen</w>":5450,"tells</w>":5451,"ony</w>":5452,"alve":5453,"alty</w>":5454,"oration</w>":5455,"viol":5456,"vital</w>":5457,"viability</w>":5458,"iter":5459,"ital</w>":5460,"stream</w>":5461,"casu":5462,"cabin":5463,"accu":5464,"accounts</w>":5465,"aster</w>":5466,"discri":5467,"atal</w>":5468,"ec261</w>":5469,"lipi":5470,"whenever</w>":5471,"ham</w>":5472,"sird</w>":5473,"theories</w>":5474,"lomb":5475,"losses</w>":5476,"deduc":5477,"set":5478,"sex":5479,"seq</w>":5480,"sets</w>":5481,"seve":5482,"mping</w>":5483,"map</w>":5484,"leth":5485,"letting</w>":5486,"bet</w>":5487,"bear</w>":5488,"projects</w>":5489,"propose</w>":5490,"promise</w>":5491,"protoco":5492,"nesses</w>":5493,"pool</w>":5494,"polls</w>":5495,"pocket</w>":5496,"che</w>":5497,"metre</w>":5498,"sole</w>":5499,"soiled</w>":5500,"excuse</w>":5501,"opposed</w>":5502,"opec</w>":5503,"fica":5504,"figh":5505,"tau</w>":5506,"adeny":5507,"ghten":5508,"vements</w>":5509,"cited</w>":5510,"cian</w>":5511,"fears</w>":5512,"features</w>":5513,"doms</w>":5514,"doll":5515,"moves</w>":5516,"agu":5517,"agri":5518,"agents</w>":5519,"app</w>":5520,"tox":5521,"toward</w>":5522,"lufth":5523,"2000</w>":5524,"stically</w>":5525,"cutting</w>":5526,"pain</w>":5527,"surroun":5528,"pul":5529,"pubs</w>":5530,"muta":5531,"para":5532,"parlia":5533,"rail":5534,"rational</w>":5535,"rarely</w>":5536,"genes</w>":5537,"compre":5538,"comparing</w>":5539,"scar":5540,"scans</w>":5541,"sylv":5542,"gues":5543,"guide</w>":5544,"counter":5545,"counting</w>":5546,"wipes</w>":5547,"plat":5548,"plenty</w>":5549,"ansa</w>":5550,"answering</w>":5551,"porous</w>":5552,"forget</w>":5553,"formal</w>":5554,"yeast</w>":5555,"ware":5556,"jud":5557,"jumped</w>":5558,"differ</w>":5559,"fati":5560,"effica":5561,"feces</w>":5562,"specimen</w>":5563,"ppp</w>":5564,"static</w>":5565,"huang</w>":5566,"elli":5567,"pied</w>":5568,"arian</w>":5569,"nam</w>":5570,"gain</w>":5571,"game</w>":5572,"gather</w>":5573,"publications</w>":5574,"interactive</w>":5575,"interaction</w>":5576,"eviction</w>":5577,"select</w>":5578,"merase</w>":5579,"stries</w>":5580,"inclusion</w>":5581,"gns</w>":5582,"discour":5583,"disaster</w>":5584,"exams</w>":5585,"island</w>":5586,"airborne</w>":5587,"mens</w>":5588,"providers</w>":5589,"currency</w>":5590,"prevents</w>":5591,"positively</w>":5592,"positives</w>":5593,"antigen</w>":5594,"responsi":5595,"relations</w>":5596,"measu":5597,"duration</w>":5598,"trudea":5599,"alling</w>":5600,"allergy</w>":5601,"drew</w>":5602,"gree":5603,"green</w>":5604,"england</w>":5605,"resulting</w>":5606,"carbon":5607,"fresh</w>":5608,"ideal</w>":5609,"ideally</w>":5610,"quarter</w>":5611,"recomb":5612,"bookings</w>":5613,"conditional</w>":5614,"strugg":5615,"grow</w>":5616,"suppose</w>":5617,"norway</w>":5618,"continues</w>":5619,"assumed</w>":5620,"2005</w>":5621,"secondly</w>":5622,"contractors</w>":5623,"blog</w>":5624,"density</w>":5625,"1918</w>":5626,"citizen":5627,"follows</w>":5628,"receiving</w>":5629,"bates</w>":5630,"organisms</w>":5631,"predictable</w>":5632,"operations</w>":5633,"criminal</w>":5634,"spot</w>":5635,"spoons</w>":5636,"exceptional</w>":5637,"describing</w>":5638,"kistan</w>":5639,"driving</w>":5640,"simpli":5641,"chica":5642,"consul":5643,"impose</w>":5644,"households</w>":5645,"princess</w>":5646,"remotely</w>":5647,"equivalent</w>":5648,"skills</w>":5649,"arrived</w>":5650,"140</w>":5651,"exercises</w>":5652,"involving</w>":5653,"epidemics</w>":5654,"designa":5655,"sanctions</w>":5656,"british</w>":5657,"reservation</w>":5658,"former</w>":5659,"unemployed</w>":5660,"conclude</w>":5661,"wald</w>":5662,"hotels</w>":5663,"neither</w>":5664,"chemistry</w>":5665,"programs</w>":5666,"corporations</w>":5667,"pregnancy</w>":5668,"researcher</w>":5669,"lending</w>":5670,"lenders</w>":5671,"capable</w>":5672,"acceptable</w>":5673,"shortages</w>":5674,"instructor</w>":5675,"contamination</w>":5676,"cycle</w>":5677,"accuracy</w>":5678,"frame</w>":5679,"combined</w>":5680,"consideration</w>":5681,"broadca":5682,"limitation</w>":5683,"focused</w>":5684,"preparedness</w>":5685,"displa":5686,"continuing</w>":5687,"continuous</w>":5688,"contraceptive</w>":5689,"ratings</w>":5690,"ventilation</w>":5691,"economics</w>":5692,"burden</w>":5693,"click</w>":5694,"thousand</w>":5695,"polyadeny":5696,"polymerase</w>":5697,"survey</w>":5698,"machines</w>":5699,"sales</w>":5700,"salary</w>":5701,"practicing</w>":5702,"deadline</w>":5703,"slowing</w>":5704,"missibility</w>":5705,"photo":5706,"rooms</w>":5707,"replaced</w>":5708,"maintained</w>":5709,"taxpayer</w>":5710,"construction</w>":5711,"background</w>":5712,"85pt</w>":5713,"diluted</w>":5714,"exempt</w>":5715,"stranded</w>":5716,"neutrali":5717,"blame</w>":5718,"h2o</w>":5719,"h2o2</w>":5720,"remaining</w>":5721,"purchase</w>":5722,"rnas</w>":5723,"tweeted</w>":5724,"spouse</w>":5725,"budget</w>":5726,"compromised</w>":5727,"1998</w>":5728,"vectors</w>":5729,"ancest":5730,"reverse</w>":5731,"welfare</w>":5732,"nonimmigrant</w>":5733,"jobs</w>":5734,"network</w>":5735,"canadian</w>":5736,"numerous</w>":5737,"phenomen":5738,"dismiss":5739,"science":5740,"occasi":5741,"challenges</w>":5742,"utili":5743,"database</w>":5744,"decree</w>":5745,"antiretroviral</w>":5746,"hungary</w>":5747,"donald</w>":5748,"bcg</w>":5749,"taiwan</w>":5750,"flattening</w>":5751,"centres</w>":5752,"qatar</w>":5753,"rabies</w>":5754,"saturday</w>":5755,"twitter</w>":5756,"anthony</w>":5757,"infrastructure</w>":5758,"feasible</w>":5759,"feynman</w>":5760,"perspective</w>":5761,"tuesday</w>":5762,"austria</w>":5763,"pennsylv":5764,"ireland</w>":5765,"iceland</w>":5766,"arbitr":5767,"cabinet</w>":5768,"lipids</w>":5769,"severely</w>":5770,"dollars</w>":5771,"lufthansa</w>":5772,"parliament</w>":5773,"trudeau</w>":5774,"pennsylvania</w>":5775,"120</w>":5776,"115":5777,"188</w>":5778,"55":5779,"52</w>":5780,"66</w>":5781,"84</w>":5782,"ak":5783,"amm":5784,"ams</w>":5785,"bag":5786,"bone</w>":5787,"bar</w>":5788,"bars</w>":5789,"brit":5790,"dd":5791,"eg</w>":5792,"fere</w>":5793,"fing":5794,"fits</w>":5795,"gis</w>":5796,"gma</w>":5797,"hu</w>":5798,"hen</w>":5799,"hcov</w>":5800,"im</w>":5801,"icity</w>":5802,"je":5803,"ku":5804,"ky":5805,"lo</w>":5806,"li</w>":5807,"mh":5808,"mi</w>":5809,"mous</w>":5810,"muni":5811,"mating</w>":5812,"mck":5813,"nm</w>":5814,"nate</w>":5815,"ox":5816,"ored</w>":5817,"qs</w>":5818,"sr</w>":5819,"sou":5820,"sme":5821,"scan</w>":5822,"ski":5823,"slight</w>":5824,"ton":5825,"tton</w>":5826,"ude</w>":5827,"vi</w>":5828,"yal</w>":5829,"ylab</w>":5830,"thur":5831,"thail":5832,"inal</w>":5833,"indepen":5834,"ancies</w>":5835,"rep</w>":5836,"referen":5837,"rements</w>":5838,"reconsider</w>":5839,"reacting</w>":5840,"resolve</w>":5841,"rescu":5842,"rebates</w>":5843,"ership</w>":5844,"cos</w>":5845,"colu":5846,"codes</w>":5847,"ene":5848,"ens":5849,"envelo":5850,"enjo":5851,"aro</w>":5852,"arab":5853,"arby</w>":5854,"onally</w>":5855,"onset</w>":5856,"allo":5857,"altogether</w>":5858,"ormal</w>":5859,"victi":5860,"roman</w>":5861,"stingly</w>":5862,"came":5863,"noise</w>":5864,"div</w>":5865,"dian</w>":5866,"dicated</w>":5867,"diplo":5868,"atten</w>":5869,"ecb</w>":5870,"ecdc</w>":5871,"lic</w>":5872,"liste":5873,"licen":5874,"limits</w>":5875,"theli":5876,"iling</w>":5877,"ilit":5878,"rupt</w>":5879,"lod</w>":5880,"dee":5881,"des":5882,"dest</w>":5883,"dealing</w>":5884,"suitable</w>":5885,"sey</w>":5886,"yotic</w>":5887,"mas</w>":5888,"mag</w>":5889,"math":5890,"mates</w>":5891,"bearing</w>":5892,"spar":5893,"consequence</w>":5894,"consent</w>":5895,"conferences</w>":5896,"hot</w>":5897,"hoping</w>":5898,"hopk":5899,"promi":5900,"promo":5901,"profit</w>":5902,"nej":5903,"nearby</w>":5904,"pol":5905,"pos</w>":5906,"lative</w>":5907,"meet":5908,"mix</w>":5909,"mics</w>":5910,"expe":5911,"exhi":5912,"expor":5913,"exhal":5914,"veri":5915,"vert</w>":5916,"opha":5917,"fies</w>":5918,"fields</w>":5919,"tau":5920,"adopted</w>":5921,"saw</w>":5922,"sations</w>":5923,"savings</w>":5924,"wet</w>":5925,"cil</w>":5926,"sharing</w>":5927,"mod</w>":5928,"modi":5929,"mode</w>":5930,"mobi":5931,"mobility</w>":5932,"age":5933,"aps</w>":5934,"permission</w>":5935,"cellu":5936,"gown</w>":5937,"luck":5938,"kept</w>":5939,"coronaviral</w>":5940,"20th</w>":5941,"2017</w>":5942,"2021</w>":5943,"boarding</w>":5944,"ssions</w>":5945,"stin</w>":5946,"sticated</w>":5947,"facepi":5948,"cup</w>":5949,"paa</w>":5950,"pair</w>":5951,"purely</w>":5952,"mulate</w>":5953,"partly</w>":5954,"compar":5955,"compla":5956,"compet":5957,"aft</w>":5958,"afford</w>":5959,"eva</w>":5960,"inger</w>":5961,"council</w>":5962,"inces</w>":5963,"entials</w>":5964,"trained</w>":5965,"ofcom</w>":5966,"output</w>":5967,"forces</w>":5968,"impli":5969,"risky</w>":5970,"medication</w>":5971,"wake</w>":5972,"ourselves</w>":5973,"num</w>":5974,"fair</w>":5975,"fusion</w>":5976,"married</w>":5977,"grants</w>":5978,"lined</w>":5979,"links</w>":5980,"stuff</w>":5981,"ppv</w>":5982,"tension</w>":5983,"fined</w>":5984,"stations</w>":5985,"hub</w>":5986,"probable</w>":5987,"pical</w>":5988,"pigs</w>":5989,"sensible</w>":5990,"transiting</w>":5991,"transmissible</w>":5992,"transmitting</w>":5993,"arities</w>":5994,"priori":5995,"gave</w>":5996,"publication</w>":5997,"interfere</w>":5998,"phr":5999,"closures</w>":6000,"largely</w>":6001,"dating</w>":6002,"auto</w>":6003,"ism</w>":6004,"isra":6005,"orial</w>":6006,"generate</w>":6007,"approx</w>":6008,"approve</w>":6009,"airways</w>":6010,"mentions</w>":6011,"mentally</w>":6012,"backed</w>":6013,"turns</w>":6014,"virtually</w>":6015,"respirator</w>":6016,"pointing</w>":6017,"flatten</w>":6018,"courses</w>":6019,"protecting</w>":6020,"seeking</w>":6021,"helping</w>":6022,"relax</w>":6023,"regulated</w>":6024,"passing</w>":6025,"subway</w>":6026,"substitu":6027,"subsection</w>":6028,"ranging</w>":6029,"restricting</w>":6030,"etf</w>":6031,"signature</w>":6032,"keeps</w>":6033,"overview</w>":6034,"everywhere</w>":6035,"voi":6036,"volu":6037,"voters</w>":6038,"earlie":6039,"supposed</w>":6040,"furl":6041,"eukar":6042,"crew</w>":6043,"influen":6044,"pack</w>":6045,"packed</w>":6046,"deciding</w>":6047,"xide</w>":6048,"2001</w>":6049,"2007</w>":6050,"nyt</w>":6051,"warm</w>":6052,"block</w>":6053,"ama</w>":6054,"dency</w>":6055,"learned</w>":6056,"landed</w>":6057,"brn</w>":6058,"bron":6059,"filters</w>":6060,"collap":6061,"bag</w>":6062,"residu":6063,"appearance</w>":6064,"traveled</w>":6065,"repatri":6066,"experimental</w>":6067,"prediction</w>":6068,"interested</w>":6069,"interestingly</w>":6070,"demia</w>":6071,"charges</w>":6072,"halt</w>":6073,"liter":6074,"frag":6075,"tropical</w>":6076,"regional</w>":6077,"spoon</w>":6078,"circulation</w>":6079,"adult</w>":6080,"descrip":6081,"tails</w>":6082,"graham</w>":6083,"assemb":6084,"comor":6085,"definitions</w>":6086,"locked</w>":6087,"chick":6088,"syncy":6089,"reductions</w>":6090,"consular</w>":6091,"consuming</w>":6092,"consumer</w>":6093,"removal</w>":6094,"sky":6095,"skill</w>":6096,"collect</w>":6097,"survives</w>":6098,"involves</w>":6099,"deliver":6100,"delivered</w>":6101,"container</w>":6102,"user</w>":6103,"suspici":6104,"desire</w>":6105,"graded</w>":6106,"institution</w>":6107,"presentation</w>":6108,"crucial</w>":6109,"reserve</w>":6110,"techniques</w>":6111,"equally</w>":6112,"tracing</w>":6113,"tracted</w>":6114,"gathering</w>":6115,"killing</w>":6116,"encouraging</w>":6117,"watching</w>":6118,"extinc":6119,"graph</w>":6120,"graphy</w>":6121,"molecule</w>":6122,"capture</w>":6123,"accepted</w>":6124,"shortly</w>":6125,"demographic</w>":6126,"connections</w>":6127,"crowds</w>":6128,"dispose</w>":6129,"determining</w>":6130,"vacation</w>":6131,"stopping</w>":6132,"shutdown</w>":6133,"identifying</w>":6134,"nationwide</w>":6135,"discuss</w>":6136,"swine</w>":6137,"tang</w>":6138,"inhibit</w>":6139,"chlorine</w>":6140,"justified</w>":6141,"establish":6142,"aerosol</w>":6143,"academia</w>":6144,"ctv</w>":6145,"obligation</w>":6146,"attempting</w>":6147,"leaves</w>":6148,"meanwhile</w>":6149,"economist</w>":6150,"provinces</w>":6151,"postpon":6152,"persistent</w>":6153,"guardian</w>":6154,"hydrogen</w>":6155,"simulations</w>":6156,"legitimate</w>":6157,"contributions</w>":6158,"contribute</w>":6159,"overwhelmed</w>":6160,"doubling</w>":6161,"defence</w>":6162,"adapted</w>":6163,"laboratories</w>":6164,"advantage</w>":6165,"demonstrated</w>":6166,"personnel</w>":6167,"slowly</w>":6168,"attack</w>":6169,"conventional</w>":6170,"automatically</w>":6171,"behaviour</w>":6172,"profits</w>":6173,"candidates</w>":6174,"electron</w>":6175,"kov</w>":6176,"wonder</w>":6177,"customers</w>":6178,"raising</w>":6179,"substantial</w>":6180,"substantially</w>":6181,"flexibility</w>":6182,"inhibitor</w>":6183,"tiny</w>":6184,"evacuation</w>":6185,"neutral</w>":6186,"successfully</w>":6187,"guarante":6188,"element</w>":6189,"swiss</w>":6190,"devices</w>":6191,"spouses</w>":6192,"mistake</w>":6193,"mistakes</w>":6194,"gradually</w>":6195,"intervention</w>":6196,"ott</w>":6197,"routing</w>":6198,"cabins</w>":6199,"solid</w>":6200,"georgi":6201,"distinct</w>":6202,"dynamic</w>":6203,"21st</w>":6204,"manife":6205,"loads</w>":6206,"surprised</w>":6207,"politicians</w>":6208,"zoonotic</w>":6209,"cnn</w>":6210,"varying</w>":6211,"holiday</w>":6212,"label</w>":6213,"apartment</w>":6214,"africa</w>":6215,"speculation</w>":6216,"datasets</w>":6217,"weekend</w>":6218,"pattern</w>":6219,"kidney</w>":6220,"decades</w>":6221,"wavelengths</w>":6222,"participation</w>":6223,"bacteriopha":6224,"colleagues</w>":6225,"corticosteroids</w>":6226,"euro</w>":6227,"annual</w>":6228,"mammals</w>":6229,"proxim":6230,"power":6231,"laundry</w>":6232,"opposite</w>":6233,"vehicle</w>":6234,"neighborhood</w>":6235,"kingdom</w>":6236,"fatigue</w>":6237,"efficacy</w>":6238,"elliott</w>":6239,"greek</w>":6240,"carbonate</w>":6241,"chicago</w>":6242,"designated</w>":6243,"polyadenylation</w>":6244,"ancestor</w>":6245,"dismissals</w>":6246,"arbitrary</w>":6247,"thursday</w>":6248,"thailand</w>":6249,"rescue</w>":6250,"arabia</w>":6251,"victims</w>":6252,"camels</w>":6253,"listen</w>":6254,"hopkins</w>":6255,"meetings</w>":6256,"exhales</w>":6257,"facepiece</w>":6258,"earliest</w>":6259,"eukaryotic</w>":6260,"06</w>":6261,"120":6262,"22":6263,"2m</w>":6264,"3c":6265,"44":6266,"47</w>":6267,"58":6268,"62</w>":6269,"67</w>":6270,"63</w>":6271,"71</w>":6272,"77</w>":6273,"73</w>":6274,"76</w>":6275,"700</w>":6276,"7001</w>":6277,"888</w>":6278,"az":6279,"avi":6280,"amb":6281,"ational</w>":6282,"aaa</w>":6283,"bid</w>":6284,"blow":6285,"blan":6286,"bind</w>":6287,"bmatrix</w>":6288,"crea":6289,"ccu":6290,"cles</w>":6291,"df</w>":6292,"dal</w>":6293,"dsec":6294,"dden</w>":6295,"dash":6296,"eti":6297,"ema":6298,"eded</w>":6299,"fs</w>":6300,"foun":6301,"four":6302,"filled</w>":6303,"gm</w>":6304,"gal":6305,"gun":6306,"gone</w>":6307,"gori":6308,"gly":6309,"hire</w>":6310,"ist</w>":6311,"ica</w>":6312,"jones</w>":6313,"kit":6314,"khan</w>":6315,"lity</w>":6316,"mn":6317,"md</w>":6318,"mach</w>":6319,"mson":6320,"nings</w>":6321,"nia</w>":6322,"npv</w>":6323,"oti":6324,"ood</w>":6325,"olar</w>":6326,"p2</w>":6327,"pit":6328,"pli":6329,"pter</w>":6330,"pure</w>":6331,"pages</w>":6332,"rh</w>":6333,"ri</w>":6334,"rin":6335,"ral</w>":6336,"si</w>":6337,"slo":6338,"sse":6339,"sad":6340,"stions</w>":6341,"sman</w>":6342,"slower</w>":6343,"tch</w>":6344,"ube</w>":6345,"ums</w>":6346,"utum</w>":6347,"vo</w>":6348,"van":6349,"vous</w>":6350,"vating</w>":6351,"vated</w>":6352,"vnews</w>":6353,"vations</w>":6354,"wa</w>":6355,"wu</w>":6356,"woul":6357,"yback</w>":6358,"zu":6359,"thly</w>":6360,"ino</w>":6361,"intr":6362,"intru":6363,"inations</w>":6364,"inhal":6365,"insufficient</w>":6366,"indoors</w>":6367,"ano":6368,"andrew</w>":6369,"reci":6370,"remin":6371,"reinfection</w>":6372,"regre":6373,"revo":6374,"relate</w>":6375,"tia</w>":6376,"tighten":6377,"era</w>":6378,"coded</w>":6379,"cook</w>":6380,"cotton</w>":6381,"ent":6382,"endo":6383,"enter":6384,"enable</w>":6385,"entered</w>":6386,"ensuring</w>":6387,"arti":6388,"army</w>":6389,"teach":6390,"teams</w>":6391,"one":6392,"oned</w>":6393,"onavir</w>":6394,"alex</w>":6395,"algori":6396,"orr":6397,"vice</w>":6398,"viet</w>":6399,"vision</w>":6400,"vigorous</w>":6401,"royal</w>":6402,"ita</w>":6403,"itation</w>":6404,"stently</w>":6405,"stages</w>":6406,"cap</w>":6407,"cares</w>":6408,"acqu":6409,"accompani":6410,"noting</w>":6411,"dice</w>":6412,"dible</w>":6413,"dities</w>":6414,"eces</w>":6415,"lit</w>":6416,"life":6417,"lips</w>":6418,"sick":6419,"simul":6420,"theless</w>":6421,"losing</w>":6422,"defe":6423,"dedicated</w>":6424,"unavailable</w>":6425,"uncertain</w>":6426,"unintended</w>":6427,"sex</w>":6428,"sees</w>":6429,"seat":6430,"seaf":6431,"semin":6432,"session</w>":6433,"ria</w>":6434,"ries</w>":6435,"rises</w>":6436,"mar</w>":6437,"bed":6438,"spa":6439,"sputum</w>":6440,"split</w>":6441,"conv":6442,"conser":6443,"hot":6444,"hoea</w>":6445,"propor":6446,"proven</w>":6447,"projected</w>":6448,"propag":6449,"abroad</w>":6450,"nego":6451,"nell</w>":6452,"poor":6453,"posts</w>":6454,"polling</w>":6455,"lati":6456,"laid</w>":6457,"lasting</w>":6458,"launder</w>":6459,"layer</w>":6460,"mel":6461,"met</w>":6462,"mess</w>":6463,"mexi":6464,"tion1</w>":6465,"mia</w>":6466,"buyback</w>":6467,"exchange</w>":6468,"opened</w>":6469,"infants</w>":6470,"tap</w>":6471,"take":6472,"admission</w>":6473,"safer</w>":6474,"satis":6475,"well":6476,"feb</w>":6477,"fell</w>":6478,"sha</w>":6479,"moti":6480,"motion</w>":6481,"momo</w>":6482,"preju":6483,"preprint</w>":6484,"aporation</w>":6485,"hear</w>":6486,"permit</w>":6487,"permitted</w>":6488,"toll</w>":6489,"toler":6490,"cet</w>":6491,"infects</w>":6492,"geo":6493,"wordsec":6494,"gofund":6495,"gostin</w>":6496,"key":6497,"irrit":6498,"boat</w>":6499,"boards</w>":6500,"faces</w>":6501,"factory</w>":6502,"pains</w>":6503,"paths</w>":6504,"surger":6505,"githu":6506,"ration":6507,"raid</w>":6508,"couri":6509,"compo":6510,"compound</w>":6511,"afraid</w>":6512,"scare</w>":6513,"evaporation</w>":6514,"monthly</w>":6515,"ansi</w>":6516,"mina</w>":6517,"fornia</w>":6518,"implies</w>":6519,"impacts</w>":6520,"yellow</w>":6521,"tum":6522,"medications</w>":6523,"medium</w>":6524,"juice</w>":6525,"nuclear</w>":6526,"fur</w>":6527,"full":6528,"margin":6529,"markov</w>":6530,"efficient</w>":6531,"tried</w>":6532,"trigger</w>":6533,"stered</w>":6534,"specimens</w>":6535,"fini":6536,"fines</w>":6537,"finland</w>":6538,"alive</w>":6539,"alities</w>":6540,"alism</w>":6541,"pile</w>":6542,"piece</w>":6543,"sending</w>":6544,"firm</w>":6545,"firms</w>":6546,"interface</w>":6547,"interim</w>":6548,"cloture</w>":6549,"clovir</w>":6550,"readers</w>":6551,"disinfected</w>":6552,"withdraw</w>":6553,"dropped</w>":6554,"inform</w>":6555,"apped</w>":6556,"channel</w>":6557,"stoch":6558,"stomach</w>":6559,"strand</w>":6560,"turk":6561,"turkey</w>":6562,"illnesses</w>":6563,"anticip":6564,"antivirals</w>":6565,"responding</w>":6566,"pointed</w>":6567,"panose</w>":6568,"flat</w>":6569,"flying</w>":6570,"indication</w>":6571,"obste":6572,"shop</w>":6573,"secu":6574,"sections</w>":6575,"secure</w>":6576,"truck</w>":6577,"underway</w>":6578,"understand":6579,"passes</w>":6580,"submit</w>":6581,"engage</w>":6582,"emerged</w>":6583,"nicovi":6584,"caring</w>":6585,"cardi":6586,"cards</w>":6587,"match</w>":6588,"famili":6589,"quarters</w>":6590,"germs</w>":6591,"anymore</w>":6592,"starts</w>":6593,"proceed</w>":6594,"processes</w>":6595,"epitheli":6596,"cheaper</w>":6597,"suggestions</w>":6598,"bank":6599,"grows</w>":6600,"earning</w>":6601,"suppres":6602,"quarantining</w>":6603,"eua</w>":6604,"structural</w>":6605,"credible</w>":6606,"claim":6607,"estimating</w>":6608,"threat":6609,"thresho":6610,"electri":6611,"crown</w>":6612,"happy</w>":6613,"shif":6614,"shield</w>":6615,"shipped</w>":6616,"similarly</w>":6617,"2002</w>":6618,"throats</w>":6619,"affects</w>":6620,"warmer</w>":6621,"contractor</w>":6622,"clinically</w>":6623,"denly</w>":6624,"dentally</w>":6625,"hardest</w>":6626,"1999</w>":6627,"clubs</w>":6628,"cluster</w>":6629,"negatively</w>":6630,"clari":6631,"land":6632,"lancet</w>":6633,"employment</w>":6634,"euromomo</w>":6635,"suppli":6636,"supporting</w>":6637,"exposing</w>":6638,"bah":6639,"chaos</w>":6640,"travelled</w>":6641,"physicians</w>":6642,"physician</w>":6643,"reply</w>":6644,"pneumo":6645,"predicted</w>":6646,"predictors</w>":6647,"bene":6648,"detergent</w>":6649,"charset</w>":6650,"broken</w>":6651,"handled</w>":6652,"suffi":6653,"circulating</w>":6654,"exception</w>":6655,"borro":6656,"edit":6657,"play":6658,"binds</w>":6659,"street</w>":6660,"attendance</w>":6661,"analyses</w>":6662,"analyze</w>":6663,"analytical</w>":6664,"assessing</w>":6665,"speed</w>":6666,"forecast</w>":6667,"synthesis</w>":6668,"synchronous</w>":6669,"observe</w>":6670,"consume</w>":6671,"documented</w>":6672,"appropriately</w>":6673,"leads</w>":6674,"surviv":6675,"survived</w>":6676,"bert</w>":6677,"involvement</w>":6678,"taxable</w>":6679,"nonfrivolous</w>":6680,"argued</w>":6681,"calend":6682,"presentations</w>":6683,"carriers</w>":6684,"scheme</w>":6685,"targets</w>":6686,"success</w>":6687,"exacer":6688,"pdm":6689,"hospitalizations</w>":6690,"technique</w>":6691,"aim</w>":6692,"aids</w>":6693,"tracking</w>":6694,"delayed</w>":6695,"sanitize</w>":6696,"receptors</w>":6697,"conclusive</w>":6698,"holding</w>":6699,"epidemiologists</w>":6700,"programming</w>":6701,"corporation</w>":6702,"explains</w>":6703,"ballot</w>":6704,"visitor</w>":6705,"debate</w>":6706,"spikes</w>":6707,"shortage</w>":6708,"nervous</w>":6709,"addressed</w>":6710,"australi":6711,"journey</w>":6712,"accurately</w>":6713,"distant</w>":6714,"qualifying</w>":6715,"combat</w>":6716,"broadcast</w>":6717,"thirds</w>":6718,"strategies</w>":6719,"mechanisms</w>":6720,"2863":6721,"failure</w>":6722,"practically</w>":6723,"tane":6724,"conduct</w>":6725,"quotes</w>":6726,"quote</w>":6727,"justify</w>":6728,"statisti":6729,"ctvnews</w>":6730,"smoke</w>":6731,"smooth</w>":6732,"attempts</w>":6733,"meantime</w>":6734,"exclusi":6735,"disrupted</w>":6736,"recognition</w>":6737,"territories</w>":6738,"zerland</w>":6739,"contributed</w>":6740,"overwhelming</w>":6741,"overwhelmingly</w>":6742,"wild</w>":6743,"tiredness</w>":6744,"adaptive</w>":6745,"feels</w>":6746,"calculation</w>":6747,"educa":6748,"demonstrate</w>":6749,"constitution</w>":6750,"absolute</w>":6751,"ggles</w>":6752,"jama":6753,"categories</w>":6754,"mixture</w>":6755,"myself</w>":6756,"trend</w>":6757,"conveni":6758,"evolutionary</w>":6759,"freely</w>":6760,"honour</w>":6761,"thorough</w>":6762,"replacing</w>":6763,"career</w>":6764,"lifted</w>":6765,"importation</w>":6766,"briefly</w>":6767,"targeting</w>":6768,"reservoirs</w>":6769,"wondering</w>":6770,"refuse</w>":6771,"constructed</w>":6772,"raises</w>":6773,"radiation</w>":6774,"manager</w>":6775,"criticism</w>":6776,"evaluated</w>":6777,"switzerland</w>":6778,"allevi":6779,"visited</w>":6780,"favor</w>":6781,"calibr":6782,"california</w>":6783,"representative</w>":6784,"discla":6785,"preceding</w>":6786,"expanded</w>":6787,"purchased</w>":6788,"prohibit</w>":6789,"inflamm":6790,"compromise</w>":6791,"characteristics</w>":6792,"sleep</w>":6793,"vector</w>":6794,"cabin</w>":6795,"acceler":6796,"achieve</w>":6797,"queens":6798,"waiver</w>":6799,"dynamics</w>":6800,"8888</w>":6801,"surprise</w>":6802,"politician</w>":6803,"pmc</w>":6804,"concept</w>":6805,"promptly</w>":6806,"metabo":6807,"functional</w>":6808,"disinfectant</w>":6809,"disinfectants</w>":6810,"pursue</w>":6811,"meaningless</w>":6812,"campaigns</w>":6813,"june</w>":6814,"mount</w>":6815,"suddenly</w>":6816,"sophisticated</w>":6817,"aggressive</w>":6818,"engineering</w>":6819,"revealed</w>":6820,"reinforcement</w>":6821,"confinement</w>":6822,"expressed</w>":6823,"dozen</w>":6824,"emphasi":6825,"integral</w>":6826,"nbsp</w>":6827,"smarter</w>":6828,"arrange":6829,"accrue</w>":6830,"discretion</w>":6831,"livestock</w>":6832,"adenovirus</w>":6833,"doorknobs</w>":6834,"scratch</w>":6835,"pharmacies</w>":6836,"nanoparticle</w>":6837,"concentrated</w>":6838,"youtube</w>":6839,"casual</w>":6840,"discrimination</w>":6841,"lombar":6842,"fighting</w>":6843,"pulmon":6844,"parainfluenza</w>":6845,"responsibility</w>":6846,"citizenship</w>":6847,"sciencemag</w>":6848,"occasionally</w>":6849,"ammonia</w>":6850,"bags</w>":6851,"enjoy</w>":6852,"taught</w>":6853,"cellular</w>":6854,"implications</w>":6855,"israel</w>":6856,"volume</w>":6857,"skype</w>":6858,"proximity</w>":6859,"1206</w>":6860,"3cl</w>":6861,"blowing</w>":6862,"glyco":6863,"msonormal</w>":6864,"pitch</w>":6865,"regression</w>":6866,"algorith":6867,"accompanied</w>":6868,"seafood</w>":6869,"negoti":6870,"mexico</w>":6871,"prejudice</w>":6872,"wordsection1</w>":6873,"gofundme</w>":6874,"github</w>":6875,"marginal</w>":6876,"anticipate</w>":6877,"calendar</w>":6878,"queensland</w>":6879,"09":6880,"1st</w>":6881,"1pdm":6882,"212</w>":6883,"229":6884,"328</w>":6885,"42</w>":6886,"46</w>":6887,"58</w>":6888,"53</w>":6889,"68":6890,"69":6891,"82</w>":6892,"91</w>":6893,"ay":6894,"ah</w>":6895,"ac</w>":6896,"ape":6897,"amu":6898,"amid</w>":6899,"ahu</w>":6900,"bil":6901,"bad":6902,"bend</w>":6903,"bbs</w>":6904,"cv</w>":6905,"cers</w>":6906,"cke":6907,"cars</w>":6908,"cgis</w>":6909,"ds":6910,"dw":6911,"dor":6912,"dred</w>":6913,"dens</w>":6914,"dlife</w>":6915,"eing</w>":6916,"ears</w>":6917,"eos</w>":6918,"gp</w>":6919,"gments</w>":6920,"gins</w>":6921,"hr":6922,"hen":6923,"hill</w>":6924,"hate</w>":6925,"hall":6926,"hsa</w>":6927,"iv":6928,"iri":6929,"ities</w>":6930,"ibb":6931,"jp</w>":6932,"jing</w>":6933,"kal":6934,"kra":6935,"kis":6936,"ktor</w>":6937,"lg</w>":6938,"lf</w>":6939,"lor</w>":6940,"lance</w>":6941,"lman</w>":6942,"lant":6943,"llap</w>":6944,"mu</w>":6945,"mou":6946,"mmation</w>":6947,"nr</w>":6948,"np</w>":6949,"nity</w>":6950,"npr</w>":6951,"ois</w>":6952,"oli":6953,"ole":6954,"ove":6955,"oxide</w>":6956,"pti":6957,"pal</w>":6958,"pone</w>":6959,"psy":6960,"ptical</w>":6961,"pta</w>":6962,"qrt</w>":6963,"rs":6964,"rr</w>":6965,"rating</w>":6966,"rlap</w>":6967,"sf</w>":6968,"sc</w>":6969,"s7</w>":6970,"squi":6971,"sqrt</w>":6972,"tl</w>":6973,"ti</w>":6974,"tted</w>":6975,"tant</w>":6976,"uv":6977,"uv</w>":6978,"usible</w>":6979,"va</w>":6980,"wri":6981,"wages</w>":6982,"xx</w>":6983,"ya</w>":6984,"you":6985,"zz":6986,"thes</w>":6987,"thin</w>":6988,"thri":6989,"thers</w>":6990,"inu</w>":6991,"ints</w>":6992,"intu":6993,"inevi":6994,"inven":6995,"ineffective</w>":6996,"instances</w>":6997,"indefinitely</w>":6998,"incorporate</w>":6999,"innate</w>":7000,"ange":7001,"ances</w>":7002,"anten":7003,"red":7004,"reti":7005,"rese":7006,"relu":7007,"repu":7008,"reid</w>":7009,"refer":7010,"retail":7011,"resolution</w>":7012,"remind</w>":7013,"reaches</w>":7014,"referred</w>":7015,"reson":7016,"reduces</w>":7017,"tise</w>":7018,"timing</w>":7019,"timatic</w>":7020,"ery</w>":7021,"ersion</w>":7022,"covery</w>":7023,"copy":7024,"enact</w>":7025,"endemic</w>":7026,"arcgis</w>":7027,"outer</w>":7028,"tea</w>":7029,"tech</w>":7030,"tedly</w>":7031,"ong":7032,"online":7033,"onward</w>":7034,"alli":7035,"albe":7036,"orit":7037,"vig":7038,"visible</w>":7039,"viktor</w>":7040,"rolling</w>":7041,"robert</w>":7042,"stence</w>":7043,"sture</w>":7044,"stories</w>":7045,"cave":7046,"cake</w>":7047,"cape</w>":7048,"act":7049,"ace</w>":7050,"acks</w>":7051,"accommo":7052,"noses</w>":7053,"nored</w>":7054,"notably</w>":7055,"asser":7056,"assign":7057,"dic</w>":7058,"dium</w>":7059,"distress</w>":7060,"ata</w>":7061,"atlant":7062,"lie</w>":7063,"lift</w>":7064,"lifer":7065,"sition</w>":7066,"sight</w>":7067,"sign</w>":7068,"illin":7069,"ruled</w>":7070,"located</w>":7071,"deo</w>":7072,"dele":7073,"descent</w>":7074,"deresti":7075,"suit</w>":7076,"unit</w>":7077,"uncommon</w>":7078,"unknow":7079,"unprece":7080,"unpredictable</w>":7081,"underesti":7082,"sea</w>":7083,"sez</w>":7084,"sement</w>":7085,"seats</w>":7086,"rich</w>":7087,"rigorous</w>":7088,"maca":7089,"behave</w>":7090,"belong</w>":7091,"sper":7092,"spra":7093,"conjun":7094,"condoms</w>":7095,"prop</w>":7096,"proves</w>":7097,"profile</w>":7098,"proposed</w>":7099,"produces</w>":7100,"prolifer":7101,"absen":7102,"absent</w>":7103,"absor":7104,"nepal</w>":7105,"posit":7106,"posted</w>":7107,"chats</w>":7108,"lag</w>":7109,"layo":7110,"lasts</w>":7111,"lais":7112,"med":7113,"mem":7114,"mest</w>":7115,"meant</w>":7116,"merely</w>":7117,"metric</w>":7118,"tioning</w>":7119,"sole":7120,"sodium</w>":7121,"tro</w>":7122,"trine</w>":7123,"missing</w>":7124,"but":7125,"bug</w>":7126,"bust</w>":7127,"bucha":7128,"expl":7129,"versus</w>":7130,"open":7131,"opens</w>":7132,"ophar":7133,"fil</w>":7134,"ficial</w>":7135,"fications</w>":7136,"tains</w>":7137,"taste</w>":7138,"adds</w>":7139,"adole":7140,"peter</w>":7141,"pepti":7142,"samm":7143,"quet":7144,"wells</w>":7145,"wearer</w>":7146,"vets</w>":7147,"cipa":7148,"feline</w>":7149,"dot</w>":7150,"dots</w>":7151,"domain</w>":7152,"movements</w>":7153,"mothers</w>":7154,"prescri":7155,"preexisting</w>":7156,"heres</w>":7157,"hepati":7158,"peroxide</w>":7159,"toky":7160,"cel</w>":7161,"cements</w>":7162,"got":7163,"goggles</w>":7164,"mmer</w>":7165,"dutch</w>":7166,"terri":7167,"rence</w>":7168,"bol":7169,"box":7170,"bott":7171,"facilit":7172,"cured</w>":7173,"surro":7174,"puts</w>":7175,"push</w>":7176,"gig</w>":7177,"gibbs</w>":7178,"paralle":7179,"ounding</w>":7180,"compa":7181,"afai":7182,"scents</w>":7183,"evening</w>":7184,"monet":7185,"ingredi":7186,"gut</w>":7187,"gun</w>":7188,"guil":7189,"guine":7190,"gupta</w>":7191,"counted</w>":7192,"commen":7193,"escape</w>":7194,"plas":7195,"answered</w>":7196,"spectru":7197,"oly":7198,"formul":7199,"imper":7200,"yesian</w>":7201,"rism</w>":7202,"tico</w>":7203,"cane</w>":7204,"server</w>":7205,"servers</w>":7206,"faire</w>":7207,"faqs</w>":7208,"marketing</w>":7209,"stem</w>":7210,"stein</w>":7211,"steve</w>":7212,"curves</w>":7213,"recall</w>":7214,"tends</w>":7215,"tenancy</w>":7216,"stained</w>":7217,"align":7218,"alize</w>":7219,"picked</w>":7220,"pieces</w>":7221,"senators</w>":7222,"transmissibility</w>":7223,"nato</w>":7224,"named</w>":7225,"nause":7226,"nationally</w>":7227,"gative</w>":7228,"interior</w>":7229,"explo":7230,"stands</w>":7231,"stantly</w>":7232,"phd</w>":7233,"phi</w>":7234,"phones</w>":7235,"clothing</w>":7236,"milder</w>":7237,"mildly</w>":7238,"sind</w>":7239,"cercel</w>":7240,"duced</w>":7241,"funeral</w>":7242,"discharge</w>":7243,"disabilities</w>":7244,"discovery</w>":7245,"biased</w>":7246,"bidities</w>":7247,"examination</w>":7248,"origins</w>":7249,"menting</w>":7250,"cleaned</w>":7251,"foo":7252,"foods</w>":7253,"foot</w>":7254,"stock":7255,"vacancy</w>":7256,"empiri":7257,"penn</w>":7258,"penalty</w>":7259,"probabilities</w>":7260,"anticipa":7261,"ception</w>":7262,"indicating</w>":7263,"seemingly</w>":7264,"sector</w>":7265,"trust</w>":7266,"trusts</w>":7267,"modest</w>":7268,"loose</w>":7269,"undergoing</w>":7270,"consists</w>":7271,"consistently</w>":7272,"submissions</w>":7273,"emerge</w>":7274,"emerges</w>":7275,"politico</w>":7276,"folding</w>":7277,"direction</w>":7278,"touri":7279,"tourism</w>":7280,"housing</w>":7281,"houston</w>":7282,"searching</w>":7283,"offices</w>":7284,"matches</w>":7285,"authorit":7286,"sourced</w>":7287,"anyways</w>":7288,"overcome</w>":7289,"conditioned</w>":7290,"volati":7291,"banning</w>":7292,"grown</w>":7293,"tized</w>":7294,"suppress</w>":7295,"issuing</w>":7296,"imer</w>":7297,"checking</w>":7298,"estimation</w>":7299,"variations</w>":7300,"variables</w>":7301,"completed</w>":7302,"elected</w>":7303,"elective</w>":7304,"logies</w>":7305,"neuro":7306,"controlling</w>":7307,"ritonavir</w>":7308,"universal</w>":7309,"intest":7310,"recommending</w>":7311,"planet</w>":7312,"warn</w>":7313,"warmest</w>":7314,"blocks</w>":7315,"organs</w>":7316,"ambul":7317,"deno":7318,"dented</w>":7319,"investing</w>":7320,"198</w>":7321,"join</w>":7322,"statute</w>":7323,"cler":7324,"clou":7325,"socially</w>":7326,"increasingly</w>":7327,"eurozone</w>":7328,"choo":7329,"eight</w>":7330,"prevented</w>":7331,"supported</w>":7332,"distribute</w>":7333,"bayesian</w>":7334,"chair</w>":7335,"chains</w>":7336,"appeared</w>":7337,"organism</w>":7338,"experiments</w>":7339,"experimentation</w>":7340,"operational</w>":7341,"handwashing</w>":7342,"intend</w>":7343,"intention</w>":7344,"registration</w>":7345,"sufficiently</w>":7346,"cataly":7347,"fulfil</w>":7348,"pneumoni":7349,"expertise</w>":7350,"describes</w>":7351,"plain</w>":7352,"transcrip":7353,"doctrine</w>":7354,"stressed</w>":7355,"streets</w>":7356,"streinu</w>":7357,"assessed</w>":7358,"ific</w>":7359,"labour</w>":7360,"observing</w>":7361,"officially</w>":7362,"10th</w>":7363,"consulate</w>":7364,"consulates</w>":7365,"printing</w>":7366,"korean</w>":7367,"ficiency</w>":7368,"ilize</w>":7369,"ski</w>":7370,"145</w>":7371,"14th</w>":7372,"lectures</w>":7373,"oughed</w>":7374,"multipli":7375,"collabor":7376,"collecting</w>":7377,"maternity</w>":7378,"midnight</w>":7379,"acetic</w>":7380,"detection</w>":7381,"replicating</w>":7382,"communicable</w>":7383,"pathogenic</w>":7384,"pathogenicity</w>":7385,"users</w>":7386,"grading</w>":7387,"graduation</w>":7388,"genetics</w>":7389,"crash</w>":7390,"detecting</w>":7391,"reserved</w>":7392,"separated</w>":7393,"separately</w>":7394,"formally</w>":7395,"properties</w>":7396,"built</w>":7397,"improved</w>":7398,"occupied</w>":7399,"owner":7400,"manufacturers</w>":7401,"encourages</w>":7402,"genomes</w>":7403,"genomic</w>":7404,"chemist</w>":7405,"sequencing</w>":7406,"sporting</w>":7407,"pregnancies</w>":7408,"ballots</w>":7409,"packages</w>":7410,"succeeded</w>":7411,"hundred</w>":7412,"danger</w>":7413,"connected</w>":7414,"sensitive</w>":7415,"505</w>":7416,"distor":7417,"occurring</w>":7418,"considerations</w>":7419,"broadly</w>":7420,"fleet</w>":7421,"moderna</w>":7422,"focusing</w>":7423,"mechanical</w>":7424,"287001</w>":7425,"respectively</w>":7426,"destinations</w>":7427,"failing</w>":7428,"discussing</w>":7429,"ffp</w>":7430,"ffin</w>":7431,"scot":7432,"pooling</w>":7433,"microbiology</w>":7434,"microscope</w>":7435,"designing</w>":7436,"establish</w>":7437,"smoking</w>":7438,"excluding</w>":7439,"monitoring</w>":7440,"interpreted</w>":7441,"disruptions</w>":7442,"virologist</w>":7443,"darity</w>":7444,"prison</w>":7445,"methodo":7446,"cipal</w>":7447,"overwhelm</w>":7448,"machiner":7449,"wiley</w>":7450,"wildlife</w>":7451,"refusing</w>":7452,"refusal</w>":7453,"introducing</w>":7454,"introduction</w>":7455,"flood</w>":7456,"greatest</w>":7457,"telephone</w>":7458,"television</w>":7459,"licit</w>":7460,"specialists</w>":7461,"fashi":7462,"glasses</w>":7463,"john</w>":7464,"johns</w>":7465,"cbp</w>":7466,"photo</w>":7467,"sorts</w>":7468,"sorry</w>":7469,"enforced</w>":7470,"rooting</w>":7471,"extraction</w>":7472,"extrapo":7473,"nucleoti":7474,"automatic</w>":7475,"honor</w>":7476,"replacement</w>":7477,"competi":7478,"competition</w>":7479,"neighbour":7480,"lacking</w>":7481,"lessons</w>":7482,"begins</w>":7483,"homeland</w>":7484,"homemade</w>":7485,"misinformation</w>":7486,"toilets</w>":7487,"criticized</w>":7488,"evaluate</w>":7489,"ventilator</w>":7490,"aspect</w>":7491,"aspects</w>":7492,"dilution</w>":7493,"theoretically</w>":7494,"appointments</w>":7495,"day3</w>":7496,"favor":7497,"comfort</w>":7498,"farms</w>":7499,"remained</w>":7500,"cooking</w>":7501,"italians</w>":7502,"springer</w>":7503,"sheet</w>":7504,"expanding</w>":7505,"classification</w>":7506,"771</w>":7507,"fruit</w>":7508,"tweet</w>":7509,"sunday</w>":7510,"sunlight</w>":7511,"inflammation</w>":7512,"shelter</w>":7513,"graduate</w>":7514,"interventions</w>":7515,"phages</w>":7516,"achieved</w>":7517,"solidarity</w>":7518,"component</w>":7519,"waived</w>":7520,"distinction</w>":7521,"h1n1pdm":7522,"narro":7523,"loaded</w>":7524,"electroly":7525,"electrostatic</w>":7526,"therapy</w>":7527,"nonimmigrants</w>":7528,"zoonoses</w>":7529,"zika</w>":7530,"holidays</w>":7531,"functioning</w>":7532,"meaningful</w>":7533,"campaign</w>":7534,"amate":7535,"battle</w>":7536,"ignoring</w>":7537,"aciclovir</w>":7538,"silver</w>":7539,"sophie</w>":7540,"derived</w>":7541,"derivative</w>":7542,"drinking</w>":7543,"ignored</w>":7544,"macrophages</w>":7545,"skeptical</w>":7546,"archives</w>":7547,"correspondent</w>":7548,"historical</w>":7549,"breastfeeding</w>":7550,"fundamental</w>":7551,"objections</w>":7552,"hypertension</w>":7553,"supplement</w>":7554,"supplemental</w>":7555,"evacuate</w>":7556,"frank":7557,"invasi":7558,"destructive</w>":7559,"allergies</w>":7560,"defense</w>":7561,"electronic</w>":7562,"hypothesi":7563,"rebate</w>":7564,"alveolar</w>":7565,"sexu":7566,"protocols</w>":7567,"platforms</w>":7568,"discourage</w>":7569,"recombination</w>":7570,"consultation</w>":7571,"neutralizing</w>":7572,"phenomenon</w>":7573,"britain</w>":7574,"mhv</w>":7575,"mckibb":7576,"oxford</w>":7577,"nejm</w>":7578,"expelled</w>":7579,"export</w>":7580,"verify</w>":7581,"mobile</w>":7582,"furloughed</w>":7583,"influenced</w>":7584,"comorbidities</w>":7585,"suspicion</w>":7586,"ambi":7587,"blanket</w>":7588,"ccus</w>":7589,"dashboard</w>":7590,"etiquet":7591,"emails</w>":7592,"kitchen</w>":7593,"intrusive</w>":7594,"tightening</w>":7595,"teachers</w>":7596,"seattle</w>":7597,"poorly</w>":7598,"wellbeing</w>":7599,"rationale</w>":7600,"couriers</w>":7601,"turkish</w>":7602,"obstetri":7603,"nicovideo</w>":7604,"cardio":7605,"clarify</w>":7606,"exacerb":7607,"2863287001</w>":7608,"statistical</w>":7609,"exclusively</w>":7610,"educational</w>":7611,"jamaica</w>":7612,"alleviate</w>":7613,"disclaimer</w>":7614,"inflammatory</w>":7615,"lombardy</w>":7616,"229e</w>":7617,"ckest</w>":7618,"psycho":7619,"uvc</w>":7620,"antenatal</w>":7621,"resemb":7622,"reluct":7623,"onlinelibrary</w>":7624,"albeit</w>":7625,"accommodation</w>":7626,"atlanta</w>":7627,"illinois</w>":7628,"unprecedented</w>":7629,"proliferate</w>":7630,"laissez</w>":7631,"bucharest</w>":7632,"opharyn":7633,"adolescents</w>":7634,"hepatitis</w>":7635,"tokyo</w>":7636,"afaik</w>":7637,"monetary</w>":7638,"guinea</w>":7639,"spectrum</w>":7640,"empirical</w>":7641,"anticipated</w>":7642,"ambulance</w>":7643,"ownership</w>":7644,"machinery</w>":7645,"h1n1pdm09</w>":7646,"mckibbin</w>":7647,"etiquette</w>":7648,"04":7649,"0c":7650,"0m</w>":7651,"12":7652,"103</w>":7653,"119":7654,"150</w>":7655,"1pt</w>":7656,"250</w>":7657,"33":7658,"39":7659,"34</w>":7660,"37</w>":7661,"302</w>":7662,"45":7663,"47":7664,"423":7665,"51</w>":7666,"57</w>":7667,"539</w>":7668,"67":7669,"70":7670,"89</w>":7671,"81</w>":7672,"92</w>":7673,"93</w>":7674,"av</w>":7675,"au</w>":7676,"atives</w>":7677,"bn":7678,"bd</w>":7679,"bn</w>":7680,"bc</w>":7681,"bon</w>":7682,"band</w>":7683,"bent</w>":7684,"bers</w>":7685,"base</w>":7686,"bage</w>":7687,"bling</w>":7688,"b26":7689,"cit":7690,"cly</w>":7691,"ccal</w>":7692,"cans":7693,"cals</w>":7694,"cream</w>":7695,"dant</w>":7696,"dently</w>":7697,"dging</w>":7698,"ee":7699,"eg":7700,"ee</w>":7701,"eds</w>":7702,"ear</w>":7703,"ements</w>":7704,"ethan":7705,"etheless</w>":7706,"fen":7707,"fers</w>":7708,"flow":7709,"gha":7710,"gment</w>":7711,"gir":7712,"gating</w>":7713,"gged</w>":7714,"glor":7715,"gaps</w>":7716,"gb26":7717,"hing</w>":7718,"ion</w>":7719,"ile</w>":7720,"isa":7721,"ired</w>":7722,"ijing</w>":7723,"ji":7724,"ji</w>":7725,"jay</w>":7726,"ka":7727,"kr</w>":7728,"kage</w>":7729,"lli":7730,"lds</w>":7731,"lpr":7732,"l188</w>":7733,"mc":7734,"mor</w>":7735,"min</w>":7736,"mso":7737,"mall</w>":7738,"male</w>":7739,"mbox</w>":7740,"morgan</w>":7741,"ml188</w>":7742,"nt</w>":7743,"ni</w>":7744,"nect</w>":7745,"nls</w>":7746,"ngt":7747,"ok":7748,"oso":7749,"oms</w>":7750,"osc":7751,"omission</w>":7752,"osh</w>":7753,"ology</w>":7754,"omitted</w>":7755,"pru":7756,"pun":7757,"phan</w>":7758,"plots</w>":7759,"praise</w>":7760,"p0m</w>":7761,"rr":7762,"ry":7763,"rhe":7764,"ray</w>":7765,"rbd</w>":7766,"sf":7767,"sg":7768,"s1</w>":7769,"sin</w>":7770,"sate</w>":7771,"sali":7772,"song</w>":7773,"ssage</w>":7774,"score</w>":7775,"tc</w>":7776,"tac":7777,"tan</w>":7778,"tance</w>":7779,"tough</w>":7780,"tari":7781,"ul</w>":7782,"ubi":7783,"usage</w>":7784,"v2</w>":7785,"von</w>":7786,"vas":7787,"van</w>":7788,"ws":7789,"wp</w>":7790,"win</w>":7791,"wad":7792,"wns</w>":7793,"wire</w>":7794,"xing</w>":7795,"yen</w>":7796,"yard</w>":7797,"yours</w>":7798,"yale</w>":7799,"ylor</w>":7800,"zx":7801,"zon</w>":7802,"zuri":7803,"that":7804,"thening</w>":7805,"inj":7806,"iny</w>":7807,"inno":7808,"inen</w>":7809,"inad":7810,"inhe":7811,"inspec":7812,"incial</w>":7813,"inability</w>":7814,"induced</w>":7815,"aners</w>":7816,"analo":7817,"real":7818,"react</w>":7819,"reopen</w>":7820,"reproduce</w>":7821,"reaching</w>":7822,"repurchase</w>":7823,"reposit":7824,"tie</w>":7825,"tim</w>":7826,"erals</w>":7827,"eradi":7828,"coding</w>":7829,"cool":7830,"coinfection</w>":7831,"covs</w>":7832,"coccal</w>":7833,"ension</w>":7834,"endly</w>":7835,"aru</w>":7836,"argen":7837,"arrange</w>":7838,"arxiv</w>":7839,"tee":7840,"aler":7841,"alar":7842,"aland</w>":7843,"ales</w>":7844,"along":7845,"orf":7846,"ordering</w>":7847,"orphan</w>":7848,"vil":7849,"vise</w>":7850,"visu":7851,"viri":7852,"vitro</w>":7853,"road":7854,"rock</w>":7855,"roles</w>":7856,"rolled</w>":7857,"roche</w>":7858,"ith</w>":7859,"itude</w>":7860,"stating</w>":7861,"strep":7862,"cata":7863,"cative</w>":7864,"casts</w>":7865,"camer":7866,"caps</w>":7867,"cakes</w>":7868,"aco</w>":7869,"acet":7870,"acids</w>":7871,"acknowle":7872,"not":7873,"nodes</w>":7874,"ass</w>":7875,"asis</w>":7876,"aska</w>":7877,"attr":7878,"attri":7879,"atlan":7880,"ateral</w>":7881,"attracted</w>":7882,"lig":7883,"lities</w>":7884,"listing</w>":7885,"lived</w>":7886,"lized</w>":7887,"litis</w>":7888,"whil":7889,"habit</w>":7890,"habits</w>":7891,"haem":7892,"sia</w>":7893,"sic</w>":7894,"sido":7895,"sider</w>":7896,"sizes</w>":7897,"thered</w>":7898,"locally</w>":7899,"lowered</w>":7900,"del</w>":7901,"dean</w>":7902,"depor":7903,"detri":7904,"define</w>":7905,"degraded</w>":7906,"sub</w>":7907,"sustained</w>":7908,"und</w>":7909,"unal</w>":7910,"unhi":7911,"units</w>":7912,"unexpected</w>":7913,"undance</w>":7914,"unusual</w>":7915,"unnecessarily</w>":7916,"unrealistic</w>":7917,"sep":7918,"seat</w>":7919,"sest</w>":7920,"sealed</w>":7921,"seinen</w>":7922,"yoga</w>":7923,"rid":7924,"righ":7925,"ricane</w>":7926,"mpy</w>":7927,"max</w>":7928,"magn":7929,"leu":7930,"leans</w>":7931,"leaning</w>":7932,"bears</w>":7933,"belon":7934,"became</w>":7935,"begun</w>":7936,"beijing</w>":7937,"splas":7938,"sphate</w>":7939,"consen":7940,"constra":7941,"concre":7942,"confusion</w>":7943,"connect</w>":7944,"hoc</w>":7945,"proof":7946,"propri":7947,"protest</w>":7948,"prolon":7949,"projec":7950,"propy":7951,"prosecu":7952,"uru</w>":7953,"uri</w>":7954,"uring</w>":7955,"urged</w>":7956,"abundance</w>":7957,"neys</w>":7958,"nether":7959,"pod":7960,"poses</w>":7961,"posting</w>":7962,"pois":7963,"poore":7964,"chi</w>":7965,"chin</w>":7966,"chun":7967,"lamp</w>":7968,"mework</w>":7969,"meters</w>":7970,"medary</w>":7971,"message</w>":7972,"sode</w>":7973,"miss</w>":7974,"mites</w>":7975,"mirr":7976,"buted</w>":7977,"burea":7978,"buyers</w>":7979,"exp</w>":7980,"exit</w>":7981,"excre":7982,"excess</w>":7983,"express</w>":7984,"veran":7985,"verse</w>":7986,"optional</w>":7987,"opposition</w>":7988,"ophen</w>":7989,"infe":7990,"infant</w>":7991,"fili":7992,"fide</w>":7993,"fiable</w>":7994,"tamin":7995,"tational</w>":7996,"tape</w>":7997,"ade</w>":7998,"adopt</w>":7999,"pes":8000,"pew</w>":8001,"pell</w>":8002,"petition</w>":8003,"sake</w>":8004,"saved</w>":8005,"sages</w>":8006,"qua":8007,"correlation</w>":8008,"cially</w>":8009,"cisc":8010,"cidal</w>":8011,"civets</w>":8012,"fever":8013,"felt</w>":8014,"fellow</w>":8015,"female</w>":8016,"shar":8017,"shes</w>":8018,"shir":8019,"shale</w>":8020,"dose</w>":8021,"doses</w>":8022,"dows</w>":8023,"mole</w>":8024,"modif":8025,"mosqui":8026,"prefer</w>":8027,"apers</w>":8028,"apps</w>":8029,"hedge</w>":8030,"percarbonate</w>":8031,"peracetic</w>":8032,"towe":8033,"tool</w>":8034,"cele":8035,"people":8036,"gee</w>":8037,"geal</w>":8038,"worth":8039,"worsen":8040,"worsen</w>":8041,"worrying</w>":8042,"worthy</w>":8043,"gov":8044,"gop</w>":8045,"lux":8046,"irin</w>":8047,"renko</w>":8048,"209</w>":8049,"2014</w>":8050,"2012</w>":8051,"boon</w>":8052,"body":8053,"boston</w>":8054,"boiling</w>":8055,"ssian</w>":8056,"stigma</w>":8057,"reaming</w>":8058,"fact":8059,"cular</w>":8060,"pap</w>":8061,"pakistan</w>":8062,"paul</w>":8063,"puri":8064,"gitis</w>":8065,"giveness</w>":8066,"muco":8067,"ramb":8068,"rais":8069,"raab</w>":8070,"mbur":8071,"mbia</w>":8072,"couples</w>":8073,"comprises</w>":8074,"scary</w>":8075,"syria</w>":8076,"contents</w>":8077,"contacting</w>":8078,"eves</w>":8079,"ingu":8080,"guy</w>":8081,"gular</w>":8082,"counc":8083,"wider</w>":8084,"widow</w>":8085,"incredi":8086,"increments</w>":8087,"communal</w>":8088,"plate</w>":8089,"htm</w>":8090,"oli</w>":8091,"anime</w>":8092,"minne":8093,"minating</w>":8094,"outlook</w>":8095,"outlined</w>":8096,"forbi":8097,"formation</w>":8098,"forgiveness</w>":8099,"impre":8100,"tude</w>":8101,"tured</w>":8102,"ticity</w>":8103,"wasting</w>":8104,"waste</w>":8105,"served</w>":8106,"fam</w>":8107,"fake</w>":8108,"fares</w>":8109,"famous</w>":8110,"marke":8111,"marks</w>":8112,"efficiently</w>":8113,"efficiency</w>":8114,"grounds</w>":8115,"lining</w>":8116,"curfew</w>":8117,"rectan":8118,"specify</w>":8119,"studied</w>":8120,"tenant</w>":8121,"finds</w>":8122,"finance</w>":8123,"findel</w>":8124,"hubs</w>":8125,"probes</w>":8126,"senior</w>":8127,"translate</w>":8128,"firstly</w>":8129,"arise</w>":8130,"priced</w>":8131,"pricing</w>":8132,"names</w>":8133,"navig":8134,"likewise</w>":8135,"gains</w>":8136,"union</w>":8137,"protein":8138,"publicly</w>":8139,"intervie":8140,"merson</w>":8141,"expand</w>":8142,"expire</w>":8143,"expands</w>":8144,"stanford</w>":8145,"phy</w>":8146,"clothes</w>":8147,"closest</w>":8148,"break":8149,"breaking</w>":8150,"hang</w>":8151,"sinsider</w>":8152,"reader</w>":8153,"certi":8154,"differenti":8155,"differential</w>":8156,"withdrawn</w>":8157,"bidi</w>":8158,"bilities</w>":8159,"decid":8160,"pran":8161,"prone</w>":8162,"generating</w>":8163,"approaches</w>":8164,"backs</w>":8165,"drops</w>":8166,"dromedary</w>":8167,"cleared</w>":8168,"clearer</w>":8169,"cdc":8170,"stood</w>":8171,"stool</w>":8172,"stract</w>":8173,"strack</w>":8174,"essentials</w>":8175,"need":8176,"reporters</w>":8177,"activation</w>":8178,"activate</w>":8179,"activated</w>":8180,"positions</w>":8181,"respondents</w>":8182,"idal</w>":8183,"pancakes</w>":8184,"flour</w>":8185,"questioned</w>":8186,"indications</w>":8187,"protected</w>":8188,"seemed</w>":8189,"obama</w>":8190,"securi":8191,"immuni":8192,"modeling</w>":8193,"undergo</w>":8194,"understood</w>":8195,"grease</w>":8196,"passage</w>":8197,"subsi":8198,"submission</w>":8199,"subset</w>":8200,"subjec":8201,"substances</w>":8202,"substrate</w>":8203,"managing</w>":8204,"engaging</w>":8205,"popular</w>":8206,"develops</w>":8207,"tylen":8208,"specified</w>":8209,"niosh</w>":8210,"carbon</w>":8211,"mato":8212,"accord":8213,"episode</w>":8214,"overreacting</w>":8215,"workout</w>":8216,"workplaces</w>":8217,"producing</w>":8218,"partisan":8219,"partisan</w>":8220,"votes</w>":8221,"00000":8222,"strates</w>":8223,"straight</w>":8224,"suppo":8225,"issuance</w>":8226,"furin</w>":8227,"longest</w>":8228,"continents</w>":8229,"ssors</w>":8230,"creation</w>":8231,"varied</w>":8232,"variability</w>":8233,"threats</w>":8234,"caught</w>":8235,"mainstream</w>":8236,"logic</w>":8237,"shipping</w>":8238,"occurren":8239,"pacific</w>":8240,"controls</w>":8241,"singing</w>":8242,"therape":8243,"nyc</w>":8244,"dict":8245,"minimal</w>":8246,"extends</w>":8247,"warded</w>":8248,"biosafety</w>":8249,"bioinforma":8250,"deny</w>":8251,"191</w>":8252,"1968</w>":8253,"clues</w>":8254,"definite</w>":8255,"seriousness</w>":8256,"lanny</w>":8257,"venia</w>":8258,"coughed</w>":8259,"fridge</w>":8260,"friendly</w>":8261,"confirmation</w>":8262,"confirming</w>":8263,"humoral</w>":8264,"distances</w>":8265,"concerning</w>":8266,"files</w>":8267,"filers</w>":8268,"filtering</w>":8269,"colour</w>":8270,"chapter</w>":8271,"resistant</w>":8272,"predicting</w>":8273,"alysis</w>":8274,"chart</w>":8275,"practise</w>":8276,"operates</w>":8277,"multi</w>":8278,"broke</w>":8279,"brown</w>":8280,"intentionally</w>":8281,"suffered</w>":8282,"spots</w>":8283,"initiative</w>":8284,"circulates</w>":8285,"infectivity</w>":8286,"edt</w>":8287,"plausible</w>":8288,"shape":8289,"shape</w>":8290,"kier</w>":8291,"wholes":8292,"commission</w>":8293,"simpler</w>":8294,"speech</w>":8295,"gardens</w>":8296,"garbage</w>":8297,"companion</w>":8298,"observations</w>":8299,"consult</w>":8300,"announcements</w>":8301,"prints</w>":8302,"principal</w>":8303,"alcohols</w>":8304,"skilled</w>":8305,"arrivals</w>":8306,"ligible</w>":8307,"compliance</w>":8308,"complication</w>":8309,"144</w>":8310,"149</w>":8311,"correction</w>":8312,"survival</w>":8313,"lungen</w>":8314,"males</w>":8315,"websites</w>":8316,"lengthy</w>":8317,"acetamin":8318,"taxi</w>":8319,"containing</w>":8320,"containers</w>":8321,"communications</w>":8322,"nonprofits</w>":8323,"nonetheless</w>":8324,"coverings</w>":8325,"suspension</w>":8326,"argues</w>":8327,"arguably</w>":8328,"desired</w>":8329,"grades</w>":8330,"class":8331,"sanjay</w>":8332,"agreements</w>":8333,"genetically</w>":8334,"originally</w>":8335,"calcul":8336,"institutes</w>":8337,"capacities</w>":8338,"carries</w>":8339,"implementation</w>":8340,"reasoning</w>":8341,"lineage</w>":8342,"lineages</w>":8343,"hospitalization</w>":8344,"technically</w>":8345,"woman</w>":8346,"trace</w>":8347,"delays</w>":8348,"delaying</w>":8349,"improves</w>":8350,"difficulties</w>":8351,"occup":8352,"owned</w>":8353,"immigrant</w>":8354,"immigrants</w>":8355,"manufactured</w>":8356,"bona</w>":8357,"routine":8358,"wales</w>":8359,"chemists</w>":8360,"chemicals</w>":8361,"sequenced</w>":8362,"155</w>":8363,"lord</w>":8364,"explaining</w>":8365,"colleges</w>":8366,"297</w>":8367,"balan":8368,"ballo":8369,"drying</w>":8370,"debts</w>":8371,"fluore":8372,"flushing</w>":8373,"accepting</w>":8374,"trades</w>":8375,"investigated</w>":8376,"bleaching</w>":8377,"donor</w>":8378,"donate</w>":8379,"wang</w>":8380,"businessinsider</w>":8381,"qualified</w>":8382,"expense</w>":8383,"determines</w>":8384,"framework</w>":8385,"validated</w>":8386,"malarial</w>":8387,"notify</w>":8388,"mayo</w>":8389,"damaged</w>":8390,"identity</w>":8391,"bathrooms</w>":8392,"zoo</w>":8393,"introduce</w>":8394,"diversi":8395,"lawrence</w>":8396,"weak":8397,"fails</w>":8398,"discusses</w>":8399,"sanitizing</w>":8400,"ffp2</w>":8401,"swab":8402,"microsco":8403,"microbes</w>":8404,"quoting</w>":8405,"chrono":8406,"records</w>":8407,"recorded</w>":8408,"dispersion</w>":8409,"computation</w>":8410,"computations</w>":8411,"justifiable</w>":8412,"continuously</w>":8413,"nasopharyn":8414,"obliged</w>":8415,"smokers</w>":8416,"tops</w>":8417,"exclusive</w>":8418,"compensate</w>":8419,"monitored</w>":8420,"tradition</w>":8421,"traditionally</w>":8422,"interpret</w>":8423,"economies</w>":8424,"burn</w>":8425,"clients</w>":8426,"virological</w>":8427,"provincial</w>":8428,"postpone</w>":8429,"weigh":8430,"weigh</w>":8431,"territorial</w>":8432,"realistically</w>":8433,"surveys</w>":8434,"picking</w>":8435,"defend":8436,"converted</w>":8437,"conversation</w>":8438,"feelings</w>":8439,"floor</w>":8440,"iconpdf</w>":8441,"rhinorr":8442,"demonstr":8443,"presume</w>":8444,"jaze":8445,"mixed</w>":8446,"bullet</w>":8447,"adjust":8448,"approximation</w>":8449,"vaccinations</w>":8450,"immunocompromised</w>":8451,"flag</w>":8452,"flavi":8453,"flawed</w>":8454,"square</w>":8455,"winter</w>":8456,"winning</w>":8457,"window</w>":8458,"windows</w>":8459,"conventions</w>":8460,"principles</w>":8461,"1629</w>":8462,"neighbor</w>":8463,"insects</w>":8464,"russian</w>":8465,"membership</w>":8466,"raised</w>":8467,"radio</w>":8468,"0001pt</w>":8469,"newspapers</w>":8470,"evaluating</w>":8471,"sonaro</w>":8472,"switch</w>":8473,"switches</w>":8474,"reimbur":8475,"repeated</w>":8476,"aspx</w>":8477,"headed</w>":8478,"pharyn":8479,"mortgages</w>":8480,"technologies</w>":8481,"farm</w>":8482,"falling</w>":8483,"represented</w>":8484,"representation</w>":8485,"discard</w>":8486,"believes</w>":8487,"expansion</w>":8488,"rhinoviruses</w>":8489,"487":8490,"elements</w>":8491,"fruits</w>":8492,"rnases</w>":8493,"reflects</w>":8494,"diarrhoea</w>":8495,"supermarket</w>":8496,"prohibits</w>":8497,"prohibited</w>":8498,"excell":8499,"excessive</w>":8500,"quantile</w>":8501,"precise</w>":8502,"precisely</w>":8503,"recoveries</w>":8504,"characteristic</w>":8505,"phac</w>":8506,"stroke</w>":8507,"strophi":8508,"accessible</w>":8509,"welcome</w>":8510,"george</w>":8511,"decreased</w>":8512,"antigens</w>":8513,"harmless</w>":8514,"60s</w>":8515,"973</w>":8516,"ethics</w>":8517,"manipu":8518,"narrow</w>":8519,"nurses</w>":8520,"abortion</w>":8521,"offers</w>":8522,"expectation</w>":8523,"relationships</w>":8524,"therapies</w>":8525,"jobless</w>":8526,"pmc":8527,"varphi</w>":8528,"yuki</w>":8529,"yusha</w>":8530,"zithro":8531,"digital</w>":8532,"tococcus</w>":8533,"afterwards</w>":8534,"canadians</w>":8535,"dismissed</w>":8536,"sciences</w>":8537,"axle</w>":8538,"amazing</w>":8539,"griffin</w>":8540,"utc</w>":8541,"zealand</w>":8542,"coordinate</w>":8543,"african</w>":8544,"serological</w>":8545,"serotypes</w>":8546,"dataset</w>":8547,"stretched</w>":8548,"1101</w>":8549,"ampli":8550,"macroeconomic</w>":8551,"palm</w>":8552,"pagination</w>":8553,"inactivate</w>":8554,"inactivating</w>":8555,"reveal</w>":8556,"reinforce</w>":8557,"negligible</w>":8558,"corresponding</w>":8559,"dozens</w>":8560,"philoso":8561,"fundamentally</w>":8562,"emphasis</w>":8563,"bunch</w>":8564,"francisc":8565,"hurricane</w>":8566,"tasks</w>":8567,"tasmania</w>":8568,"accidents</w>":8569,"accidentally</w>":8570,"liberties</w>":8571,"destruction</w>":8572,"proposal</w>":8573,"mitigate</w>":8574,"informative</w>":8575,"valuable</w>":8576,"enzyme</w>":8577,"enzymes</w>":8578,"volunte":8579,"voluntary</w>":8580,"crystal</w>":8581,"hypothetical</w>":8582,"11th</w>":8583,"59pm</w>":8584,"eliminate</w>":8585,"gtngt":8586,"toronto</w>":8587,"industries</w>":8588,"enhanced</w>":8589,"deduction</w>":8590,"agriculture</w>":8591,"agricultural</w>":8592,"surrounding</w>":8593,"mutated</w>":8594,"railroad</w>":8595,"comprehen":8596,"countertops</w>":8597,"struggling</w>":8598,"broadcaster</w>":8599,"fingers</w>":8600,"munich</w>":8601,"smell</w>":8602,"independently</w>":8603,"colum":8604,"license</w>":8605,"deemed</w>":8606,"mathsf</w>":8607,"sparse</w>":8608,"promote</w>":8609,"exhibited</w>":8610,"lucky</w>":8611,"comparable</w>":8612,"competence</w>":8613,"voided</w>":8614,"collapse</w>":8615,"repatriation</w>":8616,"literature</w>":8617,"syncytial</w>":8618,"extinction</w>":8619,"establishment</w>":8620,"postponing</w>":8621,"guaranteed</w>":8622,"georgieva</w>":8623,"bacteriophage</w>":8624,"powerful</w>":8625,"azar</w>":8626,"fourth</w>":8627,"guns</w>":8628,"slovenia</w>":8629,"inhaled</w>":8630,"acquire</w>":8631,"simultane":8632,"convince</w>":8633,"hotspots</w>":8634,"surgeries</w>":8635,"stochastic</w>":8636,"familiar</w>":8637,"epithelium</w>":8638,"bankrupt</w>":8639,"threshold</w>":8640,"electrical</w>":8641,"shifts</w>":8642,"suppliers</w>":8643,"bahn</w>":8644,"pneumococcal</w>":8645,"convenience</w>":8646,"calibration</w>":8647,"arrangements</w>":8648,"pulmonary</w>":8649,"badly</w>":8650,"hrv</w>":8651,"inevitably</w>":8652,"reputable</w>":8653,"retailers</w>":8654,"copyright</w>":8655,"assignments</w>":8656,"unknowns</w>":8657,"macaques</w>":8658,"spraying</w>":8659,"conjunction</w>":8660,"explore</w>":8661,"sammlungen</w>":8662,"gotten</w>":8663,"bolsonaro</w>":8664,"surrogate</w>":8665,"compatible</w>":8666,"ingredients</w>":8667,"guilty</w>":8668,"olymp":8669,"formula</w>":8670,"nausea</w>":8671,"stockpile</w>":8672,"tourists</w>":8673,"intestinal</w>":8674,"denomin":8675,"catalytic</w>":8676,"pneumoniae</w>":8677,"multiplicative</w>":8678,"methodology</w>":8679,"invasion</w>":8680,"sexually</w>":8681,"obstetricians</w>":8682,"cardiovas":8683,"exacerbated</w>":8684,"0cm</w>":8685,"cansino</w>":8686,"ethanol</w>":8687,"girls</w>":8688,"glorfindel</w>":8689,"gb2626</w>":8690,"isaac</w>":8691,"lprs</w>":8692,"ubiqu":8693,"zurich</w>":8694,"repository</w>":8695,"alongside</w>":8696,"streptococcus</w>":8697,"catastrophi":8698,"acetate</w>":8699,"attributed</w>":8700,"atlantic</w>":8701,"whilst</w>":8702,"haemop":8703,"sidorenko</w>":8704,"unhide</w>":8705,"magnitude</w>":8706,"belongs</w>":8707,"splashing</w>":8708,"consensus</w>":8709,"concrete</w>":8710,"prolonged</w>":8711,"netherlands</w>":8712,"bureau</w>":8713,"shirt</w>":8714,"mosquito</w>":8715,"bodyweight</w>":8716,"raisers</w>":8717,"rectangular</w>":8718,"navigator</w>":8719,"securities</w>":8720,"subjective</w>":8721,"tylenol</w>":8722,"partisanship</w>":8723,"00000000</w>":8724,"therapeu":8725,"bioinformatics</w>":8726,"wholesale</w>":8727,"acetaminophen</w>":8728,"calculating</w>":8729,"routinely</w>":8730,"jazeera</w>":8731,"philosophy</w>":8732,"francisco</w>":8733,"gtngtkr</w>":8734,"comprehensive</w>":8735,"cardiovascular</w>":8736,"020</w>":8737,"025</w>":8738,"036</w>":8739,"111</w>":8740,"180</w>":8741,"125</w>":8742,"1200</w>":8743,"123</w>":8744,"1002</w>":8745,"2co":8746,"270</w>":8747,"222</w>":8748,"22nd</w>":8749,"37":8750,"3d</w>":8751,"319</w>":8752,"300":8753,"42":8754,"4th</w>":8755,"415</w>":8756,"440</w>":8757,"490":8758,"54</w>":8759,"55</w>":8760,"5th</w>":8761,"5ps</w>":8762,"5000</w>":8763,"66":8764,"600</w>":8765,"7b":8766,"78</w>":8767,"711</w>":8768,"7002</w>":8769,"732</w>":8770,"705":8771,"786":8772,"975</w>":8773,"a3":8774,"aj":8775,"ai</w>":8776,"amo":8777,"ays</w>":8778,"atively</w>":8779,"aise</w>":8780,"aque":8781,"ayers</w>":8782,"awarded</w>":8783,"azithro":8784,"a036</w>":8785,"bor</w>":8786,"bal</w>":8787,"boun":8788,"bals</w>":8789,"bmed</w>":8790,"blast</w>":8791,"bson</w>":8792,"cs":8793,"cin</w>":8794,"cys</w>":8795,"cge</w>":8796,"cine":8797,"dt</w>":8798,"dits</w>":8799,"dend</w>":8800,"dged</w>":8801,"dtrump</w>":8802,"dbeta</w>":8803,"dash</w>":8804,"dsight</w>":8805,"em</w>":8806,"eq</w>":8807,"ela":8808,"ease</w>":8809,"emission</w>":8810,"emulate</w>":8811,"emia</w>":8812,"fb":8813,"fate</w>":8814,"filling</w>":8815,"ffee</w>":8816,"gou":8817,"gas":8818,"gla":8819,"glu":8820,"gren":8821,"gents</w>":8822,"gory</w>":8823,"gging</w>":8824,"glance</w>":8825,"hr</w>":8826,"ho</w>":8827,"hil":8828,"hexa":8829,"hvil":8830,"if":8831,"iu":8832,"ion":8833,"ited</w>":8834,"ian</w>":8835,"itive</w>":8836,"ices</w>":8837,"ious</w>":8838,"istan":8839,"ize</w>":8840,"iber":8841,"isture</w>":8842,"jaf":8843,"jmp</w>":8844,"jord":8845,"kp":8846,"kn</w>":8847,"ker":8848,"ken":8849,"kun":8850,"kid</w>":8851,"kia</w>":8852,"kirin</w>":8853,"lted</w>":8854,"lent</w>":8855,"llar</w>":8856,"lours</w>":8857,"lature</w>":8858,"lene</w>":8859,"mv</w>":8860,"mon</w>":8861,"mun":8862,"mbo":8863,"mnu":8864,"np":8865,"nc</w>":8866,"nine</w>":8867,"nwa":8868,"nancy</w>":8869,"nchronous</w>":8870,"natal</w>":8871,"nsr</w>":8872,"om":8873,"obe":8874,"ovirus</w>":8875,"osa":8876,"oto":8877,"ogh</w>":8878,"oten":8879,"overn":8880,"otic</w>":8881,"oster":8882,"ota</w>":8883,"oils</w>":8884,"pse</w>":8885,"pil":8886,"pour</w>":8887,"ro</w>":8888,"ris</w>":8889,"ras":8890,"ran</w>":8891,"rally</w>":8892,"rine</w>":8893,"rbinom</w>":8894,"sd</w>":8895,"s3</w>":8896,"sas":8897,"slu":8898,"sinc":8899,"ssel":8900,"sni":8901,"sale</w>":8902,"sdashboard</w>":8903,"ts":8904,"tz</w>":8905,"tw</w>":8906,"tas</w>":8907,"tter</w>":8908,"tge":8909,"tplace</w>":8910,"tml</w>":8911,"toral</w>":8912,"tnight</w>":8913,"ua</w>":8914,"uso</w>":8915,"uine</w>":8916,"uting</w>":8917,"vis</w>":8918,"vag":8919,"vap":8920,"vage</w>":8921,"vator</w>":8922,"vagu":8923,"wr</w>":8924,"wl</w>":8925,"wore</w>":8926,"wine</w>":8927,"wary</w>":8928,"wong</w>":8929,"will":8930,"yl</w>":8931,"yun":8932,"yahu</w>":8933,"zi</w>":8934,"thi":8935,"th2</w>":8936,"thou":8937,"thon</w>":8938,"thal":8939,"thread</w>":8940,"thecdc</w>":8941,"int":8942,"inter</w>":8943,"intly</w>":8944,"incomes</w>":8945,"injec":8946,"incoming</w>":8947,"indon":8948,"incorrect</w>":8949,"anec":8950,"angi":8951,"anning</w>":8952,"angha":8953,"rem":8954,"rel</w>":8955,"ref</w>":8956,"resur":8957,"remedi":8958,"repri":8959,"rested</w>":8960,"reside</w>":8961,"reject</w>":8962,"reapply</w>":8963,"relying</w>":8964,"redistribution</w>":8965,"reward</w>":8966,"relating</w>":8967,"reagent</w>":8968,"reproductive</w>":8969,"represents</w>":8970,"resolved</w>":8971,"reiter":8972,"reagents</w>":8973,"repair</w>":8974,"tip</w>":8975,"tight</w>":8976,"tious</w>":8977,"tightly</w>":8978,"eri":8979,"erous</w>":8980,"cole</w>":8981,"colo":8982,"cock</w>":8983,"coins</w>":8984,"coinfections</w>":8985,"cooperating</w>":8986,"cooperation</w>":8987,"covariance</w>":8988,"copy</w>":8989,"copied</w>":8990,"cosme":8991,"coffee</w>":8992,"ena</w>":8993,"ense</w>":8994,"ence":8995,"entive</w>":8996,"encoun":8997,"ental</w>":8998,"en13":8999,"ensures</w>":9000,"enstein</w>":9001,"arity</w>":9002,"armed</w>":9003,"arrest</w>":9004,"arrested</w>":9005,"oul</w>":9006,"oup</w>":9007,"oured</w>":9008,"tem</w>":9009,"tei</w>":9010,"tees</w>":9011,"teas":9012,"teds</w>":9013,"tetra":9014,"tember</w>":9015,"tedro":9016,"oner</w>":9017,"onoun":9018,"ontari":9019,"onerous</w>":9020,"alties</w>":9021,"aldistancing</w>":9022,"altun":9023,"althy</w>":9024,"ori</w>":9025,"orleans</w>":9026,"vid</w>":9027,"vised</w>":9028,"viet":9029,"vict":9030,"roy</w>":9031,"roof</w>":9032,"rome</w>":9033,"ropor":9034,"rodents</w>":9035,"rogers</w>":9036,"robust</w>":9037,"itate</w>":9038,"itous</w>":9039,"stac":9040,"stone</w>":9041,"station</w>":9042,"stack</w>":9043,"streaming</w>":9044,"staltun":9045,"cams</w>":9046,"camb":9047,"cared</w>":9048,"catho":9049,"caregi":9050,"carer</w>":9051,"acart</w>":9052,"accusto":9053,"accounting</w>":9054,"noon</w>":9055,"nove":9056,"noone</w>":9057,"nois":9058,"nomination</w>":9059,"nolo</w>":9060,"nowad":9061,"asks</w>":9062,"assure</w>":9063,"assigned</w>":9064,"diy</w>":9065,"distric":9066,"dire</w>":9067,"dialysis</w>":9068,"eck</w>":9069,"echt":9070,"lid</w>":9071,"lim</w>":9072,"list":9073,"liation</w>":9074,"liam</w>":9075,"likes</w>":9076,"liecht":9077,"hamp":9078,"hable</w>":9079,"haplo":9080,"hagel</w>":9081,"side":9082,"sigma</w>":9083,"sickest</w>":9084,"theses</w>":9085,"ila</w>":9086,"rush</w>":9087,"runs</w>":9088,"rural</w>":9089,"los</w>":9090,"loses</w>":9091,"losis</w>":9092,"lowest</w>":9093,"loops</w>":9094,"loaned</w>":9095,"dex</w>":9096,"deal":9097,"defec":9098,"demy</w>":9099,"deple":9100,"descen":9101,"deep":9102,"deva":9103,"deplo":9104,"deut":9105,"desper":9106,"sue</w>":9107,"sustain":9108,"uninfected</w>":9109,"unused</w>":9110,"unlimited</w>":9111,"unsafe</w>":9112,"unlaw":9113,"undetected</w>":9114,"uncomfortable</w>":9115,"uncooked</w>":9116,"unnoticed</w>":9117,"unfolding</w>":9118,"seal</w>":9119,"sewing</w>":9120,"sedly</w>":9121,"seller</w>":9122,"segments</w>":9123,"seoul</w>":9124,"yoko":9125,"rid</w>":9126,"rian</w>":9127,"rick</w>":9128,"riot</w>":9129,"maps</w>":9130,"matei</w>":9131,"lei":9132,"ley</w>":9133,"lease</w>":9134,"bell</w>":9135,"beings</w>":9136,"beau":9137,"beach</w>":9138,"belief</w>":9139,"spag":9140,"spdf</w>":9141,"conce":9142,"conferen":9143,"consequ":9144,"constantly</w>":9145,"holes</w>":9146,"hoods</w>":9147,"hogue</w>":9148,"hoarding</w>":9149,"prospec":9150,"proved</w>":9151,"propen":9152,"proval</w>":9153,"prophy":9154,"urging</w>":9155,"able":9156,"abuse</w>":9157,"abilize</w>":9158,"abstract</w>":9159,"nel":9160,"neten":9161,"nels</w>":9162,"newar":9163,"nebr":9164,"pox</w>":9165,"pover":9166,"poons</w>":9167,"cht</w>":9168,"chri":9169,"chur":9170,"charities</w>":9171,"lau":9172,"lax</w>":9173,"lavirus</w>":9174,"lair</w>":9175,"lages</w>":9176,"lavage</w>":9177,"mee</w>":9178,"mets</w>":9179,"meta":9180,"metal</w>":9181,"medr":9182,"meets</w>":9183,"tions":9184,"tionality</w>":9185,"tionately</w>":9186,"soa":9187,"sol</w>":9188,"soft</w>":9189,"sota</w>":9190,"soak</w>":9191,"tras":9192,"tration</w>":9193,"trash</w>":9194,"trapped</w>":9195,"mimic</w>":9196,"miche":9197,"missed</w>":9198,"mirac":9199,"bul</w>":9200,"buck</w>":9201,"bump</w>":9202,"bush</w>":9203,"buyer</w>":9204,"busy</w>":9205,"bucket</w>":9206,"bumpy</w>":9207,"expre":9208,"excer":9209,"expedi":9210,"versa</w>":9211,"vertical</w>":9212,"opening</w>":9213,"oppon":9214,"opsdashboard</w>":9215,"infer":9216,"infer</w>":9217,"infty</w>":9218,"inflate</w>":9219,"fif":9220,"fig</w>":9221,"fix</w>":9222,"fidd":9223,"taker</w>":9224,"adhere</w>":9225,"admitted</w>":9226,"adoption</w>":9227,"adrian</w>":9228,"pel</w>":9229,"petting</w>":9230,"samine</w>":9231,"saint</w>":9232,"sagents</w>":9233,"west":9234,"weap":9235,"corps</w>":9236,"corner</w>":9237,"correlations</w>":9238,"cipl":9239,"cites</w>":9240,"shi</w>":9241,"shat":9242,"shore</w>":9243,"shire</w>":9244,"shrou":9245,"shrin":9246,"shiny</w>":9247,"shtml</w>":9248,"shangha":9249,"doc</w>":9250,"does":9251,"docs</w>":9252,"moo":9253,"movi":9254,"moisture</w>":9255,"prefer":9256,"apy</w>":9257,"appoint</w>":9258,"appreci":9259,"height</w>":9260,"peru</w>":9261,"persu":9262,"permits</w>":9263,"perception</w>":9264,"tot":9265,"tooth</w>":9266,"towns</w>":9267,"cex</w>":9268,"cets</w>":9269,"cease</w>":9270,"cell":9271,"infecteds</w>":9272,"geous</w>":9273,"getown</w>":9274,"worn</w>":9275,"wording</w>":9276,"gove</w>":9277,"gold</w>":9278,"lup</w>":9279,"lump</w>":9280,"lucent</w>":9281,"luzon</w>":9282,"whiche":9283,"keogh</w>":9284,"dust</w>":9285,"duci":9286,"duke</w>":9287,"dums</w>":9288,"coronaviru":9289,"irresponsible</w>":9290,"renal</w>":9291,"rences</w>":9292,"renters</w>":9293,"206":9294,"202</w>":9295,"20200":9296,"20degc</w>":9297,"bot</w>":9298,"boy</w>":9299,"boss</w>":9300,"boson</w>":9301,"bodily</w>":9302,"boeing</w>":9303,"ssively</w>":9304,"stit":9305,"stir</w>":9306,"stimate</w>":9307,"facing</w>":9308,"cuts</w>":9309,"culosis</w>":9310,"pain":9311,"pays</w>":9312,"surge":9313,"pulling</w>":9314,"pumping</w>":9315,"puzz":9316,"pubmed</w>":9317,"gish</w>":9318,"mutual</w>":9319,"music</w>":9320,"paris</w>":9321,"parked</w>":9322,"parasi":9323,"parlours</w>":9324,"rap</w>":9325,"mbent</w>":9326,"hiking</w>":9327,"gently</w>":9328,"geneva</w>":9329,"genuine</w>":9330,"afm</w>":9331,"affa":9332,"afore":9333,"scales</w>":9334,"scramb":9335,"scanning</w>":9336,"contacted</w>":9337,"contact":9338,"monkey</w>":9339,"monaco</w>":9340,"ingent</w>":9341,"guard</w>":9342,"gulf</w>":9343,"counties</w>":9344,"dae</w>":9345,"incur":9346,"incenti":9347,"incentive</w>":9348,"commit</w>":9349,"plin</w>":9350,"pled</w>":9351,"portu":9352,"trail</w>":9353,"olds</w>":9354,"olina</w>":9355,"mind":9356,"minor</w>":9357,"ofcovid</w>":9358,"outgroup</w>":9359,"outgroups</w>":9360,"outbound</w>":9361,"outlets</w>":9362,"fork</w>":9363,"forth</w>":9364,"formu":9365,"forty</w>":9366,"former":9367,"forgiven</w>":9368,"forbid</w>":9369,"fortnight</w>":9370,"impair":9371,"implicit</w>":9372,"year":9373,"rising</w>":9374,"riskier</w>":9375,"tube</w>":9376,"tuber":9377,"tubes</w>":9378,"median</w>":9379,"mediated</w>":9380,"medically</w>":9381,"waves</w>":9382,"july</w>":9383,"juan</w>":9384,"judge</w>":9385,"serves</w>":9386,"differs</w>":9387,"faulty</w>":9388,"marked</w>":9389,"fecv</w>":9390,"derail":9391,"grant</w>":9392,"triage</w>":9393,"trigge":9394,"lind":9395,"liness</w>":9396,"steven</w>":9397,"cury</w>":9398,"studi":9399,"lowering</w>":9400,"tens</w>":9401,"tention</w>":9402,"tenne":9403,"tended</w>":9404,"tensions</w>":9405,"finkel</w>":9406,"stakes</w>":9407,"staining</w>":9408,"hug</w>":9409,"hump</w>":9410,"hugely</w>":9411,"huset":9412,"elded</w>":9413,"elabor":9414,"alized</w>":9415,"align</w>":9416,"alization</w>":9417,"pig</w>":9418,"seni":9419,"senator</w>":9420,"translations</w>":9421,"transaction</w>":9422,"translucent</w>":9423,"primers</w>":9424,"priority</w>":9425,"nai":9426,"nak</w>":9427,"naeco":9428,"na2co":9429,"gap</w>":9430,"gastro":9431,"publish</w>":9432,"interrup":9433,"interacting</w>":9434,"intervals</w>":9435,"reassuring</w>":9436,"selected</w>":9437,"meric</w>":9438,"mercury</w>":9439,"strike</w>":9440,"phases</w>":9441,"closes</w>":9442,"closure</w>":9443,"handed</w>":9444,"hancock</w>":9445,"reads</w>":9446,"bases</w>":9447,"massac":9448,"funerals</w>":9449,"aufen":9450,"dish</w>":9451,"discount</w>":9452,"dissolution</w>":9453,"discharged</w>":9454,"discharges</w>":9455,"dissemin":9456,"discipl":9457,"governmental</w>":9458,"withstanding</w>":9459,"bio</w>":9460,"bia</w>":9461,"bigge":9462,"biol</w>":9463,"bidity</w>":9464,"islands</w>":9465,"isbn</w>":9466,"twenty</w>":9467,"pronoun":9468,"generation</w>":9469,"generous</w>":9470,"airway</w>":9471,"airbus</w>":9472,"airplane</w>":9473,"cleav":9474,"apple</w>":9475,"appended</w>":9476,"channels</w>":9477,"surfactant</w>":9478,"stomeric</w>":9479,"stringent</w>":9480,"essence</w>":9481,"turning</w>":9482,"virgin":9483,"vacant</w>":9484,"penalties</w>":9485,"reportedly</w>":9486,"wasted</w>":9487,"pango":9488,"seeing</w>":9489,"helped</w>":9490,"helmets</w>":9491,"obstruc":9492,"shopp":9493,"shocks</w>":9494,"shopped</w>":9495,"shocking</w>":9496,"relatives</w>":9497,"relaxed</w>":9498,"relapse</w>":9499,"measles</w>":9500,"alled</w>":9501,"ckers</w>":9502,"modelled</w>":9503,"loosely</w>":9504,"undermine</w>":9505,"undercooked</w>":9506,"grew</w>":9507,"gregory</w>":9508,"considers</w>":9509,"strictly</w>":9510,"velocity</w>":9511,"passive</w>":9512,"passages</w>":9513,"subtype</w>":9514,"manila</w>":9515,"resulted</w>":9516,"centre":9517,"pleas":9518,"emergence</w>":9519,"politically</w>":9520,"restrictive</w>":9521,"nie</w>":9522,"nic</w>":9523,"carolina</w>":9524,"matt</w>":9525,"matched</w>":9526,"tempting</w>":9527,"valence</w>":9528,"systematic</w>":9529,"signal</w>":9530,"signals</w>":9531,"highlight</w>":9532,"quart</w>":9533,"gering</w>":9534,"applicable</w>":9535,"proceed":9536,"processed</w>":9537,"overly</w>":9538,"overla":9539,"oversee</w>":9540,"producers</w>":9541,"productivity</w>":9542,"chell</w>":9543,"cheating</w>":9544,"individually</w>":9545,"void</w>":9546,"vomit":9547,"vomit</w>":9548,"upcoming</w>":9549,"smith</w>":9550,"earnings</w>":9551,"008</w>":9552,"strative</w>":9553,"suppression</w>":9554,"furt</w>":9555,"imf</w>":9556,"long":9557,"view":9558,"viewing</w>":9559,"viewed</w>":9560,"school":9561,"scholar":9562,"continental</w>":9563,"ssful</w>":9564,"hybri":9565,"mitchell</w>":9566,"influence</w>":9567,"electric</w>":9568,"electoral</w>":9569,"script</w>":9570,"assumes</w>":9571,"inian</w>":9572,"controller</w>":9573,"similarities</w>":9574,"treaty</w>":9575,"spreaders</w>":9576,"nyu</w>":9577,"nyse</w>":9578,"achment</w>":9579,"ministic</w>":9580,"minimise</w>":9581,"ministers</w>":9582,"ministries</w>":9583,"intelli":9584,"extending</w>":9585,"influenzae</w>":9586,"throwing</w>":9587,"affecting</w>":9588,"warnings</w>":9589,"blockers</w>":9590,"biomedical</w>":9591,"clinical":9592,"dened</w>":9593,"dense</w>":9594,"denying</w>":9595,"harsh</w>":9596,"hardw":9597,"harris</w>":9598,"1922</w>":9599,"1994</w>":9600,"1948</w>":9601,"1960s</w>":9602,"jointly</w>":9603,"statnews</w>":9604,"clusters</w>":9605,"defines</w>":9606,"stery</w>":9607,"sterile</w>":9608,"learners</w>":9609,"serial</w>":9610,"vend":9611,"venues</w>":9612,"potato":9613,"socialdistancing</w>":9614,"choler":9615,"choalveolar</w>":9616,"choices</w>":9617,"receipt</w>":9618,"sneezed</w>":9619,"collar</w>":9620,"contageous</w>":9621,"expose</w>":9622,"exposures</w>":9623,"distributing</w>":9624,"drum</w>":9625,"authorization</w>":9626,"baylor</w>":9627,"chaired</w>":9628,"chaotic</w>":9629,"chaplin</w>":9630,"resistance</w>":9631,"appeal</w>":9632,"traveler</w>":9633,"physiology</w>":9634,"repo</w>":9635,"replies</w>":9636,"circles</w>":9637,"globally</w>":9638,"deteri":9639,"deterministic</w>":9640,"halts</w>":9641,"litude</w>":9642,"operated</w>":9643,"brow":9644,"crime</w>":9645,"critically</w>":9646,"troops</w>":9647,"intense</w>":9648,"regimen</w>":9649,"register</w>":9650,"registered</w>":9651,"suffe":9652,"spoke":9653,"initiate</w>":9654,"initiatives</w>":9655,"circulate</w>":9656,"circulated</w>":9657,"circulative</w>":9658,"born</w>":9659,"boris</w>":9660,"borrow</w>":9661,"edu</w>":9662,"edingly</w>":9663,"tailored</w>":9664,"plays</w>":9665,"shah</w>":9666,"shaw</w>":9667,"shake</w>":9668,"transcription</w>":9669,"docking</w>":9670,"strep</w>":9671,"stressful</w>":9672,"grab</w>":9673,"ultras":9674,"existence</w>":9675,"asynchronous</w>":9676,"screen":9677,"screens</w>":9678,"screened</w>":9679,"associate</w>":9680,"driven</w>":9681,"drift</w>":9682,"spelled</w>":9683,"safest</w>":9684,"forecasts</w>":9685,"definitive</w>":9686,"garden":9687,"tiser</w>":9688,"synthe":9689,"consulting</w>":9690,"documentation</w>":9691,"koreans</w>":9692,"143</w>":9693,"1473</w>":9694,"leadership</w>":9695,"corrected</w>":9696,"multitude</w>":9697,"collateral</w>":9698,"award</w>":9699,"berg</w>":9700,"malaise</w>":9701,"detailing</w>":9702,"webcams</w>":9703,"manufacture</w>":9704,"nonessential</w>":9705,"usable</w>":9706,"usda</w>":9707,"arguable</w>":9708,"desic":9709,"agrees</w>":9710,"geneous</w>":9711,"origination</w>":9712,"images</w>":9713,"newsagents</w>":9714,"detectable</w>":9715,"environments</w>":9716,"crui":9717,"crude</w>":9718,"latrine</w>":9719,"staffs</w>":9720,"implementing</w>":9721,"format</w>":9722,"aimee</w>":9723,"equations</w>":9724,"fatalities</w>":9725,"morbidity</w>":9726,"traces</w>":9727,"tracked</w>":9728,"tracker</w>":9729,"regards</w>":9730,"regarded</w>":9731,"improper</w>":9732,"improvement</w>":9733,"hindsight</w>":9734,"sanitiser</w>":9735,"holm</w>":9736,"bond</w>":9737,"walks</w>":9738,"faucets</w>":9739,"151</w>":9740,"water":9741,"programm":9742,"scientist</w>":9743,"291</w>":9744,"bruce</w>":9745,"drastic</w>":9746,"lenses</w>":9747,"visitation</w>":9748,"graphs</w>":9749,"packaged</w>":9750,"succeed</w>":9751,"succession</w>":9752,"successive</w>":9753,"bird</w>":9754,"incumbent</w>":9755,"capsu":9756,"capabilities</w>":9757,"capital</w>":9758,"capita</w>":9759,"acceptance</w>":9760,"investigative</w>":9761,"donated</w>":9762,"instruction</w>":9763,"instructed</w>":9764,"instructors</w>":9765,"cultures</w>":9766,"finances</w>":9767,"financing</w>":9768,"crowding</w>":9769,"505":9770,"cyto":9771,"cytop":9772,"herpes</w>":9773,"herpes":9774,"lasm</w>":9775,"distur":9776,"distingu":9777,"chris</w>":9778,"validating</w>":9779,"schedules</w>":9780,"scheduling</w>":9781,"shut":9782,"shutting</w>":9783,"damages</w>":9784,"respected</w>":9785,"respective</w>":9786,"diverse</w>":9787,"summari":9788,"lawsuit</w>":9789,"failures</w>":9790,"nationality</w>":9791,"scores</w>":9792,"conducting</w>":9793,"precaution</w>":9794,"13th</w>":9795,"recordings</w>":9796,"dispropor":9797,"designate</w>":9798,"designation</w>":9799,"opinions</w>":9800,"computational</w>":9801,"justin</w>":9802,"justice</w>":9803,"justification</w>":9804,"continued</w>":9805,"academy</w>":9806,"ebolavirus</w>":9807,"nashvil":9808,"attempted</w>":9809,"exclude</w>":9810,"excluded</w>":9811,"excludes</w>":9812,"economical</w>":9813,"economists</w>":9814,"recognized</w>":9815,"virol</w>":9816,"postmates</w>":9817,"postnatal</w>":9818,"languages</w>":9819,"patrick</w>":9820,"prisons</w>":9821,"slide</w>":9822,"tegnell</w>":9823,"simulated</w>":9824,"progression</w>":9825,"explanations</w>":9826,"speaker</w>":9827,"doubled</w>":9828,"alternatively</w>":9829,"odd</w>":9830,"assign</w>":9831,"convert</w>":9832,"convergence</w>":9833,"adapt</w>":9834,"adapting</w>":9835,"adaptation</w>":9836,"calculated</w>":9837,"advances</w>":9838,"float</w>":9839,"flown</w>":9840,"floors</w>":9841,"floating</w>":9842,"texts</w>":9843,"optimize</w>":9844,"presumed</w>":9845,"grand":9846,"granting</w>":9847,"specialized</w>":9848,"ggling</w>":9849,"james</w>":9850,"jail</w>":9851,"macro</w>":9852,"slowed</w>":9853,"thank</w>":9854,"reviewers</w>":9855,"array</w>":9856,"categori":9857,"attach</w>":9858,"attacks</w>":9859,"bottle</w>":9860,"immunology</w>":9861,"scriptions</w>":9862,"1860</w>":9863,"flaps</w>":9864,"myth</w>":9865,"mycin</w>":9866,"phosphate</w>":9867,"squats</w>":9868,"squee":9869,"root</w>":9870,"departed</w>":9871,"departing</w>":9872,"convention</w>":9873,"mutant</w>":9874,"mutating</w>":9875,"mutants</w>":9876,"nucleic</w>":9877,"automated</w>":9878,"helpfully</w>":9879,"adviser</w>":9880,"advisory</w>":9881,"freedoms</w>":9882,"amended</w>":9883,"honest</w>":9884,"insider</w>":9885,"carefully</w>":9886,"lifting</w>":9887,"betacoronavirus</w>":9888,"competen":9889,"electrons</w>":9890,"lactic</w>":9891,"plos</w>":9892,"insectici":9893,"campuses</w>":9894,"settles</w>":9895,"lesson</w>":9896,"lessly</w>":9897,"lessness</w>":9898,"homeowners</w>":9899,"apparent</w>":9900,"permanently</w>":9901,"customer</w>":9902,"subsequently</w>":9903,"criticised</w>":9904,"evaluates</w>":9905,"30th</w>":9906,"3099</w>":9907,"401</w>":9908,"gym</w>":9909,"gyms</w>":9910,"gynaeco":9911,"gorfinkel</w>":9912,"pyre":9913,"python</w>":9914,"tina</w>":9915,"reliably</w>":9916,"repetition</w>":9917,"retirees</w>":9918,"exemption</w>":9919,"exempted</w>":9920,"header</w>":9921,"evolve</w>":9922,"evolved</w>":9923,"daylight</w>":9924,"days1</w>":9925,"strangers</w>":9926,"hypothesis</w>":9927,"technological</w>":9928,"restaurant</w>":9929,"blaming</w>":9930,"farmers</w>":9931,"fallout</w>":9932,"strengthen</w>":9933,"sheer</w>":9934,"declaring</w>":9935,"classic</w>":9936,"graphics</w>":9937,"journali":9938,"legislature</w>":9939,"frustration</w>":9940,"frustrated</w>":9941,"panicked</w>":9942,"rnase</w>":9943,"reflect</w>":9944,"reflected</w>":9945,"reflecting</w>":9946,"cohor":9947,"device</w>":9948,"mathematics</w>":9949,"troubling</w>":9950,"exceedingly</w>":9951,"quantitative</w>":9952,"shelf</w>":9953,"blue":9954,"otm</w>":9955,"ancester</w>":9956,"achie":9957,"homogeneous</w>":9958,"georgetown</w>":9959,"waive</w>":9960,"membranes</w>":9961,"957</w>":9962,"braz":9963,"brations</w>":9964,"scared</w>":9965,"libraries</w>":9966,"cortisol</w>":9967,"expecting</w>":9968,"therapist</w>":9969,"25degc</w>":9970,"cnbc</w>":9971,"divided</w>":9972,"dividend</w>":9973,"disasters</w>":9974,"prompt</w>":9975,"labels</w>":9976,"metres</w>":9977,"afternoon</w>":9978,"pursuant</w>":9979,"batch</w>":9980,"grim</w>":9981,"grief</w>":9982,"ignor":9983,"ignore</w>":9984,"race</w>":9985,"snps</w>":9986,"utility</w>":9987,"insurer</w>":9988,"annoy":9989,"annota":9990,"silly</w>":9991,"sudden</w>":9992,"apartments</w>":9993,"databases</w>":9994,"antiretrovirals</w>":9995,"weekly</w>":9996,"engineers</w>":9997,"stretch</w>":9998,"drink</w>":9999,"hungarian</w>":10000,"donaldtrump</w>":10001,"patterns</w>":10002,"100k</w>":10003,"1007</w>":10004,"amplitude</w>":10005,"igg</w>":10006,"kidneys</w>":10007,"incidence</w>":10008,"incidents</w>":10009,"decade</w>":10010,"confined</w>":10011,"dominic</w>":10012,"facebook</w>":10013,"historically</w>":10014,"wavelength</w>":10015,"gauge</w>":10016,"gaussian</w>":10017,"breastfeed</w>":10018,"examines</w>":10019,"examined</w>":10020,"examinations</w>":10021,"childcare</w>":10022,"childhood</w>":10023,"childbirth</w>":10024,"hyperinflation</w>":10025,"commodity</w>":10026,"colleague</w>":10027,"optimistic</w>":10028,"evacuated</w>":10029,"edition</w>":10030,"nsp3</w>":10031,"punitive</w>":10032,"sarsr</w>":10033,"installing</w>":10034,"instacart</w>":10035,"insertions</w>":10036,"timeframe</w>":10037,"violation</w>":10038,"violations</w>":10039,"liberty</w>":10040,"lessen</w>":10041,"mitigation</w>":10042,"adenoviruses</w>":10043,"valued</w>":10044,"electronics</w>":10045,"disappe":10046,"disapproval</w>":10047,"concentrations</w>":10048,"24th</w>":10049,"bailout</w>":10050,"yield</w>":10051,"invited</w>":10052,"invitation</w>":10053,"alveoli</w>":10054,"accumulate</w>":10055,"deductible</w>":10056,"sexternal</w>":10057,"lethal</w>":10058,"protocol</w>":10059,"aguaaa</w>":10060,"toxin</w>":10061,"toxic</w>":10062,"railway</w>":10063,"scarce</w>":10064,"guesstimate</w>":10065,"platform</w>":10066,"discouraged</w>":10067,"measured</w>":10068,"measurements</w>":10069,"simplified</w>":10070,"displaying</w>":10071,"displayed</w>":10072,"photography</w>":10073,"phenomena</w>":10074,"1152</w>":10075,"11500</w>":10076,"finger":10077,"independents</w>":10078,"referenced</w>":10079,"referendums</w>":10080,"columbia</w>":10081,"enemy</w>":10082,"envelope</w>":10083,"enveloped</w>":10084,"diplomatic</w>":10085,"deeper</w>":10086,"desk</w>":10087,"desks</w>":10088,"promising</w>":10089,"modification</w>":10090,"complaining</w>":10091,"competent</w>":10092,"phrase</w>":10093,"substitute</w>":10094,"bronchoalveolar</w>":10095,"residues</w>":10096,"residuals</w>":10097,"repatriate</w>":10098,"literally</w>":10099,"description</w>":10100,"descriptive</w>":10101,"assembly</w>":10102,"chicken</w>":10103,"chickens</w>":10104,"syncytia</w>":10105,"deliveries</w>":10106,"extinctions</w>":10107,"guarantees</w>":10108,"georgia</w>":10109,"manifests</w>":10110,"bacteriophages</w>":10111,"aviation</w>":10112,"creative</w>":10113,"foundation</w>":10114,"gallup</w>":10115,"mnl</w>":10116,"wouldangerous</w>":10117,"reminder</w>":10118,"revoke</w>":10119,"endosome</w>":10120,"lifetime</w>":10121,"sicken</w>":10122,"spatial</w>":10123,"conservative</w>":10124,"proportional</w>":10125,"propagate</w>":10126,"propagation</w>":10127,"meltdown</w>":10128,"takeout</w>":10129,"satisfied</w>":10130,"geographic</w>":10131,"keyboards</w>":10132,"tumours</w>":10133,"fulltext</w>":10134,"finished</w>":10135,"suppressing</w>":10136,"claimspdf</w>":10137,"threatens</w>":10138,"landlord</w>":10139,"benefici":10140,"suffice</w>":10141,"borrowers</w>":10142,"editor</w>":10143,"playground</w>":10144,"survivors</w>":10145,"australian</w>":10146,"australians</w>":10147,"accelerate</w>":10148,"metabolic</w>":10149,"glycosamine</w>":10150,"algorithm</w>":10151,"algorithms</w>":10152,"ivably</w>":10153,"kalman</w>":10154,"kissing</w>":10155,"overesti":10156,"rsv</w>":10157,"inventory</w>":10158,"reddit</w>":10159,"retired</w>":10160,"referring</w>":10161,"resonance</w>":10162,"caveat</w>":10163,"assert</w>":10164,"absentee":10165,"layover</w>":10166,"memory</w>":10167,"solely</w>":10168,"peptide</w>":10169,"prescribed</w>":10170,"terrible</w>":10171,"bottlen":10172,"parallel</w>":10173,"imperial</w>":10174,"volatile</w>":10175,"cloud</w>":10176,"choosing</w>":10177,"collaboration</w>":10178,"distorted</w>":10179,"scott</w>":10180,"fashioned</w>":10181,"extrapolating</w>":10182,"nucleotides</w>":10183,"neighbourhood</w>":10184,"narrower</w>":10185,"amateur</w>":10186,"frankfurt</w>":10187,"hypothesized</w>":10188,"psychology</w>":10189,"reluctance</w>":10190,"citations</w>":10191,"flows</w>":10192,"okay</w>":10193,"oscil":10194,"ryan</w>":10195,"rhesus</w>":10196,"sfo</w>":10197,"wsj</w>":10198,"injury</w>":10199,"inadmissibility</w>":10200,"inherent</w>":10201,"realdonaldtrump</w>":10202,"argentina</w>":10203,"alert</w>":10204,"roads</w>":10205,"acknowledging</w>":10206,"notwithstanding</w>":10207,"ligand</w>":10208,"detrimental</w>":10209,"september</w>":10210,"constraints</w>":10211,"propriet":10212,"projections</w>":10213,"podcast</w>":10214,"poisson</w>":10215,"poorer</w>":10216,"mirror</w>":10217,"veranstaltun":10218,"inferences</w>":10219,"feverish</w>":10220,"modify</w>":10221,"towels</w>":10222,"worthless</w>":10223,"govt</w>":10224,"factories</w>":10225,"incredibly</w>":10226,"minnesota</w>":10227,"forbidden</w>":10228,"marketplace</w>":10229,"decides</w>":10230,"accordingly</w>":10231,"supposedly</w>":10232,"classroom</w>":10233,"balanced</w>":10234,"balloon</w>":10235,"fluorescent</w>":10236,"microscopy</w>":10237,"chronocidal</w>":10238,"nasopharyngeal</w>":10239,"rhinorrhea</w>":10240,"adjustment</w>":10241,"reimbursement</w>":10242,"pharyngitis</w>":10243,"excellent</w>":10244,"column</w>":10245,"simultaneously</w>":10246,"olympics</w>":10247,"denominator</w>":10248,"ubiquitous</w>":10249,"catastrophic</w>":10250,"haemophil":10251,"therapeutics</w>":10252,"aqueous</w>":10253,"azithromycin</w>":10254,"cinemas</w>":10255,"elastomeric</w>":10256,"gluco":10257,"hexamer</w>":10258,"istanbul</w>":10259,"iberia</w>":10260,"jafe</w>":10261,"jordan</w>":10262,"mnuchin</w>":10263,"nwaa036</w>":10264,"osaka</w>":10265,"otoh</w>":10266,"otensin</w>":10267,"overnight</w>":10268,"osterholm</w>":10269,"sinclair</w>":10270,"tgev</w>":10271,"vague</w>":10272,"thoughts</w>":10273,"indone":10274,"anecdo":10275,"angiotensin</w>":10276,"remedies</w>":10277,"cosmetic</w>":10278,"enceph":10279,"en136</w>":10280,"teaspoons</w>":10281,"tedros</w>":10282,"ontario</w>":10283,"vietnam</w>":10284,"caregivers</w>":10285,"accustomed</w>":10286,"november</w>":10287,"noisy</w>":10288,"nowadays</w>":10289,"districts</w>":10290,"liechtenstein</w>":10291,"haplotype</w>":10292,"deutsch":10293,"desperately</w>":10294,"sustainable</w>":10295,"unlawfully</w>":10296,"spagnolo</w>":10297,"conceivably</w>":10298,"consequently</w>":10299,"propensity</w>":10300,"prophylactic</w>":10301,"netenyahu</w>":10302,"newark</w>":10303,"nebraska</w>":10304,"poverty</w>":10305,"medrxiv</w>":10306,"michel</w>":10307,"miracle</w>":10308,"expedited</w>":10309,"shrouding</w>":10310,"shanghai</w>":10311,"appreciate</w>":10312,"whichever</w>":10313,"parasites</w>":10314,"affairs</w>":10315,"aforementioned</w>":10316,"scrambling</w>":10317,"contactless</w>":10318,"incentives</w>":10319,"formerly</w>":10320,"tuberculosis</w>":10321,"triggered</w>":10322,"husetts</w>":10323,"elaborate</w>":10324,"na2co3</w>":10325,"massachusetts</w>":10326,"aufenthal":10327,"biggest</w>":10328,"virginia</w>":10329,"proceedings</w>":10330,"vomiting</w>":10331,"clinicaltrials</w>":10332,"hardware</w>":10333,"potatoes</w>":10334,"cholera</w>":10335,"cytoplasm</w>":10336,"herpesvirus</w>":10337,"disproportionately</w>":10338,"nashville</w>":10339,"absenteeism</w>":10340,"06":10341,"013":10342,"060":10343,"1t</w>":10344,"1m</w>":10345,"110</w>":10346,"1100</w>":10347,"112</w>":10348,"160</w>":10349,"114":10350,"129":10351,"127</w>":10352,"128":10353,"126":10354,"1ab</w>":10355,"2f</w>":10356,"220":10357,"228":10358,"226":10359,"2pro</w>":10360,"217":10361,"2nm</w>":10362,"34":10363,"35":10364,"3e":10365,"3m</w>":10366,"3a</w>":10367,"3c</w>":10368,"3000</w>":10369,"388</w>":10370,"329":10371,"365</w>":10372,"390":10373,"3001</w>":10374,"3rd</w>":10375,"368":10376,"4000</w>":10377,"400":10378,"415":10379,"427</w>":10380,"421</w>":10381,"4degc</w>":10382,"4129":10383,"5m</w>":10384,"590":10385,"5368":10386,"65":10387,"6b":10388,"612</w>":10389,"648</w>":10390,"6degc</w>":10391,"6957</w>":10392,"74":10393,"740":10394,"785</w>":10395,"759":10396,"84":10397,"86</w>":10398,"835</w>":10399,"8209</w>":10400,"99":10401,"9ec":10402,"9th</w>":10403,"950</w>":10404,"940</w>":10405,"926":10406,"9423":10407,"966":10408,"aq</w>":10409,"ath":10410,"aer":10411,"ait</w>":10412,"apo":10413,"awe":10414,"asts</w>":10415,"aten</w>":10416,"aready</w>":10417,"ayer</w>":10418,"a59</w>":10419,"aka</w>":10420,"awaiting</w>":10421,"aware":10422,"atia</w>":10423,"aahu</w>":10424,"bl":10425,"bs":10426,"bw":10427,"by":10428,"b2</w>":10429,"bf</w>":10430,"bu</w>":10431,"bb</w>":10432,"bin</w>":10433,"bay</w>":10434,"ball</w>":10435,"bmb":10436,"bable</w>":10437,"bda":10438,"bhu":10439,"bau":10440,"bloo":10441,"bran":10442,"bania</w>":10443,"blend</w>":10444,"bsc</w>":10445,"btw</w>":10446,"cf":10447,"cf</w>":10448,"cp</w>":10449,"cin":10450,"cis</w>":10451,"cting</w>":10452,"centi":10453,"cance</w>":10454,"ctu":10455,"cran":10456,"cite</w>":10457,"cling</w>":10458,"cry</w>":10459,"c45</w>":10460,"cpid</w>":10461,"cpap</w>":10462,"dc":10463,"dl":10464,"dw</w>":10465,"das":10466,"dth</w>":10467,"drea":10468,"dpi":10469,"dled</w>":10470,"dentifi":10471,"d50</w>":10472,"d40":10473,"daci":10474,"dbinom</w>":10475,"ein</w>":10476,"ely</w>":10477,"eli":10478,"eso":10479,"emi":10480,"essi":10481,"ems</w>":10482,"esc":10483,"ests</w>":10484,"etry</w>":10485,"eid":10486,"eda</w>":10487,"ema</w>":10488,"ebs</w>":10489,"egy":10490,"edily</w>":10491,"eea</w>":10492,"e9ec":10493,"fk</w>":10494,"fl</w>":10495,"f6</w>":10496,"fat</w>":10497,"fan</w>":10498,"fter</w>":10499,"fwi":10500,"ftes</w>":10501,"fty</w>":10502,"ftly</w>":10503,"fte</w>":10504,"fans</w>":10505,"fws</w>":10506,"floo":10507,"fant":10508,"flaw</w>":10509,"fco</w>":10510,"fficial</w>":10511,"fd40":10512,"gd</w>":10513,"gg</w>":10514,"gal</w>":10515,"gru":10516,"gar</w>":10517,"gous</w>":10518,"gari":10519,"gall":10520,"glan":10521,"glands</w>":10522,"ggish</w>":10523,"hh":10524,"hk":10525,"hs":10526,"hk</w>":10527,"hit":10528,"has":10529,"hing":10530,"hance</w>":10531,"hour":10532,"hori":10533,"hnd</w>":10534,"hiring</w>":10535,"hstan</w>":10536,"hku":10537,"io":10538,"ip":10539,"ier</w>":10540,"iat":10541,"iop":10542,"ican</w>":10543,"iding</w>":10544,"ists</w>":10545,"ions</w>":10546,"ificu":10547,"ized</w>":10548,"ispecial</w>":10549,"ishe":10550,"iata</w>":10551,"iav</w>":10552,"jr</w>":10553,"jer":10554,"jac":10555,"jet</w>":10556,"jam</w>":10557,"jair</w>":10558,"jam":10559,"jha</w>":10560,"jama</w>":10561,"jfk</w>":10562,"kv":10563,"km</w>":10564,"ku</w>":10565,"kb</w>":10566,"kon":10567,"kin</w>":10568,"kas":10569,"kat":10570,"kho":10571,"kne":10572,"kingly</w>":10573,"kine":10574,"kn95</w>":10575,"klm</w>":10576,"kpm":10577,"keny":10578,"kaz":10579,"lou":10580,"ldo":10581,"lars</w>":10582,"lty</w>":10583,"llow":10584,"lens</w>":10585,"lected</w>":10586,"lero":10587,"ldome":10588,"lcentre</w>":10589,"l63</w>":10590,"ltc</w>":10591,"mf":10592,"mb</w>":10593,"mis</w>":10594,"mma":10595,"mur":10596,"mere</w>":10597,"ming":10598,"mye":10599,"mans</w>":10600,"mite</w>":10601,"msm</w>":10602,"malia</w>":10603,"ng":10604,"ns":10605,"nk</w>":10606,"nh</w>":10607,"nj</w>":10608,"nit":10609,"nat":10610,"nil":10611,"nan</w>":10612,"nag":10613,"ning":10614,"ngo</w>":10615,"nish</w>":10616,"nber</w>":10617,"nsim</w>":10618,"nrs</w>":10619,"nsp</w>":10620,"nl63</w>":10621,"os":10622,"oo</w>":10623,"ox</w>":10624,"oes</w>":10625,"ost":10626,"ole</w>":10627,"oec":10628,"owe</w>":10629,"oviruses</w>":10630,"ologist</w>":10631,"okings</w>":10632,"osha</w>":10633,"oya</w>":10634,"pw":10635,"p1</w>":10636,"p3</w>":10637,"ply</w>":10638,"pyo":10639,"pts</w>":10640,"pab":10641,"pill</w>":10642,"pra":10643,"pence</w>":10644,"pound</w>":10645,"paga":10646,"pct":10647,"pills</w>":10648,"pdefault</w>":10649,"pnrs</w>":10650,"qe</w>":10651,"qu</w>":10652,"qst":10653,"qqu":10654,"rar":10655,"rha":10656,"ryou</w>":10657,"rad":10658,"rable</w>":10659,"rant</w>":10660,"rous</w>":10661,"rhy":10662,"rats</w>":10663,"rounds</w>":10664,"ringing</w>":10665,"rapped</w>":10666,"s2</w>":10667,"su</w>":10668,"sand</w>":10669,"sas</w>":10670,"ssa":10671,"sers</w>":10672,"snu":10673,"sons</w>":10674,"swee":10675,"slot</w>":10676,"s00":10677,"sgeno":10678,"snar":10679,"srt</w>":10680,"sltc</w>":10681,"tr</w>":10682,"tsu":10683,"tci":10684,"tone</w>":10685,"tine</w>":10686,"trea":10687,"tence</w>":10688,"tase</w>":10689,"ttes</w>":10690,"tte</w>":10691,"tans</w>":10692,"tps</w>":10693,"tori":10694,"tfl":10695,"tness</w>":10696,"tful</w>":10697,"tale</w>":10698,"tfully</w>":10699,"tingly</w>":10700,"tarily</w>":10701,"taries</w>":10702,"table":10703,"u6":10704,"uz":10705,"uan</w>":10706,"uten":10707,"umer":10708,"ucle":10709,"uters</w>":10710,"uber</w>":10711,"utory</w>":10712,"ukra":10713,"v1</w>":10714,"vine</w>":10715,"vanu":10716,"vine":10717,"vana</w>":10718,"vwp</w>":10719,"wy</w>":10720,"w2</w>":10721,"wi</w>":10722,"wou":10723,"won</w>":10724,"wly</w>":10725,"wab":10726,"wol":10727,"wound</w>":10728,"wins</w>":10729,"wned</w>":10730,"wind</w>":10731,"wounds</w>":10732,"wrap</w>":10733,"winian</w>":10734,"xy</w>":10735,"xi</w>":10736,"xand</w>":10737,"xation</w>":10738,"xia</w>":10739,"xbus</w>":10740,"ymo":10741,"yment</w>":10742,"yman</w>":10743,"yana</w>":10744,"yps":10745,"ynavigator</w>":10746,"za</w>":10747,"zan":10748,"zen</w>":10749,"zers</w>":10750,"zine</w>":10751,"zable</w>":10752,"zger":10753,"zak</w>":10754,"zagre":10755,"zene":10756,"zc45</w>":10757,"thy":10758,"then":10759,"thed</w>":10760,"threa":10761,"thways</w>":10762,"thqua":10763,"thai</w>":10764,"ino":10765,"inf</w>":10766,"incon":10767,"inqu":10768,"inant</w>":10769,"intra":10770,"inju":10771,"inline</w>":10772,"induce</w>":10773,"inject</w>":10774,"inappropriate</w>":10775,"insan":10776,"incapac":10777,"inches</w>":10778,"instant</w>":10779,"incomplete</w>":10780,"inaccurate</w>":10781,"inbound</w>":10782,"ingestion</w>":10783,"injected</w>":10784,"insey</w>":10785,"instantly</w>":10786,"incompetence</w>":10787,"incompatible</w>":10788,"ann</w>":10789,"anan</w>":10790,"anci":10791,"anda</w>":10792,"angd":10793,"angel</w>":10794,"ancers</w>":10795,"ansammlungen</w>":10796,"ren</w>":10797,"rea</w>":10798,"rein":10799,"rein</w>":10800,"rest":10801,"reun":10802,"reation</w>":10803,"rety</w>":10804,"recur":10805,"reuni":10806,"resting</w>":10807,"remy</w>":10808,"redre":10809,"refri":10810,"repurpo":10811,"relies</w>":10812,"reconsidered</w>":10813,"resort</w>":10814,"restarted</w>":10815,"reschedule</w>":10816,"rejected</w>":10817,"redirected</w>":10818,"reacted</w>":10819,"rerouting</w>":10820,"reopened</w>":10821,"rebut":10822,"reelected</w>":10823,"reintroduction</w>":10824,"revise</w>":10825,"retention</w>":10826,"revalence</w>":10827,"reusable</w>":10828,"rescheduling</w>":10829,"rettes</w>":10830,"reuters</w>":10831,"tican</w>":10832,"titions</w>":10833,"tive":10834,"titer</w>":10835,"tired</w>":10836,"tite</w>":10837,"tiger</w>":10838,"tium</w>":10839,"tigation</w>":10840,"erce</w>":10841,"erwork</w>":10842,"erlimit</w>":10843,"erarchi":10844,"coop":10845,"copi":10846,"cope</w>":10847,"colon":10848,"cobr":10849,"coerci":10850,"coping</w>":10851,"cogni":10852,"codon</w>":10853,"cooperate</w>":10854,"coworker</w>":10855,"cologists</w>":10856,"coinci":10857,"colomb":10858,"cov2</w>":10859,"enor":10860,"ener</w>":10861,"endi":10862,"ensu":10863,"enab":10864,"ensing</w>":10865,"enni":10866,"enue</w>":10867,"enna</w>":10868,"entail</w>":10869,"endanger":10870,"encoded</w>":10871,"enbau":10872,"enhance</w>":10873,"arou":10874,"arte":10875,"arts</w>":10876,"arms</w>":10877,"arded</w>":10878,"argy</w>":10879,"arching</w>":10880,"arthro":10881,"ouch</w>":10882,"ted":10883,"tes":10884,"tell":10885,"temp</w>":10886,"teaches</w>":10887,"tesexternal</w>":10888,"oners</w>":10889,"onni":10890,"ale":10891,"alu":10892,"ald</w>":10893,"alit":10894,"alas</w>":10895,"alth</w>":10896,"alter</w>":10897,"alvelo":10898,"alming</w>":10899,"algiving</w>":10900,"aljazeera</w>":10901,"allages</w>":10902,"albania</w>":10903,"orad":10904,"orney</w>":10905,"orox</w>":10906,"vin</w>":10907,"vier</w>":10908,"vial</w>":10909,"vita":10910,"vira":10911,"vienna</w>":10912,"rob</w>":10913,"roch":10914,"ross</w>":10915,"roll":10916,"rope</w>":10917,"robb":10918,"romani":10919,"robot</w>":10920,"itn</w>":10921,"itals</w>":10922,"itated</w>":10923,"itching</w>":10924,"itoes</w>":10925,"itynavigator</w>":10926,"sty</w>":10927,"sti</w>":10928,"stor":10929,"stworthy</w>":10930,"stabilize</w>":10931,"cas</w>":10932,"camp</w>":10933,"cashi":10934,"camps</w>":10935,"acking</w>":10936,"actional</w>":10937,"ache</w>":10938,"acket</w>":10939,"accompli":10940,"acknowledge</w>":10941,"nov</w>":10942,"notion</w>":10943,"node</w>":10944,"nomin":10945,"notype</w>":10946,"notable</w>":10947,"ase":10948,"asm</w>":10949,"asing</w>":10950,"assion</w>":10951,"assay</w>":10952,"assays</w>":10953,"asset</w>":10954,"astically</w>":10955,"assau":10956,"asticity</w>":10957,"dip</w>":10958,"dier</w>":10959,"dili":10960,"dient</w>":10961,"diso":10962,"dissi":10963,"dious</w>":10964,"distr":10965,"dimini":10966,"dized</w>":10967,"district</w>":10968,"diums</w>":10969,"atu</w>":10970,"atz</w>":10971,"atso":10972,"atra":10973,"atsan":10974,"atorial</w>":10975,"echo":10976,"ective</w>":10977,"echi":10978,"ecca</w>":10979,"lia</w>":10980,"liter</w>":10981,"liver</w>":10982,"liable</w>":10983,"lites</w>":10984,"lick</w>":10985,"lights</w>":10986,"liability</w>":10987,"lization</w>":10988,"libri":10989,"ligence</w>":10990,"lightly</w>":10991,"liamen":10992,"licked</w>":10993,"litigation</w>":10994,"whatso":10995,"haz":10996,"have":10997,"hair":10998,"hama</w>":10999,"havana</w>":11000,"sill</w>":11001,"simon":11002,"sided</w>":11003,"sils</w>":11004,"siastic</w>":11005,"sipping</w>":11006,"sierr":11007,"siena</w>":11008,"theat":11009,"therea":11010,"theast</w>":11011,"thelancet</w>":11012,"theatlantic</w>":11013,"ilor</w>":11014,"illogical</w>":11015,"illiquidity</w>":11016,"rubri":11017,"rumstances</w>":11018,"rubb":11019,"rumor</w>":11020,"rutter</w>":11021,"lob":11022,"log":11023,"losure</w>":11024,"logs</w>":11025,"locking</w>":11026,"losar":11027,"losi</w>":11028,"loidal</w>":11029,"dem</w>":11030,"defi":11031,"desc":11032,"defa":11033,"dead</w>":11034,"depart</w>":11035,"defer":11036,"detro":11037,"desk":11038,"departs</w>":11039,"depression</w>":11040,"deserve</w>":11041,"devalu":11042,"deactivate</w>":11043,"sun</w>":11044,"suses</w>":11045,"supre":11046,"suple":11047,"suess</w>":11048,"sumi</w>":11049,"suited</w>":11050,"ung</w>":11051,"unil":11052,"unwit":11053,"unter":11054,"unjust</w>":11055,"unanim":11056,"untrue</w>":11057,"unpaid</w>":11058,"undiagnosed</w>":11059,"unchanged</w>":11060,"undefined</w>":11061,"uncontrolled</w>":11062,"unspent</w>":11063,"uninsu":11064,"unexpired</w>":11065,"unreliable</w>":11066,"unwashed</w>":11067,"unauthorized</w>":11068,"unmarried</w>":11069,"unpack</w>":11070,"unpackaged</w>":11071,"seed</w>":11072,"seme":11073,"seap":11074,"seques":11075,"sesho":11076,"sells</w>":11077,"semit</w>":11078,"sellers</w>":11079,"sewage</w>":11080,"sessions</w>":11081,"segment</w>":11082,"rile</w>":11083,"rifi":11084,"ribo":11085,"riding</w>":11086,"rious</w>":11087,"ribon":11088,"ridden</w>":11089,"mph</w>":11090,"mpps</w>":11091,"mparo</w>":11092,"mam":11093,"maco":11094,"mato</w>":11095,"mations</w>":11096,"make":11097,"maine</w>":11098,"maga":11099,"madri":11100,"matics</w>":11101,"mauri":11102,"makers</w>":11103,"mailing</w>":11104,"matized</w>":11105,"lest</w>":11106,"lean</w>":11107,"leone</w>":11108,"leaf":11109,"letic</w>":11110,"leban":11111,"legs</w>":11112,"leur</w>":11113,"leyen</w>":11114,"leaners</w>":11115,"bey</w>":11116,"ben</w>":11117,"bets</w>":11118,"bevel</w>":11119,"beside</w>":11120,"bells</w>":11121,"behalf</w>":11122,"bearance</w>":11123,"bearer</w>":11124,"bekistan</w>":11125,"spy</w>":11126,"span":11127,"spon":11128,"spro":11129,"span</w>":11130,"spill</w>":11131,"spher":11132,"spur</w>":11133,"conci":11134,"contra":11135,"confu":11136,"confli":11137,"contemp":11138,"constru":11139,"consci":11140,"consor":11141,"conian</w>":11142,"hop</w>":11143,"hopes</w>":11144,"hopper</w>":11145,"hoped</w>":11146,"prob</w>":11147,"props</w>":11148,"proactive</w>":11149,"promised</w>":11150,"proactively</w>":11151,"propaga":11152,"urs</w>":11153,"urable</w>":11154,"urges</w>":11155,"abc":11156,"abc</w>":11157,"abate</w>":11158,"abwe</w>":11159,"abgr":11160,"abide</w>":11161,"abusers</w>":11162,"neg</w>":11163,"nets</w>":11164,"never":11165,"nedy</w>":11166,"necologists</w>":11167,"poon</w>":11168,"pole</w>":11169,"poop</w>":11170,"posse":11171,"chy</w>":11172,"chat</w>":11173,"chat":11174,"chase</w>":11175,"chus</w>":11176,"chari":11177,"chpdefault</w>":11178,"chymo":11179,"chenbau":11180,"lay</w>":11181,"lai</w>":11182,"lawn</w>":11183,"laye":11184,"latin</w>":11185,"latesexternal</w>":11186,"meal</w>":11187,"metri":11188,"mess":11189,"mega</w>":11190,"witnesses</w>":11191,"tioner</w>":11192,"tionable</w>":11193,"tionchus</w>":11194,"solo":11195,"solit":11196,"sopran":11197,"sooner</w>":11198,"soapy</w>":11199,"somalia</w>":11200,"tri</w>":11201,"tron</w>":11202,"tryps":11203,"mide</w>":11204,"mized</w>":11205,"michi":11206,"misun":11207,"miuso</w>":11208,"bub":11209,"buys</w>":11210,"buty":11211,"buster</w>":11212,"butt":11213,"buried</w>":11214,"exci":11215,"excu":11216,"extrac":11217,"exchanged</w>":11218,"expedia</w>":11219,"extracted</w>":11220,"vera</w>":11221,"verge</w>":11222,"verage</w>":11223,"verifi":11224,"versammlungen</w>":11225,"opho":11226,"opting</w>":11227,"oplan":11228,"oppose</w>":11229,"opaci":11230,"oppel</w>":11231,"oprevalence</w>":11232,"infir":11233,"infringing</w>":11234,"fier</w>":11235,"fires</w>":11236,"ficity</w>":11237,"ficate</w>":11238,"fibers</w>":11239,"fiji</w>":11240,"fierce</w>":11241,"tag</w>":11242,"taed</w>":11243,"takers</w>":11244,"taji":11245,"tamparo</w>":11246,"ading</w>":11247,"ador</w>":11248,"adver":11249,"adra":11250,"advo":11251,"admits</w>":11252,"adverse</w>":11253,"peg</w>":11254,"petro":11255,"peace</w>":11256,"petitions</w>":11257,"pelosi</w>":11258,"petri</w>":11259,"sao</w>":11260,"sagt</w>":11261,"savers</w>":11262,"satell":11263,"quir":11264,"query</w>":11265,"quadra":11266,"ght":11267,"ghta":11268,"wears</w>":11269,"webin":11270,"weima":11271,"wealthy</w>":11272,"from":11273,"frozen</w>":11274,"vey</w>":11275,"veg</w>":11276,"vein</w>":11277,"velcentre</w>":11278,"vette</w>":11279,"corri":11280,"corna":11281,"corrup":11282,"correlate</w>":11283,"corrid":11284,"ciga":11285,"cisa</w>":11286,"cirumstances</w>":11287,"festi":11288,"females</w>":11289,"fedex</w>":11290,"shou":11291,"shment</w>":11292,"shing":11293,"shenz":11294,"shed":11295,"shining</w>":11296,"sheri":11297,"dosing</w>":11298,"domini":11299,"doled</w>":11300,"doord":11301,"docked</w>":11302,"doha</w>":11303,"dobson</w>":11304,"dollar</w>":11305,"moz":11306,"modu":11307,"moly":11308,"mosqu":11309,"motor":11310,"mometers</w>":11311,"moldo":11312,"aggra":11313,"agement</w>":11314,"prep</w>":11315,"preser":11316,"premat":11317,"preclu":11318,"premade</w>":11319,"predispo":11320,"preferences</w>":11321,"prescriptions</w>":11322,"apr</w>":11323,"aphy":11324,"apical</w>":11325,"apshot</w>":11326,"hey</w>":11327,"heli":11328,"heal</w>":11329,"heating</w>":11330,"hearing</w>":11331,"hemor":11332,"hemoly":11333,"pertu":11334,"perlman</w>":11335,"toys</w>":11336,"tobac":11337,"tomy</w>":11338,"tooth":11339,"tower</w>":11340,"toff</w>":11341,"tomato</w>":11342,"ces":11343,"ceable</w>":11344,"celon":11345,"ceos</w>":11346,"infective</w>":11347,"geo</w>":11348,"gelman</w>":11349,"gesture</w>":11350,"worded</w>":11351,"worries</w>":11352,"worldome":11353,"goals</w>":11354,"gott":11355,"lube</w>":11356,"luci":11357,"lular</w>":11358,"coronal</w>":11359,"keen</w>":11360,"mmn</w>":11361,"mmen</w>":11362,"dual</w>":11363,"dumb":11364,"duties</w>":11365,"coronaviri":11366,"tert</w>":11367,"tery</w>":11368,"terly</w>":11369,"termed</w>":11370,"terry</w>":11371,"ird</w>":11372,"irb</w>":11373,"irre":11374,"iris</w>":11375,"irrelevant</w>":11376,"renthu":11377,"rentine</w>":11378,"205":11379,"20c</w>":11380,"2078</w>":11381,"boy":11382,"boil":11383,"bold</w>":11384,"boil</w>":11385,"boils</w>":11386,"bothered</w>":11387,"bowl</w>":11388,"bovine</w>":11389,"ssional</w>":11390,"stie</w>":11391,"sticking</w>":11392,"faced</w>":11393,"cue</w>":11394,"cuo</w>":11395,"cues</w>":11396,"cumb":11397,"cups</w>":11398,"cushi":11399,"cuba</w>":11400,"cusi</w>":11401,"curious</w>":11402,"cuvette</w>":11403,"cutoff</w>":11404,"pause</w>":11405,"pathways</w>":11406,"surge</w>":11407,"surround</w>":11408,"pupi":11409,"pulled</w>":11410,"pushed</w>":11411,"pumps</w>":11412,"gic</w>":11413,"giari":11414,"gift</w>":11415,"mulates</w>":11416,"muscu":11417,"parking</w>":11418,"parole</w>":11419,"parliamen":11420,"parsimon":11421,"oundless</w>":11422,"ram</w>":11423,"rain</w>":11424,"rami":11425,"rays</w>":11426,"ramp</w>":11427,"mble</w>":11428,"mbabwe</w>":11429,"cous</w>":11430,"couver</w>":11431,"coull</w>":11432,"his":11433,"hio</w>":11434,"hip</w>":11435,"hist</w>":11436,"histo":11437,"hierarchi":11438,"genous</w>":11439,"genitals</w>":11440,"compute</w>":11441,"compul":11442,"complying</w>":11443,"compiled</w>":11444,"compounding</w>":11445,"compass</w>":11446,"compassion</w>":11447,"affin":11448,"sci</w>":11449,"scali":11450,"scaling</w>":11451,"scrapped</w>":11452,"symbo":11453,"contours</w>":11454,"mono":11455,"monoc":11456,"ingness</w>":11457,"ingconditions</w>":11458,"guous</w>":11459,"guest</w>":11460,"guards</w>":11461,"gucht</w>":11462,"guangd":11463,"county</w>":11464,"counters</w>":11465,"daeg":11466,"davis</w>":11467,"david</w>":11468,"wired</w>":11469,"wives</w>":11470,"wiping</w>":11471,"wisely</w>":11472,"wiped</w>":11473,"width</w>":11474,"incite</w>":11475,"command</w>":11476,"commute</w>":11477,"commerci":11478,"commuting</w>":11479,"esis</w>":11480,"ester</w>":11481,"essays</w>":11482,"esri</w>":11483,"entirety</w>":11484,"pl2pro</w>":11485,"trap</w>":11486,"traits</w>":11487,"mini</w>":11488,"minds</w>":11489,"minus</w>":11490,"minster</w>":11491,"mineral</w>":11492,"thold</w>":11493,"thored</w>":11494,"thomas</w>":11495,"outgoing</w>":11496,"outright</w>":11497,"outward</w>":11498,"outdoors</w>":11499,"outlining</w>":11500,"outweigh</w>":11501,"forum</w>":11502,"forbearance</w>":11503,"impris":11504,"implan":11505,"implicitly</w>":11506,"impedi":11507,"impacted</w>":11508,"yeah</w>":11509,"yellow":11510,"rison</w>":11511,"llo</w>":11512,"lli</w>":11513,"cants</w>":11514,"canned</w>":11515,"medicare</w>":11516,"wastage</w>":11517,"dises":11518,"jumping</w>":11519,"serum</w>":11520,"serbia</w>":11521,"seroprevalence</w>":11522,"ourg</w>":11523,"nuis":11524,"numeri":11525,"diffusion</w>":11526,"fared</w>":11527,"favo":11528,"fun</w>":11529,"fuel":11530,"fuller</w>":11531,"mark":11532,"markel</w>":11533,"efs</w>":11534,"fect</w>":11535,"derstanding</w>":11536,"derbil":11537,"dergardens</w>":11538,"gry</w>":11539,"gray</w>":11540,"groundless</w>":11541,"trig":11542,"trick</w>":11543,"trick":11544,"tribal</w>":11545,"triphosphate</w>":11546,"trivial</w>":11547,"avenue</w>":11548,"lination</w>":11549,"linens</w>":11550,"linkage</w>":11551,"steine</w>":11552,"steph":11553,"steering</w>":11554,"curb</w>":11555,"recru":11556,"recent":11557,"recitation</w>":11558,"recreation</w>":11559,"lowers</w>":11560,"lowdown</w>":11561,"tender</w>":11562,"tenance</w>":11563,"tenure</w>":11564,"teness</w>":11565,"tentative</w>":11566,"tendency</w>":11567,"finavir</w>":11568,"finish</w>":11569,"finnish</w>":11570,"stairs</w>":11571,"stamping</w>":11572,"stadiums</w>":11573,"huanan</w>":11574,"ela</w>":11575,"eler":11576,"elding</w>":11577,"elders</w>":11578,"elastic</w>":11579,"elancers</w>":11580,"ellular</w>":11581,"alian</w>":11582,"alizing</w>":11583,"alitis</w>":11584,"piis":11585,"pick":11586,"sening</w>":11587,"sened</w>":11588,"sentin":11589,"sentence</w>":11590,"transgre":11591,"transmits</w>":11592,"transmissions</w>":11593,"someday</w>":11594,"priori</w>":11595,"betting</w>":11596,"nabe</w>":11597,"nail</w>":11598,"nails</w>":11599,"nauru</w>":11600,"nazi</w>":11601,"gastri":11602,"gaming</w>":11603,"gained</w>":11604,"gathered</w>":11605,"gamma":11606,"unidentifi":11607,"publici":11608,"publishing</w>":11609,"intercep":11610,"interference</w>":11611,"interbank</w>":11612,"interrupt</w>":11613,"internationally</w>":11614,"intercontinental</w>":11615,"possibilities</w>":11616,"eviden":11617,"evictions</w>":11618,"quickest</w>":11619,"seldom</w>":11620,"merkel</w>":11621,"strip</w>":11622,"strial</w>":11623,"phleg":11624,"www2</w>":11625,"millen":11626,"haneda</w>":11627,"sinks</w>":11628,"readings</w>":11629,"laring</w>":11630,"larity</w>":11631,"master</w>":11632,"ducks</w>":11633,"vernon</w>":11634,"funded</w>":11635,"audi":11636,"auctions</w>":11637,"ausgeno":11638,"authored</w>":11639,"dislo":11640,"disallowing</w>":11641,"disregard</w>":11642,"dissolved</w>":11643,"discos</w>":11644,"tret</w>":11645,"governing</w>":11646,"governance</w>":11647,"governors</w>":11648,"withdra":11649,"withdrew</w>":11650,"big":11651,"bie</w>":11652,"bition</w>":11653,"bias</w>":11654,"biases</w>":11655,"bicycle</w>":11656,"bipap</w>":11657,"examine</w>":11658,"iser</w>":11659,"iswab":11660,"orie</w>":11661,"oria</w>":11662,"orities</w>":11663,"two":11664,"declining</w>":11665,"deceler":11666,"generously</w>":11667,"approving</w>":11668,"approves</w>":11669,"approaching</w>":11670,"airplanes</w>":11671,"airflow</w>":11672,"airbn":11673,"ment":11674,"mentary</w>":11675,"drove</w>":11676,"cleans":11677,"clearance</w>":11678,"cleaners</w>":11679,"apping</w>":11680,"appendi":11681,"fox</w>":11682,"focation</w>":11683,"foster</w>":11684,"fomites</w>":11685,"fomite</w>":11686,"effected</w>":11687,"chancell":11688,"cd4</w>":11689,"cd14":11690,"stopo":11691,"stocking</w>":11692,"stral</w>":11693,"stray</w>":11694,"straps</w>":11695,"virsuses</w>":11696,"vacu":11697,"vacancies</w>":11698,"pene":11699,"peng</w>":11700,"active":11701,"activator</w>":11702,"flix</w>":11703,"flies</w>":11704,"flier</w>":11705,"flixbus</w>":11706,"antibacterial</w>":11707,"antimalarial</w>":11708,"antipyre":11709,"responders</w>":11710,"washable</w>":11711,"washio</w>":11712,"pantry</w>":11713,"protects</w>":11714,"protections</w>":11715,"seegene</w>":11716,"obtain":11717,"obsole":11718,"obstac":11719,"shock</w>":11720,"relates</w>":11721,"measurable</w>":11722,"durability</w>":11723,"sect</w>":11724,"sectors</w>":11725,"trump":11726,"truth</w>":11727,"trusted</w>":11728,"alls</w>":11729,"thinks</w>":11730,"modeled</w>":11731,"loop</w>":11732,"areema</w>":11733,"underline</w>":11734,"underwater</w>":11735,"underdiagnosed</w>":11736,"underreacting</w>":11737,"undervalued</w>":11738,"green":11739,"consisting</w>":11740,"regulates</w>":11741,"regulatesexternal</w>":11742,"contrary</w>":11743,"contractual</w>":11744,"stricter</w>":11745,"substance</w>":11746,"submitted</w>":11747,"subtotal</w>":11748,"substack</w>":11749,"mann</w>":11750,"manages</w>":11751,"mandated</w>":11752,"engaged</w>":11753,"engagement</w>":11754,"wheat</w>":11755,"wheel</w>":11756,"centric</w>":11757,"populac":11758,"popularity</w>":11759,"ecology</w>":11760,"employ</w>":11761,"employing</w>":11762,"dependence</w>":11763,"dependents</w>":11764,"folks</w>":11765,"folded</w>":11766,"specifics</w>":11767,"specifications</w>":11768,"directs</w>":11769,"rank</w>":11770,"ranks</w>":11771,"ranges</w>":11772,"ranee</w>":11773,"touted</w>":11774,"touches</w>":11775,"restricts</w>":11776,"nile</w>":11777,"niig":11778,"night":11779,"searched</w>":11780,"searches</w>":11781,"cart</w>":11782,"carlo</w>":11783,"freelancers</w>":11784,"mats</w>":11785,"temp3</w>":11786,"cancels</w>":11787,"quarrentine</w>":11788,"geria</w>":11789,"gerator</w>":11790,"germans</w>":11791,"starters</w>":11792,"applicant</w>":11793,"applicants</w>":11794,"processor</w>":11795,"boots</w>":11796,"boosting</w>":11797,"epicenter</w>":11798,"overbooking</w>":11799,"overdra":11800,"overlap</w>":11801,"oversight</w>":11802,"overloaded</w>":11803,"overdispersion</w>":11804,"overcrowding</w>":11805,"overarching</w>":11806,"workings</w>":11807,"workforce</w>":11808,"additive</w>":11809,"partial</w>":11810,"vox</w>":11811,"voter</w>":11812,"uphold</w>":11813,"upshot</w>":11814,"upstream</w>":11815,"updating</w>":11816,"uploads</w>":11817,"suggestion</w>":11818,"bands</w>":11819,"bandan":11820,"smalle":11821,"strust</w>":11822,"isolates</w>":11823,"isopropy":11824,"earned</w>":11825,"earthqua":11826,"necessi":11827,"servicing</w>":11828,"005":11829,"00pm</w>":11830,"0060":11831,"allowance</w>":11832,"strations</w>":11833,"norberg</w>":11834,"imho</w>":11835,"researching</w>":11836,"payer</w>":11837,"paycheck</w>":11838,"check":11839,"checker</w>":11840,"scholar</w>":11841,"scholars</w>":11842,"continent</w>":11843,"continuation</w>":11844,"ssis</w>":11845,"ssory</w>":11846,"crew":11847,"credits</w>":11848,"causal</w>":11849,"cautious</w>":11850,"compleate</w>":11851,"complement</w>":11852,"completeness</w>":11853,"globul":11854,"mitories</w>":11855,"miterlimit</w>":11856,"cross":11857,"crossed</w>":11858,"croatia</w>":11859,"maintenance</w>":11860,"problematic</w>":11861,"pacificu":11862,"neutering</w>":11863,"thermometers</w>":11864,"spreadsheet</w>":11865,"2006":11866,"200m</w>":11867,"nyregion</w>":11868,"rita</w>":11869,"achy</w>":11870,"easter</w>":11871,"extensions</w>":11872,"warfare</w>":11873,"warzene":11874,"contraction</w>":11875,"blown</w>":11876,"biotechnology</w>":11877,"particulate</w>":11878,"clinics</w>":11879,"clinicians</w>":11880,"amous</w>":11881,"dends</w>":11882,"dengue</w>":11883,"hardy</w>":11884,"harry</w>":11885,"hardly</w>":11886,"harbor</w>":11887,"harrison</w>":11888,"195</w>":11889,"1980</w>":11890,"jog</w>":11891,"statutory</w>":11892,"defining</w>":11893,"samplers</w>":11894,"sampler</w>":11895,"sterilize</w>":11896,"learns</w>":11897,"clorox</w>":11898,"landing</w>":11899,"laninf</w>":11900,"venture</w>":11901,"healthier</w>":11902,"confirms</w>":11903,"potentials</w>":11904,"humani":11905,"eurosurveillance</w>":11906,"chose</w>":11907,"choir</w>":11908,"eichenbau":11909,"brant</w>":11910,"brings</w>":11911,"brought</w>":11912,"brace</w>":11913,"bracket</w>":11914,"supplier</w>":11915,"concert</w>":11916,"supports</w>":11917,"supporters</w>":11918,"filer</w>":11919,"filtration</w>":11920,"colorad":11921,"colloidal</w>":11922,"soluble</w>":11923,"distributions</w>":11924,"distributors</w>":11925,"drunk</w>":11926,"aboard</w>":11927,"bao</w>":11928,"bait</w>":11929,"baking</w>":11930,"bayes</w>":11931,"chan</w>":11932,"chamber</w>":11933,"chaff</w>":11934,"residential</w>":11935,"residency</w>":11936,"leaf</w>":11937,"leaked</w>":11938,"appetite</w>":11939,"travels</w>":11940,"physics</w>":11941,"organise</w>":11942,"organized</w>":11943,"organisations</w>":11944,"organizers</w>":11945,"experiment</w>":11946,"circa</w>":11947,"predicts</w>":11948,"globalgiving</w>":11949,"bending</w>":11950,"benjam":11951,"charity</w>":11952,"charles</w>":11953,"chartered</w>":11954,"charitynavigator</w>":11955,"halting</w>":11956,"operator</w>":11957,"operators</w>":11958,"multicity</w>":11959,"brookings</w>":11960,"criti":11961,"critics</w>":11962,"fractions</w>":11963,"fractional</w>":11964,"diagnose</w>":11965,"diagram</w>":11966,"ferring</w>":11967,"intentions</w>":11968,"regimens</w>":11969,"suffocation</w>":11970,"catches</w>":11971,"spoke</w>":11972,"fulfill</w>":11973,
[...]
